#version: 0.2
Ð ¾
Ð ¸
Ð µ
Ð ½
Ð °
Ñ Ĥ
Ñ ģ
Ð¾ Ð
Ġ Ð
Ñ Ģ
Ðµ Ð
Ð° Ð
Ñ ĥ
Ð¸ Ð
Ñģ ÑĤ
Ñ ı
Ñ ĭ
Ðµ Ð½
Ð »
ĠÐ ¿
Ñ ħ
Ð º
Ð ²
Ð¾Ð ²
Ġ Ð¸
Ñ Į
Ð° Ð½
Ñ ĩ
Ñ Ĩ
Ġ Ñģ
Ðµ ÑĢ
Ð½ Ð¾Ð
Ð½ Ñĭ
ĠÐ ²
ÐµÐ ´
ÑĢ Ð°Ð
Ð ¼
Ð¸ Ñı
Ð¾ ÑĢ
č Ċ
» ÑĮ
³ Ð¾
ÑĨ Ð¸
ÑģÑĤ Ð²
ĠÐ¿ ÑĢ
Ð ¿
Ġ Ð½
Ñģ Ðº
Ð¾ ÑĤ
Ñ İ
Ð ´
Ð½Ñĭ Ñħ
ÑĤ ÐµÐ
Ð¸Ð ¹
Ñ Ħ
Ġ Ð¾Ð
ĠÐ ´
Ð° ÑĨÐ¸
Ð¾Ð ´
Ð¾ ÑģÑĤ
Ðµ ÑĤ
Ð¾ Ð½
Ð¾ Ñģ
Ñ ī
Ġ ÑĢ
Ð¾Ð ¼
ÐµÐ º
ĠÐ º
ÐµÐ½ Ð¸Ñı
Ġ ÑĤ
Ð¸ Ðµ
ĠÐ¾Ð ±
Ð°Ð »ÑĮ
Ð° ÑĤ
Ð½Ð¾Ð ³Ð¾
Ð¾Ð ¹
Ð¾Ð »
Ð°ÑĨÐ¸ Ð¸
Ð¸Ð ·
Ġ Ñĥ
ĠÐ½ Ð°
ÐµÐ ¼
ÐµÐ´ ÐµÑĢ
ĠÐ¸ Ð½
Ð¾Ð ³
ĠÐ ¼
ĠÐ ·
ÐµÐº ÑĤ
Ð ³
Ð°Ð º
Ð¸ Ð¸
Ñģ Ð¿
Ð¾Ð² Ð°Ð½
Ð¸ ÑĤ
Ð¸Ð ¼
Ð¸ Ñĩ
Ġ ÑĢÐ°Ð
Ð½Ð¾Ð ¹
ÑĤÐµÐ »ÑĮ
ÑģÐº Ð¾Ð¹
Ñ Ī
Ð¸ Ð½
ĠÐ ¤
Ð ±
Ð ¶
ÑĢÐ°Ð ²
ĠÐ¤ ÐµÐ´ÐµÑĢ
ÐµÐ ¹
Ð°Ð »
Ġ Ð¾ÑĤ
Ð» Ñı
Ð¾Ñģ Ñģ
ÑĤÐµÐ »
ÑģÑĤÐ² ÐµÐ½
ĠÐ ł
Ġ ÑĦ
Ñ į
Ð¸ Ñħ
Ð¾ÑģÑģ Ð¸Ð¹
ÐµÐ½ Ð¸Ðµ
Ð° ÑģÑĤ
ĠÐ Ł
Ð ·
2 0
Ð¾ÑĢ Ð¼
ĠÐ ³
Ġ (
Ð¸Ñĩ Ðµ
Ð¸Ð º
Ð½ Ð¾ÑģÑĤ
Ð°Ð ²
Ð¾ÑģÑģÐ¸Ð¹ ÑģÐºÐ¾Ð¹
Ð° ÑĢ
Ġ Ñį
ĠÑĢÐ°Ð ·
ÐµÐ½ ÑĤ
Ð½Ð¾Ð ¼
ĠÐ¤ÐµÐ´ÐµÑĢ Ð°ÑĨÐ¸Ð¸
Ð°Ð ·
ĠÐł Ð¾ÑģÑģÐ¸Ð¹ÑģÐºÐ¾Ð¹
Ðµ Ñħ
ÐµÐ »
Ð½ Ð¾
Ð¸Ð »
ĠÐ¿ÑĢ ÐµÐ´
ĠÐ ±
Ð¾Ð º
Ġ 1
Ñģ Ñı
Ð¾ÑĢ Ð³
Ñģ Ð»
Ð¸ ÑĢ
Ð¸Ð ²
ĠÐ¿ÑĢ Ð¾
Ð°Ð ¼
Ð¾ÑĢÐ³ Ð°Ð½
Ñĥ Ñĩ
Ñİ Ñī
Ð¸ÑĩÐµ ÑģÐº
Ð½Ñĭ Ð¼
Ġ Ð¾ÑĢÐ³Ð°Ð½
Ð¾Ð ³Ð¾
Ð» ÐµÐºÑĤ
Ñĥ Ð½
Ð¸Ð ´
Ð¸ ÑĤÐµÐ»ÑĮ
ÑĦ Ð¾ÑĢÐ¼
Ñĥ Ñģ
ĠÐ¿ Ð¾
Ð¾Ð ±
Ð¸ ÑģÑĤ
Ġ Ñĩ
Ñĥ Ð±
ĠÑĢ Ðµ
Ð½Ñĭ Ðµ
Ð¾Ð ·
Ġ ÑģÑĤ
Ð¾Ð ¿
Ð» ÐµÐ½
ĠÐ¸Ð½ ÑĦÐ¾ÑĢÐ¼
Ð° Ñģ
Ð°ÑģÑĤ Ð¸
Ð°ÑĨÐ¸ Ð¾Ð½
ÑĢ Ð°Ð½
Ð½Ð¾Ð »
ĠÑĤ ÐµÑħ
Ñĭ Ñħ
± Ð¾ÑĤ
ĠÐ¿ ÐµÑĢ
Ñĥ Ð´
ÐµÐ ·
Ð½Ð¾Ð» Ð¾Ð³
Ðµ Ñĩ
Ð½Ð¾ÑģÑĤ Ð¸
ÑģÑĤÐ² Ð°
Ð° Ñı
Ġ -
Ð¾Ð²Ð°Ð½ Ð¸Ñı
Ð» ÐµÐ½Ð¸Ñı
ÑĢ ÐµÐ´
ĠÑģ Ð¾
Ð ¹
ÑĢÐ°Ð ¼
ĠÐ¸ ÑģÐº
ĠÑģ ÑĥÐ±
ĠÑĤÐµÑħ Ð½Ð¾Ð»Ð¾Ð³
Ġ Ð¾Ñģ
Ð°Ð»ÑĮ Ð½ÑĭÑħ
ĠÐ· Ð°Ðº
ÑĤÐµÐ» Ð»ÐµÐºÑĤ
ĠÐ¸Ð½ ÑĤÐµÐ»Ð»ÐµÐºÑĤ
ÑģÑĤÐ²ÐµÐ½ Ð½Ð¾Ð³Ð¾
Ð°Ð½ Ð½ÑĭÑħ
Ġ "
Ðº Ð¸
Ġ 2
Ð° ÑĨ
ĠÐ´ Ð»Ñı
Ðº ÑĤ
Ð» Ð°ÑģÑĤÐ¸
Ġ Ð¾
ĠÐ¿ Ð¾Ð»
Ð°Ð ¿
ĠÐ¸ ÑģÐ¿
ÑĢÐ°Ð¼ Ð¼
Ð¾Ð³ ÑĢÐ°Ð¼Ð¼
ĠÐ½ Ðµ
Ð¾ Ñı
Ð°Ð»ÑĮ Ð½Ð¾Ð³Ð¾
ĠÐ¸ÑģÐº ÑĥÑģ
Ð¾ÑģÑĤ Ð°Ð²
ĠÑį Ðº
Ġ 20
Ð°Ð ´
Ð¾Ð »ÑĮ
ĠÐ¿ Ð¾Ð´
Ñĥ ÑĢ
ÑĢÐ°Ð ±Ð¾ÑĤ
ĠÐ¾Ð ¿
Ð° Ñĩ
Ð¾Ð ¶
Ñī Ðµ
ĠÐ¸Ð½ÑĤÐµÐ»Ð»ÐµÐºÑĤ Ð°
ĠÐ¸ÑģÐºÑĥÑģ ÑģÑĤÐ²ÐµÐ½Ð½Ð¾Ð³Ð¾
ĠÐ² Ñĭ
Ð¸Ð» Ð¸
ĠÐ »
Ð°Ð½ Ð¾Ð²
ÐµÐ ³Ð¾
Ð°ÑĤ ÑĮ
ÑĢ Ð°
ĠÐŁ ÑĢÐ°Ð²
Ð¸Ð· Ð°ÑĨÐ¸Ð¸
Ñĥ Ð»
Ð¾Ð» Ð½
ÑĢ Ñĥ
ÐµÐ ¶
Ð¸ Ñİ
Ð² Ð¸ÑĤ
Ñ Ĭ
ĠÐ³ Ð¾Ð´
â Ħ
âĦ ĸ
Ġ âĦĸ
Ð¾ Ñĩ
ĠÐ´ Ð°Ð½Ð½ÑĭÑħ
Ġ ÑĨ
Ð½Ñĭ Ð¹
ÑĥÐ´ Ð°ÑĢ
Ð» Ñİ
Ð° ÑĤÐµÐ»ÑĮ
ĠÑĦ ÐµÐ´ÐµÑĢ
³Ð¾ Ñģ
Ð° ÑĤÐµÐ»
Ñı Ð·
ĠÐº Ð¾Ð¼
ĠÑĢÐ°Ð· Ð²Ð¸ÑĤ
ÐµÑĢ Ð¶
Ð² ÐµÑĤ
Ð¾Ñı Ñī
Ð¸ÑģÑĤ ÐµÐ¼
Ðµ ÑģÐ¿
Ð¾ Ð½Ð¾Ð¼
³Ð¾Ñģ ÑĥÐ´Ð°ÑĢ
ĠÐ½Ð° ÑģÑĤ
Ð°Ð¼ Ð¸
ĠÐ ³Ð¾ÑģÑĥÐ´Ð°ÑĢ
ÐµÑģÐ¿ ÐµÑĩ
ÑĢ Ð¾Ð²
Ñģ Ð¾Ð²
Ðº Ð°
ĠÐ½Ð°ÑģÑĤ Ð¾ÑıÑī
ĠÑģ Ð¸ÑģÑĤÐµÐ¼
Ñģ Ð¸Ð´
ĠÑĤÐµÑħÐ½Ð¾Ð»Ð¾Ð³ Ð¸Ð¹
ĠÐº Ð¾Ð½
Ð¸ ÐµÐ¼
Ñħ Ð¾Ð´
Ð¸ ÑĨ
ĠÑĤ Ð°Ðº
ĠÑģÑĥÐ± ÑģÐ¸Ð´
Ñİ ÑĤ
ĠÐŁ ÑĢ
ÑĨÐ¸ Ð¸
ĠÐ¸Ð½ÑĦÐ¾ÑĢÐ¼ Ð°ÑĨÐ¸Ð¾Ð½
ĠÐ¿Ð¾Ð» ÑĥÑĩ
Ð¸ ÑģÐ»
ĠÑģ Ð²
Ðº Ð°Ð·
Ð»Ñİ Ñĩ
ÑĥÐ½ ÐºÑĤ
ÐµÑĤ ÑģÑı
ĠÐ¿ÑĢÐ¾ ÐµÐºÑĤ
ĠÐ¾Ð± Ð»Ð°ÑģÑĤÐ¸
Ð´ Ð°Ð½
Ñģ Ð¾Ð½
ĠÐ¿ÑĢÐµÐ´ Ð¾ÑģÑĤÐ°Ð²
Ð¾ÑĤ Ð²ÐµÑĤ
ÑīÐµ ÑģÑĤÐ²
ĠÐ¿ÐµÑĢ ÑģÐ¾Ð½
Ð¾Ð»ÑĮ Ð·
ĠÐ¾Ð± ÐµÑģÐ¿ÐµÑĩ
ÐµÐ ²
Ð ĺ
Ñĥ ÑİÑī
ĠÐ· Ð°
ĠÑģ Ð»
Ð¾ÑĤÐ²ÐµÑĤ ÑģÑĤÐ²
Ðµ Ñģ
ĠÑĢÐµ Ð°Ð»
Ðµ Ðµ
ĠÑģÑĥÐ±ÑģÐ¸Ð´ Ð¸Ð¸
ĠÑģÐ¾ Ð¾ÑĤÐ²ÐµÑĤÑģÑĤÐ²
Ġ Ð¸Ð·
ĠÐ´ Ð¾ÑģÑĤ
Ñĥ Ð¿
Ñĥ ÑīÐµÑģÑĤÐ²
Ð¾ÑĤ Ð¾ÑĢ
ÐµÐ ³
ÐµÐ ±
ÐµÐ½ Ð¸Ð¹
Ð½ Ð¸Ðº
ĠÐ¿ÐµÑĢÑģÐ¾Ð½ Ð°Ð»ÑĮÐ½ÑĭÑħ
ĠÐŁÑĢÐ°Ð² Ð¸ÑĤÐµÐ»ÑĮ
ĠÐ¿ ÑĢÐ°Ð²
ÑĢÐ°Ð ·
Ġ Ð¸Ð»Ð¸
ĠÐº Ð¾ÑĤÐ¾ÑĢ
ĠÑĥ ÑģÑĤ
ÑĥÐ» ÑĮ
Ð¸ÑĢ Ð¾Ð²Ð°Ð½
ÑĤ ÐµÑĢ
Ñİ Ð´
ĠÑĢÐ°Ð·Ð²Ð¸ÑĤ Ð¸Ñı
Ð½Ð¾ÑģÑĤ ÑĮ
ÑĥÐ»ÑĮ ÑĤ
Ð½ÑĭÐ¼ Ð¸
Ġ Ð°
ÑĬ ÐµÐºÑĤ
ĠÐ¿ÑĢ Ð¸
ĠÑģ ÑĢÐµÐ´
Ð¶ ÐµÑĤ
ÑİÐ´ Ð¶ÐµÑĤ
ĠÐ¸ÑģÐ¿ Ð¾Ð»ÑĮÐ·
Ð¾ÑĤ ÑĢ
ĠÑĩ Ð¸ÑģÐ»
ĠÐ¾Ñģ ÑĥÑīÐµÑģÑĤÐ²
ĠÑĥ Ñĩ
ĠÐ³Ð¾ÑģÑĥÐ´Ð°ÑĢ ÑģÑĤÐ²ÐµÐ½
ĠÐ¾ÑĢÐ³Ð°Ð½ Ð¸Ð·
Ġ 3
Ð° Ñħ
Ð¾Ð³ÑĢÐ°Ð¼Ð¼ Ñĭ
Ð ¡
ĠÑĥ ÐºÐ°Ð·
ĠÑĤ ÑĢ
ĠÐ¿ ÑĥÐ½ÐºÑĤ
ĠÐºÐ¾Ð¼ Ð¿
ÐµÐ½ Ð½ÑĭÑħ
Ð° ÑİÑī
Ð½ Ð¾Ð²
Ð Ĵ
ĠÐ ¡
Ðµ ÑģÑĤ
Ð¸ Ñģ
ĠÐ·Ð°Ðº Ð¾Ð½
Ð¸ÑĩÐµÑģÐº Ð¸Ñħ
ĠÑĨ ÐµÐ»
Ð ŀ
Ġ Ġ
ĠÑĤ Ð¾Ð¼
Ð ¤
ÐµÐ½ Ð¸Ð¸
ĠÑĩÐ¸ÑģÐ» Ðµ
Ð°ÑĨ Ð¸Ñı
ĠÑĢ ÐµÐ·
Ñı Ð´
ÑĥÐ»ÑĮÑĤ Ð°ÑĤ
Ð¾Ð² Ñĭ
Ð¾Ð· Ð´Ð°Ð½
Ð¼ Ð¸
Ð¸ÑĩÐµÑģÐº Ð¾Ð³Ð¾
Ð¶ Ðµ
ĠÑĢÐµÐ°Ð» Ð¸Ð·Ð°ÑĨÐ¸Ð¸
ĠÐ¸Ð½ÑĦÐ¾ÑĢÐ¼ Ð°ÑĨÐ¸Ð¸
Ð¸ÑĤ ÑĮ
Ð¸Ð½ Ð³
Ð°ÑĤ Ð¾ÑĢ
ĠÑĢÐµÐ· ÑĥÐ»ÑĮÑĤÐ°ÑĤ
Ð°Ð½Ð¾Ð² Ð»ÐµÐ½
ĠÐ ľ
ĠÑįÐº ÑģÐ¿
ĠÑįÐº Ð¾Ð½Ð¾Ð¼
Ð°Ð¿ ÑĢÐ°Ð²
ĠÐ± ÑİÐ´Ð¶ÐµÑĤ
ÑİÑĤ ÑģÑı
ÑĪ ÐµÐ½Ð¸Ñı
ÑĤ Ð¾Ð²
Ð¿ ÑĢ
ÑģÑĤÐ² Ð¾
ĠÑĦ Ð¾ÑĢÐ¼
ĠÐ ļ
ĠÑĤÐ°Ðº Ð¶Ðµ
Ð½Ð¾ Ðµ
Ñĥ Ñİ
ĠÐ¿ÑĢ Ð¾Ð²
Ð°ÑĨ Ð¸Ð¹
ÑĤ ÑĢ
ĠÐŁÑĢÐ°Ð²Ð¸ÑĤÐµÐ»ÑĮ ÑģÑĤÐ²Ð°
ĠÐ¾ÑģÑĥÑīÐµÑģÑĤÐ² Ð»Ñı
Ð» ÐµÐ½Ð¸Ðµ
ĠÐ» Ð¸ÑĨ
Ð¸ÑĢ Ð¾Ð²Ð°Ð½Ð¸Ñı
Ñĥ Ð¼
Ñı Ð²
Ð»ÐµÐºÑĤ ÑĢ
Ð°Ð»ÑĮ Ð½Ð¾Ð¹
ÐµÐ½ Ð¸Ñİ
Ð¾Ð»Ð½ Ð¸ÑĤÐµÐ»ÑĮ
ĠÐ¿ÑĢÐ¾ ÑĨ
Ð¸ ÑĨÐ¸
Ð¾Ð¿ ÑĢ
Ð¸Ð· Ð²
ĠÑĢÐ°Ð· ÑĢÐ°Ð±Ð¾ÑĤ
Ð¼ Ð¾ÑĤÑĢ
Ð½ Ð°Ñĩ
ÑĦ ÐµÑĢ
Ð¾ÑĢ ÑıÐ´
ĠÐŁÑĢ Ð¾Ð³ÑĢÐ°Ð¼Ð¼Ñĭ
_ _
ÐµÐ½ÑĤ Ð¾Ð²
Ñĭ ÑĤ
ĠÑģÑĥÐ± ÑĬÐµÐºÑĤ
ÑģÑĤÐ² Ð¾Ð¼
ĠÑģÑĢÐµÐ´ ÑģÑĤÐ²
ĠÑĥ ÑģÐ»
Ð¸Ð ¶
ĠÐ½ Ð°Ð¿ÑĢÐ°Ð²
Ġ20 1
ÑĤÐµÐ ³
ÑĤ Ð°
Ð¾Ð³ Ð»
Ð Ĺ
ĠÐ¿ÑĢÐµÐ´Ð¾ÑģÑĤÐ°Ð² Ð»ÐµÐ½Ð¸Ñı
20 1
Ð¾ Ðµ
ĠÐ¿ÑĢÐµÐ´ ÑĥÑģ
ĠÑģÑĤ Ð°ÑĤÑĮ
Ñĩ ÐµÑĤ
ĠÑĢ ÐµÐ³
Ð Ł
Ð½ Ð°Ñı
ĠÑĥÐºÐ°Ð· Ð°Ð½
ĠÐ¾Ð± ÑĢÐ°Ð·
20 2
ĠÑģÐ¾Ð¾ÑĤÐ²ÐµÑĤÑģÑĤÐ² Ð¸Ð¸
ĠÐ² Ð½
ĠÐ¼ ÐµÑĢ
Ð´ ÐµÑĢÐ¶
Ðº Ðµ
ĠÐ¿ÑĢ Ð¾Ð³ÑĢÐ°Ð¼Ð¼
Ð¼ ÐµÑĢ
ĠÐ¿Ð¾Ð»ÑĥÑĩ Ð°ÑĤÐµÐ»
ĠÐ¾Ð¿ ÐµÑĢ
ĠÑĢ ÐµÐ´
Ð°Ð ±
ĠÐ¿ÑĢÐ¾ Ð¸Ð·Ð²
Ð»ÐµÐºÑĤÑĢ Ð¾Ð½
ĠÑģ Ð¿
ĠÑĢ Ð°Ñģ
Ð» ÐµÐº
ÑĢÐµÐ´ ÐµÐ»
ĠÑĥ Ð¿
ĠÑģÐ² ÑıÐ·
ĠÐ´ Ðµ
Ð¸Ðº Ð¸
Ð ł
Ð¾Ð² Ð¾Ð³Ð¾
ĠÑģ ÐµÑĤ
ĠÑģ ÑĦÐµÑĢ
Ð° ÑģÐ¿
ÐµÐ½ Ð¸ÐµÐ¼
ĠÑįÐºÑģÐ¿ ÐµÑĢ
Ð¾Ð² ÑĭÑħ
Ð¸Ð½ Ð°Ð½
Ð¤ ÐĹ
ĠÐ Ĵ
ĠÐ¿Ð¾Ð´ Ð´ÐµÑĢÐ¶
ĠÑģ Ð¾Ð³Ð»
Ñı ÑĤ
ĠÐ² Ð»Ð°ÑģÑĤÐ¸
ĠÑĢÐ°Ð ±Ð¾ÑĤ
Ð¸Ñı ÑĤ
ĠÐ´ Ð¾
Ð°Ðº ÑĤ
ĠÑĤÑĢ ÐµÐ±
ĠÑģ Ð¾Ð·Ð´Ð°Ð½
1 2
ÐµÐ¹ ÑģÑĤÐ²
ĠÐ¿ÑĢÐµÐ´ÑĥÑģ Ð¼Ð¾ÑĤÑĢ
ĠÑį ÑĤ
" ,
Ðº Ð»ÑİÑĩ
Ġ Ñħ
ĠÐ± ÐµÐ·
Ð¸ÑĤ Ð¾ÑĢ
Ð¸Ð² Ð°
ĠÐ¿ Ð¾ÑĢÑıÐ´
Ñĥ ÑĤ
ĠÐ¾Ð± ÑıÐ·
ĠÐ² Ð¾Ð·
ĠÑĦÐµÐ´ÐµÑĢ Ð°Ð»ÑĮ
ĠÑĦÐµÐ´ÐµÑĢ Ð°Ð»ÑĮÐ½Ð¾Ð³Ð¾
ÐµÐ½ÑĤ Ð°
Ġ 0
Ñı ÑĤÐµÐ»ÑĮ
ĠÐ¾Ð± ÑĢÐ°Ð±Ð¾ÑĤ
Ñĭ Ðµ
ĠÑĦ Ð¸Ð½Ð°Ð½
) ,
ÐµÐ »ÑĮ
Ð¾ÑģÑĤ ÑĢÐ°Ð½
ĠÐ¿ÑĢ Ð¾Ð´
Ġ N
Ð¸ Ð¾Ð½
Ġ 5
Ð¸Ð½ Ð¸ÑģÑĤ
ÐµÐ ¿
Ðº ÑĨÐ¸Ð¸
ĠÐ¸ Ñħ
Ð°Ðº ÑĨÐ¸Ð¸
ĠÐ¸ÑģÐ¿ Ð¾Ð»Ð½Ð¸ÑĤÐµÐ»ÑĮ
ÑĢÐ°Ð ´
Ð°ÑĨÐ¸ Ñİ
ĠÐ´Ð¾ÑģÑĤ ÑĥÐ¿
ĠÑĥÑģÑĤ Ð°Ð½Ð¾Ð²Ð»ÐµÐ½
ĠÑĢÐµÐ´ Ð°ÐºÑĨÐ¸Ð¸
ĠÐ¿ Ð¾Ðº
ĠÐ¿ÑĢÐ¾Ð¸Ð·Ð² Ð¾Ð´
ĠÐºÐ¾Ð¼Ð¿ Ð»ÐµÐº
ĠÐ´Ðµ ÑıÑĤÐµÐ»ÑĮ
Ð°Ð½ Ð¸Ñı
ĠÐ½Ð°ÑģÑĤÐ¾ÑıÑī ÐµÐ¹
ĠÐ¾Ñģ Ð½Ð¾Ð²
ĠÐ¾Ð¿ ÑĢÐµÐ´ÐµÐ»
Ð¸Ð ¿
ÑıÐ² Ð»Ñı
ĠÐ ŀ
Ð¾ÑģÑĤ Ð°Ð½Ð¾Ð²
ĠÑģÐµÑĤ Ð¸
Ð± Ð¾ÑĢ
ÑĥÑĢ Ñģ
ĠÐ¿ Ð»
ĠÐ²Ñĭ Ñģ
Ġ 4
Ð½Ð¾Ð¼ Ñĥ
ĠÑģÑĤÐ°ÑĤÑĮ Ð¸
ĠÑģÑĦÐµÑĢ Ðµ
ÑĢÐ°Ð ¶
Ð¸Ð½Ð¸ÑģÑĤ ÐµÑĢ
Ð² ÐµÐ´
ĠÐ¾Ð¿ÐµÑĢ Ð°ÑĤÐ¾ÑĢ
Ġ Ð¸Ð¼
Ġ ÑıÐ²Ð»Ñı
Ñĭ Ð²
ĠÑģÐ» ÑĥÑĩ
ĠÐ¿ÑĢ Ð¸Ð½
ÑģÑĤ Ð°Ð²
Ñı Ñħ
ĠÐ¤ÐµÐ´ÐµÑĢ Ð°Ð»ÑĮ
ÑģÐº Ð¸Ñħ
ĠÐ² ÐºÐ»ÑİÑĩ
ĠÐ· Ð°Ð´
ÑħÐ¾Ð´ Ð¸Ð¼
ĠÐŁÑĢÐ°Ð² Ð¸Ð»
ĠÐ³Ð¾Ð´ Ð°
ĠÐ·Ð°ÐºÐ¾Ð½ Ð°
ÑĢÐ° ÑĤÐµÐ³
Ð¾Ð± ÑħÐ¾Ð´Ð¸Ð¼
ÐµÐ¶ Ð´
1 0
Ð°Ð ¹
Ð¾Ð¿ÑĢ Ð¸ÑıÑĤ
Ð¸ ÑĤÐµÐ»
ĠÐ¤ÐµÐ´ÐµÑĢ Ð°Ð»ÑĮÐ½Ð¾Ð³Ð¾
ĠÐ³Ð¾Ð´ Ñĥ
ĠÐľ Ð¸Ð½Ð¸ÑģÑĤÐµÑĢ
Ð¸ÑĩÐµ ÑģÐºÐ¾Ð¹
ĠÐºÐ¾Ð½ Ðº
ÐµÐºÑĤ Ð¸Ð²
ĠÑĦ ÑĥÐ½
ĠÐ½Ðµ Ð¾Ð±ÑħÐ¾Ð´Ð¸Ð¼
ĠÐ¿Ð¾Ð´Ð´ÐµÑĢÐ¶ ÐºÐ¸
Ð°ÑĤ Ð¸Ð²
ĠÐ½Ð° ÑĥÑĩ
Ð½ Ñı
Ð¼ ÐµÐ½
Ð¼ ÑĥÐ½
Ð¸Ð½Ð³ ÑĢÐ°Ð´
ÐµÐº Ð¾Ð¼
Ð¸Ð½ Ð¸Ð½Ð³ÑĢÐ°Ð´
Ð°Ð» Ð¸Ð½Ð¸Ð½Ð³ÑĢÐ°Ð´
Ð» Ð°Ð´
Ñĭ ÑĪ
ÑĤ Ð²
ĠÑģ Ð¾Ð²
ÑĪ ÐµÐ½Ð¸Ðµ
ĠÑĩ Ð°ÑģÑĤÐ¸
Ðĺ Ð½
ĠÐŁ Ð¾ÑģÑĤÐ°Ð½Ð¾Ð²
ĠÑĥÑģÐ» Ð¾Ð²
ĠÐ´ Ð¾Ðº
ĠÐļ Ð°Ð»Ð¸Ð½Ð¸Ð½Ð³ÑĢÐ°Ð´
Ð¸ ÑĦ
ĠÐ¿ÑĢÐ¾Ð² ÐµÐ´
ĠÐ¸Ð½ÑĦÐ¾ÑĢÐ¼Ð°ÑĨÐ¸Ð¾Ð½ Ð½ÑĭÑħ
ĠÐ¸ÑģÐ¿Ð¾Ð»ÑĮÐ· Ð¾Ð²Ð°Ð½
ĠÑĢ Ð°ÑģÐ¿
ĠÑį Ð»ÐµÐºÑĤÑĢÐ¾Ð½
Ġ1 0
ÑĤÐµÑĢ Ð½
Ð½ ÑĥÑİ
ĠÐ¸ÑģÐ¿Ð¾Ð»Ð½Ð¸ÑĤÐµÐ»ÑĮ Ð½Ð¾Ð¹
ĠÐºÐ¾Ð½ ÑĤÑĢ
Ð¸Ð¼ Ð°
ĠÑģÐ¸ÑģÑĤÐµÐ¼ Ñĭ
ÑĤÐµÑĢÐ½ ÐµÑĤ
ĠÐ¼ Ð°Ñģ
ĠÐ¾Ð±ÐµÑģÐ¿ÐµÑĩ ÐµÐ½Ð¸Ñı
Ð ³Ð¾
ĠÐ· Ð½Ð°Ñĩ
ĠÐ¿ÑĢÐ¾Ð´ Ñĥ
Ð Ŀ
ĠÑĨ ÐµÐ½ÑĤ
Ð°Ð ³
Ð¸Ð¼ Ð¸
Ð¾Ð¿ Ð°Ñģ
ĠÐ¾ÑĢÐ³Ð°Ð½ Ð¸Ð·Ð°ÑĨÐ¸Ð¸
ĠÐ¿ÑĢÐµÐ´ ÑģÑĤÐ°Ð²
Ġ1 5
Ð Ĳ
ĠÑĤ ÐµÑĢ
ĠÐ¼ÐµÑĢ Ð¾Ð¿ÑĢÐ¸ÑıÑĤ
Ð¸Ð¼ ÐµÐ½
ĠÑģÐ²ÑıÐ· Ð¸
Ð¾Ð²Ð°Ð½ Ð¸Ð¹
Ðµ Ñī
ÐµÑĢÐ¶ Ð´
ĠÐ´Ð¾Ðº ÑĥÐ¼
ĠÐ¾Ð± ÑĬ
1 1
ÑĥÐ± Ð»
Ð¾ÑĢ ÑĤ
Ð¼ÑĥÐ½ Ð¸Ðº
Ġ Ð°Ð²
ĠÐ±ÐµÐ· Ð¾Ð¿Ð°Ñģ
ÐµÐ· Ð¸Ð´
Ð¾Ñģ Ð¾Ð±
ÑĤÐ² ÐµÑĢÐ¶Ð´
ĠÐ´ÐµÑıÑĤÐµÐ»ÑĮ Ð½Ð¾ÑģÑĤÐ¸
ĠÐ´Ð¾ÑģÑĤ Ð¸Ð¶
ÐĺÐ½ ÑĤÐµÑĢÐ½ÐµÑĤ
Ð Ķ
ĠĠ ĠĠ
Ðº Ñĥ
ĠÑģ Ð¾ÑģÑĤÐ°Ð²
ĠÑĢ ÐµÐ¶
Ð°Ð· Ð°ÑĤÐµÐ»
Ð° ÐµÐ¼
ĠÐ £
ÑģÐ» ÐµÐ´
ĠÑĥÑĩ Ð°ÑģÑĤ
ĠÑįÐºÑģÐ¿ÐµÑĢ Ð¸Ð¼
ĠÑĦÐ¸Ð½Ð°Ð½ ÑģÐ¾Ð²
Ð½Ð¾Ð ´
ĠÐ± Ð°Ð·
ÐµÐ´ ÑĥÑİÑī
Ð½Ð¾Ð¼ Ð¾Ñĩ
ĠÑģÐ»ÑĥÑĩ Ð°
Ð¾Ð² Ð°ÑĤÐµÐ»ÑĮ
Ð°Ñı Ð²
ĠÐ¼Ð°Ñģ ÑģÐ¾Ð²
) ;
ĠÑįÐºÑģÐ¿ÐµÑĢÐ¸Ð¼ ÐµÐ½ÑĤ
ĠÐ´ Ð¾Ð»
Ġ1 2
ĠÐ¿ÑĢÐ¾ÐµÐºÑĤ Ð°
ĠÐ· Ð°ÑıÐ²
ĠÐ¿ÑĢÐ¾ÐµÐºÑĤ Ð¾Ð²
ĠÐ¿Ð¾Ðº Ð°Ð·Ð°ÑĤÐµÐ»
ĠÐ²Ñĭ Ð¿
ÑĢÑĥ ÐºÑĤ
ĠÐļÐ°Ð»Ð¸Ð½Ð¸Ð½Ð³ÑĢÐ°Ð´ ÑģÐºÐ¾Ð¹
Ð¸Ð ±
ĠÐ·Ð°Ðº Ð¾
Ð½Ð¸Ðº Ð¾Ð²
ĠÐºÐ¾Ð¼Ð¿Ð»ÐµÐº Ñģ
ÑĦ ÑĦ
ĠÐ¸ Ñģ
ĠÐ·Ð°Ð´ Ð°Ñĩ
Ñĥ Ð¶
ĠÑģÐ¾ ÑĨÐ¸
ĠÐ¾ÑĢÐ³Ð°Ð½Ð¸Ð· Ð°ÑĨÐ¸Ð¹
Ð½Ð¾Ð´ Ð°ÑĤÐµÐ»ÑĮ
ĠÑĥ ÑĢÐ¾Ð²
ĠÐ³ ÑĢÐ°Ð½
Ð½ ÐµÐ¹
ÑĤ ÐµÑħ
± Ð¾Ñĩ
ÑģÐ» Ð¸
ĠÐ¾Ð º
ĠÐ¾ÑĤ ÑĩÐµÑĤ
ĠÐ½Ð°ÑģÑĤÐ¾ÑıÑī Ð¸Ñħ
ÑĢÐ°Ð½ Ð¸Ñĩ
ĠÐ·Ð°ÐºÐ¾ Ð½Ð¾Ð´Ð°ÑĤÐµÐ»ÑĮ
Ð ķ
ÑĢ ÐµÐ¼
Ġ ÐµÐ³Ð¾
Ð¾Ð¶ ÐµÐ½Ð¸Ñı
ÑĢÐ°Ð¶ Ð´Ð°Ð½
ĠÑĢÐ°Ð ±Ð¾Ñĩ
ĠÐºÐ¾Ð½ÑĤÑĢ Ð¾Ð»
ĠÑĤÐµÑĢ ÑĢ
ĠÐ´ Ð¾Ð¿
ĠÐ¿ÑĢÐµÐ´ÑĥÑģÐ¼Ð¾ÑĤÑĢ ÐµÐ½
ĠÐ¿ÑĥÐ½ÐºÑĤ Ð¾Ð¼
ÑĢ Ð¾
ĠÑģÐ» ÐµÐ´ÑĥÑİÑī
ĠÐ³ ÑĢÐ°Ð¶Ð´Ð°Ð½
ĠÑĢÐµ Ñģ
ÐºÐ° Ñħ
ÑĭÑĪ Ð»ÐµÐ½
ĠÐ¾ÑĤ Ð±Ð¾ÑĢ
ĠÐ±ÐµÐ·Ð¾Ð¿Ð°Ñģ Ð½Ð¾ÑģÑĤÐ¸
ÑĢ Ð¾Ðº
Ð°ÑİÑī Ð¸Ñħ
ĠÐ¿ÑĢ Ð¸Ð¼ÐµÐ½
ĠÑĤÑĢÐµÐ± Ð¾Ð²Ð°Ð½Ð¸Ñı
ĠÑĢ Ð¾ÑģÑģÐ¸Ð¹
Ġ20 2
ÐµÑģ Ñģ
Ð¾Ð¼ ÑĭÑĪÐ»ÐµÐ½
ÑĪ ÐµÐ½Ð¸Ð¹
ĠÐ¸ÑģÐ¿Ð¾Ð»ÑĮÐ· Ð¾Ð²Ð°Ð½Ð¸Ñı
ĠÐ¿ Ð¾Ñģ
ĠÑģ Ð¾Ð´
ĠÐ¾ÑĢÐ³Ð°Ð½Ð¸Ð· Ð°ÑĨÐ¸Ñı
Ð¾ÑĢ Ð¸ÑĤ
) .
Ð¾ÑĢ Ð¾Ð²
ĠÐ²ÑĭÑģ Ð¾Ðº
Ð½ ÐµÑĢ
ĠÐ¼ Ð¾Ð´
ĠÐ¼ ÐµÐ¶Ð´
Ð¸ÑĢÐ¾Ð²Ð°Ð½ Ð¸Ðµ
ĠÑĨÐµÐ» ÑıÑħ
Ð´ ÐµÐ»
Ð ¢
ĠÑģÐ»ÑĥÑĩÐ° Ðµ
ĠÑĢÐ°Ð· Ð¼ÐµÑĢ
ĠÑĢÐµÐ°Ð» Ð¸Ð·
ÐµÐ¹ÑģÑĤÐ² Ð¸Ñı
ĠÐ¾ÑģÐ½Ð¾Ð² Ðµ
ĠÐ°Ð² ÑĤ
ĠÐ¿ Ð¾Ð·
ĠÑĩ Ð°ÑģÑĤ
ÑĨ ÐµÐ½
ĠÑģÐ¾Ð³Ð» Ð°
ĠÐ·Ð° Ñī
Ð° ÐµÑĤ
ÑĢÑĥ Ð³
Ð¾Ð²Ð°Ð½ Ð¸Ðµ
ĠÐ³Ð¾ÑģÑĥÐ´Ð°ÑĢÑģÑĤÐ²ÐµÐ½ Ð½Ð¾Ð¹
Ð¸Ð· Ð½
Ð°ÑĢ ÑĤ
__ __
Ð¸ÑĢ Ñĥ
ĠÑĢÐ°Ñģ ÑħÐ¾Ð´
ĠÑģ Ð¾Ð±
Ð°ÑĤ ÑĢ
Ġ Ð°ÐºÑĤ
ĠÐ±ÑİÐ´Ð¶ÐµÑĤ Ð°
ĠÐ´ Ð°Ð½
Ð· Ð°
Ð¸ Ð¾Ð´
ĠÐ¿ÑĢÐ¾ÑĨ ÐµÐ½ÑĤÐ¾Ð²
ĠÑĤÐµÑĢÑĢ Ð¸ÑĤÐ¾ÑĢ
ĠÐ¾Ð ³
ĠÐ¿ÑĢ Ð¾Ð¼ÑĭÑĪÐ»ÐµÐ½
ĠÑģÐ¾Ð¾ÑĤÐ²ÐµÑĤÑģÑĤÐ² ÑĥÑİÑī
Ð¾Ð» Ð½Ð¾Ð¼Ð¾Ñĩ
Ð°Ð½ Ð°Ð»
ĠÐ¿ÑĢÐ°Ð² Ð¾Ð²Ð¾Ð³Ð¾
ĠÑĢÐµÐ¶ Ð¸Ð¼Ð°
ĠÐ¾Ð³ ÑĢÐ°Ð½Ð¸Ñĩ
ĠÐ ¶
ĠÐ¿ Ð¾Ð²Ñĭ
ĠÐ· Ð°Ð¿
Ð»ÐµÐ½ Ð¸Ð¸
Ġ2 3
ÑĢÑĥÐºÑĤ ÑĥÑĢ
ÑĦÑĦ ÐµÐºÑĤÐ¸Ð²
ÑĢ Ð¾ÑģÑĤÑĢÐ°Ð½
ÐµÐ½ Ð½Ð¾Ð¹
Ð° Ñī
ĠÑįÐºÑģÐ¿ÐµÑĢÐ¸Ð¼ÐµÐ½ÑĤ Ð°Ð»ÑĮÐ½Ð¾Ð³Ð¾
Ð¸ ÑģÐº
ĠÑĥ ÑĤÐ²ÐµÑĢÐ¶Ð´
ĠÐ·Ð°Ñī Ð¸ÑĤ
Ð³Ð¾ ÑĤÐ¾Ð²
ĠÐ¸Ñģ ÑģÐ»ÐµÐ´
ĠÐ½ Ð°ÑĨÐ¸Ð¾Ð½
Ð ľ
ĠÐ·Ð°Ðº Ð¾Ð½Ð¾Ð¼
ĠÑģÐ¾Ð´ ÐµÑĢÐ¶
Ð¸Ð ³
Ð»Ñı ÐµÑĤ
ÑģÑĤÐ²ÐµÐ½ Ð½ÑĭÑħ
ĠÑģ ÑĢÐ¾Ðº
ĠÐ¾Ð±ÑıÐ· Ð°ÑĤÐµÐ»ÑĮ
ĠÑĢÐ°ÑģÐ¿ ÑĢÐ¾ÑģÑĤÑĢÐ°Ð½
ÑĢÐ°Ð º
Ð¾Ð» ÐµÐµ
Ð¼ ÐµÑī
ĠÑĤ ÑĢÐ°Ð½
ĠÑĥÑĩ ÐµÑĤ
3 0
ÐµÐ´ ÑĢ
ÑĢÐ°Ð² Ð»ÐµÐ½Ð¸Ñı
Ð¾Ð»Ð½Ð¾Ð¼Ð¾Ñĩ ÐµÐ½
ÑĢÐ°ÑĤÐµÐ³ Ð¸Ð¸
ĠÐ¿ÐµÑĢ Ð¸Ð¾Ð´
Ð°Ñĩ Ðµ
ĠÐ¾Ð±ÑĬ ÐµÐ¼
ÑĮ Ñİ
ĠÐ¸Ð· Ð¼ÐµÐ½
ĠÑįÐºÐ¾Ð½Ð¾Ð¼ Ð¸ÑĩÐµÑģÐºÐ¾Ð³Ð¾
ĠÐ²ÑĭÐ¿ Ð¾Ð»Ð½
0 7
ÐµÐ½ Ð´
Ð°ÑĤ ÐµÑĢ
ĠÐ¿Ð¾Ð´ Ð¿
ĠÐ¡ ÑĤ
ĠÑģÐ¾Ð³Ð» Ð°Ñģ
Ġ 7
Ñħ ÑĢÐ°Ð½
ÑĨÐ¸ Ð¾Ð½
ĠÐ¾ÑĤÐ±Ð¾ÑĢ Ð°
ĠÐ¾ÑĢÐ³Ð°Ð½ Ð¾Ð²
ĠÐŁÑĢ ÐµÐ·Ð¸Ð´
ĠÐ¿Ð¾Ð»ÑĥÑĩ ÐµÐ½Ð¸Ñı
ĠÑĢÐµÐ³ ÑĥÐ»
ĠÐºÐ¾ÑĤÐ¾ÑĢ ÑĭÑħ
Ñĥ Ð³
ÐµÑĩ ÐµÐ½Ð¸Ðµ
ĠÐ¾Ñģ Ð½
ĠÐ¾ÑĤ Ð½Ð¾
Ð°Ð½ Ð´
ĠÐ¾Ð± ÑĬÐµÐºÑĤ
Ð°ÑĢ Ð¾Ð´
ĠÐ½Ð°Ð¿ÑĢÐ°Ð² Ð»ÐµÐ½
ĠÐ´ ÑĢÑĥÐ³
Ð¾ÑģÑĤ Ð¸
Ð¾Ñģ Ð¿
ÑĥÐ½ Ð°ÑĢÐ¾Ð´
Ð°ÑĢ Ð°ÑĤ
ĠÐ¾ÑģÑĥÑīÐµÑģÑĤÐ²Ð»Ñı ÑİÑī
202 4
ĠÐ´Ð¾ÑģÑĤÐ¸Ð¶ ÐµÐ½Ð¸Ñı
Ð ļ
Ð¼ Ð¾Ð¶
Ġ 6
ĠÐ¾Ð±ÑĢÐ°Ð· Ð¾Ð²Ð°Ð½Ð¸Ñı
ĠÐ¿Ð¾Ð»ÑĥÑĩÐ°ÑĤÐµÐ» Ñı
ĠÑģÐ¿ Ðµ
ĠÐ¼ Ð°ÑĤÐµÑĢ
1 9
Ġ Ðµ
ĠÐ¾Ð±ÑıÐ· Ð°Ð½
ĠÐ´Ð¾ÑģÑĤÑĥÐ¿ Ð°
ĠÑĢÐµÑģ ÑĥÑĢÑģ
Ð¾ÑĢÐ¸ÑĤ ÐµÑĤ
ĠÐł Ð¾ÑģÑģ
ĠÐ¾Ð±ÐµÑģÐ¿ÐµÑĩ ÐµÐ½Ð¸Ðµ
ĠÐ ĺ
ĠÐ Ŀ
ÐµÐ» Ð¾Ð²
ĠÐ¾ ÑĨÐµÐ½
ĠÐ³Ð¾ÑģÑĥÐ´Ð°ÑĢÑģÑĤÐ²ÐµÐ½ Ð½ÑĭÑħ
ĠÐ²Ð½ ÐµÐ´ÑĢ
ĠÐ¿ÑĢÐ¾Ð¸Ð·Ð²Ð¾Ð´ ÑģÑĤÐ²Ð°
ĠÐ¿ÑĢÐ¾Ð´Ñĥ ÐºÑĨÐ¸Ð¸
ĠÐ¿ Ð¾ÑģÑĤ
Ðº Ð¾Ð²
ÑĨÐ¸ ÑĦ
ĠÑģÑĥÐ±ÑĬÐµÐºÑĤ Ð°
ĠÐ¼ÐµÑĢÐ¾Ð¿ÑĢÐ¸ÑıÑĤ Ð¸Ð¹
ĠÐ¾Ð± Ñī
ÑĢÐ°Ð±Ð¾ÑĤ ÐºÐ°
ĠÐ½Ð°ÑģÑĤÐ¾ÑıÑī ÐµÐ³Ð¾
Ð°Ð ¶
Ð´ Ð°Ð»
Ð°ÑĨÐ¸ ÐµÐ¹
ĠÐº Ð°ÑĩÐµ
ĠÑį ÑĦÑĦÐµÐºÑĤÐ¸Ð²
ÑĢÑĥ Ð¿
ĠÐ¿Ð» Ð°Ð½
Ñĭ Ð¹
Ð°Ð»ÑĮ Ð½ÑĭÐµ
ĠÐ¾ÑĤ ÑĢÐ°
ĠÐŁÐ¾ÑģÑĤÐ°Ð½Ð¾Ð² Ð»ÐµÐ½Ð¸Ñı
Ġ Ñİ
Ð¾ Ñī
ĠÑģ ÐµÑĢ
0 2
ĠÑĢÐ°Ð ¼
ĠÑģÑĥÐ±ÑĬÐµÐºÑĤ Ð¾Ð²
ĠÐ½ Ð°Ð»
ĠÑĢÐ°Ð· Ð¼ÐµÑī
ĠÐ½ Ð¾ÑĢÐ¼
ĠÐ¾Ð± ÑĥÑĩ
ĠÑĥÐ¿ Ð¾Ð»Ð½Ð¾Ð¼Ð¾ÑĩÐµÐ½
ĠÑĢÐ°Ð¼ ÐºÐ°Ñħ
Ġ Ð°Ðº
ĠÐ¾Ð±ÑĢÐ°Ð±Ð¾ÑĤ ÐºÐ¸
ĠÐ¼ÐµÐ¶Ð´ ÑĥÐ½Ð°ÑĢÐ¾Ð´
ĠÐ¼Ð°ÑĤÐµÑĢ Ð¸
ÑĨ Ð¸Ð¹
ĠÐ¿ÑĢÐ¸ Ð¾ÑĢÐ¸ÑĤÐµÑĤ
ĠÑĢÐµÐ·ÑĥÐ»ÑĮÑĤÐ°ÑĤ Ð¾Ð²
ĠÑĢÐµÐ³ Ð¸Ð¾Ð½
ĠÑģÐ¾Ð·Ð´Ð°Ð½ Ð¸Ðµ
Ðº ÑĢ
ÐµÐ´ Ð¸ÑĨÐ¸
Ð° ÐµÑĤÑģÑı
Ñĭ Ð¼
ÑĨÐ¸ÑĦ ÑĢÐ¾Ð²
ÑĢ Ð¸Ð´
ĠÐŁÑĢÐµÐ·Ð¸Ð´ ÐµÐ½ÑĤÐ°
ĠÑĤÐµÑħÐ½Ð¾Ð»Ð¾Ð³ Ð¸Ð¸
ĠÑĦÐµÐ´ÐµÑĢ Ð°Ð»ÑĮÐ½ÑĭÑħ
ĠÑģÐ¿Ðµ ÑĨÐ¸
ĠÐ³ÑĢÐ°Ð½ ÑĤÐ°
ĠÐ¿ÑĢ Ð¸Ð²
ĠÐ´Ð¾Ð» Ð¶
Ð·Ð° Ð¸Ð¼
ÑģÐº Ð¾Ð³Ð¾
ĠÐ¾Ð± Ð¾ÑĢ
ĠÐłÐ¾ÑģÑģ Ð¸Ð¸
Ð¿ ÑĢÐ°Ð²
ĠÐ¿ÑĥÐ½ÐºÑĤ Ðµ
ĠÐ¾Ð± ÑīÐµ
Ð¸Ð½Ð³ Ð°
ĠÐ¿ÑĢÐ¸Ð½ ÑıÑĤ
ĠÐ² Ð·Ð°Ð¸Ð¼
ĠÑĢÐµ ÑĪÐµÐ½Ð¸Ð¹
ĠÑģÐ² ÐµÐ´
ÐµÐ¼ ÑĭÑħ
ĠÑģÑĤ ÑĢÐ°Ð½
Ð¸ÑĨ Ð¸Ð¿
ĠÑĥÑģÐ» ÑĥÐ³
ÑĤÐµÐ ¼
Ð¾Ð» Ð¾Ð³
ÐµÐ½ ÑĮ
ĠÑĤ ÐµÑĩÐµÐ½Ð¸Ðµ
ĠÐ½Ð°ÑĥÑĩ Ð½Ð¾
Ġ ÑĪ
ĠÐ·Ð°Ðº Ð»ÑİÑĩ
Ð½Ð¸Ðº Ð¸
ĠÐ¿Ð¾Ñģ Ð»
ÐµÐ´Ð¸ÑĨÐ¸ Ð½
Ġ ÑĨÐ¸ÑĦÑĢÐ¾Ð²
Ð¾Ð² Ð¾Ð¹
ĠÐ½ Ð¾Ð²ÑĭÑħ
ĠÐ¤ÐµÐ´ÐµÑĢÐ°Ð»ÑĮ Ð½ÑĭÐ¼
Ð¾ Ñį
ĠÐ¿Ð¾ÑĢÑıÐ´ ÐºÐµ
ĠÐ¸ ÑģÑĤ
ĠÐ¼ ÐµÑĤ
ĠÐ± Ð¾Ð»ÐµÐµ
ÑĤÐµÑĢ ÐµÑģ
ĠÑįÐºÐ¾Ð½Ð¾Ð¼ Ð¸ÐºÐ¸
ĠÐ´Ð¾ÐºÑĥÐ¼ ÐµÐ½ÑĤ
ĠÑģ Ð°Ð¹
ĠÐ¾Ð ´
ĠÐ¸Ð½ÑĦÐ¾ÑĢÐ¼Ð°ÑĨÐ¸Ð¾Ð½ Ð½Ð¾Ð¹
ĠÑģ Ð¸Ð»
ĠÐ½Ð° Ñĥ
ĠÐ²Ð¾Ð· Ð¼Ð¾Ð¶
ĠÑİ ÑĢÐ¸Ð´
ĠÐ± ÑĭÑĤ
Ð¸ÑĩÐµÑģÐº Ð¾Ðµ
ĠÑĩ ÐµÐ»Ð¾Ð²
ĠÐ¸Ð½ÑĦÐ¾ÑĢÐ¼Ð°ÑĨÐ¸Ð¾Ð½ Ð½Ð¾
ĠÐ¾ÑģÑĥÑīÐµÑģÑĤÐ²Ð»Ñı ÐµÑĤÑģÑı
Ð²ÐµÐ´ Ð¾Ð¼
ĠÐ¿ÐµÑĢ ÐµÐ´
ĠÐ±ÑĭÑĤ ÑĮ
ĠÐ¼ ÑĥÐ½
ĠÑĢÐ°Ñģ Ñģ
ĠÐ¼ÑĥÐ½ Ð¸ÑĨÐ¸Ð¿
Ġ 9
ÑĪ ÐµÐ½Ð¸Ð¸
ĠÐ¤ÐµÐ´ÐµÑĢÐ°Ð»ÑĮ Ð½ÑĭÐ¹
1 4
Ñĩ Ð¸ÑģÐ»
ĠÐ¿ÑĢ Ð¾Ð³ÑĢÐ°Ð¼Ð¼Ñĭ
ÑĢÐ° Ñī
ĠÑĦÑĥÐ½ ÐºÑĨÐ¸Ð¸
ĠÐº ÑĢ
ĠÐ¼ Ð¾Ð¶
Ð¾Ð·Ð´Ð°Ð½ Ð¸Ðµ
ÐµÐ½ Ð½Ð¾Ð³Ð¾
Ð» Ð¸Ñĩ
Ð¾Ð¼ Ñĥ
ĠÐ¿ÑĢÐµÐ´ Ð¿ÑĢ
ÑĢ Ð°ÑģÑĤ
Ð» ÐµÐ¼
Ð² Ð¾Ð»
Ð°Ð· Ð½Ð°Ñĩ
ĠÑĢÐµÐ·ÑĥÐ»ÑĮÑĤÐ°ÑĤ Ð°
Ð¼ÑĥÐ½Ð¸Ðº Ð°ÑĨÐ¸Ð¾Ð½
1 7
ĠÐ¼ ÐµÑģÑĤ
ĠÑģÐ¾Ð·Ð´Ð°Ð½ Ð¸Ñı
ĠÐ¿ÑĢ Ð¸Ð»
ĠÐ¼ ÐµÐ´Ð¸ÑĨÐ¸Ð½
ĠÐ¼Ð°ÑĤÐµÑĢÐ¸ Ð°Ð»
ĠÐ ĵ
ĠÐ½ Ð°Ð´
ĠÑĢ Ñĭ
Ð¾Ð» Ð¸ÑĩÐµ
ÑĤÐµÐ» ÐµÐºÐ¾Ð¼
ĠÐ¿ÑĢÐµÐ´ÑĥÑģÐ¼Ð¾ÑĤÑĢ ÐµÐ½Ð½ÑĭÑħ
Ġ 8
ĠÑģ ÑĩÐµÑĤ
ĠÐ´ Ð½ÐµÐ¹
ĠÐºÐ¾Ð½Ðº ÑĥÑĢ
ĠÐ£ ÐºÐ°Ð·
Ġ Ð°Ð¿
ĠÐ¼ Ð¸ÑĢ
Ġ3 0
ĠÐ¡ÑĤ ÑĢÐ°ÑĤÐµÐ³Ð¸Ð¸
ÑģÑĤ ÑĢÑĥ
ĠÐ¸ÑģÐº Ð»ÑİÑĩ
ĠÐ½Ð°Ð¿ÑĢÐ°Ð² Ð»ÐµÐ½Ð¸Ñı
ĠÐ¾Ð¿ÑĢÐµÐ´ÐµÐ» Ñı
Ð¾ÑģÐ¿ Ð¾ÑģÐ¾Ð±
ĠÐ¼Ð¾Ð¶ ÐµÑĤ
Ð £
Ð¿ Ð°ÑĢÐ°ÑĤ
Ð¾ÑģÑĤ Ð¾Ñı
ĠÑĥÑģÐ»Ð¾Ð² Ð¸Ð¹
ĠÐ¸Ð½ ÑĦ
ĠÐ¼ Ð»
ĠÑıÐ²Ð»Ñı ÐµÑĤÑģÑı
ĠÑĤÐµÑĢÑĢÐ¸ÑĤÐ¾ÑĢ Ð¸Ð¸
Ñģ ÐµÐ»
Ð´Ð°Ð» ÐµÐµ
ĠÐ½Ð¾ÑĢÐ¼ Ð°ÑĤÐ¸Ð²
Ð° ÑĪ
Ð» Ð°ÑĤ
ĠÐ¿Ð¾Ð´ Ð³Ð¾ÑĤÐ¾Ð²
Ð¾Ð² ÐµÑĢ
ĠÐºÐ¾Ð½Ðº ÑĥÑĢÑģ
ĠÐ·Ð°ÐºÐ¾Ð½Ð¾Ð´Ð°ÑĤÐµÐ»ÑĮ ÑģÑĤÐ²Ð¾Ð¼
ĠÐ¸ Ð½ÑĭÑħ
Ð· Ð°ÑĨ
6 1
Ð°Ð½ Ð¸Ð¹
Ð· Ð¾ÑĢ
ĠÑĥÐºÐ°Ð· Ð°Ð½Ð½ÑĭÑħ
ĠÐľÐ¸Ð½Ð¸ÑģÑĤÐµÑĢ ÑģÑĤÐ²Ð¾Ð¼
ĠÑĤÑĢÐ°Ð½ ÑģÐ¿
Ð¾Ð² Ð°ÑĤÑĮ
ĠÐ² Ð¸Ð´
Ġ20 0
Ð» Ð¸
ĠÑĢ ÑĥÐ±Ð»
ĠÐ¸Ð½ Ð¾ÑģÑĤÑĢÐ°Ð½
ĠÐ¿ÑĥÐ½ÐºÑĤ Ð°
Ð¸Ñģ Ñģ
ĠÑĥÐºÐ°Ð·Ð°Ð½ Ð½Ð¾Ð³Ð¾
ĠÐ¿Ð¾Ð· Ð²Ð¾Ð»
ĠÐ¾ÑĢÐ³Ð°Ð½ Ð°
ĠÑĢÐµ ÑĪÐµÐ½Ð¸Ñı
Ð¾Ð¿ Ð¾Ð»Ð½
ĠÐµ ÑģÐ»Ð¸
" .
Ñĥ Ñī
Ñĩ Ðµ
ÑģÑĤÐ² Ðµ
ĠÐºÐ¾ÑĤÐ¾ÑĢ ÑĭÐµ
ĠÑįÐºÑģÐ¿ÐµÑĢ ÑĤ
ĠÑĢÐ°Ð·Ð²Ð¸ÑĤ Ð¸Ðµ
ÑĢÑĥÐ¿ Ð¿
ĠÑĢÑĥÐ±Ð» ÐµÐ¹
Ðł Ð°Ð·
ÑĤÐµÐ»ÐµÐºÐ¾Ð¼ Ð¼ÑĥÐ½Ð¸ÐºÐ°ÑĨÐ¸Ð¾Ð½
ĠÑĥ Ð²ÐµÐ´Ð¾Ð¼
Ð¾Ð· Ð´
ĠÑĢÐ°Ð±Ð¾Ñĩ Ð¸Ñħ
ĠÐ½Ð° ÑĢÑĥ
ÑĪ Ð¸Ñħ
ĠÐ¸ÑģÐ¿Ð¾Ð»ÑĮÐ·Ð¾Ð²Ð°Ð½ Ð¸ÐµÐ¼
ĠÐ´ Ð½Ñı
Ð¸ÑĤÐµÐ»ÑĮ Ð½ÑĭÑħ
ĠÑĥÐ¿ ÑĢÐ°Ð²Ð»ÐµÐ½Ð¸Ñı
ĠÐŁÐ¾ÑģÑĤÐ°Ð½Ð¾Ð² Ð»ÐµÐ½Ð¸Ðµ
ĠÑĢÐ°Ð·ÑĢÐ°Ð±Ð¾ÑĤ ÐºÐ¸
ÑĢ Ð¾Ñģ
ĠÐ² Ñģ
Ġ1 4
Ð¸ÑĦ Ð¸Ðº
ĠÐ²Ð·Ð°Ð¸Ð¼ Ð¾Ð´
ĠÑģÐ¸Ð» Ñĥ
Ñĩ Ð¸Ðº
ĠÑģÑĤ Ð°Ð½Ð´
ĠÐ²ÐºÐ»ÑİÑĩ Ð°Ñı
Ð°Ð»ÑĮ Ð½Ð¾
ĠÐ¾ÑģÐ½ Ð¾Ð²Ð°Ð½
) :
Ñĥ ÑģÑĤ
Ð¸Ñı Ñħ
ĠÑĤÐµÑħ Ð½
ÑĥÑİÑī Ð¸Ñħ
ĠÐ¼Ð°ÑģÑģÐ¾Ð² Ð¾Ð¹
Ð°ÑĪ Ð¸Ð½
ĠÐ¼ ÐµÐ½
ĠÐ¾Ð±ÑĢÐ°Ð· Ð¾Ð²Ð°ÑĤÐµÐ»ÑĮ
Ð¼ÑĥÐ½Ð¸Ðº Ð°ÑĨÐ¸Ð¹
ĠÐº Ð°Ðº
ĠÐ¿ÑĢÐ¾ ÑĦ
Ð»Ñİ Ð´
ÐµÐ² ÑĭÑħ
ĠÐ¿Ð¾Ð»ÑĥÑĩÐ°ÑĤÐµÐ» ÐµÐ¼
ĠÑĩÐµÐ»Ð¾Ð² ÐµÐº
ÐµÐ½ Ð°
Ð°Ð² Ð»
ĠÑĤÑĢÐ°Ð½ÑģÐ¿ Ð¾ÑĢÑĤ
1 6
ĠÑĦÑĥÐ½ Ðº
ĠÑĥÑĩÐµÑĤ Ð¾Ð¼
ĠÐºÐ¾Ð½ÐºÑĥÑĢ ÐµÐ½ÑĤ
Ġ ÐµÐµ
Ð° ÑĢÐ°Ðº
ÑĢÐ°ÑģÑĤ ÑĢÑĥÐºÑĤÑĥÑĢ
0 0
Ð°Ð½ Ð¸Ðµ
ĠÐ½ ÐµÐ´
Ġ2 5
ÑĤÐµÑħ Ð½Ð¾Ð»Ð¾Ð³
Ñĭ Ñģ
ĠÐ¾ÑĢÐ³Ð°Ð½ Ð¾Ð¼
ĠÐ¾Ð¿ÐµÑĢÐ°ÑĤÐ¾ÑĢ Ð°
ĠÐ¸ Ñİ
ĠĠĠĠ ĠĠĠĠ
ĠÑģÐ¾Ð³Ð»Ð° ÑĪÐµÐ½Ð¸Ñı
Ð°ÑĢÐ°Ðº ÑĤÐµÑĢ
ĠÑĨÐµÐ» ÐµÐ¹
ĠÑıÐ²Ð»Ñı ÑİÑĤÑģÑı
ĠÐ¿ÑĢÐ¾Ð¼ÑĭÑĪÐ»ÐµÐ½ Ð½Ð¾ÑģÑĤÐ¸
Ð° ÑİÑĤÑģÑı
ĠÐ¿ÑĢ Ð¾ÑĤ
Ð¾Ð½ Ð¸ÑĤÐ¾ÑĢ
ĠÐ³ ÑĢÑĥÐ¿Ð¿
ÑİÑī Ð¸Ñħ
Ġ20 20
Ð¸Ð²Ð° ÐµÑĤ
Ð¾Ð½ Ð´
Ð¡ ÑĤ
ĠÑģÐ¾ÑĨÐ¸ Ð°Ð»ÑĮÐ½Ð¾Ð¹
ĠÐ¼Ð¾Ð´ ÐµÐ»
ĠÐ¸ÑģÑĤ Ð¾Ñĩ
ĠÐ¼ÐµÐ½ ÐµÐµ
Ġ Ð°Ð´
ĠÐ Ķ
ÑĢ Ñı
ÑĢ Ð°ÑĤ
Ð» Ð¾Ð¶
Ñį Ðº
ĠÐ¸Ð½ÑĦ ÑĢÐ°ÑģÑĤÑĢÑĥÐºÑĤÑĥÑĢ
202 2
ĠÐ¼Ð°ÑģÑģÐ¾Ð² ÑĭÑħ
ĠÐ¾Ð±ÑĬÐµÐºÑĤ Ð¾Ð²
1 3
ÑĪ ÐµÐ³Ð¾
Ð°ÑĤÐµÐ» ÐµÐ¹
ĠÐ¿Ð¾Ð´Ð¿ ÑĥÐ½ÐºÑĤ
6 6
ĠÑĢÐ°Ð ´
ĠÑģÐ¿ Ð¾ÑģÐ¾Ð±
ĠÑįÐ»ÐµÐºÑĤÑĢÐ¾Ð½ Ð½Ð¾Ð¹
Ġ Ð°Ð½Ð°Ð»
Ð² ÐµÑģÑĤ
ĠÐ¼ Ð°ÑĪÐ¸Ð½
Ð°Ð» Ð¸Ð·
ÐĶ Ð¾Ð¿Ð¾Ð»Ð½
ĠÐ¿Ð¾ÐºÐ°Ð·Ð°ÑĤÐµÐ» ÐµÐ¹
ĠÑĢÑĭ Ð½
Ð¾Ð³ Ð¾Ð²
Ð¸Ðº Ð°
ĠÐºÐ¾Ð¼ Ð¼ÑĥÐ½Ð¸ÐºÐ°ÑĨÐ¸Ð¹
ĠÐ¿ÑĢÐµÐ´Ð¾ÑģÑĤÐ°Ð² Ð»ÐµÐ½Ð¸Ð¸
ĠÑĢÐ°ÑģÑħÐ¾Ð´ Ð¾Ð²
ĠÐºÐ¾Ð½ÐºÑĥÑĢÐµÐ½ÑĤ Ð¾ÑģÐ¿Ð¾ÑģÐ¾Ð±
Ðµ ÑģÑı
Ð¸Ð »ÑĮ
Ð» ÐµÐ¶
Ð¸ÑĩÐµÑģÐº Ð¸Ðµ
ĠÑĤÐ°Ðº Ð¸Ñħ
ĠÐ´Ð¾Ð¿ Ð¾Ð»Ð½Ð¸ÑĤÐµÐ»ÑĮ
ĠÐ°Ð²ÑĤ Ð¾Ð¼
Ð°Ð½ Ð°Ð²Ð»
ĠÑģ Ð¾Ð·Ð´
ĠÐ¿Ð¾ÐºÐ°Ð·Ð°ÑĤÐµÐ» Ñı
ĠÑĩÐ°ÑģÑĤ ÑĮÑİ
ĠÐ ĳ
ĠÐ² Ð»Ð°Ð´
ĠÐ²Ñĭ ÑĩÐ¸ÑģÐ»
ĠÐ¾Ð±Ð¾ÑĢ ÑĥÐ´
Ð°Ð»ÑĮ Ð½ÑĭÐ¹
ĠÐ¾ÑĢÐ³Ð°Ð½ Ñĭ
ĠÑħ Ð°ÑĢÐ°ÐºÑĤÐµÑĢ
ÑĤÐµÑħ Ð½
ÐµÐ´ Ð¸Ð½
Ġ1 8
Ð½ÐµÑĢ Ð³
ĠÐ¼ÐµÑĤ Ð¾Ð´
ĠÑĢ Ð¾ÑģÑģÐ¸Ð¹ÑģÐºÐ¾Ð¹
ĠÑĥÑģÑĤ Ð°Ð½Ð°Ð²Ð»
Ñı Ñī
ĠÐ² Ð²ÐµÐ´
ĠÑĤÑĢ ÑĥÐ´
ĠÑĨÐµÐ½ÑĤ ÑĢÐ¾Ð²
Ñĥ ÑģÐº
Ð¼ Ð°ÑĤÑĢ
ĠÐºÐ¾Ð½ÑĤÑĢÐ¾Ð» Ñİ
ĠÐ½Ð°Ð» Ð¸Ñĩ
Ð½ Ðµ
ÑĢ ÐµÑĤ
ÑģÑĤÐ² Ñĥ
ĠÐ¼ Ð¾Ð½Ð¸ÑĤÐ¾ÑĢ
Ð½Ð¾ÑģÑĤ ÐµÐ¹
ĠÐ¸Ð½ÑĤÐµÐ»Ð»ÐµÐºÑĤ Ñĥ
ĠÑģÐ¸ÑģÑĤÐµÐ¼ Ðµ
ĠÐ¿Ð¾ÑĢÑıÐ´ Ð¾Ðº
ÑĢÐ¾ Ð¸ÑĤÐµÐ»ÑĮ
Ð¸ÑģÑģ Ð¸Ð¸
ĠÐ² Ð¾
ÑĤÐµÐ º
ÑģÐ¿ ÐµÐºÑĤÐ¸Ð²
ĠÐ¿ÑĢÐ¾Ð´Ñĥ ÐºÑĤ
ÑĢ Ð°Ñģ
ĠÐ¿ Ð¾Ð»ÑĮÐ·
ĠÑĥÑĢÐ¾Ð² Ð½Ñı
ĠÐ½Ð°Ð´ Ð·Ð¾ÑĢ
ĠÑĢÐ°Ð´ Ð¸
" ;
Ð½ Ð°
ĠÐ½ ÐµÐ¿
Ð¾Ð¶ Ð´
2 3
ĠÑģ Ð°Ð¼
ĠÐ¼Ð°ÑĤÐµÑĢÐ¸Ð°Ð» Ð¾Ð²
Ð¾ÑģÑĤÐ¾Ñı Ð½
ÑĤ Ð¾
Ð² Ð°ÑĢ
ĠÑĦÐ¾ÑĢÐ¼ Ðµ
Ð¾Ð²Ð°Ð½ Ð½ÑĭÑħ
ĠÐ¸Ð½ÑĦÐ¾ÑĢÐ¼ Ð°ÑĨÐ¸Ñİ
ĠÐ¾Ð±ÐµÑģÐ¿ÐµÑĩ Ð¸Ð²
Ġ3 1
Ð¸ÑĦ Ð¸ÑĨÐ¸
Ð°ÐµÐ¼ ÑĭÑħ
ĠÐ¶ Ð¸Ð·Ð½
ĠÑĦÐ¸Ð½Ð°Ð½ Ñģ
ĠÐ°Ð¿ Ð¿Ð°ÑĢÐ°ÑĤ
Ð°ÑĤ ÑĭÐ²
ĠÐ¾Ð¿ÐµÑĢÐ°ÑĤÐ¾ÑĢ Ð¾Ð¼
ĠÐ¾Ðº Ð°Ð·
Ð°Ð» Ð»
ĠÑĩ ÐµÐ¼
ĠÑĢÐ¾ÑģÑģÐ¸Ð¹ ÑģÐº
Ð¾ÑĢ ÑĤÐ°
ĠÐ¿ÐµÑĢ ÐµÑĩ
ĠÐ½Ð°ÑĥÑĩ Ð½ÑĭÑħ
ĠÐ´Ð¾ÐºÑĥÐ¼ ÐµÐ½ÑĤÐ¾Ð²
ĠÑįÑĦÑĦÐµÐºÑĤÐ¸Ð² Ð½Ð¾ÑģÑĤÐ¸
Ð¾Ð»Ð¸ÑĩÐµ ÑģÑĤÐ²Ð¾
Ñı Ð¼
ÑĢÐ° ÑĦ
ĠÐºÐ¾Ð¼Ð¿Ð»ÐµÐºÑģ Ð½Ð¾Ð³Ð¾
ĠÐ¾ÑģÐ½Ð¾Ð²Ð°Ð½ Ð¸Ð¸
ĠÐ½Ð°Ð´Ð·Ð¾ÑĢ Ñĥ
Ġ Ð½Ð¾Ð¼
ÑĢ Ðµ
ĠÐ¸Ð½ Ð²ÐµÑģÑĤ
ĠÑĢÐµ ÐµÑģÑĤ
Ð°Ð± Ð·Ð°ÑĨ
ĠÐ·Ð°ÑīÐ¸ÑĤ Ðµ
ĠÐ²ÑĭÐ¿Ð¾Ð»Ð½ ÐµÐ½Ð¸Ñı
ĠÐ½Ð°Ñĥ ÐºÐ¸
ĠÐ¼ÑĥÐ½Ð¸ÑĨÐ¸Ð¿ Ð°Ð»ÑĮÐ½ÑĭÑħ
ĠÐº Ð¾ÑĢ
ĠÐ· Ð´
ĠÐ¿ÐµÑĢ ÑģÐ¿ÐµÐºÑĤÐ¸Ð²
ĠÐ¿ÑĢÐ¾ÑĨ ÐµÐ½ÑĤÐ°
ĠÑĢÐ¾ÑģÑģÐ¸Ð¹ ÑģÐºÐ¸Ñħ
Ð ¦
ĠÐ² ÐµÐ´
ÑĢÐ°Ð ±
ĠÐ¾ÑĤ Ð²ÐµÑĤ
ÑģÑĤÐ²ÐµÐ½ Ð½ÑĭÐ¹
Ġ1 9
ĠÐºÐ¾Ð¼Ð¿Ð»ÐµÐº ÑģÐ¾Ð²
ĠÑģÐµÑĢ Ð²
Ñĥ ÐºÐ¾Ð²
Ð» Ð°ÑģÑĤ
ĠÑĢÐ°Ð· Ð»Ð¸Ñĩ
Ðŀ Ð±
ĠÐ¼Ð» Ð½
ÑįÐº Ð¾Ð½Ð¾Ð¼
ÐµÐ½ Ð½ÑĭÐµ
Ð¶ ÐµÐ½
Ðĺ ÑģÐº
ĠÐ¸ÑģÐ¿Ð¾Ð»ÑĮÐ· Ñĥ
ĠÑĦÐµÐ´ÐµÑĢÐ°Ð»ÑĮ Ð½ÑĭÐ¹
ĠÐ¸ÑģÑģÐ»ÐµÐ´ Ð¾Ð²Ð°Ð½Ð¸Ð¹
ĠÐºÐ°ÑĩÐµ ÑģÑĤÐ²Ð°
2 4
ÑĤ ÑĮ
ĠÐ»Ð¸ÑĨ Ð°
ĠÐ·Ð°ÑıÐ² Ð¾Ðº
ĠÐ¸Ð½ Ð´
ĠÐ¿ÑĢÐ¾ÑĨ ÐµÑģÑģ
ĠÐºÑĢ Ð¸ÑĤ
ĠÐ¸Ñİ Ð»Ñı
ÐµÐ½ Ñĭ
ĠÑģ Ð¾ÑģÑĤÐ¾ÑıÐ½
Ð¸Ð½ ÑĤÐµÑĢÐµÑģ
ÑģÑĤÐ²ÐµÐ½ Ð½Ð¾
ÑĥÑĢ Ñĭ
ĠÑĦÐµÐ´ÐµÑĢÐ°Ð»ÑĮ Ð½ÑĭÐ¼
ĠÐ·Ð°Ð´Ð°Ñĩ Ð¸
ÐłÐ°Ð· ÑĢÐ°Ð±Ð¾ÑĤÐºÐ°
ĠÑĢÐ°Ð±Ð¾ÑĤ Ñĭ
ĠÐ Ĳ
ĠÐ¿ Ð°ÑģÐ¿
ÑĤÐµÐ ¹
Ð¸Ð½ Ð¸Ð¼
ÐµÐ» Ð¸Ñĩ
ĠÐ¿ÑĢÐ¾Ð²ÐµÐ´ ÐµÐ½Ð¸Ñı
1 5
Ð¸Ð· Ð¼
Ð¾ÑĤÑĢ ÐµÐ±
Ġ201 6
Ð¼ÐµÑĢ ÑĩÐµ
Ð¸Ð²Ð° ÐµÑĤÑģÑı
ĠÐ¿ÑĢÐ¾Ð²ÐµÐ´ ÐµÐ½Ð¸Ðµ
ĠÐ²Ð·Ð°Ð¸Ð¼Ð¾Ð´ ÐµÐ¹ÑģÑĤÐ²Ð¸Ñı
ÐµÐ½ ÑĨÐ¸
ÐµÑħ Ð½Ð¾Ð»Ð¾Ð³
ĠÐ¾Ð¿ ÑĤ
Ð°ÑĤÑĮ Ñı
ĠÐ·Ð° Ð¸Ð½ÑĤÐµÑĢÐµÑģ
ĠÐŀ Ð±
Ġ12 4
ÐµÑģÑģ Ð¸Ð¾Ð½
ĠÑģÐ¾Ð´ÐµÑĢÐ¶ Ð°Ñī
ĠÐ¾ÑĤÑĢÐ° ÑģÐ»
ÑĢÐ°Ð± Ð°ÑĤÑĭÐ²
ÑĥÐºÐ¾Ð² Ð¾Ð´
ĠÐ² ÑĢÐµÐ¼
Ð´ ÐµÐ»ÑĮ
ĠÑĦ Ð¾Ð½Ð´
ĠÐ¾ÑĢÐ³Ð°Ð½ Ð°Ð¼Ð¸
ĠÐ±Ð°Ð· Ñĭ
ĠÑĤÑĢÐµÐ±Ð¾Ð²Ð°Ð½Ð¸Ñı Ð¼
ĠÐ Ĺ
Ñı Ð¼Ð¸
ĠÐ½Ð° ÑģÐµÐ»
ĠÑĩ ÑĤÐ¾
ĠÑģÐ² Ð¾
ĠÐºÐ¾Ð½ÑĤÑĢÐ¾Ð» Ñı
ĠÐ¿Ð¾ÑģÑĤ Ð°Ð½Ð¾Ð²Ð»ÐµÐ½
Ñģ Ð¾Ð·Ð´Ð°Ð½Ð¸Ðµ
ĠÐ ¢
Ð°Ñģ Ñģ
202 3
ĠÐ½Ð°ÑĨÐ¸Ð¾Ð½ Ð°Ð»ÑĮÐ½Ð¾Ð¹
ĠÑĢÐµÐ³ÑĥÐ» Ð¸ÑĢÐ¾Ð²Ð°Ð½Ð¸Ñı
Ð¸ ÑĥÐ¼
ĠÑĦ Ð°ÐºÑĤ
Ð¸ÑĩÐµÑģÐº Ð¸Ð¼
ĠÐ³Ð¾ÑģÑĥÐ´Ð°ÑĢ ÑģÑĤÐ²ÐµÐ½Ð½Ð¾Ð³Ð¾
ÐµÐ² Ð¾Ð¹
ĠÐ²ÑĭÑģ ÑĪÐµÐ³Ð¾
ĠÑĦÐ¸Ð½Ð°Ð½ÑģÐ¾Ð² Ð¾Ð³Ð¾
Ð¾Ð²Ð°Ð½ Ð¸Ñİ
Ð¾Ð²Ñĭ Ðµ
Ð¸ÑĤÐµÐ» ÐµÐ¹
ĠÑĥÑĩÐ°ÑģÑĤ Ð½Ð¸Ðº
ĠÐ´Ð°Ð½ Ð½ÑĭÐµ
ÐµÑĢ ÑĪ
ĠÐ² Ð¾Ð»
Ð¾ÑģÑĤ ÑĮ
Ð¾Ð³ ÑĥÑĤ
ĠÐ¿Ð¾Ð» Ð¸ÑĤ
ĠÐŁÑĢÐ°Ð²Ð¸ÑĤÐµÐ»ÑĮ ÑģÑĤÐ²Ð¾Ð¼
201 9
ĠÐ¿Ð¾Ð»ÑĥÑĩÐ°ÑĤÐµÐ» ÐµÐ¹
ĠÐ¼ÐµÑĢÐ¾Ð¿ÑĢÐ¸ÑıÑĤ Ð¸Ñı
Ð Ľ
ĠÑģ Ðµ
Ð¾Ð¿ ÑĢÐ¾Ð²
Ð¾ÑĢ ÑĥÐ¶
ĠÐ¿ÑĢ ÐµÐ²
ĠÐ¼ Ð¾Ð³ÑĥÑĤ
ĠÐ¿ÑĢÐ¾Ð² ÐµÑĢ
ĠÐľÐ¸Ð½Ð¸ÑģÑĤÐµÑĢ ÑģÑĤÐ²Ð¾
____ ____
Ðº Ð¾
ÐµÐ´ Ð¸
ĠÐ¼ ÐµÑģÑı
20 20
ĠÐ¿Ð¾Ð²Ñĭ ÑĪÐµÐ½Ð¸Ðµ
Ð¸Ð³ Ð½
Ð¡ÑĤ Ð°ÑĤÑĮÑı
ÐĶÐ¾Ð¿Ð¾Ð»Ð½ ÐµÐ½Ð¸Ðµ
2 6
Ð² ÐµÐ»Ð¸Ñĩ
ĠÐ¸ ÑĤ
ĠÐ¸ÑģÐ¿ Ð¾Ð»Ð½
Ð½Ð¾ÑģÑĤÑĮ Ñİ
ĠÑģÐ¾Ð± Ð»ÑİÐ´
ĠÐ¾ÑĨÐµÐ½ ÐºÐ¸
ĠÐ¸ÑģÐºÐ»ÑİÑĩ ÐµÐ½Ð¸ÐµÐ¼
Ðº Ð¾Ð¹
ĠÐ¸Ð½ ÑĤÐµÐ³
ÑĪ ÐµÐ½Ð¸Ñİ
ĠÑĦ Ð¸Ð·
ĠÑģÐ» Ð¾Ð²
Ð¸ÑĢÐ¾Ð²Ð°Ð½ Ð½ÑĭÑħ
ĠÑĢ ÑĥÐºÐ¾Ð²Ð¾Ð´
ĠÐº Ð²
ĠÐ¸Ð½ Ð½Ð¾Ð²
ĠÑģÐ¾ Ð¾Ð±
ĠÐ¿ÑĢÐ°Ð² Ð¾
201 8
ĠÐ¾ÑĤÐ½Ð¾ ÑĪÐµÐ½Ð¸Ð¸
ĠÐ¿ÑĢÐ¾ÑĦ ÐµÑģÑģÐ¸Ð¾Ð½
ĠÐ¸Ð½ÑĦÑĢÐ°ÑģÑĤÑĢÑĥÐºÑĤÑĥÑĢ Ñĭ
ĠÐ¿ ÑĥÐ±Ð»
ÐµÑĢ Ð¾Ð²
ÑĪ ÐµÐ½Ð¸ÐµÐ¼
ĠÐ± Ð¾Ð»ÑĮ
Ð¸ÑĩÐµÑģÐº Ð¸Ð¹
Ġ2 4
ĠÐ¿Ð¾Ð´ Ð»ÐµÐ¶
ĠÐºÐ¾ÑĤÐ¾ÑĢ Ð¾Ð¼
ÐµÐ·Ð¸Ð´ Ð¸ÑĥÐ¼
ÐºÑĢ ÑĭÑĤ
ĠÐ¼ÐµÑģÑı ÑĨ
Ð¾ ÑģÐº
Ð½ ÐµÐ¼
Ð°ÑĨÐ¸Ð¾Ð½ Ð½ÑĭÑħ
ÐŁ ÑĢ
ÐµÐ»ÑĮ ÑĨ
ĠÐ¿ÑĢÐ¸Ð¼ÐµÐ½ ÐµÐ½Ð¸Ñı
ĠÐ¾Ð±Ð¾ÑĢÑĥÐ´ Ð¾Ð²Ð°Ð½Ð¸Ñı
ĠÐ¿Ð¾Ð»ÑĮÐ· Ð¾Ð²
Ð½ Ð¾Ñģ
ÑĢÐ°Ð »ÑĮ
ĠÐŁ Ð¾Ð»
ĠÑģÑĤ ÑĢÐ¾Ð¸ÑĤÐµÐ»ÑĮ
ÐµÐ³ Ð¾Ð´
ĠÑĤÑĢÐµÐ± Ð¾Ð²Ð°Ð½Ð¸Ð¹
ĠÑģÐ²ÐµÐ´ ÐµÐ½Ð¸Ñı
ĠÐ½Ð¾Ð¼ ÐµÑĢ
ĠÐ¸ÑĤ Ð¾Ð³
9 5
Ġ Ñı
Ð¸Ñı Ð¼
ĠÐ½Ðµ Ñģ
ĠÑĢÐµÐ°Ð»Ð¸Ð· Ð°ÑĨÐ¸Ñİ
ĠÐ°Ð²ÑĤÐ¾Ð¼ Ð°ÑĤ
ÐµÐ¼ Ð¾Ð¹
ÑģÑĤÐ²ÐµÐ½ Ð½Ð¾Ð¹
Ġ1 6
Ð¸ÑĩÐµÑģÐº Ð¸
ÐµÑĩ Ðµ
ĠÐ¿ÑĢÐµÐ´Ð¾ÑģÑĤÐ°Ð² Ð»Ñı
ĠÐ¾Ð±ÑĢÐ°Ð·Ð¾Ð²Ð°ÑĤÐµÐ»ÑĮ Ð½ÑĭÑħ
ĠÑĦÑĥÐ½Ðº ÑĨÐ¸Ð¾Ð½
1 8
Ð ĵ
Ñĥ Ð°ÑĤ
Ð» ÑĥÐ°ÑĤ
ĠÐ¿ÑĢ ÐµÐ·Ð¸Ð´Ð¸ÑĥÐ¼
ĠÑįÐ»ÐµÐºÑĤÑĢÐ¾Ð½ Ð½ÑĭÑħ
ĠÐ²Ð»Ð°Ð´ ÐµÐ»ÑĮÑĨ
ĠÑģ ÑĥÐ´
ÑĢÐ° Ñħ
ĠÑĦÐ¾ÑĢÐ¼ Ð¸ÑĢÐ¾Ð²Ð°Ð½Ð¸Ñı
ĠÑĢÐ°ÑģÑħÐ¾Ð´ Ñĭ
i n
ĠÐ¿ Ð¾ÑĤÑĢÐµÐ±
ĠÑĥ Ð½
ĠÑĥ Ð³
ĠÐ·Ð°ÐºÐ¾Ð½Ð¾Ð´Ð°ÑĤÐµÐ»ÑĮ ÑģÑĤÐ²Ð°
ĠÑĢÐ°Ð·Ð¼ÐµÑĢ Ðµ
ĠÐ²Ð½ÐµÐ´ÑĢ ÐµÐ½Ð¸Ñı
Ð ĳ
Ð¿ ÐµÑĢ
ĠÐ¾ÑĤ ÐºÑĢÑĭÑĤ
ĠÑģÑĤ ÑĢÐ°ÑĤÐµÐ³
ĠÑįÐºÑģÐ¿ Ð»ÑĥÐ°ÑĤ
ĠÐ¾Ð±ÑĢÐ°Ð±Ð¾ÑĤ ÐºÑĥ
Ð¸Ð± Ð¾
ĠÐ¾Ð±ÑĥÑĩ ÐµÐ½Ð¸Ñı
ĠÐ¿Ð¾Ð·Ð²Ð¾Ð» Ñı
ĠÑĩÐµÐ»Ð¾Ð²ÐµÐº Ð°
Ġ1 7
Ð¾Ð²Ñĭ Ð¹
Ð°ÑĤÑĢ Ð°ÑĤ
ĠÐ½Ð°ÑģÐµÐ» ÐµÐ½Ð¸Ñı
ÑĢ Ð¾Ð¹
ĠÑģ Ð½
ĠÐľÐ¸Ð½Ð¸ÑģÑĤÐµÑĢ ÑģÑĤÐ²Ð°
ĠÐ·Ð°ÑīÐ¸ÑĤ Ñĭ
0 3
Ð¾ ÑħÑĢÐ°Ð½
ĠÐ½ Ð°Ð±
ĠÐ´ Ð²
Ð°Ð» Ð°
ĠÑį Ð½ÐµÑĢÐ³
ĠÐ¿ÑĢÐµÐ´Ð¾ÑģÑĤÐ°Ð² Ð»ÐµÐ½
ĠÐ·Ð½Ð°Ñĩ ÐµÐ½Ð¸Ñı
ĠÐ¾ÑĢÐ³Ð°Ð½Ð¸Ð·Ð°ÑĨÐ¸Ñı Ð¼Ð¸
ĠÐ¿ÐµÑĢÐµÐ´ Ð°Ñĩ
ĠÐ ¦
Ñĥ ÑĤÑĢ
ĠÐ´ ÐµÐ¹ÑģÑĤÐ²Ð¸Ñı
ĠÐ´ Ð¾Ð³Ð¾Ð²
ĠÑĥ Ð²ÐµÐ»Ð¸Ñĩ
Ð¸Ð¼ Ð¾ÑģÑĤÐ¸
ĠÑĤÐµÑħÐ½Ð¾Ð»Ð¾Ð³ Ð¸ÑĩÐµÑģÐºÐ¸Ñħ
ĠÑĥÑģÑĤ Ð°Ð½Ð¾Ð²
ĠÐ²Ð½ ÐµÑģ
ĠÐŀ Ñģ
ÐµÐºÐ¾Ð¼ ÐµÐ½Ð´
ĠÑĤÑĢÑĥÐ´ Ð°
ĠÑĤ ÑĭÑģ
Ð¸ÑĩÐµÑģÐº Ð¸Ð¼Ð¸
ĠÐ±ÑİÐ´Ð¶ÐµÑĤ Ð½ÑĭÑħ
Ð¾Ð¿ÑĢ Ð¾Ñģ
201 7
ĠÑĢÐ°Ð±Ð¾ÑĤ Ð½Ð¸ÐºÐ¾Ð²
ĠÑĨÐµÐ½ÑĤ ÑĢÐ°
ĠÐ¸Ð·Ð¼ÐµÐ½ ÐµÐ½Ð¸Ð¹
ĠÐ¾ÑĤÑĢÐ° ÑģÐ»Ð¸
ĠÐ¿ÑĢÐµÐ´Ð¿ÑĢ Ð¸ÑıÑĤ
ĠÑģÑĤÐ°Ð½Ð´ Ð°ÑĢÑĤ
ĠÑģÐµÑĢÐ² Ð¸Ñģ
0 6
Ñı Ð¹
Ñĭ Ð¼Ð¸
Ð¾Ð· ÑıÐ¹
ĠÐºÐ¾Ð¼Ð¿ ÐµÑĤ
ĠÑįÑĤ Ð¾Ð¼
ĠÐ½ÐµÐ¾Ð±ÑħÐ¾Ð´Ð¸Ð¼ ÑĭÑħ
ĠÐ¿ÑĢÐµÐ´ÑģÑĤÐ°Ð² Ð»ÐµÐ½
ĠÐ¼Ð¾Ð½Ð¸ÑĤÐ¾ÑĢ Ð¸Ð½Ð³Ð°
ĠÐ¿ Ñĥ
ĠÐ² Ð¾Ð¿ÑĢÐ¾Ñģ
ĠÐ½ ÐµÐ·
ĠÐ· Ð°Ð²
ĠÐł Ð¤
ĠÑĦ Ð¾ÑĤ
Ġ2 19
ĠÐ¸Ð¼ Ðµ
ĠÐ¾Ð±Ñī ÐµÐ³Ð¾
0 9
ÐµÐ½ Ð½Ð¾ÑģÑĤÐ¸
Ð» ÐµÑĩ
ÑĨ Ð¸Ð¿
ĠÐ³ Ð»
ĠÑģÐ¾Ð¾ÑĤÐ²ÐµÑĤÑģÑĤÐ²ÑĥÑİÑī Ð¸Ñħ
ĠÑĢÐ°ÑģÐ¿ÑĢÐ¾ÑģÑĤÑĢÐ°Ð½ ÐµÐ½Ð¸Ñı
ĠÑģÐ°Ð¹ ÑĤ
Ġ ÑĤÐµÐº
ĠÐ¿ Ð¾ÑĤ
ĠÑģÑĤ ÑĢÐ°Ñħ
ÑĥÑĢ ÑģÐ¾Ð²
ĠÐ¾Ð¿ ÑĭÑĤ
ÐµÐ± ÑİÐ´Ð¶ÐµÑĤ
Ð¸ÑĤÐµÐ» Ñı
ĠÐºÐ¾Ð¼Ð¿ÐµÑĤ ÐµÐ½
ÐµÐ½ Ð¸
ĠÐ´ Ð°ÑĤ
ÐµÑĤ Ð°
ĠÐ° ÑĥÐ´
ĠÑģÐ¾ÑģÑĤÐ°Ð² Ð»ÑıÐµÑĤ
Ð°ÑĢÑĤ Ð½ÐµÑĢ
ĠÐ·Ð°Ð¿ ÑĢÐ¾Ñģ
ĠÑģÐ²ÐµÐ´ ÐµÐ½Ð¸Ð¹
Ð¾Ñį Ð»ÐµÐºÑĤÑĢÐ¾Ð½
ĠÑĢÐ°ÑģÑģ Ð¼Ð¾ÑĤÑĢ
ĠÐ½Ð°Ð»Ð¸Ñĩ Ð¸Ð¸
Ð¾ÑĢ Ð¾Ð´
ĠÐ´ Ð¸
ĠÐ³ Ð°Ð·
Ð°Ð¼ ÐµÐ½ÑĤ
ĠÐ¸ÑģÐ¿ ÑĭÑĤ
Ð°ÑİÑī Ð¸Ðµ
Ġ0 8
ĠÐ¿Ñĥ ÑĤÐµÐ¼
Ġ ÐµÐ´Ð¸
ĠÐ´ ÐµÐ¹ÑģÑĤÐ²
ĠÑĤ Ð¸Ð¿
Ð¾Ð± ÑĢÐ°Ð·
Ð¸ÑģÑĤ ÑĢ
ĠÑĤÐµÑħ Ð½Ð¸ÐºÐ¸
Ð°Ð¿ Ð¸ÑĤ
ĠÑĨÐµÐ» Ð¸
Ġ201 8
ĠÐ¿ÑĢÐ¸Ð» Ð¾Ð¶ÐµÐ½Ð¸Ñı
Ġ ÐµÐ¶
Ñģ ÑĥÑĤ
ÑĢ Ð¾Ñĩ
Ð°Ð½ ÑĤ
ĠÑĢ ÐµÐº
Ð¸ÑĤ Ñĥ
ĠÑį Ð»ÐµÐ¼
ÐµÑħ Ð°Ð½
Ġ2 7
ĠÐ³Ð¾ÑģÑĥÐ´Ð°ÑĢ ÑģÑĤÐ²Ð°
Ð¸ÑĨÐ¸ Ð¾Ð½
ĠÑįÑĤ Ð°Ð¿
ĠÐ°Ð²ÑĤ Ð¾Ð½Ð¾Ð¼
ĠÐ¿Ð¾ÑģÐ» Ðµ
ÐµÑĢÑĪ ÐµÐ½
2 2
ĠÐ½ Ð¾Ð²Ð¾Ð³Ð¾
ĠÐ¾ ÑĦ
Ð¸ÑĨ Ð¸Ð¹
Ð¸Ð¶ ÐµÐ½Ð¸Ðµ
Ð¸ÑĦÐ¸ÑĨÐ¸ ÑĢ
ĠÐ¶Ð¸Ð·Ð½ Ð¸
o n
Ð Ń
ÑĢ ÐµÐ¶Ð´
ÐµÑĢ Ð½ÑĭÑħ
ĠÐ½ ÐµÐºÐ¾Ð¼
ĠÐ¾Ð± Ð»Ð°ÑģÑĤ
ĠÐ¸Ð½ Ð¸ÑĨÐ¸
ĠÐ» Ð¸Ð±Ð¾
ĠÐ²Ð½ ÑĥÑĤÑĢ
ĠÑĥÑģÑĤÐ°Ð½Ð¾Ð²Ð»ÐµÐ½ Ð½Ð¾Ð¼
ĠÑĢÐ°Ð·Ð¼ÐµÑĢ Ð°
ĠÐ¿Ð¾Ð´Ð¿ Ð¸Ñģ
ĠÑĦÐ¸Ð½Ð°Ð½Ñģ Ð¸ÑĢÐ¾Ð²Ð°Ð½Ð¸Ñı
ĠÑı Ð½
ĠÐ½ÐµÐºÐ¾Ð¼ Ð¼ÐµÑĢÑĩÐµ
Ð° ÑİÑĤ
ĠÑĢ ÐµÐºÐ¾Ð¼ÐµÐ½Ð´
ĠÐ· Ð°ÑĤÑĢÐ°ÑĤ
ĠÐ¾ÑĤ Ð´ÐµÐ»ÑĮ
Ð¸Ðº Ðµ
Ð¾ÑĤÑĢ ÑĥÐ´
Ð¿ÑĢ Ð¾
Ðķ ÐĿ
Ġ Ð¸Ð´
ÑĢ ÐµÑģ
ĠÐ¿ Ð¾Ð¼
ĠÑģ Ð¾ÑĤÑĢÑĥÐ´
Ð¾Ð± ÐµÑģÐ¿ÐµÑĩ
Ġ20 30
ĠÐ» ÐµÐº
Ð²Ð¸ÑĤ Ð¸Ðµ
ĠÐ¿ÑĢÐ¾Ð¸Ð·Ð² ÐµÐ´
ÑģÑĤÑĢÑĥ Ðº
ĠÐ ķ
ĠÐ¸Ð½ ÑĤÐµÑĢ
ĠÐ¼ Ð¸Ðº
ĠÐ¼ Ð¾Ñī
ĠÑģÑĢÐµÐ´ ÑģÑĤÐ²Ð°
Ġ0 9
ĠÑģÑĢÐ¾Ðº Ð¸
ĠÐ½ÐµÐ´ Ð¾ÑģÑĤ
Ð²Ð°ÑĢ Ñı
ĠÑıÐ½ Ð²Ð°ÑĢÑı
Ñĥ Ñħ
Ðº Ð¾Ð¼
Ð² ÐµÑĢ
ĠÐº ÑĥÐ»ÑĮÑĤ
Ð°Ð»ÑĮ Ð½Ð¾Ð¼
Ð¸ÑĤ ÑģÑı
Ð± ÑĢÑı
Ð°Ð» Ð¸Ð·Ð°ÑĨÐ¸Ð¸
ÑıÐ· Ñĭ
ĠÐ¿Ð¾Ðº Ð¾Ð»
ĠÑĥÑĩÐ°ÑģÑĤ Ð½Ð¸ÐºÐ¾Ð²
Ġ202 2
Ð¸ÑĦÐ¸Ðº Ð°ÑĨÐ¸Ð¸
Ġ ÑıÐ·Ñĭ
ĠÑĢ Ð¸ÑģÐº
Ġ1 3
ĠÑįÐº Ð¾Ð»Ð¾Ð³
ĠÐ¾Ð¿ Ð»Ð°ÑĤ
ĠÐ³Ð¾ÑģÑĥÐ´Ð°ÑĢÑģÑĤÐ²ÐµÐ½ Ð½ÑĭÐµ
Ðŀ Ð¡
Ð°Ð¹ Ð´
ĠÐ·Ð½Ð°Ñĩ ÐµÐ½Ð¸Ðµ
ĠÐ´ÑĢÑĥÐ³ Ð¸Ñħ
ĠÑģÐ°Ð¹ ÑĤÐ°
ĠÑģ Ð±Ð¾ÑĢ
ĠÐ² Ð¾Ñģ
Ð¾ÑģÑĤ Ð¸Ð½Ð³Ð°
ĠÐ»Ð¸ÑĨ Ð¾Ð¼
ĠÑħ Ð¾ÑģÑĤÐ¸Ð½Ð³Ð°
ĠÑĦÐµÐ´ÐµÑĢÐ°Ð»ÑĮ Ð½ÑĭÐ¼Ð¸
Ð¸ÑĢÑĥ ÐµÑĤÑģÑı
2 5
Ð¸Ñĩ Ð½Ð¾Ð¹
ĠÐ¾ ÑħÑĢÐ°Ð½
Ð»ÑİÑĩ ÐµÐ½
Ð¿ÑĢ Ð¾Ð³ÑĢÐ°Ð¼Ð¼
2 7
8 6
Ð¾ Ð½Ñĭ
Ðº Ð¾Ð½
ĠÐ² Ð»
ĠÐ¿ÐµÑĢ Ð²
ĠÐ¿Ð¾Ð´ ÑĤÐ²ÐµÑĢÐ¶Ð´
ĠÑĢÐ°Ð·Ð²Ð¸ÑĤ Ð¸Ñİ
ĠÐ¾Ð±ÐµÑģÐ¿ÐµÑĩ Ð¸ÑĤÑĮ
Ġ202 1
ĠÐ¿ÐµÑĢÐµÑĩ ÐµÐ½ÑĮ
ĠÐ²Ð¾Ð» Ð½Ñĭ
ÐµÑĢ Ð½
Ð½Ð¾Ð ·
Ð°Ð» Ð¸ÑģÑĤ
ĠÑĢÐµ ÑĪÐµÐ½Ð¸Ðµ
ĠÐ¸Ð½ÑĦÐ¾ÑĢÐ¼Ð°ÑĨÐ¸Ð¾Ð½ Ð½Ð¾Ð³Ð¾
ĠÑįÑĤ Ð¾Ð³Ð¾
ÐĺÑģÐº Ð»ÑİÑĩÐµÐ½
ĠÐ¿ÑĢÐµÐ² ÑĭÑĪ
0 4
Ñĥ ÑīÐµ
Ð¾ÑĤ ÐµÑħÐ½Ð¾Ð»Ð¾Ð³
ĠÑĤ Ð¾ÑĢÐ³
ÑĪ Ðµ
ĠÑĢÐ°Ð· Ð°
ĠÐ± Ð»
Ð¸ÑĤÐµÐ»ÑĮ Ð½Ð¾
ĠÐ» Ð°Ð·
ĠÐ¾ÑĢÐ³Ð°Ð½Ð¸Ð· Ð°ÑĨÐ¸ÐµÐ¹
ĠÐ¾Ð±ÑĢÐ°Ð±Ð¾ÑĤ ÐºÐ°
ĠÑģÐ¾Ð² ÑĢÐµÐ¼
ĠÑĢÐ°Ð±Ð¾Ñĩ ÐµÐ¹
ĠÐ°ÐºÑĤ Ñĥ
ĠÐ¾ÑģÑĥÑīÐµÑģÑĤÐ²Ð»ÑıÑİÑī Ð¸Ð¹
ĠÑĥÐ¿Ð¾Ð»Ð½Ð¾Ð¼Ð¾ÑĩÐµÐ½ Ð½ÑĭÐ¼
ĠÐ¿ÑĢÐ¸Ð½ÑıÑĤ Ð¸Ñı
ĠÐ¿ÑĢÐµÐ´Ð¿ÑĢ Ð¸Ð½Ð¸Ð¼
ĠÐ¿Ð¾Ð´Ð³Ð¾ÑĤÐ¾Ð² ÐºÐ¸
ĠÐ³ÑĢÑĥÐ¿Ð¿ Ñĭ
ĠÐ²ÑĭÑĩÐ¸ÑģÐ» Ð¸ÑĤÐµÐ»ÑĮÐ½ÑĭÑħ
ĠÐ¿Ð¾ÐºÐ¾Ð» ÐµÐ½Ð¸Ñı
2 1
4 3
Ġ Ð°Ð³
Ð°Ð½ Ð½ÑĭÐµ
ÑģÐº Ð¾Ð¼
ÑģÐº Ð°Ñı
Ð°Ð»ÑĮ Ð½ÑĭÐ¼
Ð°ÑĢ Ð¾Ð²
ĠÑĤÐ°Ðº Ð¾Ð³Ð¾
ĠÐºÐ¾Ð¼Ð¿ Ð¾Ð½
ĠÑĢÐ°Ð·ÑĢÐ°Ð±Ð¾ÑĤ ÐºÐµ
ĠÑģÐ»ÐµÐ´ÑĥÑİÑī ÐµÐ³Ð¾
ÑĩÐ¸Ðº Ð¾Ð²
ĠÐ°Ð½Ð°Ð» Ð¸Ð·
ĠÑģÐµ ÑĤÐµÐ¹
ĠÐ½ Ð°Ð·Ð½Ð°Ñĩ
ĠÑĢÐ°Ð· Ð´ÐµÐ»
ĠÐ³Ð¾Ð´ Ñĭ
ĠÐºÐ¾ÑĤÐ¾ÑĢ Ð¾Ð³Ð¾
ĠÐ¿ÑĢÐ¾Ð² Ð°Ð¹Ð´
ĠÐ¿Ð¾ÑĢÑıÐ´ ÐºÐ°
ĠÐ²Ð¾Ð· Ð²
ĠÑģÑĤÑĢÐ°Ð½ Ñĭ
ĠÐ°Ð´ ÑĢÐµÑģ
ÑģÑĤ ÑĥÐ¿
ĠÐ¿ÑĢ Ð¸Ð·Ð½
ĠÐº Ð°Ð¿Ð¸ÑĤ
ĠÐ½Ð°ÑģÑĤÐ¾ÑıÑī Ð¸Ð¼
Ð°ÑİÑī ÐµÐ¹
ÑĤÑĢ Ð°ÑĤ
ĠÐ´ÐµÑıÑĤÐµÐ»ÑĮ Ð½Ð¾ÑģÑĤÑĮ
ĠÐ´Ð¾Ð¿ Ð¾Ð»Ð½
ĠÐºÐ¾ÑĢ Ð¿
ĠÐ·Ð°Ð¸Ð½ÑĤÐµÑĢÐµÑģ Ð¾Ð²Ð°Ð½
ĠÐ¿ Ð°ÑĢÑĤÐ½ÐµÑĢ
Ñĩ Ð°ÑģÑĤ
ĠÐ¿ÑĢ ÐµÐ¿
Ð°Ð»ÑĮ Ð½ÑĭÐ¼Ð¸
ĠÐ¾ÑĤ ÐµÑĩÐµ
ĠÐ¾ÑĤ ÑģÑĥÑĤ
Ġ1 1
ĠÑģÑĤ ÑĢÑĥÐºÑĤÑĥÑĢ
Ðĺ Ð¡
ĠÐļ Ð¾Ð¼
ĠÐ¿ÑĢÐµÐ´ÑĥÑģ Ð¼Ð°ÑĤÑĢ
ĠÐ¾ÑĤÐ²ÐµÑĤ ÑģÑĤÐ²ÐµÐ½
8 5
Ġ Ð°Ð±Ð·Ð°ÑĨ
ÑĨ Ð¸Ñı
Ð¾Ñģ Ð¼
ĠÐ· Ð°Ð¼
ĠÐ³Ð¾ÑģÑĥÐ´Ð°ÑĢ ÑģÑĤÐ²
Ð¸ÑĢÐ¾Ð²Ð°Ð½ Ð¸Ñİ
Ð¾Ð²Ñĭ Ð¼
201 5
Ð¸ÑĤÐµÐ» ÐµÐ¼
Ġ12 61
ĠÐ¿ÑĢÐ¾ÑĤ Ð¸Ð²
ĠÐºÑĢÐ¸ÑĤ ÐµÑĢ
3 9
ÑģÐº Ð¸Ð¹
ĠÐ´ Ð¾Ð²ÐµÑĢ
ĠÐº Ð°Ð´
ÐµÐ¼ ÑĭÐµ
Ð¾Ð± Ð»ÐµÐ¼
ÑĢÐµÐ´ ÑģÑĤÐ²Ð¾Ð¼
ĠÐľ Ð¾ÑģÐº
ĠÑĢÐµÐ¶ Ð¸Ð¼
ĠÐ¿Ð¾Ð²Ñĭ ÑĪÐµÐ½Ð¸Ñı
Ð°Ð¶ Ð´
ĠÐµÐ¶ ÐµÐ³Ð¾Ð´
ĠÐ²Ð½ÑĥÑĤÑĢ ÐµÐ½
2 9
ĠÐ¸ Ð½ÑĭÐµ
Ð¼ ÐµÑĤ
ÑģÑĤÐ² ÑĥÑİÑī
ÑģÐº Ð¸Ðµ
Ð¸Ð· Ñĥ
ĠÐºÐ¾Ð¼ Ð¸ÑģÑģÐ¸Ð¸
ĠÐºÐ¾ÑĤÐ¾ÑĢ ÑĭÐ¼
Ð¿ÑĢ Ð¸
ÑıÑĤ ÑĮ
ĠÐ¿Ð» Ð°Ð½Ð¾Ð²
ĠÐ¼ÐµÑģÑĤ Ð½Ð¾Ð³Ð¾
3 5
Ð°Ð½ Ð¸Ð¸
ĠÑģ Ð¾Ð¿ÑĢÐ¾Ð²
ĠÐ´ ÐµÐ»
ĠÑĥ Ð»
ÐµÐ¼ Ñĥ
ĠÐ¼ ÐµÑħÐ°Ð½
ĠÐ± Ñĭ
ĠÐ± ÑĥÐ´
ĠÑĥÑĩ ÑĢÐµÐ¶Ð´
ĠÑĥÐºÐ°Ð·Ð°Ð½ Ð½ÑĭÐµ
ĠÐ¿ÑĢÐ¸Ð½ Ð¸Ð¼Ð°
ĠÑģÐ¿ÐµÑĨÐ¸ Ð°Ð»Ð¸ÑģÑĤ
ĠÐ½Ð¾ÑĢÐ¼Ð°ÑĤÐ¸Ð² Ð½Ð¾
ĠÑĥÐ²ÐµÐ´Ð¾Ð¼ Ð»ÐµÐ½Ð¸Ñı
Ġ ÑĤÐµÐ¼
Ð½Ð¾Ð ³
ĠÐ¿ÑĢ Ð¸Ð±
ĠÑĢ Ð¾ÑģÑĤ
ĠÐ¸Ð½ÑĦÐ¾ÑĢÐ¼ Ð°ÑĨÐ¸Ñı
ĠÐ¸Ð· Ð´ÐµÐ»
ĠÑĥÐ¿ ÑĢÐ°Ð²
ĠÑĢÐµÑģ ÑĥÑĢÑģÐ¾Ð²
ĠÐ¾Ð±ÑĬÐµÐ¼ Ð°
ĠÐ¸Ð½ÑĤÐµÐ³ ÑĢ
ĠÐ¸Ð´ ÐµÐ½ÑĤ
Ð½ Ð°Ð¿ÑĢÐ°Ð²
Ð¸Ð¼ ÑĭÑħ
Ð¸ÑĢ ÑĥÑİÑī
ĠÑĢÐµÐ·ÑĥÐ»ÑĮÑĤÐ°ÑĤ Ðµ
ĠÐ»Ð¸ÑĨ Ð¾
ĠÐ¿ÑĢÐ¸Ð½ ÑĨÐ¸Ð¿
ĠÐºÐ¾Ð¼Ð¿Ð»ÐµÐºÑģ Ð°
ĠÑĢÐ°ÑģÐ¿ÑĢÐ¾ÑģÑĤÑĢÐ°Ð½ Ñı
ĠÐ¸Ð·Ð¼ÐµÐ½ ÐµÐ½Ð¸Ñı
ĠÐºÐ¾Ð½ÐºÑĥÑĢÐµÐ½ÑĤÐ¾ÑģÐ¿Ð¾ÑģÐ¾Ð± Ð½ÑĭÑħ
ĠÑģÐ°Ð¼ Ð¾
ĠÑĢÐ°Ð·Ð»Ð¸Ñĩ Ð½ÑĭÑħ
3 1
Ðµ ÑĪ
ÑĢ Ð¾Ð·
ĠÐ² Ð¾Ð´
Ð°Ð»ÑĮ Ð½Ð¾Ðµ
Ð°ÑĤ Ð°
ĠÐ¸Ð½ ÑĤÐµÑĢÐµÑģ
ĠÐ¾ Ñĩ
ĠÑĦÐ¾ÑĢÐ¼ Ð¸ÑĢÐ¾Ð²Ð°Ð½Ð¸Ðµ
ÑıÐ² Ð»ÐµÐ½
ĠÐ¿ÑĢÐ¾Ð³ÑĢÐ°Ð¼Ð¼ Ð½Ð¾Ð³Ð¾
ĠÑģÐ²ÑıÐ· Ð°Ð½Ð½ÑĭÑħ
ĠÑģÑĦÐµÑĢ Ñĭ
ĠÑĢÐµÑģÑĥÑĢÑģ Ð°
ÐµÑĢÑĪÐµÐ½ ÑģÑĤÐ²
ĠÑģÐ¾Ð¿ÑĢÐ¾Ð² Ð¾Ð¶Ð´
ÐµÐº Ñģ
ĠÑĥÑģÑĤ ÑĢÐ¾Ð¹
ĠÐ½Ð°Ð¿ÑĢÐ°Ð² Ð»ÑıÐµÑĤ
ÑıÑī Ð¸Ñħ
ÑĤÑĢÐ°ÑĤ Ð¸Ð»
t i
Ð¾ Ð¾ÑħÑĢÐ°Ð½
ĠÐ¿ Ð¾ÑĢ
ĠÐ² Ð°Ð»
Ð¾Ð³ Ð½Ð¾Ð·
ĠÐ·Ð°Ðº Ð°Ð·
ĠÑĢÐ°Ð·ÑĢÐ°Ð±Ð¾ÑĤ Ð¾Ðº
Ðł ÐĲ
ĠÑĥÑģÐ»Ð¾Ð² Ð¸Ñı
ĠÐ·Ð½Ð°Ñĩ ÐµÐ½Ð¸Ð¹
ĠÐ¿Ð¾Ñģ ÑĢÐµÐ´ÑģÑĤÐ²Ð¾Ð¼
ĠÐ²Ñģ ÐµÑħ
ĠÐ¸ÑĤÐ¾Ð³ Ð°Ð¼
Ġ219 2
I I
ÐµÐ½ Ð¾
ĠÐ¿ÑĢ Ð¸Ñĩ
Ð´ Ð½
ĠÐ¾ÑĤ ÑĢÐ°Ñģ
ÑĢÐ°Ð¼ Ð¸
ĠÑģÐ¾ÑĨÐ¸ Ð°Ð»ÑĮÐ½Ð¾
ĠÐ¾ÑĤÑĢÐ°Ñģ Ð»Ñı
Ð¼ ÐµÑģÑĤ
Ð¸Ð» Ð¾ÑĤ
Ġ2 8
ĠÐ¿Ð¾Ð» Ð½Ð¾Ð¼Ð¾Ñĩ
ĠÑĥÑģÑĤÐ°Ð½Ð¾Ð²Ð»ÐµÐ½ Ð½ÑĭÑħ
ĠÑĢÐ°Ð·Ð¼ÐµÑī ÐµÐ½Ð¸Ñı
ĠÐ²Ð¾Ð·Ð¼Ð¾Ð¶ Ð½Ð¾ÑģÑĤÐ¸
ĠÐ¦ ÐµÐ½ÑĤ
ĠÐºÐ¾Ð¼Ð¿ÐµÑĤÐµÐ½ ÑĨÐ¸Ð¹
ĠÐºÐ¾ÑĢÐ¿ Ð¾ÑĢ
Ð¾Ð½ Ð¾Ð²
Ð¸Ð· Ð°ÑĨÐ¸Ñı
ĠÐ½Ð° ÑħÐ¾Ð´
ĠÑį Ð»ÐµÐºÑĤÑĢ
ĠÐŁÑĢÐ°Ð²Ð¸ÑĤÐµÐ»ÑĮ ÑģÑĤÐ²Ð¾
Ð¸Ð²Ð° ÑİÑĤÑģÑı
ĠÐ½ÐµÐ¾Ð±ÑħÐ¾Ð´Ð¸Ð¼ Ð¾ÑģÑĤÐ¸
ĠÐºÐ¾Ð½ÑĤÑĢ Ð¾Ð»ÑĮ
ĠÐ¿ÑĢÐ¸Ð¼ÐµÐ½ Ñı
ĠÐ°ÐºÑĤ Ð¸Ð²
Ð°Ñī Ð¸Ñħ
ĠÐ¾Ð±ÑıÐ·Ð°ÑĤÐµÐ»ÑĮ ÑģÑĤÐ²
ĠÐ²Ð¸Ð´ Ðµ
ĠÐ¼Ð¾Ð´ÐµÐ» Ð¸
ĠÑįÐ½ÐµÑĢÐ³ ÐµÑĤ
ĠÐ¿ÑĢÐ¾Ð²Ð°Ð¹Ð´ ÐµÑĢ
ĠÐ½ ÐµÐ¹
ÐµÑĤ ÑĮ
Ð°ÑĨÐ¸Ð¾Ð½ Ð½Ð¾Ð¹
ĠÐ¸ÑģÐºÑĥÑģ ÑģÑĤÐ²ÐµÐ½
Ð¸ÑĢÐ¾Ð²Ð°Ð½ Ð½Ð¾Ð³Ð¾
ĠÐ¿ÑĢÐµÐ´ÑģÑĤÐ°Ð² Ð»ÐµÐ½Ð¸Ñı
ĠÐ¼ÐµÐ¶Ð´ Ñĥ
ĠÐ¿ÑĢÐ¸Ð² Ð»ÐµÑĩ
ĠÐ¿Ð¾ÑģÐ» ÐµÐ´
ĠÐ¾ÐºÐ°Ð· ÑĭÐ²
ĠÐ²Ð¾Ð·Ð² ÑĢÐ°ÑĤ
ÐµÐ½ Ð½ÑĭÐ¼
ĠÐº Ð¾
ÑĪ Ð¸Ð¼
ÑİÑī Ð¸Ðµ
ĠÐ¿Ð¾Ð» Ð¾Ð¶
ĠÐ¿ÑĢÐ¾ÐµÐºÑĤ Ñĭ
ĠÐ¿ÑĢÐ¾ÐµÐºÑĤ Ð¸ÑĢÐ¾Ð²Ð°Ð½Ð¸Ñı
ÑĥÐ¿ ÑĢÐ°Ð²Ð»ÐµÐ½Ð¸Ñı
Ð¸Ð·Ð² Ð¾Ð´
Ġ201 1
ĠÑĥÐºÐ°Ð·Ð°Ð½ Ð½Ð¾Ð¹
ĠÑģÐ»ÑĥÑĩ Ð°Ñı
ĠÐ¿ÑĢÐ¸Ð¾ÑĢÐ¸ÑĤÐµÑĤ Ð½ÑĭÑħ
Ð §
Ġ Ð°Ð»
ÐµÐ½ Ð½Ð°Ñı
ÐµÑĤ ÑĢ
Ð¸ÑĢ Ð¾Ð²Ð°ÑĤÑĮ
ĠÐ¾ÑģÑĥÑīÐµÑģÑĤÐ² Ð»ÐµÐ½Ð¸Ñı
ĠÐ·Ð°ÐºÐ¾Ð½ Ð°Ð¼Ð¸
ĠÑįÐºÐ¾Ð½Ð¾Ð¼ Ð¸ÑĩÐµÑģÐºÐ¾Ð¹
ĠÑħ Ð¾Ð·ÑıÐ¹
ĠÑĦÐµÐ´ÐµÑĢÐ°Ð»ÑĮ Ð½ÑĭÐµ
ĠÑģÐ¾Ð² ÐµÑĢÑĪÐµÐ½ÑģÑĤÐ²
ĠÐ¼ÐµÐ´Ð¸ÑĨÐ¸Ð½ ÑģÐºÐ¾Ð¹
ĠÑħÐ°ÑĢÐ°ÐºÑĤÐµÑĢ Ð¸ÑģÑĤ
ĠÐ´Ð¾Ð³Ð¾Ð² Ð¾ÑĢ
ĠÐ¿Ð¾ÑĤ ÐµÐ½ÑĨÐ¸
ĠÐ¼ÐµÑħÐ°Ð½ Ð¸Ð·Ð¼
Ðµ ÑģÐ¾Ð²
Ð² Ð¾Ð´
ĠÑģ ÐµÐ±
ÐµÑĢ Ð°ÑĨÐ¸Ð¸
ĠÐº Ð¾Ð»Ð¸ÑĩÐµÑģÑĤÐ²Ð¾
ÑĢÐ°Ð² Ð¾Ð¾ÑħÑĢÐ°Ð½
ĠÐ¿ÑĢÐ°Ð² Ð°
ĠÑĢÐµÐ·ÑĥÐ»ÑĮÑĤÐ°ÑĤ Ñĭ
ĠÑĢÐ°Ð·ÑĢÐ°Ð±Ð¾ÑĤ ÐºÐ°
ĠÐ¼ÐµÑĢ Ñĭ
ĠÐ±Ð°Ð· Ð¾Ð²ÑĭÑħ
ĠÑĥÑĩÐµÑĤ Ð°
ÑĤÐµÐ»ÐµÐºÐ¾Ð¼Ð¼ÑĥÐ½Ð¸ÐºÐ°ÑĨÐ¸Ð¾Ð½ Ð½ÑĭÑħ
ĠÑĤÐ¾ÑĢÐ³ Ð¾Ð²
Ġ ÑĤÐµÐ»
Ð½ Ð¸ÑĩÐµ
Ñı Ð±ÑĢÑı
ĠÐ¿ÑĢ ÐµÐº
ĠÐ½ Ð¸Ñħ
ĠÐº Ð»ÑİÑĩ
ÑĪ Ð¸Ðµ
ĠÐ¿ÑĢÐµÐ´ Ð¿
ĠÐ¿ÑĢÐµÐ´ Ð»Ð¾Ð¶
Ð¸Ð² Ð°Ð½Ð¸Ñı
ĠÐ¾Ñģ Ð¾Ð±
ĠÐ¿Ð¾Ð» Ð¾Ð¶ÐµÐ½Ð¸Ñı
ĠÐ²Ñĭ Ð´ÐµÐ»
ÐµÐ¶ Ð½ÑĭÑħ
ĠÑģÑĥÐ±ÑģÐ¸Ð´ Ð¸Ð¹
ĠÑĢÐ°Ð·ÑĢÐ°Ð±Ð¾ÑĤ ÐºÑĥ
ĠÐ¾Ð±ÑĢÐ°Ð· Ð¾Ð²Ð°Ð½Ð¸Ð¹
ĠÐ¸ÑģÐ¿Ð¾Ð»ÑĮÐ·Ð¾Ð²Ð°Ð½ Ð¸Ðµ
ÑĤÐµÐ»ÐµÐºÐ¾Ð¼Ð¼ÑĥÐ½Ð¸ÐºÐ°ÑĨÐ¸Ð¾Ð½ Ð½Ð¾Ð¹
ĠÑģÑĤÐ°Ð½Ð´ Ð°ÑĢ
ĠÐ¿Ð¾Ð»ÑĮÐ·Ð¾Ð² Ð°ÑĤÐµÐ»ÐµÐ¹
ĠÐ²Ð¾Ð¿ÑĢÐ¾Ñģ Ð°Ð¼
ĠÐ¿Ð¾Ð¼ Ð¾Ñī
ĠÐ¿ÑĢÐµÐ´Ð¿ÑĢÐ¸Ð½Ð¸Ð¼ Ð°ÑĤÐµÐ»ÑĮ
ĠÑģÐ°Ð¼Ð¾ ÑĥÐ¿ÑĢÐ°Ð²Ð»ÐµÐ½Ð¸Ñı
ĠÐ¾ÑĤÑĢÐ°ÑģÐ»Ñı Ñħ
Ð¸ ÑĪ
Ðµ ÑĨ
ĠÐ² ÑģÑĤÑĥÐ¿
ĠÐ¾ÑĤ Ð½Ð¾Ñģ
Ð°ÑĤÐµÐ» Ñı
ĠÑģÐ» ÑĥÐ¶
ĠÐ¿ÑĢÐ¾Ð² Ð¾Ð´
Ð¸ÑĦ ÑĢÐ¾Ð²
ĠÑģÐ¾Ð± ÑģÑĤÐ²ÐµÐ½
ĠÑģÐ¾Ð´ÐµÑĢÐ¶ Ð°Ð½Ð¸Ñı
ĠÐ¿ÑĢÐ¸Ð» Ð¾Ð¶
ĠÑģÐ¾ÑģÑĤÐ¾ÑıÐ½ Ð¸Ñİ
ĠÐ¿Ð¾Ð»Ð¸ÑĤ Ð¸ÐºÐ¸
ĠÐºÐ°Ð´ ÑĢÐ¾Ð²
6 4
Ð½ ÐµÐ³Ð¾
Ðº Ð¾Ð²ÑĭÐ¹
Ñĩ Ð¸ÑĤ
ĠÑģ Ð¼
ĠÐº Ð°Ð¶Ð´
Ð³ Ð¾ÑĢÐ¸ÑĤ
Ð°ÑĢ Ð½ÑĭÑħ
ĠÐ¿Ð¾ Ð¸ÑģÐº
Ġ10 14
ÑĥÐ¶ Ð´
ĠÐ´ÑĢÑĥÐ³ Ð¸Ðµ
ĠÐ¿ÐµÑĢÑģÐ¿ÐµÐºÑĤÐ¸Ð² Ð½ÑĭÑħ
Ð¦ Ð¸ÑĦÑĢÐ¾Ð²
ĠÐ¿Ð°ÑģÐ¿ Ð¾ÑĢÑĤÐ°
ĠÐ°Ð²ÑĤÐ¾Ð¼Ð°ÑĤ Ð¸Ð·
ĠÐ²Ð¾Ñģ ÑģÑĤ
ĠÐ¿ÑĢÐ¸Ñĩ Ð¸Ð½
Ð³Ð¾ÑĢÐ¸ÑĤ Ð¼
ÐµÐ½ Ñģ
ĠÐ¿ Ð¸Ð»Ð¾ÑĤ
Ð¾ÑĢ Ð¾Ð¶
Ð´ Ð¸Ð½
ĠÐ· Ð°Ð½
ĠÐ¾ÑĤ ÐºÐ°Ð·
ĠÐ³ Ð¾ÑĢÐ¾Ð´
Ð¸ÑĩÐµÑģÐº Ð°Ñı
ĠÐºÐ¾ÑĤÐ¾ÑĢ Ð¾Ð¹
Ð°ÑİÑī ÐµÐ³Ð¾
ĠÐ¾ÑģÑĥÑīÐµÑģÑĤÐ²Ð»Ñı ÑĤÑĮ
Ġ201 2
ĠÐ¾ÑĤÑĩÐµÑĤ Ð½Ð¾Ð¼
ĠÐ²Ð¾Ð·Ð¼Ð¾Ð¶ Ð½Ð¾ÑģÑĤÑĮ
ĠÐ·Ð´ ÑĢÐ°Ð²Ð¾Ð¾ÑħÑĢÐ°Ð½
ĠÑģÐ¾Ð¾Ð± Ñī
ĠÐ½ÐµÐºÐ¾Ð¼Ð¼ÐµÑĢÑĩÐµ ÑģÐºÐ¾Ð¹
9 1
Ð¸ ÑģÐ¿
ĠÐ Ń
Ñĩ Ð¸Ð²
ĠÐ¿ÑĢ Ð¸ÑĢ
ĠÐ¾Ð± ÑĢÐ°Ñī
Ð°Ð»ÑĮ Ð½Ð°Ñı
ĠÐŁÑĢ Ð¸
ĠÐ¿ÑĢÐ°Ð² Ð¸Ð»
Ð¡ Ð¾Ð·Ð´Ð°Ð½Ð¸Ðµ
Ð¾Ð²Ñĭ Ð¼Ð¸
ĠÑįÐºÐ¾Ð½Ð¾Ð¼ Ð¸ÐºÐ°
201 4
Ġ0 5
ĠÑģÐ»ÐµÐ´ÑĥÑİÑī Ð¸Ñħ
ĠÐ¼ÐµÐ¶Ð´ÑĥÐ½Ð°ÑĢÐ¾Ð´ Ð½ÑĭÑħ
ĠÐ½Ð°Ð¿ÑĢÐ°Ð²Ð»ÐµÐ½Ð¸Ñı Ð¼
Ð¸ÑĦÐ¸ÑĨÐ¸ÑĢ Ð¾Ð²Ð°Ð½Ð½ÑĭÑħ
ĠÑģÐ¾ÑĤÑĢÑĥÐ´ Ð½Ð¸ÑĩÐµ
ĠÑģÐ¿ÐµÑĨÐ¸Ð°Ð»Ð¸ÑģÑĤ Ð¾Ð²
0 5
4 5
ĠÐ² Ð¿ÑĢÐ°Ð²
ĠÐ¿ÑĢ Ð¸Ðº
ĠÐ¾Ð± ÑĢÐ°Ð±Ð°ÑĤÑĭÐ²
ĠÐ¼ ÐµÐ¶
Ð°Ðº Ð°ÑĤ
Ð¸Ñĩ Ð½ÑĭÑħ
Ġ2 9
ĠÐ» ÐµÑĤ
ĠÑģÑĥÐ±ÑĬÐµÐºÑĤ Ð¾Ð¼
ÐµÐ¹ÑģÑĤÐ² Ð¸Ðµ
ĠÐ¾Ð¿ÑĢÐµÐ´ÐµÐ» ÐµÐ½Ð¸Ñı
ĠÐ·Ð°ÑıÐ² ÐºÐ¸
ĠÐ¿Ð¾Ð· Ð´Ð½
ĠÐ¸Ð½Ð¾ÑģÑĤÑĢÐ°Ð½ Ð½ÑĭÑħ
ĠÑĤÑĢÐ°Ð½ÑģÐ¿Ð¾ÑĢÑĤ Ð½Ð¾Ð¹
ĠÐ¸Ð½Ð²ÐµÑģÑĤ Ð¸ÑĨÐ¸Ð¹
ĠÐ·Ð´ Ð¾ÑĢÐ¾Ð²
ĠÐ¸Ð·Ð´ÐµÐ» Ð¸Ð¹
Ð¦Ð¸ÑĦÑĢÐ¾Ð² Ð°Ñı
ĠÐ²Ð¿ÑĢÐ°Ð² Ðµ
ĠÐ¿Ð¾Ð·Ð´Ð½ ÐµÐµ
ĠÐ¸ Ð½ÑĭÐ¼Ð¸
ĠÐ¿ÑĢ Ð¾Ð±Ð»ÐµÐ¼
ĠÐ¿ÑĢ Ð¾Ð³Ð½Ð¾Ð·
Ð´ Ðµ
Ð¾Ñģ ÑĥÐ´Ð°ÑĢ
ĠÑĤÐµÑħÐ½Ð¾Ð»Ð¾Ð³ Ð¸ÑĩÐµÑģÐºÐ¾Ð¹
ÑĢÑĥ Ð¶
ĠÐ¿ÑĢÐµÐ´Ð¾ÑģÑĤÐ°Ð² Ð»ÐµÐ½Ð¸Ðµ
Ð°ÑİÑī Ð¸Ð¹
Ð°ÑĤÐ¾ÑĢ Ð¾Ð²
Ġ201 9
Ġ0 7
Ð¾Ð²Ð°ÑĤÐµÐ»ÑĮ ÑģÐºÐ¸Ñħ
ĠÑĨÐ¸ÑĦÑĢÐ¾Ð² ÑĭÑħ
ĠÐ¸ÑģÐ¿ÑĭÑĤ Ð°Ð½Ð¸Ð¹
Ġ Ð°ÑģÑģ
Ð½ Ð¸Ñħ
ÑĮ Ñı
ĠÐ² ÑĢÐµÐ´
ĠÐ¸Ð½ Ð¾Ðµ
ĠÐ¼ Ð°Ð»
Ð¸ÑĤÐµÐ»ÑĮ Ð½Ð¾Ð³Ð¾
ÑĥÑģ ÑģÑĤÐ²ÐµÐ½Ð½ÑĭÐ¹
Ð¸ÑĢÐ¾Ð²Ð°Ð½ Ð½Ð¾Ð¹
ĠÑĨÐµÐ» ÐµÐ²Ð¾Ð¹
ĠÑĥÑģÑĤÐ°Ð½Ð¾Ð²Ð»ÐµÐ½ Ð½ÑĭÐµ
Ġ15 11
ĠÐ±Ð°Ð· Ðµ
ĠÐ¾ÑĢÐ³Ð°Ð½Ð¸Ð·Ð°ÑĨÐ¸Ñı Ñħ
ÑĢÐ°Ðº ÑĤ
ĠÑĤÑĢÐ°Ð½ Ñģ
ĠÐ²Ð½ÐµÐ´ÑĢ ÐµÐ½Ð¸Ðµ
ĠÐ¿ÑĢÐ¸Ð¾ÑĢÐ¸ÑĤÐµÑĤ Ð½Ð¾Ð¹
ĠÑģÑĤÑĢÐ°Ð½ Ð¸ÑĨ
ĠÐ·Ð°ÐºÐ»ÑİÑĩ ÐµÐ½Ð¸Ñı
ĠÐ´Ð¾ÐºÑĥÐ¼ÐµÐ½ÑĤ Ð°ÑĨÐ¸Ð¸
ĠÐ¸ÑģÑĤÐ¾Ñĩ Ð½Ð¸ÐºÐ¸
Ð°Ð»Ð¸Ð· Ð°ÑĨÐ¸Ñı
ĠÐ¿Ð¾ÑģÑĤÐ°Ð½Ð¾Ð²Ð»ÐµÐ½ Ð¸Ð¹
ĠÐ¿ÑĢÐ¾Ð²ÐµÑĢ ÐºÐ¸
ĠÐŀÑģ Ð½Ð¾Ð²
ĠÐ¿ÑĢÐµÐ´Ð¿ÑĢÐ¸ÑıÑĤ Ð¸Ð¹
ĠÐ²Ð» Ð¸Ñı
ĠÐ½Ð°Ð·Ð½Ð°Ñĩ ÐµÐ½Ð¸Ñı
8 8
Ð² Ð¾
Ð² ÑıÐ·
Ð¾ÑĢ ÑģÐºÐ¸Ñħ
ĠÐº Ð»
Ð¾Ð± Ð¾Ð´
ĠÐ²Ñĭ ÑĢ
Ð°ÑĤÑĮ ÑģÑı
ĠÑģÐ¸ÑģÑĤÐµÐ¼ Ð°Ñħ
ĠÑĦÐ¾ÑĢÐ¼ Ð°ÑĤ
ĠÑģÑĤÐ°ÑĤÑĮ ÐµÐ¹
ĠÐ¿ÑĢÐ¾Ð³ÑĢÐ°Ð¼Ð¼ Ð½Ð¾
ĠÐ¿ÑĢÐ¾Ð²ÐµÐ´ ÐµÐ½Ð¸Ð¸
Ð°Ð½Ð°Ð» Ð¸ÑĤ
ĠÐ¾Ð±ÑıÐ·Ð°ÑĤÐµÐ»ÑĮ Ð½Ð¾Ðµ
ĠÐ´Ð¾Ð»Ð¶ Ð½Ñĭ
ĠÑĪ Ðº
ĠÑģÐµÐ± Ñı
Ð¾ÑĢ Ñı
Ð¾Ð¹ ÑĩÐ¸Ð²
ĠÐ½Ð° Ñĩ
ĠÐ¼ Ð¾Ð¼
ĠÐ¿ÑĢÐµÐ´ ÑĪÐµ
Ð¾Ðº ÑĥÐ¿
Ð¸ÑĢ Ð¾Ðº
Ġ2 6
ÑıÐ² Ð»ÐµÐ½Ð¸Ñı
ĠÑħ Ð°ÐºÐ°ÑĤ
ĠÐ¿ÑĢÐµÐ´ÑģÑĤÐ°Ð² Ð»Ñı
ĠÑĥÑĩÐ°ÑģÑĤ Ð¸Ðµ
ĠÐ²ÑĭÐ¿ ÑĥÑģÐº
ĠÐ³ÑĢÐ°Ð½ ÑĤÐ¾Ð²
ĠÐ½Ð°ÑĨÐ¸Ð¾Ð½ Ð°Ð»ÑĮÐ½ÑĭÑħ
ĠÐ°Ðº ÑĤÐ¾Ð²
ĠÐºÐ¾Ð½ÐºÑĥÑĢÑģ Ð°
ĠÐ¿Ð¾Ð·Ð²Ð¾Ð» Ð¸ÑĤ
ĠÑģÐ¾Ð·Ð´ Ð°Ð²
ĠÐ²Ð²ÐµÐ´ ÐµÐ½
ĠÐ²ÑĢÐµÐ¼ Ñı
ĠÑĢÐ°ÑģÑģÐ¼Ð¾ÑĤÑĢ ÐµÐ½Ð¸Ñı
ĠÑĢÐµÐº Ð¾Ð½
ĠÐļÐ¾Ð¼ Ð¸ÑģÑģÐ¸Ð¸
3 4
a l
ÐµÐ½ Ð½ÑĭÐ¼Ð¸
ĠÑģ Ðº
ĠÐº Ð°Ð·Ð½Ð°Ñĩ
ĠÑĤ Ð¾Ð²
Ð± ÑİÐ´Ð¶ÐµÑĤ
ÑĢÐ°Ð² Ð½
ĠÐ¿ÑĢÐµÐ´ Ð»
ĠÐ¿Ð¾Ð»ÑĥÑĩ ÐµÐ½Ð½ÑĭÑħ
ĠÑģÐ² Ð¾Ð±Ð¾Ð´
ÐµÐ² Ð¾Ð³Ð¾
ĠÐ¿ÑĢÐ¸ Ñģ
Ġ201 5
Ð°Ð¹ Ð½
Ġ202 3
ĠÐ½Ð°Ð¿ÑĢÐ°Ð²Ð»ÐµÐ½ Ð¸Ñİ
ĠÑĢÐ°ÑģÑģ Ð¼Ð°ÑĤÑĢ
ĠÑģÑĤÑĢÐ°Ñħ Ð¾Ð²Ð°Ð½Ð¸Ðµ
ĠÑįÐ»ÐµÐ¼ ÐµÐ½ÑĤÐ¾Ð²
ĠÐ°Ð²ÑĤÐ¾Ð½Ð¾Ð¼ Ð½Ð¾Ð¹
ĠÐºÐ°Ð·Ð½Ð°Ñĩ ÐµÐ¹
Ð° ÑĢÐ°Ð¼
Ñĥ ÐµÑĤ
ĠÐ· Ð°ÑĢ
ĠÐł Ð°Ð·
ĠÐŁ Ð¾ÑĢÑıÐ´
Ġ2 1
Ð¾Ð»ÑĮ ÐºÐ¾
ĠÑĦÐµÐ´ÐµÑĢ Ð°Ð»ÑĮÐ½Ð¾Ð¹
ĠÐ¿ÑĢÐ°Ð² Ð¾Ð²ÑĭÑħ
Ð°ÑİÑī Ð°Ñı
ĠÐ¸Ð¼ Ð¿
ĠÑĥÑģÐ»Ð¾Ð² Ð¸ÑıÑħ
ĠÑĨÐµÐ½ÑĤ ÑĢ
ĠÐ´Ð¾Ð¿ ÑĥÑģÐº
ĠÐ²ÑĭÑģÐ¾Ðº Ð¾ÑĤÐµÑħÐ½Ð¾Ð»Ð¾Ð³
ĠÐĺ Ð½
ĠÑİÑĢÐ¸Ð´ Ð¸ÑĩÐµÑģÐºÐ¾Ð³Ð¾
ĠÐ½Ð°ÑĢÑĥ ÑĪÐµÐ½Ð¸Ñı
ĠÐ¾Ð±ÐµÑģÐ¿ÐµÑĩÐ¸Ð² Ð°ÑİÑīÐ¸Ñħ
5 4
Ð ³Ð¾Ñģ
Ġ Ð¾Ð½
ÑģÑĤ ÑĢÑĥÐºÑĤ
Ðº Ð¾Ð»Ð¸ÑĩÐµÑģÑĤÐ²Ð¾
ĠÑĤ Ð¾Ñĩ
Ð¾Ð» Ð¾Ð²
Ð¸Ð¼ Ð¾ÑģÑĤÑĮ
ĠÑĤÐ°Ðº Ð¾Ð¹
ĠÐ¸Ð½ÑĦÐ¾ÑĢÐ¼Ð°ÑĨÐ¸Ð¾Ð½ Ð½ÑĭÐ¼
ĠÐ¼Ð¾Ð´ ÐµÑĢÐ½
ĠÐ¿Ð»Ð°Ð½ Ð¸ÑĢÑĥÐµÑĤÑģÑı
ĠÐ°Ð¿Ð¿Ð°ÑĢÐ°ÑĤ Ð½Ð¾
ĠÐ¿Ð¾ÑģÑĤÐ°Ð½Ð¾Ð²Ð»ÐµÐ½ Ð¸ÐµÐ¼
ĠÐºÐ² Ð°Ð»
ĠÑĥÐ³ ÑĢÐ¾Ð·
ĠÐ´Ð¾Ð¿Ð¾Ð»Ð½ Ð¸ÑĤÑĮ
3 8
ĠÐ¿ Ð¾Ð½
Ð² ÐºÐ»ÑİÑĩ
ĠÐº Ð°Ð»
ĠÐº Ð¾Ð»Ð¸ÑĩÐµ
Ð¸ÑĤÐµÐ»ÑĮ Ð½Ð¾Ð¹
Ð¾Ð± ÑĢÐµÑĤ
ĠÐ¿ÐµÑĢ ÐµÐ²
ĠÐºÐ¾Ð½ ÑĦ
ĠÐ¾ÑģÑĥÑīÐµÑģÑĤÐ²Ð»Ñı ÐµÑĤ
ĠÐ»Ð¸ÑĨ Ð°Ð¼Ð¸
ĠÑĦÐ¸Ð½Ð°Ð½ÑģÐ¾Ð² Ð¾Ðµ
ĠÑĢÐµÐ°Ð»Ð¸Ð· Ð°ÑĨÐ¸ÐµÐ¹
ĠÐĺ Ðĺ
ĠÐ¾Ð¿ÑĢÐµÐ´ÐµÐ»Ñı ÐµÑĤÑģÑı
ĠÐ¸Ð½Ð´ Ð¸Ðº
ĠÑģÑĤÑĢÐ¾Ð¸ÑĤÐµÐ»ÑĮ ÑģÑĤÐ²Ð°
ĠÐ¸Ð½Ð¸ÑĨÐ¸ Ð°ÑĤÐ¸Ð²
ĠÐ¸ÑģÐºÑĥÑģÑģÑĤÐ²ÐµÐ½ Ð½Ð¾Ð¼Ñĥ
3 7
Ð½ Ð°Ð»
ÑĢ Ð´
ÑĢ ÑĭÑĤ
Ð² Ð½
Ð¾ÑĢ Ð´Ð¸Ð½
Ð¸Ð¼ ÑĥÐ»
ÐµÐ» Ð¸
ĠÑĩ Ð»ÐµÐ½
ĠÐ¿ÐµÑĢÑģÐ¾Ð½ Ð°Ð»ÑĮÐ½ÑĭÐµ
ÐµÑģ ÑģÐ¾Ð²
ĠÑĥÐºÐ°Ð·Ð°Ð½ Ð½ÑĭÐ¼
ĠÑģÐ¾Ð² Ð¾ÐºÑĥÐ¿
ĠÐ´Ð¾ÑģÑĤÐ¸Ð¶ ÐµÐ½Ð¸Ðµ
ÐºÑĢ ÐµÐ¿
ĠÐ¾Ð±ÑīÐµ ÑģÑĤÐ²Ð°
ĠÑĪ Ð¸ÑĢÐ¾Ðº
ĠÐ£ÐºÐ°Ð· Ð¾Ð¼
ĠÐ¼Ð» ÑĢÐ´
ĠÑĢÐµÐµÑģÑĤ ÑĢ
ĠÑģÐµÑĢÐ²Ð¸Ñģ Ð°
ĠÑĥÑģÑĤÑĢÐ¾Ð¹ ÑģÑĤÐ²
ĠÐºÐ°Ð» ÐµÐ½Ð´
Ð Ļ
ĠÑģ ÑĢÐ°Ð²Ð½
ĠÐ² ÑħÐ¾Ð´
ÑĢÐ°Ð »
Ð´ Ð°Ð¼ÐµÐ½ÑĤ
ĠÐ¿ÑĢÐµÐ´ ÐµÐ»
ĠÑģÑĤ ÑĢÐ°ÑĤÐµÐ³Ð¸Ð¸
ĠÑģÐ¾ ÑħÑĢÐ°Ð½
ĠÑģÑĢÐµÐ´ Ñĭ
ĠÐ³Ð¾ÑģÑĥÐ´Ð°ÑĢÑģÑĤÐ²ÐµÐ½ Ð½ÑĭÐ¼Ð¸
ĠÐ½Ð°Ð¿ÑĢÐ°Ð² Ð»Ñı
ĠÑĢÐµÐ³ Ð¸ÑģÑĤÑĢ
ĠÑĥÑģÑĤÐ°Ð½Ð¾Ð²Ð»ÐµÐ½ Ð½ÑĭÐ¼
ĠÑģÐ¾ÑģÑĤÐ°Ð² Ð»Ñı
ĠÑĥÑĢÐ¾Ð² Ð½
ĠÐ¾Ð³ÑĢÐ°Ð½Ð¸Ñĩ ÐµÐ½
ĠÑģÐ¾Ð³Ð»Ð°Ñģ Ð¾Ð²Ð°Ð½Ð¸Ñİ
ĠÐ¾ÑĤÐ½Ð¾ ÑĪÐµÐ½Ð¸Ð¹
ÑģÑĤÑĢÑĥ Ð¼
Ġ200 6
ĠÐ¾Ð¿Ð»Ð°ÑĤ Ñĥ
ĠÐ°Ð» Ð³Ð¾ÑĢÐ¸ÑĤÐ¼
ĠÐ¿ÑĢÐµÐ´ÑĪÐµ ÑģÑĤÐ²ÑĥÑİÑī
ĠÐŁÐ¾ÑĢÑıÐ´ Ð¾Ðº
4 4
ÑĤ Ð¾ÑĢ
Ñģ ÐµÐ´
ÑĢ ÐµÐ³
ĠÐ¿ÑĢ Ðµ
ÑĦ ÐµÐ´ÐµÑĢ
ĠÐ¼ Ð°ÑĢ
ĠÐ· Ð°Ð±
Ð¾Ð± ÑĢÐ°Ð½
ĠÐ³Ð¾ÑģÑĥÐ´Ð°ÑĢÑģÑĤÐ²ÐµÐ½ Ð½ÑĭÐ¼
ĠÑĦÑĥÐ½ Ð´Ð°Ð¼ÐµÐ½ÑĤ
Ð¸Ð·Ð½ ÐµÑģ
ĠÑģÐ¾Ð³Ð»Ð°Ñģ Ð¸Ñı
ĠÑĤÐµÑħÐ½ Ð¸ÑĩÐµÑģÐºÐ¸Ñħ
ĠĠĠĠĠĠĠĠ ĠĠĠĠĠĠĠĠ
ĠÐ¿ÑĢÐ¾Ð´ÑĥÐºÑĤ Ð¾Ð²
ĠÑĤÐµÐº ÑĥÑī
ĠÐ°ÑĥÐ´ Ð¸
ĠÑģÑĤÐ°Ð½Ð´Ð°ÑĢ ÑĤÐ¾Ð²
ĠÐ¿ÑĢÐ¸ÑĢ Ð¾Ð´
ĠÐ¼Ð¾Ð¼ ÐµÐ½ÑĤÐ°
Ð²ÐºÐ»ÑİÑĩ Ð°Ñı
ĠÐ¸ Ð½Ð¾Ð¹
Ð¿ Ð¾ÑĢÑıÐ´
Ð¾Ð» Ð¾Ð´
ÐµÐ½ÑĤ Ð½Ð¾Ð¹
Ð¸ÑĢ Ð¾Ð²
Ġ2 66
ĠÑĨ ÐµÐ»ÑĮ
ĠÐŁÑĢ Ð¾Ð³ÑĢÐ°Ð¼Ð¼
ĠÐ¸Ð· Ð»Ð¾Ð¶
ÑĢÐ°Ð· ÑĢÐ°Ð±Ð¾ÑĤÐºÐ°
ĠÑĥÑĩ Ð°ÑģÑĤÐ¸
Ð¸Ñģ ÑģÐ»ÐµÐ´
ĠÑĢÐ°Ð·ÑĢÐ°Ð±Ð¾ÑĤ ÑĩÐ¸ÐºÐ¾Ð²
ĠÐ´Ð¾ ÑħÐ¾Ð´
ĠÑįÑĤ Ð¸Ñħ
ĠÑħ ÑĢÐ°Ð½
ĠÐ²Ð¾Ð· Ð´
ĠÐŀ ÑĤ
ĠÐ½ÐµÐ¾Ð±ÑħÐ¾Ð´Ð¸Ð¼ Ð¾Ð³Ð¾
ÐĿ Ð°
ÑĥÐ±Ð» Ð¸Ðº
ĠÑĥÑĩÐ°ÑģÑĤ Ð¸Ñı
ĠÑĢÐ°ÑģÐ¿ÑĢÐ¾ÑģÑĤÑĢÐ°Ð½ ÐµÐ½Ð¸Ðµ
ĠÐ¾Ð±ÑĥÑĩ ÐµÐ½Ð¸Ðµ
ĠÐ¾Ð´ Ð½Ð¾Ð³Ð¾
ÑįÐºÐ¾Ð½Ð¾Ð¼ Ð¸ÑĩÐµÑģÐºÐ¾Ð³Ð¾
ÐķÐĿ Ðĺ
ĠÐ²Ð¾ÑģÑģÑĤ Ð°Ð½Ð¾Ð²Ð»ÐµÐ½
ĠÐ·Ð´ÑĢÐ°Ð²Ð¾Ð¾ÑħÑĢÐ°Ð½ ÐµÐ½Ð¸Ñı
Ġ Ð°ÑĢ
ÑĢ Ð¾Ð½
Ð» Ð°
ĠÐ¿ Ð°ÑĢÐ°Ð¼
Ð¸Ñı Ð¼Ð¸
Ð¾Ñģ Ð½
Ð¾Ñģ ÑĢÐµÐ´
ĠÐ¸Ð½ ÑģÑĤÑĢÑĥÐ¼
Ð°ÑģÑĤ Ð¾ÑıÑī
ĠÐ± Ð¸Ð·Ð½ÐµÑģ
Ð¾Ð± ÑĢÐ°Ð¶
Ð°ÑĨÐ¸Ð¾Ð½ Ð½Ð¾
Ð¾Ñĩ Ð½ÑĭÑħ
ĠÑĩÐ¸ÑģÐ» Ð¾
ÐŁ ÑĥÐ½ÐºÑĤ
ĠÐ²Ð½ ÐµÐ±ÑİÐ´Ð¶ÐµÑĤ
Ð¸Ð²Ð° ÑİÑĤ
ĠÐ²Ð¾Ð· Ð½Ð¸Ðº
Ġ5 95
ĠÐŀ Ð¿ÐµÑĢ
ĠÐ¿ÑĢÐµÐ´ÑĥÑģÐ¼Ð¾ÑĤÑĢÐµÐ½ Ð½ÑĭÐµ
Ð¸ÑĢÑĥ ÐµÐ¼ÑĭÑħ
ĠÐ°ÐºÑĤ Ñĭ
ĠÐºÐ°ÑĩÐµ ÑģÑĤÐ²Ðµ
ĠÑĥÐ¿Ð¾Ð»Ð½Ð¾Ð¼Ð¾ÑĩÐµÐ½ Ð½Ð¾Ð³Ð¾
ĠÑĨÐ¸ÑĦÑĢÐ¾Ð² Ð¾Ð³Ð¾
ĠÐºÐ¾Ð½ÐºÑĥÑĢÑģ Ð½Ð¾Ð¹
ÑĤÐµÑħÐ½Ð¾Ð»Ð¾Ð³ Ð¸ÑĩÐµÑģÐºÐ¾Ð³Ð¾
ĠÐ²Ð»Ð°Ð´ÐµÐ»ÑĮÑĨ Ð°
in g
ĠÐ¸Ð½ÑĤÐµÑĢ ÐµÑģÐ¾Ð²
ĠÐ¿ÑĢÐµÐº ÑĢÐ°Ñī
2 8
5 0
Ð½ Ð¸Ðµ
Ð» Ðµ
Ð² Ñĭ
Ð¾Ð² Ð»
ÑĮ ÑİÑĤ
ĠÐ² Ð°Ð¶
Ð¾ÑĢ Ð¾Ð½
ĠÐ´ ÐµÐº
ĠÐ¾Ð± ÐµÐ·
ĠÐ¸Ð½ Ð¶ÐµÐ½
ĠÐ³ ÐµÐ½
Ð¸ÑģÑĤ Ð°Ð»Ð»
Ð¾Ð· Ð½
ĠÑģÑĤ Ð°ÑĤ
ĠÑģÐ¸ÑģÑĤÐµÐ¼ Ñĥ
Ðł Ð¾ÑģÑģÐ¸Ð¹ÑģÐºÐ¾Ð¹
ĠÑģÐ»ÐµÐ´ÑĥÑİÑī Ð¸Ðµ
ĠÐ¾ÑĢÐ³Ð°Ð½Ð¸Ð·Ð°ÑĨÐ¸Ñı Ð¼
ĠÐ¿Ð¾ÑģÑĤ ÑĥÐ¿
ĠÑģÐµÑĢ ÑĤ
ĠÐ¿ÑĢÐ¸Ð² Ð»ÐµÐº
ĠÐ´Ð¾Ð»Ð¶ Ð½Ð¾
ĠÑĢÐ¾ÑģÑģÐ¸Ð¹ÑģÐº Ð¸Ð¼
ĠÐ¿ÑĢÐ¸Ðº Ð»Ð°Ð´
Ð ĸ
Ġ ÑħÐ¾Ð´
Ðµ Ð°Ð»Ð¸Ð·Ð°ÑĨÐ¸Ñı
Ð½ Ð°Ð·Ð½Ð°Ñĩ
ÑĤ Ð¸
Ð¾Ð² Ð¸Ð·Ñĥ
ĠÐ½ Ð¸ÑĪ
Ð´ Ð¾Ðº
ĠÐ´ Ð¾Ð¼
Ð¾Ð³ ÑĢÐ°ÑĦ
Ð± Ð·Ð°ÑĨ
ÐµÑħ Ð¾Ð´
Ð°Ñģ ÐµÐ´
Ð°Ð¿ Ð°Ð·
ĠÐ¸Ð· Ð³Ð¾ÑĤÐ¾Ð²
ĠÐºÐ¾ÑĤÐ¾ÑĢ ÑĭÐ¹
Ð¸ÑĢÐ¾Ð²Ð°Ð½ Ð¸Ð¸
ĠÑģÐ²ÑıÐ· Ð°Ð½
ĠÐ¾Ð±ÑĢÐ°Ð±Ð¾ÑĤ ÐºÐµ
ĠÐ¾Ð¿ÑĢÐµÐ´ÐµÐ» ÐµÐ½Ð½ÑĭÑħ
ĠÐ¾ÑĤÑĩÐµÑĤ Ð½Ð¾ÑģÑĤÐ¸
ĠÐ°Ðº ÑĤÐ°
ĠÐ¸ÑģÐ¿Ð¾Ð»ÑĮÐ·Ñĥ ÑİÑĤÑģÑı
ĠÐ²Ð½ÐµÑģ ÐµÐ½Ð¸Ð¸
ĠÐ¾ÑĦ Ð¸ÑĨÐ¸
Ð¿ÑĢÐ¾Ð³ÑĢÐ°Ð¼Ð¼ Ð½ÑĭÑħ
ĠÑĤÐ¾ÑĢÐ³Ð¾Ð² Ð»Ð¸
ĠÐ°ÑĥÐ´Ð¸ Ð¾Ð²Ð¸Ð·Ñĥ
7 4
Ð» Ð°Ð½
Ð¿ Ð¾Ð´
ĠÐ½ Ð¾Ð²
ĠÑĤ Ð¾Ð¿
Ð¸Ð½ Ð°Ð¼
ÑģÑĤÐ²ÐµÐ½ Ð½ÑĭÐµ
ĠÐ¿ÑĢÐµÐ´ Ð½Ð°Ð·Ð½Ð°Ñĩ
Ð¸ÑĢ ÑĥÑİÑīÐ¸Ñħ
ĠÑģÑĤ Ð¸Ð¼ÑĥÐ»
ĠÐ¾Ð±ÐµÑģÐ¿ÐµÑĩ ÐµÐ½Ð¸Ñİ
Ð¸Ñģ ÑĮ
ĠÐ¿Ð¾Ð»ÑĥÑĩÐ°ÑĤÐµÐ» Ñİ
ĠÐ¿Ð¾Ð´Ð´ÐµÑĢÐ¶ ÐºÐ°
ĠÑģÐ¾Ð² Ð¼ÐµÑģÑĤ
ĠÐ¸ÑģÐ¿Ð¾Ð»ÑĮÐ·Ð¾Ð²Ð°Ð½ Ð½ÑĭÑħ
Ð°ÐµÐ¼ ÑĭÐµ
ĠÐ¿Ð¾Ð´Ð¿ÑĥÐ½ÐºÑĤ Ð¾Ð¼
ĠÐ¸ÑģÐ¿Ð¾Ð»Ð½ ÐµÐ½Ð¸Ñı
ĠÑĢÑĥÐºÐ¾Ð²Ð¾Ð´ Ð¸ÑĤÐµÐ»ÐµÐ¼
ĠÑĥÐ» ÑĥÑĩ
4 2
9 7
Ð¸ ÐµÐ¹
ÑĢ Ð¾Ð´
ÑĢ Ð¾Ð¿
ÑģÑĤ Ð¸ÑĤÑĥ
ĠÐ¿ Ð¾ÑģÑĤÐ°Ð²
Ð² Ð°Ð»
ĠÑģ ÑĥÑīÐµ
ÐµÐ´ Ð»
ÑģÐº Ð¾Ðµ
Ð¾ÑĤ Ð½Ð¾
Ð¾ÑģÑĤ Ð°Ð½Ð¾Ð²Ð»ÐµÐ½
ĠÐº Ð¼
ĠÐ¤ÐµÐ´ÐµÑĢ Ð°Ð»ÑĮÐ½Ð¾Ð¹
ĠÐ± Ð¸
ĠÐ¾ÑĢÐ³Ð°Ð½ Ð°Ñħ
ĠÑģÑĤ Ð¾
Ð°Ñĩ Ð¸
ÑĬ ÐµÐ¼
ĠÑģÐ¸ÑģÑĤÐµÐ¼ Ð°
ĠÑģÐ² ÐµÑĢ
ĠÑĤÑĢ ÐµÑĤÑĮ
ĠÑĢÐµÐ·ÑĥÐ»ÑĮÑĤÐ°ÑĤ Ð°Ð¼
ĠÑģÐ»ÐµÐ´ÑĥÑİÑī ÐµÐ¹
ĠÐ´Ð°Ð½ Ð½ÑĭÐ¼
Ðľ Ð¸Ð½
ĠÐ¾Ð±ÑĬÐµÐ¼ Ðµ
ĠÑĢÐµÑģÑĥÑĢÑģ Ñĥ
ĠÐ½Ð°Ð» Ð¾Ð³
ĠÐĵ Ð¾ÑģÑĥÐ´Ð°ÑĢ
ĠÐ°Ð¿ ÑĢ
ĠÐ¼Ð¾Ð´ÐµÐ» ÐµÐ¹
ĠÐ¿ÐµÑĢÐµÐ´Ð°Ñĩ Ð¸
ĠÐ³Ð» Ð°Ð²
ĠÐ·Ð°Ð¸Ð½ÑĤÐµÑĢÐµÑģÐ¾Ð²Ð°Ð½ Ð½ÑĭÐµ
ĠÐ·Ð°ÐºÐ°Ð· ÑĩÐ¸Ðº
ĠÐŀÐ¿ÐµÑĢ Ð°ÑĤÐ¾ÑĢ
ĠÐ¾Ð±ÐµÐ· Ð»Ð¸Ñĩ
a r
Ð½ Ð°Ð´
Ðº Ð¸Ñħ
ĠÑģ Ð¾Ðº
ĠÐ½ Ð°Ðº
ĠÐ´ ÐµÐ½
Ð¾Ð½ Ðµ
Ð¸Ð· Ð°ÑĨÐ¸Ñİ
Ð³ Ð°Ð½
Ð¸Ðº Ñĥ
Ð»ÐµÐ½ Ð¸ÐµÐ¼
ĠÑģÐ» Ð¾Ð¶
ĠÑĥÑģÑĤ Ð¾Ð¹ÑĩÐ¸Ð²
ĠÐ¾ÑģÑĥÑīÐµÑģÑĤÐ² Ð»ÐµÐ½Ð¸Ð¸
ĠÐ¡ Ð¾Ð²
ĠÐ¿ÑĢÐ¾ÑĨ ÐµÑģÑģÐ¾Ð²
Ð°Ð± ÑĢÑı
ĠÐ¿Ð» Ð°ÑĤ
ĠÑĢÐ°ÑģÐ¿ ÑĢÐµÐ´ÐµÐ»
ĠÐ¿ÑĢÐµÐ´ÑĥÑģÐ¼Ð¾ÑĤÑĢÐµÐ½ Ð½Ð¾Ð¼
ĠÑĥÐ¿Ð¾Ð»Ð½Ð¾Ð¼Ð¾ÑĩÐµÐ½ Ð½ÑĭÐ¹
ĠÐ²Ð²ÐµÐ´ ÐµÐ½Ð°
ĠÐ¼ÐµÑģÑıÑĨ Ð°
Ð¾Ð±ÐµÑģÐ¿ÐµÑĩ ÐµÐ½Ð¸Ðµ
ĠÐ¿ÑĢÐµÐ¿ Ð°ÑĢÐ°ÑĤ
ĠÐ¾ÑĤÑģÑĥÑĤ ÑģÑĤÐ²
ĠÐ¿ÑĢÐµÐ´ÐµÐ» Ð°Ñħ
ĠÐ²Ð¾ÑģÑģÑĤÐ°Ð½Ð¾Ð²Ð»ÐµÐ½ Ð½ÑĭÑħ
ĠÐ´ÐµÐº Ð°Ð±ÑĢÑı
4 8
5 6
9 6
t e
â Ģ
Ġ I
Ð¸ ÐµÐ½ÑĤ
Ð¸ ÑĨÐ¸Ð¸
ÑĢ Ð³Ð°Ð½
ĠÐ¿ Ð¾Ð²
ĠÐ¿ Ð¾ÑģÑĤÐ°Ð½Ð¾Ð²
ĠÐ¿ÑĢ Ð¸ÐµÐ¼
ÑģÐº Ð¾
ÑģÐº Ð¸Ð¼
ĠÐ¾Ð± ÑīÐµÑģÑĤÐ²
ĠÑĥ ÑĤ
Ð°Ð² Ð¸Ñģ
ĠÑĨ ÐµÐ½
ĠÐ¿Ð¾Ð»ÑĥÑĩ Ð°ÑĤÐµÐ»ÑĮ
ĠÑĦÐ¾ÑĢÐ¼ ÑĥÐ»
ĠÑģÐ¿ ÑĢÐ°Ð²
ĠÑĥÑĤÐ²ÐµÑĢÐ¶Ð´ ÐµÐ½Ð¸Ð¸
ĠÐ¸ÑģÑĤÐ¾Ñĩ Ð½Ð¸ÐºÐ¾Ð²
ĠÐĶ Ð»Ñı
ĠÑĥÑģÑĤÐ°Ð½Ð°Ð²Ð» Ð¸Ð²Ð°ÑİÑĤÑģÑı
ĠÑģÐ¾Ð±Ð»ÑİÐ´ ÐµÐ½Ð¸Ñı
ĠÑģÐ»Ð¾Ð² Ð°Ð¼Ð¸
ĠÐ¿ÑĢÐ¾ÑĦÐµÑģÑģÐ¸Ð¾Ð½ Ð°Ð»ÑĮÐ½Ð¾Ð³Ð¾
ĠÐ¿ÑĢÐµÐ·Ð¸Ð´Ð¸ÑĥÐ¼ Ð°
ĠÑģÐ°Ð¹ÑĤ Ðµ
ĠÐ¾Ð¿ÑĭÑĤ Ð½Ð¾
ĠÐ¾ÑĤÐ´ÐµÐ»ÑĮ Ð½ÑĭÑħ
ĠÐ¾ÑĤÐµÑĩÐµ ÑģÑĤÐ²ÐµÐ½Ð½ÑĭÑħ
ĠÑģÐ»ÑĥÑĩÐ°Ñı Ñħ
ĠÐ¿ÑĢÐµÐ´Ð» Ð¾Ð¶ÐµÐ½Ð¸Ñı
Ð¿Ð¾ÑĢÑıÐ´ ÐºÐ¾Ð²ÑĭÐ¹
0 8
3 6
Ñģ ÐµÐ³Ð¾
ĠÐ ³Ð¾
ÑĢ Ð¸
ĠÑģ ÑĥÑĤ
ĠÑģ ÐµÐ»ÑĮ
ÐµÑĢ ÐµÐ´
ĠÐ² ÐµÑģ
ĠÐ´ Ð¾Ð²
ĠÐº Ð°
ĠÐ· Ð°ÑģÐµÐ´
Ð¾Ðº Ð¾Ð»
Ð¾Ð± Ð¸Ð»ÑĮ
Ġ2 2
Ġ2 61
ĠÐ³Ð¾Ð´ Ð°Ñħ
ĠÐ¸Ð½ÑĦÐ¾ÑĢÐ¼Ð°ÑĨÐ¸Ð¾Ð½ Ð½Ð¾Ð¼Ñĥ
ÐµÐ² ÑĭÐµ
Ð¸Ð¶ ÐµÐ½Ð¸Ñı
ÑıÑĤ ÑģÑı
ĠÐ²ÐºÐ»ÑİÑĩ Ð°ÐµÑĤ
ÐĲ Ð±Ð·Ð°ÑĨ
ĠÐ¸Ñģ ÑħÐ¾Ð´
ĠÑĥÑĢÐ¾Ð² ÐµÐ½ÑĮ
ĠÑĢÐµÐ°Ð»Ð¸Ð· Ñĥ
ĠÐ¾Ð³ÑĢÐ°Ð½Ð¸Ñĩ ÐµÐ½Ð¸Ñı
ĠÐ¸ÑģÑĤÐ¾Ñĩ Ð½Ð¸Ðº
ĠÐ¼Ð°ÑĪÐ¸Ð½ Ð½Ð¾Ð³Ð¾
ÑĤÐµÑħÐ½ Ð¸ÑĩÐµÑģÐºÐ¾Ð¹
ĠÐ¸Ð½ÑĤÐµÐ»Ð»ÐµÐºÑĤÑĥ Ð°Ð»ÑĮÐ½Ð¾Ð¹
ĠÑĢÐµÐµÑģÑĤ ÑĢÐ°
ĠÐ¿ÑĥÐ±Ð» Ð¸ÑĩÐ½Ð¾Ð¹
ĠÐŁÐ¾Ð» Ð¾Ð¶ÐµÐ½Ð¸Ñı
ĠÐ¿Ð¾Ð¼Ð¾Ñī Ð¸
ĠÑģÐ¾ÑĤÑĢÑĥÐ´Ð½Ð¸ÑĩÐµ ÑģÑĤÐ²Ð°
ĠÑĦÐ¾ÑĢÐ¼Ð°ÑĤ Ðµ
ĠÑĦÐ¾ÑĢÐ¼ÑĥÐ» Ðµ
5 7
9 2
9 8
o r
Ġ Ð¾ÑĢ
ÑĤ ÑĢÐ°ÑĦ
Ñĥ Ð»Ñı
ÐµÑĤ ÑĢÐ¾Ð²
ĠÐ¾Ð± Ð¼ÐµÐ½
ĠÐ· Ð½
Ð¸Ñĩ Ð½Ð¾Ð³Ð¾
ÑģÑĤÐ²ÐµÐ½ Ð½ÑĭÐ¼Ð¸
ĠÑĢÐ°Ð· ÑĢÐµ
Ð°ÑĨÐ¸Ð¾Ð½ Ð½ÑĭÐµ
ÑīÐµ Ðµ
ĠÐŁÑĢÐ°Ð²Ð¸ÑĤÐµÐ»ÑĮ ÑģÑĤÐ²Ðµ
ĠÑĥÐ¿ Ð»Ð°ÑĤ
Ðł Ðĺ
Ð¢ ÐĴ
ĠÐ¼ÐµÐ¶Ð´ÑĥÐ½Ð°ÑĢÐ¾Ð´ Ð½Ð¾Ð³Ð¾
ĠÑĥÑģÐ»ÑĥÐ³ Ð¸
ĠÐ¼ÐµÐ´Ð¸ÑĨÐ¸Ð½ ÑģÐºÐ¸Ñħ
ĠÐ¿Ð¾Ð´Ð¿ÑĥÐ½ÐºÑĤ Ðµ
ĠÐ´Ð¾Ð¿Ð¾Ð»Ð½Ð¸ÑĤÐµÐ»ÑĮ Ð½Ð¾Ð³Ð¾
ĠÐ½ÐµÐ¿ Ð¾ÑģÑĢÐµÐ´
ĠÐºÑĥÐ»ÑĮÑĤ ÑĥÑĢÑĭ
ĠÐ¿Ð¾ÑĢ ÑĥÑĩ
ÐķÐĿÐĺ Ðķ
ÐµÐ½ Ð½Ð¾
Ð» Ð¾Ðº
ĠÐ¿ ÑĢÐ°ÐºÑĤ
ĠÐ¸ Ð½ÑĭÐ¼
Ð¿ Ð¾
Ð¾Ð» Ð°Ð³
ĠÐ¼ Ð°Ð³
Ð¸ÑĤ Ð¾Ð²
Ð°Ð» Ðµ
Ñį Ð»ÐµÐºÑĤÑĢÐ¾Ð½
Ð¸Ð² Ð½ÑĭÑħ
Ð¾ÑĢÐ³Ð°Ð½ Ð¸Ð·Ð°ÑĨÐ¸Ð¸
ĠÑĤÐµÑħÐ½Ð¾Ð»Ð¾Ð³ Ð¸ÑĩÐµÑģÐºÐ¾Ð³Ð¾
ĠÐ» Ð¸Ð´
Ð°ÑĤÐµÐ»ÑĮ Ð½ÑĭÑħ
ÑĢÐ¾Ð² Ð¾Ð´
ĠÐ´Ð¾ÑģÑĤ Ð¾Ð²ÐµÑĢ
Ð¡ Ð¼
ÑĥÐ¼ Ð¼
ÑĤÐµÐ³ Ð¾ÑĢ
ĠÑģÐ¾Ð² ÐµÑĤ
ĠÐ¿ÑĢÐ¸Ð¼ÐµÐ½ ÐµÐ½Ð¸ÐµÐ¼
ĠÐ¾ÑģÑĥÑīÐµÑģÑĤÐ²Ð»ÑıÑİÑī Ð¸Ð¼
ĠÑĢÐµÐ³Ð¸Ð¾Ð½ Ð°Ð»ÑĮÐ½ÑĭÑħ
ĠÐ´Ð¾Ð»Ð¶ Ð½Ð°
Ð¾ÑģÑĤÐ¾Ñı ÑĤÐµÐ»ÑĮ
ĠÑĥÐ²ÐµÐ´Ð¾Ð¼ Ð»ÐµÐ½Ð¸Ðµ
ĠÐ¸Ð½Ð²ÐµÑģÑĤ Ð¸ÑĨÐ¸Ð¾Ð½
ĠÐ»ÐµÐº Ð°ÑĢ
ĠÐ°Ð±Ð·Ð°ÑĨ ÐµÐ¼
ĠÐ¿ÑĢÐ¸Ð± Ð¾ÑĢÐ¾Ð²
ÑıÑīÐ¸Ñħ ÑģÑı
ĠÑĥÑĢÐ¾Ð²Ð½ Ñİ
ĠÐ¸Ð·Ð»Ð¾Ð¶ Ð¸ÑĤÑĮ
5 1
ÑĢ Ð¾Ð¼
Ð°Ð½ Ð¸Ñİ
Ð°Ð½ ÐµÐµ
ÐµÑĢ Ñģ
ĠÐ½ Ð¾
Ð¾ÑĤ ÐµÐº
ĠÐ´ Ð°Ð»ÑĮ
ĠÐº Ð°Ñģ
ÐµÐ½Ð¸Ñı Ð¼Ð¸
ĠÐ¾Ñģ Ð²Ð¾
Ð°Ð¿ Ð¿Ð°ÑĢÐ°ÑĤ
Ð¾Ð²Ñĭ ÑĪÐµÐ½Ð¸Ðµ
ĠÐļ Ð¾Ð½
ĠÑĦÐµÐ´ÐµÑĢÐ°Ð»ÑĮ Ð½Ð¾Ð¼
ĠÑģÐ¾ÑģÑĤÐ°Ð² Ð¸Ð»
ĠÐ¿ÑĢÐµÐ´ÑĥÑģÐ¼Ð¾ÑĤÑĢÐµÐ½ Ð½Ð¾Ð³Ð¾
ĠÑĤÐµÑĢÑĢÐ¸ÑĤÐ¾ÑĢ Ð¸
ĠÐ¾ÑģÑĥÑīÐµÑģÑĤÐ²Ð»ÑıÑİÑī Ð¸Ñħ
ĠÐ·Ð°ÐºÐ»ÑİÑĩ ÐµÐ½Ð¸Ðµ
ĠÑįÐºÑģÐ¿ÐµÑĢÑĤ Ð½Ð¾Ð³Ð¾
ĠÑģÐ½ Ð¸Ð¶ÐµÐ½Ð¸Ðµ
ÐµÐ±ÑİÐ´Ð¶ÐµÑĤ Ð½ÑĭÐµ
Ð¾Ð±ÑĢÐ°Ð· Ð¾Ð²Ð°ÑĤÐµÐ»ÑĮ
ÐŀÐ¡ Ð¢
ÐºÐ¾Ð½ ÑģÑĤÑĢÑĥÐºÑĤ
ti on
ĠÐ²Ð¾Ð·Ð²ÑĢÐ°ÑĤ Ñĥ
ĠÑħÐ°ÑĢÐ°ÐºÑĤÐµÑĢÐ¸ÑģÑĤ Ð¸Ðº
ĠÐ°ÑģÑģ Ð¸Ð³Ð½
e n
Ðº Ð¼
Ð°Ð½ Ñģ
Ð¾Ð½ Ð°
Ð¾Ñģ ÑĢÐ¾Ñĩ
Ð¸Ð½ ÑĦÐ¾ÑĢÐ¼
ÐµÐ¹ ÑģÑı
ÑģÑĤÐ²ÐµÐ½ Ð½Ð°Ñı
ÐµÐ» ÐµÑĨ
Ð¸ÑĤÐµÐ»ÑĮ Ð½Ð¾ÑģÑĤÐ¸
Ðĺ Ðĺ
Ð¿ÑĢ Ð¾Ð¼
ĠÐ²Ð½ ÐµÑĪ
Ġ5 0
ĠÑģÐ»ÑĥÑĩÐ° ÐµÐ²
Ð¸Ð± Ð»Ð¸
ĠÐ¾Ðº ÑĢÑĥÐ¶
ĠÐ³ÑĢÐ°Ð¶Ð´Ð°Ð½ Ð¸Ð½
Ð¸ÑĢÑĥ ÐµÑĤ
ĠÐ°ÐºÑĤ Ð°Ð¼Ð¸
ĠÐ¸ÑģÑģÐ»ÐµÐ´ Ð¾Ð²Ð°Ð½Ð¸Ñı
ĠÐ¿Ð»Ð°Ð½ Ð°
ĠÑĨÐ¸ÑĦÑĢÐ¾Ð² Ð¾Ð¹
ĠÐ´Ð¾ÐºÑĥÐ¼ÐµÐ½ÑĤ Ñĭ
ĠÑĢÐ°Ð´Ð¸ Ð¾ÑįÐ»ÐµÐºÑĤÑĢÐ¾Ð½
ĠÐ¾ÑĤÑĢÐ°ÑģÐ» ÐµÐ¹
ĠÑĤÐµÐº ÑģÑĤ
ĠÐºÐ¾ÑĢÐ¿Ð¾ÑĢ Ð°ÑĨÐ¸Ð¸
ĠÑĤÐ¾Ð² Ð°ÑĢÐ¾Ð²
ÑĦÐµÐ´ÐµÑĢ Ð°Ð»ÑĮÐ½ÑĭÐ¹
ĠÑģÐ²ÐµÑĢ Ñħ
4 0
4 6
Ġ Ð¾ÑģÑĤ
ÑĤ Ð¾ÑĢÐ³
Ñģ Ð¸Ð¼
ÐµÐ½ Ð½ÑĭÐ¹
Ð² Ð¾ÑĢ
ĠÑģ Ð¸ÑĤÑĥ
ÐµÑĢ Ð½Ð¾Ð¹
Ð¾ÑĢ ÑĤÐ¾Ð²
Ð¿ ÑĢÐµÐ´
ĠÐ´ Ð¾Ð±
ĠÐ´ Ð¸ÑģÐº
Ð¾Ð» Ñı
ÐµÐ¼ Ð¾Ð³Ð¾
Ð³ Ð´Ðµ
20 30
ĠÐ± Ð¸Ð±Ð»Ð¸
Ð¸Ð² ÐµÑĢÑģ
ĠÐ¿ÐµÑĢ ÐµÑħÐ¾Ð´
ĠÐ³Ð¾ÑģÑĥÐ´Ð°ÑĢÑģÑĤÐ²ÐµÐ½ Ð½ÑĥÑİ
Ġ201 7
ĠÐ¸Ð¼ Ð¸
Ġ202 4
ĠÑĢÐµÐ³ÑĥÐ» Ð¸ÑĢÑĥÑİÑī
ĠÑĢÐµÑģÑĥÑĢÑģ Ð°Ð¼
ĠÑĢÑĭÐ½ ÐºÐµ
ĠÐ¿ÑĢÐ¾Ð´ÑĥÐºÑĤ Ð°
ĠÑįÐºÑģÐ¿Ð»ÑĥÐ°ÑĤ Ð°ÑĨÐ¸Ð¸
ĠÐ´ÐµÐ¹ÑģÑĤÐ² Ð¸Ð¹
ĠÐ¾Ð±Ð»Ð°ÑģÑĤ ÑıÑħ
ĠÐ¿Ð¸Ð»Ð¾ÑĤ Ð½ÑĭÑħ
Ð²Ð½ ÐµÐ±ÑİÐ´Ð¶ÐµÑĤÐ½ÑĭÐµ
ĠÐºÐ° ÑĤÐµÐ³Ð¾ÑĢ
Ð¿ÑĢÐ¾Ð¼ ÑĤÐ¾ÑĢÐ³
3 3
ÑĤ ÑıÐ±ÑĢÑı
ĠÐ½ Ð°Ð½
ĠÐ¾Ð± Ð»Ð°Ð´
ĠÑĥ Ñģ
ĠÑĥ Ð´
ĠÐ· Ð¾Ð½Ñĭ
Ð¸Ñĩ ÑĤ
ÑĢÐ° ÑĪ
ĠÑĢÐ°Ð·Ð²Ð¸ÑĤ Ð¸Ð¸
ĠÐºÐ¾ÑĤÐ¾ÑĢ Ð°Ñı
Ð¤ ÐµÐ´ÐµÑĢ
ĠÐ·Ð°Ð¿ ÑĢÐ°ÑĪ
ĠÐ¸Ð·Ð¼ÐµÐ½ ÐµÐ½Ð¸Ðµ
ĠÐĿ Ð°ÑĨÐ¸Ð¾Ð½
Ð¿ÑĢÐ°Ð² Ð¾Ð²Ð¾Ð³Ð¾
ĠÑİÑĢÐ¸Ð´ Ð¸ÑĩÐµÑģÐºÐ¸Ð¼
ĠÐĳ Ð°Ð½
ĠÐ¼Ð¾Ð½Ð¸ÑĤÐ¾ÑĢ Ð¸Ð½Ð³
ÐĺÑģÐº ÑĥÑģÑģÑĤÐ²ÐµÐ½Ð½ÑĭÐ¹
ĠÐŁÐ¾Ð» Ð¾Ð¶
ĠÑĥÐ½ Ð¸ÑĩÑĤ
ĠÐķ Ð²
ĠÐºÑĥÐ»ÑĮÑĤ ÑĥÑĢ
ÑĩÐ°ÑģÑĤ ÑĮ
ĠÑģÐ»ÑĥÐ¶ Ð±
Ð¾Ð±ÑĢÐ°Ð½ Ð¸Ðµ
ĠÐ½Ð¸ÑĪ ÐµÐ²ÑĭÑħ
ĠÐ±Ð¸Ð±Ð»Ð¸ Ð¾ÑĤÐµÐº
5 5
Ð ¯
Ð¾ ÐµÐ´Ð¸Ð½
Ð¸ Ñī
ÑĢ Ð¸Ð¼
Ð» Ð°Ð¼ÐµÐ½ÑĤ
ĠÐº Ð¾Ð»
Ð°ÑĤ Ð¾Ñĩ
Ð¾Ð» ÐµÐ²
ĠÑį Ð½ÐµÑĢ
Ð°Ð¼ ÐµÐ´Ð»
ĠÐ¾ÑĢÐ³Ð°Ð½ Ð°Ð¼
ĠÐ» Ð¸Ð¼
ÑĥÐ» ÐµÐ¹
ĠÐ¾Ð±ÐµÑģÐ¿ÐµÑĩ Ð¸Ð²Ð°ÐµÑĤ
Ð°ÑİÑī ÐµÐµ
Ð¾Ð¿ÑĢ Ð¾
ĠÑģÐ¿ ÐµÐºÑĤ
Ð¼ÐµÐ½ ÑĮ
ĠÐ¿ÑĢÐ¾Ð²ÐµÐ´ ÐµÐ½Ð¸Ñİ
Ġ15 66
ĠÐ°Ð² Ð¸
ĠÐ´Ð¾Ð» Ð³Ð¾Ñģ
ĠÐ¾Ðº ÑĤÑıÐ±ÑĢÑı
ĠÐ¿ÑĢÐµÐ´ÑĥÑģÐ¼Ð¾ÑĤÑĢÐµÐ½ Ð½Ð¾Ð¼Ñĥ
ĠÐ¾Ð³ÑĢÐ°Ð½Ð¸Ñĩ ÐµÐ½Ð¸Ñİ
Ð¾Ñī Ð°Ð´
ĠÐ¾Ð¿ÑĢÐµÐ´ÐµÐ»Ñı ÐµÑĤ
ĠÑįÐºÑģÐ¿ÐµÑĢÑĤ Ð¸Ð·
ÑģÑĤÐ²Ñĥ ÐµÑĤ
ĠÐºÐ¾ Ð¾ÑĢÐ´Ð¸Ð½
ĠÑĪÐº Ð¾Ð»ÑĮ
ĠÑħÐ°ÐºÐ°ÑĤ Ð¾Ð½Ð¾Ð²
ĠÑģÑĢÐ°Ð²Ð½ ÐµÐ½Ð¸Ñİ
Ð´Ð¾Ðº Ð»Ð°Ð´
ĠÑĤÐ¾Ð¿ Ð»
ÐľÐ¸Ð½ Ð¿ÑĢÐ¾Ð¼ÑĤÐ¾ÑĢÐ³
âĢ ¢
ĠÐ´Ð¾Ð»Ð³Ð¾Ñģ ÑĢÐ¾Ñĩ
ĠÐ¿ Ð°ÑĢ
ĠÐ´ ÑĢ
ĠÑĤ Ð¾Ð»ÑĮÐºÐ¾
ĠÑĥ Ð¼ÐµÐ½ÑĮ
ÑĪ Ð¸ÑĢ
ĠÑĢÐ°Ð· ÑĢÐ°Ð±Ð°ÑĤÑĭÐ²
Ð¸ÑĩÐµÑģÐº Ð¾Ð¼
Ð¸ÑĩÐµÑģÐº Ð¾Ð¼Ñĥ
Ð¾Ð± ÐµÐ´
ĠÑĢÐµ Ð¾ÑĢÐ³Ð°Ð½Ð¸Ð·Ð°ÑĨÐ¸Ð¸
ĠÐ·Ð°Ðº ÑĥÐ¿
Ġ20 02
ĠÐ¸Ð· Ð¼ÐµÑĢ
ĠÐ¿ÑĢÐ¸ Ð¾Ð±ÑĢÐµÑĤ
ĠÑĤÑĢ ÐµÑħ
202 1
ĠÐŀ ÑĢÐ³Ð°Ð½
ĠÐ£ Ð¿
ĠÑĥÑĢÐ¾Ð² Ð½Ðµ
ĠÐ½Ð°Ð¿ÑĢÐ°Ð²Ð»ÐµÐ½ Ð½ÑĭÐµ
ĠÐ¼Ð¸ÑĢ Ð°
ĠÐ½Ð°ÑĢÑĥ ÑĪÐµÐ½Ð¸ÐµÐ¼
ĠÑģÐ°Ð¼ Ð¾ÑģÑĤÐ¾ÑıÑĤÐµÐ»ÑĮ
ĠÐ·Ð°Ð¸Ð½ÑĤÐµÑĢÐµÑģ Ð¾Ð²Ð°Ð½Ð½ÑĭÑħ
ĠÐ±Ð¾Ð»ÑĮ ÑĪÐ¸Ñħ
ĠÐ¿Ð¾Ð´Ð»ÐµÐ¶ Ð°ÑĤ
ĠÐ°ÑĥÐ´ Ð¸ÑĤÐ¾ÑĢ
ĠÐ±ÑĥÐ´ ÐµÑĤ
Ð½Ð°Ð¿ÑĢÐ°Ð² Ð»ÐµÐ½Ð¸Ðµ
ĠÑģÐ¼ ÐµÐ¶Ð½ÑĭÑħ
ĠÐŀÑģÐ½Ð¾Ð² Ð½ÑĭÐ¼Ð¸
Ð¾ÑĢÑı Ð¶
ĠÐ¿ÑĢÐµÐ´ÑĪÐµÑģÑĤÐ²ÑĥÑİÑī ÐµÐ³Ð¾
ĠÐ²Ð½ÐµÐ±ÑİÐ´Ð¶ÐµÑĤ Ð½ÑĭÑħ
ĠÑħÐ¾Ð´ Ðµ
ĠÑģÑĥÑĤ Ð¾Ðº
7 6
9 0
Ð½ Ð¸ÑĤ
ĠÑģ ÑĥÐ¼Ð¼
ÐµÑĢ ÐµÐ·
ÐµÑĤ ÐµÑĢ
Ð°Ð»ÑĮ Ð½ÑĥÑİ
Ð¾Ð» Ð¾
ÑĪ ÑĤ
ĠÐ± Ð°Ð½
ĠÐ½Ðµ ÑģÐº
ĠÐºÐ¾Ð½ ÑģÑĤÑĢÑĥÐº
ÑĥÐ¿ ÑĢÐ¾Ð²Ð¾Ð´
ĠÐ¾ÑģÑĥÑīÐµÑģÑĤÐ²Ð»Ñı ÑİÑĤÑģÑı
ĠÐ¿ÑĢÐ¾Ð³ÑĢÐ°Ð¼Ð¼ Ð°
ĠÐ¾Ð¿ÐµÑĢ Ð°ÑĨÐ¸Ð¹
Ð°Ð± Ð¸Ð»ÑĮ
Ġ0 2
ĠÐºÐ¾Ð½Ðº ÑĢÐµÑĤ
Ð¸Ð± Ð¾Ð»ÐµÐµ
ĠÐ¾ÑĤÐ±Ð¾ÑĢ Ðµ
ĠÑģÐ¾Ð³Ð»Ð° ÑĪÐµÐ½Ð¸ÐµÐ¼
ĠÑģÑĢÐ¾Ðº Ð°
ĠÐ¾Ð±ÑıÐ·Ð°ÑĤÐµÐ»ÑĮ ÑģÑĤÐ²Ð¾
ĠÐ¿Ð»Ð°Ð½ Ð¸ÑĢÐ¾Ð²Ð°Ð½Ð¸Ñı
ĠÑĪ ÑĤÑĢÐ°ÑĦ
ĠÑİÑĢÐ¸Ð´ Ð¸ÑĩÐµÑģÐºÐ¸Ñħ
ÐłÐ°Ð· Ð²Ð¸ÑĤÐ¸Ðµ
ÑİÑīÐ¸Ñħ ÑģÑı
ĠÐ°Ð½Ð°Ð» Ð¾Ð³
ĠÑĢÑĭÐ½ ÐºÐ°
ĠÐ¿ÑĢÐ¾ÑĨÐµÑģÑģ Ðµ
ÑĢÐ°Ð»ÑĮ Ð½ÑĭÑħ
ĠÐ»ÐµÐº ÑĨÐ¸Ð¹
ĠÐ¿ÑĢÐ¾Ð¸Ð·Ð²ÐµÐ´ ÐµÐ½Ð½ÑĭÑħ
ĠÐ¾ÑħÑĢÐ°Ð½ Ñĭ
ÐµÐºÑģ Ð°
ĠÐ²ÑĢÐµÐ´ Ð°
Ð±ÑİÐ´Ð¶ÐµÑĤ Ñĭ
ĠÐ¸Ð·Ð³Ð¾ÑĤÐ¾Ð² Ð»ÐµÐ½Ð¸Ñı
Ð°Ð¼ÐµÐ´Ð» Ð¸ÑĤÐµÐ»ÑĮÐ½Ð¾
3 2
7 7
Ð ¨
Ġ +
Ñħ ÐµÐ¼
ÐµÑĢ Ñĭ
Ð¾ÑĢ Ð°
ÑĤÐµÐ ¿
ĠÑĥ ÐºÑĢÐµÐ¿
ĠÐ¼ Ð°Ñı
ĠÑĢÐ°Ð ²
ĠÐł Ð¾ÑģÑģÐ¸Ð¹
ĠÐŁ Ð¾
ĠÐ± Ð°Ð»Ð»
ÑģÐ» ÑĥÐ¶
ĠÑģÑĤ ÐµÐ¿
Ð¸ÑģÑĤÐµÐ¼ Ð°
ĠÐ¸Ð· Ð¾Ð±ÑĢÐ°Ð¶
ÑĢÐ°Ð· Ð´ÐµÐ»
Ð°ÑĤÐ¾ÑĢ Ð°
ĠÐ»Ð¸ÑĨ Ñĥ
201 1
ĠÐ¿ÑĢÐ¾Ð³ÑĢÐ°Ð¼Ð¼ Ðµ
ÑĥÑĤ Ð±
ĠÐ¿ÑĢÐ¾Ð¸Ð·Ð²Ð¾Ð´ ÑģÑĤÐ²Ð¾
Ð¸ÑĤÐµÐ» Ð¸
ĠÑĥÑģÐ»Ð¾Ð² Ð¸Ð¸
Ð¸Ð¼ÐµÐ½ Ð¾Ð²Ð°Ð½Ð¸Ðµ
ĠÑĢÐ¾ÑģÑģÐ¸Ð¹ ÑģÐºÐ¾Ð³Ð¾
ĠÑģÐ¾Ð¾ÑĤÐ²ÐµÑĤÑģÑĤÐ²ÑĥÑİÑī ÐµÐ³Ð¾
ĠÐ¸ÑģÑģÐ»ÐµÐ´ Ð¾Ð²Ð°ÑĤÐµÐ»ÑĮÑģÐºÐ¸Ñħ
ÑģÐµÐ» ÐµÑĢÐ°ÑĨÐ¸Ð¸
ÑĤÐµÑħÐ½Ð¾Ð»Ð¾Ð³ Ð¸Ð¸
ÑĢÐ°ÑĤ Ð¸ÑĤÑĮ
Ð¸ÑĦÐ¸ÑĨÐ¸ ÑĢÐ¾Ð²
ÑıÐ²Ð»ÐµÐ½ Ð¸Ð¹
ĠÐ·Ð´Ð¾ÑĢÐ¾Ð² ÑĮÑı
ĠÐ¿ÑĢÐ¸Ñģ Ð¾ÐµÐ´Ð¸Ð½
ĠÐ¸Ð¼Ð¿ Ð¾ÑĢÑĤ
ĠÐºÐ°Ð»ÐµÐ½Ð´ Ð°ÑĢÐ½ÑĭÑħ
ĠÐ·Ð°Ð± Ð¾Ð»ÐµÐ²
ĠÐ½ÐµÐ¿Ð¾ÑģÑĢÐµÐ´ ÑģÑĤÐ²ÐµÐ½Ð½Ð¾
ĠÐ°ÑģÑģÐ¸Ð³Ð½ Ð¾Ð²Ð°Ð½Ð¸Ð¹
ĠÑįÐºÑģÐ¿ÐµÑĢÑĤÐ¸Ð· Ñĭ
. ".
Ġ Ð°ÑĤ
Ġ ÐµÑģÑĤ
Ñĥ ÑĪ
Ñĥ ÑİÑĤ
Ðº Ð°Ð¼
Ð² Ð°
ÐµÑĢ Ð´
ÐµÐ´ Ð¾ÑģÑĤ
Ð¾ÑĢ Ñĭ
ÑĦ Ð¸Ð½Ð°Ð½
ĠÑĢ ÑıÐ´
ĠÐ¾Ð± ÑģÐ»ÑĥÐ¶
Ð°Ð» Ð¾Ð²
ĠÑĦ ÑĥÑĤÐ±
ĠÑĢÐµ ÑĪÐµÐ½Ð¸Ñİ
ĠÑĥÑģÑĤ ÑĢÐ°Ð½
ĠÐ¾ÑģÑĥÑīÐµÑģÑĤÐ² Ð»ÐµÐ½Ð¸Ðµ
Ð¡ Ð¾Ð±ÑĢÐ°Ð½Ð¸Ðµ
ĠÐ¿Ð¾Ð´Ð´ÐµÑĢÐ¶ ÐºÑĥ
Ġ10 0
ĠÐ¿ÐµÑĢÐ¸Ð¾Ð´ Ðµ
ĠÐ¡ÑĤ ÑĢÐ°ÑĤÐµÐ³
ĠÐ½Ð°Ñĥ ÐºÐ¾
ĠÐºÑĢ Ð¸ÑģÑĤÐ°Ð»Ð»
ĠÐ¸Ð½Ð¾ÑģÑĤÑĢÐ°Ð½ Ð½ÑĭÐ¼Ð¸
ĠÑĦÑĥÐ½Ðº ÑĨÐ¸Ð¹
ĠÐ²ÐµÐ´ ÐµÐ½Ð¸Ñı
Ð¾Ð¿ÑĢÐ¾Ð² Ð¾Ð´
ĠÐ¿ÑĥÐ±Ð» Ð¸Ðº
ĠÐ¿Ð¾Ð´Ð»ÐµÐ¶ Ð°ÑīÐ¸Ñħ
ĠÑĦÑĥÐ½ÐºÑĨÐ¸Ð¾Ð½ Ð¸ÑĢÐ¾Ð²Ð°Ð½Ð¸Ñı
ĠÑįÐºÑģÐ¿Ð»ÑĥÐ°ÑĤ Ð°ÑĨÐ¸Ñİ
ĠÐ·Ð°Ð² Ð¸Ñģ
ĠÑĢÐ¸ÑģÐº Ð¾Ð²
ĠÐºÐ¾Ð¼Ð¿Ð¾Ð½ ÐµÐ½ÑĤÐ¾Ð²
ĠÐµÐ¶ÐµÐ³Ð¾Ð´ Ð½Ð¾
ĠÐ¿Ð¾Ð»Ð¾Ð¶ ÐµÐ½Ð¸Ð¹
ĠÑĢÐ°ÑģÑģÐ¼Ð°ÑĤÑĢ Ð¸Ð²Ð°ÐµÑĤ
ĠÑĨÐµÐ»ÑĮ Ñİ
Ð¾Ð·Ð½ Ð°Ð²
ĠÐ³Ð¾ ÑĤÐ¾Ð²
ĠÑĥÐ¿Ð»Ð°ÑĤ Ðµ
Ð¸ÑĦÐ¸ÑĨÐ¸ÑĢÐ¾Ð² Ð°ÑĤÑĮ
ĠÐ½Ð°ÑĥÐºÐ¾ ÐµÐ¼
n e
Ġ ÐµÐ´Ð¸Ð½
ÑĢ ÐµÐ±
Ñĭ ÑĢ
ĠÑģ ÑĦÐ¾ÑĢÐ¼
Ð¾ÑĤ ÐµÑħ
ĠÑĢ Ð°Ð½ÐµÐµ
Ð°ÑĤ Ð¾
ĠÐ¼ Ð¸Ð½Ð¸Ð¼
ÐµÐ¹ ÑĤ
ĠÐ¾ÑĤ ÑĢÐ°Ð¶
ĠÐ¿ÑĢÐµÐ´ Ð²Ð°ÑĢ
ÐµÐ³ Ð¸ÑģÑĤÑĢ
ĠÐ¡ Ð¨
ĠÐ¸Ð¼ ÐµÐ½Ð¸
ĠÐ¿ÑĢÐ¾ÑĤ Ð¾ÐºÐ¾Ð»
ĠÐ°Ð¿Ð¿Ð°ÑĢÐ°ÑĤ ÑĥÑĢÑĭ
ĠÐ²ÑĢÐµÐ¼ ÐµÐ½Ð¸
ĠÑĥÑģÑĤÐ°Ð½Ð¾Ð² Ð»ÐµÐ½Ð¸Ñı
ĠÐ¸Ð´ÐµÐ½ÑĤ Ð¸ÑĦÐ¸ÑĨÐ¸ÑĢÐ¾Ð²Ð°ÑĤÑĮ
ĠÐ·Ð°Ð½ ÑıÑĤ
ĠÐ´ÐµÐ½ ÐµÐ¶
ĠÐ¡Ð¾Ð² ÐµÑĤÐ°
ĠÐ´Ð¾Ð² ÐµÐ´
ĠÐ¡Ð¨ ÐĲ
4 7
t a
Ġ R
Ð½ Ð°ÑĢ
ÐµÐ½ Ð½Ð¾Ð¼
Ð» Ð¸Ð½
Ð² Ð¾Ð·
ÑĨ ÐµÐ¿
ĠÐ½ ÐµÐ²
ÑĤÐµÐ ²
ĠÐº Ð¾ÑģÐ¼
ĠÑĥ Ð´Ð°Ð»
ĠÑĥ ÑĤÑĢÐ°ÑĤÐ¸Ð»
ĠÐ¼ Ð¾Ð»Ð¾Ð´
Ð³ Ð°Ð»
Ð¸Ðº Ð¾
ĠÐ± ÑĥÑħ
Ð¸Ð´ ÐµÐ½ÑĨÐ¸
ĠÐ» Ð¸Ð½
ĠÐ¿Ð¾Ð»ÑĥÑĩ ÐµÐ½Ð¸Ðµ
ĠÑĢÐµÐ·ÑĥÐ»ÑĮÑĤÐ°ÑĤ Ð°Ñħ
ĠÐ±ÑİÐ´Ð¶ÐµÑĤ Ð½ÑĭÐ¼
ĠÑĢÐ°Ð·ÑĢÐ°Ð±Ð¾ÑĤ Ð°Ð½Ð½ÑĭÑħ
Ġ201 4
ĠÑĥÐºÐ°Ð·Ð°Ð½ Ð¸ÐµÐ¼
ĠÐ´Ð¾ÑģÑĤÑĥÐ¿ Ð½Ð¾ÑģÑĤÐ¸
ĠÑĥÑģÑĤÐ°Ð½Ð¾Ð²Ð»ÐµÐ½ Ð½Ð¾Ð¹
ÑĤÐ² ÐµÑĢÐ´
ĠÑģÐ¾Ð² ÐµÑĤÐ°
ĠÐ¾Ðº Ð¾Ð»Ð¾
ĠÐ¼Ð¾Ð´ ÑĥÐ»ÐµÐ¹
ĠÐ½Ð°Ð¿ÑĢÐ°Ð²Ð»ÐµÐ½ Ð½ÑĭÑħ
ĠÑĢÐ°Ð·Ð¼ÐµÑī ÐµÐ½Ð¸Ðµ
ĠÑĢÐµÐ³Ð¸Ð¾Ð½ Ð°Ð»ÑĮÐ½Ð¾Ð³Ð¾
ĠÐ¾Ð±ÑīÐµ ÑģÑĤÐ²ÐµÐ½Ð½ÑĭÑħ
ĠÐ¿Ð¾ÑģÐ» ÐµÐ´ÑĥÑİÑī
ĠÑĢÐ°ÑģÑģ ÑĩÐ¸ÑĤ
ĠÑģÐ»Ð¾Ð² Ð°
ĠÐ±Ð¾Ð»ÑĮ ÑĪ
ĠÐ¾ÑĤÐºÑĢÑĭÑĤ ÑĭÑħ
ĠÐ½ÐµÐ· Ð°Ð²Ð¸Ñģ
ĠÑģÐ¾Ð¿ÑĢÐ¾Ð²Ð¾Ð¶Ð´ ÐµÐ½Ð¸Ðµ
ĠÑįÐ½ÐµÑĢÐ³ÐµÑĤ Ð¸ÐºÐ¸
ĠÑģÐ¾Ð²ÐµÑĢÑĪÐµÐ½ÑģÑĤÐ² Ð¾Ð²Ð°Ð½Ð¸Ðµ
Ð¸ÑģÐ¿ Ð¾Ð»Ð½
ĠÐ²ÑĭÑĢ ÑĥÑĩ
ĠÐºÐ¾Ð»Ð¸ÑĩÐµ ÑģÑĤÐ²Ð°
ĠÑĥÑĩÐ°ÑģÑĤÐ¸ ÐµÐ¼
ĠÐ¾ÑĢ Ð¸ÐµÐ½ÑĤ
ĠÐ´Ð°Ð»ÑĮ Ð½ÐµÐ¹
Ð³Ð°Ð» ÑĤÐµÑĢ
ĠÐ±ÑĥÑħ Ð³Ð°Ð»ÑĤÐµÑĢ
5 8
Ġ =
Ð¾ Ð¾ÑĢÑĥÐ¶
Ð½ Ð¸Ð¹
ÑĤ Ñĭ
Ñı Ð¶ÐµÐ½
ÐµÐ½ Ð½Ð¾ÑģÑĤÑĮ
ĠÐ¿ Ð¾ÑĢÑĤ
Ð² Ð¸Ð´
ÑĨ ÐµÐ»
ĠÑģ ÐµÐºÑĤ
ĠÑģ ÑĥÑīÐµÑģÑĤÐ²
Ð½Ð¾Ð ¿
ĠÐ² Ð·
ĠÐ½ Ð°Ð²
Ð´ Ð»Ñı
ĠÑĢ Ð°ÑģÑĤ
ĠÐ¼ Ð°Ðº
Ð°Ð» ÑĤ
Ð¸Ð» Ð°ÐºÑĤ
Ð¸Ð² Ð°ÑĤÑĮ
Ð°Ð¿ ÑĤ
Ð¾Ñı ÑīÐµÐµ
Ð°Ð´ Ð»ÐµÐ¶
ĠÐ²Ñĭ Ð·
ĠÐ¸Ð½ÑĦÐ¾ÑĢÐ¼Ð°ÑĨÐ¸Ð¾Ð½ Ð½ÑĭÐµ
ĠÐ¿ÑĢÐ¾ÐµÐºÑĤ Ð½Ð¾Ð¹
ĠÑģÐ¾Ð¾ÑĤÐ²ÐµÑĤÑģÑĤÐ² Ð¸Ðµ
ĠÐ¿ÑĢÐ°Ð² Ð¾Ð²ÑĭÐ¼Ð¸
ĠÐºÐ¾Ð¼Ð¿ Ð°Ð½Ð¸Ð¹
ÐµÑģÑĤ Ð¸
ĠÑģÐ¾Ð·Ð´Ð°Ð½ Ð¸Ñİ
ĠÐ¿ÑĢÐ¾Ð´ Ð²
ĠÐ½ÐµÐ¾Ð±ÑħÐ¾Ð´Ð¸Ð¼ Ð¾Ð¹
Ð°ÑĤÐ¸Ð² Ð½ÑĭÑħ
ĠÑįÐ»ÐµÐºÑĤÑĢÐ¾Ð½ Ð¸ÐºÐ¸
ĠÐ¿ÑĢÐµÐ´ÑģÑĤÐ°Ð² Ð»ÑıÐµÑĤ
ĠÐ±ÐµÐ·Ð¾Ð¿Ð°Ñģ Ð½Ð¾ÑģÑĤÑĮ
ĠÑĤÐµÑĢÑĢ Ð¾ÑĢ
ĠÑģÐ¾Ð³Ð»Ð°Ñģ Ð¸Ðµ
ĠÐ²Ð½ÐµÐ´ÑĢ ÐµÐ½Ð¸Ñİ
ĠÐ¿ÑĢÐ¸Ð² ÐµÐ´
ĠÐĵ ÐĶ
ĠÐ²ÐµÐ´ ÑĥÑī
ĠÐ¿Ð°ÑģÐ¿ Ð¾ÑĢÑĤÐ¾Ð²
ĠÑĥÑĩÐ°ÑģÑĤÐ½Ð¸Ðº Ð°Ð¼Ð¸
ĠÐ¿ÑĢÐµÐ´ÑģÑĤÐ°Ð²Ð»ÐµÐ½ Ð½ÑĭÑħ
ĠÐ´Ð¸ Ð°Ð¿Ð°Ð·
ĠÐ¿ÑĢÐµÐ²ÑĭÑĪ Ð°ÑĤÑĮ
ĠÑģÐ¾Ð²ÑĢÐµÐ¼ ÐµÐ½Ð½ÑĭÑħ
ĠÐ°Ð½Ð°Ð»Ð¸Ð· Ð°
ĠÐ¿ÑĢÐ¾ÑĤÐ¸Ð² Ð¾Ð´
ĠÐ¿ÑĢÐ¸Ð½Ð¸Ð¼Ð° ÐµÑĤ
ĠÐ¾Ñĩ ÐµÑĢÐµÐ´
ĠÐ¿Ð¾Ð»Ð½Ð¾Ð¼Ð¾Ñĩ Ð¸Ð¹
ĠÐ¿Ð¾ÑģÐ»ÐµÐ´ ÑģÑĤÐ²
ĠÐ»Ð¸Ð¼ Ð¸ÑĤÐ¾Ð²
m a
Ġ i
Ð¸ ÑģÐ¾Ð²
Ð¾Ð² Ð¾Ð¼Ñĥ
ÑĨ Ð°ÑĤ
Ð¼ Ð¸Ð½
ĠÐ½ Ð°Ð·
ĠÐº Ð¾Ð´
ĠÐ½Ð° Ð¸Ð±Ð¾Ð»ÐµÐµ
ĠÐ¼ ÐºÐ¼
Ð¸ÑĤ ÐµÑĤ
ÐµÐ½ÑĤ Ð°Ð¼Ð¸
ĠÑĩ Ð¸ÑģÑĤ
Ð¾Ð· Ð¼Ð¾Ð¶
ĠÐ¿Ð¾Ð» ÑĥÐ¿ÑĢÐ¾Ð²Ð¾Ð´
ĠÐ¾Ð¿ Ð¸Ñģ
ĠÐ²Ñĭ Ð²Ð¾Ð´
ĠÐºÐ¾Ð¼ Ð°Ð½Ð´
ĠÐºÐ¾Ð½ Ñģ
ÑħÐ¾Ð´ Ð¾Ð²
ĠÑĤÐ°Ðº Ð¸Ðµ
ÐĴ Ð§
ĠÐ¡ ÐĴÐ§
ÐŁ ÑĢÐµÐ´
ĠÑĢÐ°Ñģ ÑĪÐ¸ÑĢ
Ðł ÐµÐ°Ð»Ð¸Ð·Ð°ÑĨÐ¸Ñı
ĠÑįÑĤ Ð¸ÑĩÐµÑģÐºÐ¸Ñħ
ĠÐ¾Ð±ÑĬ ÐµÐ´Ð¸Ð½
ĠÑĢÐ°Ð±Ð¾Ñĩ ÐµÐ³Ð¾
Ð°ÑİÑīÐ¸Ñħ ÑģÑı
ĠÐĿ Ð°ÑģÑĤÐ¾ÑıÑī
ĠÐ´Ð¾Ð»Ð¶ ÐµÐ½
ÑģÑĤÑĢÑĥ ÐºÑĨÐ¸Ð¸
ĠÐ¿Ð¾Ð·Ð²Ð¾Ð»Ñı ÑİÑīÐ¸Ñħ
ĠÑĥÐ²ÐµÐ»Ð¸Ñĩ ÐµÐ½Ð¸Ðµ
ĠÑĥÑģÑĤÐ°Ð½Ð¾Ð² Ð¾Ðº
ĠÐ½ÐµÐ· Ð°Ð¼ÐµÐ´Ð»Ð¸ÑĤÐµÐ»ÑĮÐ½Ð¾
Ð¿ÑĢÐ¾ Ð¸Ð·Ð²Ð¾Ð´
ĠÐ¿ÑĢÐ¾Ð¸Ð·Ð²ÐµÐ´ ÐµÐ½Ð¸Ð¹
ĠÐ¼Ð¸Ðº ÑĢÐ¾
ĠÐ´ÐµÐ» Ð°Ð¼Ð¸
Ð½Ð°Ð¿ÑĢÐ°Ð² Ð»ÐµÐ½Ð¸Ñı
ĠÐ¿ÑĢÐ¸Ð¼ÐµÐ½Ñı ÑİÑĤÑģÑı
ĠÑħÐ¾Ð·ÑıÐ¹ ÑģÑĤÐ²Ð°
ĠÑģÐ¾Ð±ÑģÑĤÐ²ÐµÐ½ Ð½Ð¾ÑģÑĤÐ¸
ĠÐºÐ¾Ð½ÑĦ Ð¸Ð´ÐµÐ½ÑĨÐ¸
Ð½Ð°Ð» Ð¸ÑĤ
ĠÐ½Ð¾Ð² Ð¾ÑģÑĤ
Ð²Ð°Ð» Ð¸ÑĦÐ¸ÑĨÐ¸ÑĢÐ¾Ð²Ð°Ð½Ð½ÑĭÑħ
ĠÐ°ÑĥÐ´Ð¸ÑĤÐ¾ÑĢ Ð¸Ð¸
ĠÐ·Ð°Ð±Ð¾Ð»ÐµÐ² Ð°Ð½Ð¸Ð¹
5 9
6 3
Ñĭ Ð´
Ð» Ð°Ð²
ÑĨ ÐµÐ½ÑĤ
ÑĨ ÐµÑģÑģ
Ð¼ ÐµÐ½ÑĤ
ĠÐ¿ÑĢ Ð¾ÑģÑĢÐ¾Ñĩ
Ð³ ÑĢÐ°Ð½Ð¸Ñĩ
ĠÑĦ Ð°Ðº
ÐµÐ» Ñı
ĠÐ¿ÑĢÐµÐ´ ÑĭÐ´
ĠÐ¿Ð¾ Ñĩ
ÑīÐµ ÑģÑĤÐ²Ð°
ĠÐ²Ñĭ ÑıÐ²Ð»ÐµÐ½
Ð½Ð¸Ðº Ð°
ĠÐ´Ðµ ÑģÑı
Ġ4 0
ĠÐŁÑĢÐ°Ð²Ð¸Ð» Ð°Ð¼Ð¸
ĠÐ¸ÑģÐ¿Ð¾Ð»ÑĮÐ·Ð¾Ð²Ð°Ð½ Ð¸Ñİ
ĠÐ´Ð¾ÐºÑĥÐ¼ ÐµÐ½ÑĤÐ°
ĠÐ¾Ð±ÑĬ ÑıÐ²Ð»ÐµÐ½Ð¸Ð¹
Ð°ÐµÐ¼ ÑĭÐ¹
ĠÑģÐ»ÐµÐ´ÑĥÑİÑī Ð¸Ð¼
ĠÑĢÐµÐ°Ð»Ð¸Ð· Ð°ÑĨÐ¸Ñı
ĠÑģÐ¾Ð± ÑģÑĤÐ²ÐµÐ½Ð½ÑĭÑħ
ĠÐ¾ÑģÐ½ Ð¾Ð²Ð°Ð½Ð¸Ñı
ĠÐ¾ÑĤÐ½Ð¾ ÑĪÐµÐ½Ð¸Ñı
ĠÐ¾ÑĤÐ½Ð¾ ÑĪÐµÐ½Ð¸Ñİ
ĠÐ¾Ð±ÑıÐ·Ð°Ð½ Ñĭ
ĠÐ½Ð°Ð¿ÑĢÐ°Ð²Ð»ÐµÐ½Ð¸Ñı Ð¼Ð¸
Ð£ ÑĤÑĢÐ°ÑĤÐ¸Ð»
ĠÐ½Ð¾ÑĢÐ¼Ð°ÑĤÐ¸Ð² Ð½ÑĭÑħ
ĠÐ¾Ð¿ÑĤ Ð¸ÑĩÐµÑģÐºÐ¸Ñħ
ĠÐ¸Ð½Ð½Ð¾Ð² Ð°ÑĨÐ¸Ð¹
Ġ16 9
ĠÐ¿ÑĢÐµÐ´Ð¾ÑģÑĤÐ°Ð²Ð»ÐµÐ½ Ð¸Ñİ
ĠÐ¾ÑĦ Ð¸Ñģ
ĠÐºÐ¾Ð¼Ð¿Ð¾Ð½ ÐµÐ½ÑĤÐ½Ð¾Ð¹
ĠÑĢÐ¾ÑģÑĤ Ð°
ĠÐ½ÐµÐ¹ ÑĢÐ¾Ð½
Ð¾Ð²Ð» ÐµÑĤ
ĠÑģÐµÑĢÑĤ Ð¸ÑĦÐ¸Ðº
ĠÐ¿ÑĢÐ¸ÐºÐ»Ð°Ð´ Ð½ÑĭÑħ
Ð¾ÑĤÐ½Ð¾ ÑĪÐµÐ½Ð¸Ñı
ĠÐ¾Ð±ÐµÐ·Ð»Ð¸Ñĩ Ð¸Ð²Ð°Ð½Ð¸Ñı
ĠÐ¸ÑģÑĤÐ¾ÑĩÐ½Ð¸Ðº Ð¾Ð¼
ĠÐ¿ÑĢÐµÐ´Ð²Ð°ÑĢ Ð¸ÑĤÐµÐ»ÑĮÐ½Ð¾Ð³Ð¾
ĠÐ¿ÑĢÐµÐ´ÑĭÐ´ ÑĥÑī
6 8
7 3
i c
ÑĢ ÐµÑī
Ð¾Ð² Ð¾Ð¼
Ð°Ð½ Ð½ÑĭÐ¹
Ð¼ Ð¾Ð´
ĠÐº ÑĢÑĥÐ¿
ĠÐ¾Ð± Ð½Ð°ÑĢ
ĠÐ¼ Ð½Ð¾Ð³Ð¾
Ð¸ÑĤ Ð½ÑĭÑħ
ĠÐ³ Ð°ÑĢ
ÑĭÑħ Ð¾Ð´
ĠÑĢÐ°Ð·Ð²Ð¸ÑĤ Ð¸ÐµÐ¼
ĠÐºÐ¾Ð½ ÑĤ
ĠÐ´Ð¾ÑģÑĤ Ð¸Ð³Ð½
ÑĢÐ°Ð· Ð²Ð¸ÑĤÐ¸Ðµ
ĠÐ¾ÑĢÐ³Ð°Ð½Ð¸Ð· Ð°ÑĨÐ¸Ñİ
ĠÑĦÐ¾ÑĢÐ¼ Ñĭ
ĠÑģÑĥÐ±ÑĬÐµÐºÑĤ Ñĥ
ĠÑģÑĤÐ°ÑĤÑĮ Ðµ
ĠÑĥÐºÐ°Ð·Ð°Ð½ Ð½Ð¾Ð¼Ñĥ
ĠÐ¿ÑĢÐ¾Ð³ÑĢÐ°Ð¼Ð¼ Ð°Ð¼
Ġ0 1
ĠÐ¸ÑģÐ¿Ð¾Ð»Ð½Ð¸ÑĤÐµÐ»ÑĮ Ð½Ð¾Ð³Ð¾
ĠÐ¿ÑĢÐ¾Ð¸Ð·Ð²Ð¾Ð´ ÑģÑĤÐ²Ðµ
ÐĿ Ð¾Ð²
Ð°ÐµÐ¼ Ð¾Ð¹
ĠÐ¿ÑĢÐµÐ´ÑĥÑģÐ¼Ð¾ÑĤÑĢÐµÐ½ Ð¾
ĠÑģÐ¾Ð¾ÑĤÐ²ÐµÑĤÑģÑĤÐ²ÑĥÑİÑī ÐµÐ¹
ĠÐ·Ð°Ð¿ ÑĢÐµÑĤ
ĠÑģÐ¿ÐµÑĨÐ¸ Ð°Ð»ÑĮÐ½Ð¾Ð³Ð¾
ĠÐ¼Ð°ÑĤÐµÑĢÐ¸Ð°Ð» Ñĭ
ĠÑĤÑĢÐ°Ð½ÑģÐ¿Ð¾ÑĢÑĤ Ð½ÑĭÑħ
Ġ25 3
ÐĶÐ¾Ð¿Ð¾Ð»Ð½ ÐµÐ½
ÑĤÐµÑħÐ½ Ð¸ÑĩÐµÑģÐºÐ¾Ð³Ð¾
ĠÑĥÑģÑĤÐ°Ð½Ð°Ð²Ð» Ð¸Ð²Ð°ÐµÑĤÑģÑı
ĠÑĩÐµÐ¼ Ð¿
ÐĽ Ðŀ
ĠÑģÐµ ÑĤÐµÐ²
ĠÐ¼ÐµÑģÑıÑĨ Ñĥ
Ðĳ ÐĺÐ¡
ĠÐ·Ð°Ð² ÐµÑĢ
ĠÐ³Ð» Ð¾Ð±
ĠÐ´Ð°ÑĤ Ñĭ
ĠÑıÐ·Ñĭ ÐºÐ°Ñħ
ĠÐ»Ð°Ð· ÐµÑĢÐ½ÑĭÑħ
ĠÐ´Ð¾Ð²ÐµÑĢ ÐµÐ½Ð½ÑĭÑħ
ÐµÐ»Ð¸ Ð¾ÑĢ
Ð½Ð°Ð´ Ð·Ð¾ÑĢ
ĠÐµÑģÑĤ Ðµ
ĠÐ¾Ð±Ð½Ð°ÑĢ ÑĥÐ¶
. ,
4 9
8 0
Ġ Ð°Ð½
Ð¾ Ð¾ÑĤÐ²ÐµÑĤÑģÑĤÐ²
ÑĢ ÐµÐº
Ðº Ð»
Ð² Ð²ÐµÐ´
Ð² ÑģÐµÐ³Ð¾
Ñĩ Ð¸
ÑģÐº ÑĢÑĭÑĤ
ĠÐ´ Ð¾ÑĢ
Ð¾Ð½ Ð½
Ð¾Ð» Ð¶ÐµÐ½
Ð¸Ð· Ð¸Ð¾Ð½
ĠÑĥ Ð½Ð¸Ðº
ĠÐ¼ Ð¾ÑĢ
Ð°ÑĢ ÑĮ
ÑİÑī Ð¸Ð¼
ÑİÑī ÐµÐ³Ð¾
Ð»ÐµÐ½ Ð¸Ñİ
Ð°ÑĨÐ¸Ð¾Ð½ Ð½Ð¾Ð³Ð¾
ĠÐ½Ðµ Ð¸ÑģÐ¿Ð¾Ð»Ð½
Ð¾Ñĩ Ð½
ÐµÑģÐ¿ÐµÑĩ ÐµÐ½Ð¸Ðµ
Ð½Ð¸Ðº Ð¾Ð²ÑĭÑħ
Ð¸ÑĢÐ¾Ð²Ð°Ð½ Ð½ÑĭÐµ
ĠÐ³Ð¾ÑģÑĥÐ´Ð°ÑĢÑģÑĤÐ²ÐµÐ½ Ð½Ð¾Ð¼
ĠÐºÐ¾Ð¼Ð¿ ÑĮÑİÑĤ
Ð°ÑİÑī Ð¸Ð¼
ĠÐ±ÑİÐ´Ð¶ÐµÑĤ Ð¾Ð²
ĠÐ¾Ð±ÑĢÐ°Ð· ÑĨ
ĠÐ¿ÑĢÐ¾Ð³ÑĢÐ°Ð¼Ð¼ Ð½ÑĭÑħ
ĠÐ¿ÑĢÐ¾Ð¸Ð·Ð²Ð¾Ð´ Ð¸ÑĤÐµÐ»ÑĮÐ½Ð¾ÑģÑĤÐ¸
ĠÐ¾ÑģÐ½Ð¾Ð² Ð½ÑĭÐµ
ĠÐ¿ÑĢÐ¸Ð½ Ð°Ð´Ð»ÐµÐ¶
ĠÐ·Ð°Ð´ Ð¾Ð»Ð¶ÐµÐ½
ĠÐ¸ÑģÐ¿Ð¾Ð»ÑĮÐ·Ð¾Ð²Ð°Ð½ Ð¸Ð¸
ĠÐ´Ð¾ÑģÑĤÐ¸Ð¶ ÐµÐ½Ð¸Ð¸
ĠÐ´Ð¾Ð» Ñı
ĠÐ¾ÑĤÑĩÐµÑĤ Ð½Ð¾ÑģÑĤÑĮ
ĠÑģÐ¾Ð± Ð¾Ð¹
ĠÑģÐ¾Ð¾ÑĤÐ²ÐµÑĤÑģÑĤÐ²ÑĥÑİÑī Ð¸Ðµ
ĠÑģÐ¿ÐµÑĨÐ¸ Ð°Ð»Ð¸Ð·
ĠÐ¿ÑĢÐ¸Ð½ÑıÑĤ Ð¸Ð¸
ĠÐ¼Ð¸ÑĢ Ðµ
ĠÐ¸Ñİ Ð½Ñı
ĠÐ¼ÐµÑĤÐ¾Ð´ Ñĭ
ĠÑĦÐ¸Ð· Ð¸ÑĩÐµÑģÐºÐ¸Ñħ
ÐŁÑĢ Ð¸Ð¼
ĠÑģÑĤÑĢÐ°ÑĤÐµÐ³ Ð¸ÑĩÐµÑģÐºÐ¸Ñħ
ĠÐ½Ð°Ð± Ð¾ÑĢÐ¾Ð²
ĠÐµÐ´Ð¸ Ð½Ð¾Ð¹
ĠÐ°Ð³ ÐµÐ½ÑĤ
ĠÐ·Ð°Ð¼ ÐµÐ½
ĠÐ¼ÐµÑħÐ°Ð½Ð¸Ð·Ð¼ Ð¾Ð²
ĠÐ¿Ð°ÑĢÐ°Ð¼ ÐµÑĤÑĢÐ¾Ð²
ĠÐ¾ÐºÑĢÑĥÐ¶ Ð°ÑİÑīÐµÐ¹
. .
ÑĢ ÑıÐ´
Ð°Ð ±Ð¾ÑĤ
ÐµÐ½ Ð½Ð¾Ðµ
ĠÑģ ÐµÐ¼
Ñİ Ð±
ĠÐ´ ÐµÑĤ
ĠÑĢ ÐµÐ¹ÑĤ
ĠÑĤ ÑĥÑĢ
Ð¾Ð» Ñĥ
Ð¾Ð» Ð¾Ñģ
ÐµÐ¼ ÑĭÐ¼
Ð¾Ð²Ð°Ð½ Ð¸Ð¸
ĠÑĢÐ°Ð º
ĠÐŁ ÑĥÐ½ÐºÑĤ
Ð¸ÑĩÐµÑģÐº ÑĥÑİ
Ð¸ÑĤÐµÐ»ÑĮ ÑģÑĤÐ²Ð¾
ĠÑĩ ÐµÑĢÐµÐ·
ĠÑģÑĤ ÐµÐ½Ð´
Ð¾Ð¿ ÑĢÐµÐ´ÐµÐ»
ÐµÐ· ÑĥÐ»ÑĮÑĤÐ°ÑĤ
ĠÐ¾Ð¿ ÑĥÐ±Ð»Ð¸Ðº
ĠÐ²Ñĭ Ð±Ð¾ÑĢ
ĠÐ½Ð°ÑģÑĤÐ¾ÑıÑī Ð¸Ð¼Ð¸
ĠÑģÐ¾Ð¾ÑĤÐ²ÐµÑĤÑģÑĤÐ² Ð¸Ñı
ĠÐºÐ¾Ð¼Ð¿ Ð»ÐµÐºÑĤ
ÐĴ Ðĺ
ĠÑĨÐµÐ» ÐµÐ²ÑĭÑħ
ĠÑĢÐµÐ³ Ð»Ð°Ð¼ÐµÐ½ÑĤ
ĠÑģÐµÑĤ ÑĮ
ĠÑħ Ð¸Ð¼
ĠÐ¸Ð¼ ÑĥÑīÐµÑģÑĤÐ²
ĠÑģÐ¾Ð² ÐµÑĢ
Ð³Ð¾ ÑĤ
ÐĶ Ðķ
Ðķ ÐĶÐķ
ĠÐ¿ÑĢÐ¸Ð¼ÐµÐ½ ÐµÐ½Ð¸Ðµ
ĠÐ´Ð°Ð½ Ð½ÑĭÐ¼Ð¸
Ð¾Ñį Ð½ÐµÑĢÐ³
ĠÐ£ÐºÐ°Ð· Ð°
ĠÐ²Ð¾ Ð¾ÑĢÑĥÐ¶
ĠÐ¾ÐºÐ°Ð· Ð°Ð½Ð¸Ñı
ĠÑĦÐ¾Ð½Ð´ Ð°
ĠÑĦÐ¾Ð½Ð´ Ð¾Ð¼
ĠÑģÐ²Ð¾ ÐµÐ¹
ĠÑģÐ²Ð¾ Ð¸Ñħ
ÑģÑĤÑĢÑĥÐº ÑĨÐ¸Ñı
ĠÐľÐ¾ÑģÐº Ð¾Ð²
ĠÐ¾Ð±ÑĢÐ°Ñī ÐµÐ½Ð¸Ñı
ĠÑģÐ¾Ð·Ð´Ð°Ð² Ð°ÐµÐ¼ÑĭÑħ
ĠÑĦÑĥÐ½Ð´Ð°Ð¼ÐµÐ½ÑĤ Ð°Ð»ÑĮÐ½ÑĭÑħ
ĠÑģÑĤÐ°ÑĤ Ð¸ÑģÑĤ
ĠÑģÐ¾Ð²Ð¼ÐµÑģÑĤ Ð½Ð¾
ĠÐĿÐ°ÑĨÐ¸Ð¾Ð½ Ð°Ð»ÑĮÐ½Ð¾Ð¹
5 2
8 2
l e
Ġ ÑĤÐµÐ¿
Ð½ Ð¸Ñı
Ñĥ ÑģÐ»
ĠÑģ Ð¸Ð³Ð½
Ð½Ð¾Ð º
ĠÐ² ÑĭÑħÐ¾Ð´
ĠÐ½ Ð¾Ð²ÑĭÐµ
ĠÐ´ Ð¾ÑĢÐ¾Ð¶
ĠÐº Ð¾Ð¿
ĠÐº Ð°Ð½Ð°Ð»
Ð°Ð»ÑĮ Ð½Ð¾Ð¼Ñĥ
ĠÐ½Ð° ÑĩÐ¸ÑģÐ»
ĠÑĢÐ°Ð ¹
ĠÐŁ Ð¾Ð´
ĠÑĢÐ°Ð· Ð²ÑıÐ·
Ð¾Ð± Ð»Ð°Ð´
ĠÐºÐ¾Ð¼ Ð¼ÐµÑĢÑĩÐµ
ĠÑģÑĥÐ±ÑģÐ¸Ð´ Ð¸Ñı
ĠÐ¿ÑĢÐ¸ Ð¾ÑģÑĤÐ°Ð½Ð¾Ð²Ð»ÐµÐ½
ĠÑģÑĢÐµÐ´ Ð½ÐµÐ¼
ĠÐ¡ ÐĳÐĺÐ¡
Ð¾Ð¿ÑĢ Ð¸ÐµÐ¼
Ð¾Ð³Ð» Ð°Ñģ
ĠÐ²Ð½ Ð¾Ñģ
Ð¼ÐµÑĢ ÑĨÐ¸
ĠÐ¾Ð¿ÐµÑĢ Ð°ÑĤÐ¾
ĠÑģÐ²ÑıÐ· Ð°Ð½Ð½ÑĭÐµ
ĠÑģÐµÑĤ ÑıÑħ
ÑıÑĤ Ð¸Ñı
Ð¸Ð½Ð¸ÑģÑĤ ÑĢ
ĠÐ¿Ð» Ð¾ÑīÐ°Ð´
Ð¸ÑĤÐµÐ» Ðµ
ĠÑĢÐ°ÑģÐ¿ Ð¾ÑĢÑıÐ¶
ĠÑĦÐ¸Ð½Ð°Ð½ÑģÐ¾Ð² Ð¾Ð¼
ĠÐ¾ÑĤÑĩÐµÑĤ Ð°
ĠÐ¾ÑĤÑĩÐµÑĤ Ð½Ð¾Ð³Ð¾
ĠÑĤÑĢÐµÐ±Ð¾Ð²Ð°Ð½Ð¸Ñı Ð¼Ð¸
ĠÐ²ÑĭÐ¿Ð¾Ð»Ð½ ÐµÐ½Ð¸Ðµ
ĠÑįÑĦÑĦÐµÐºÑĤÐ¸Ð² Ð½Ð¾ÑģÑĤÑĮ
ĠÐ¼Ð¸ÑĢ Ð¾Ð²Ð¾Ð³Ð¾
ĠÐ¾Ð¿ÑĢÐµÐ´ÐµÐ»Ñı ÑİÑĤÑģÑı
ĠÐ²Ð¸Ð´ Ð¾Ð²
ĠÐ°Ð´ Ð°Ð¿ÑĤ
ĠÐ°Ð²ÑĤÐ¾Ð¼ Ð¾Ð±Ð¸Ð»ÑĮ
ĠÑĢÐ°Ð´Ð¸ Ð¾
ĠÑģÐ¾Ð´ÐµÑĢÐ¶Ð°Ñī Ð¸Ñħ
ĠÐ¾ÑĤÑĢÐ°ÑģÐ» ÐµÐ²ÑĭÑħ
ĠÐĹ Ð°Ðº
ĠÐ¿ÑĢÐ¾Ð²ÐµÑĢ Ð¾Ðº
________ ________
ĠÐ¸Ð½Ð½Ð¾Ð² Ð°ÑĨÐ¸Ð¾Ð½Ð½Ð¾Ð¹
ĠÐ¿ÑĢÐµÐ´Ð¾ÑģÑĤÐ°Ð²Ð»Ñı ÐµÑĤÑģÑı
ĠÐ²Ð»Ð°Ð´ÐµÐ»ÑĮÑĨ ÐµÐ¼
ĠÐ¿ÑĢÐµÐ´Ð¾ÑģÑĤÐ°Ð²Ð»ÐµÐ½ Ð½Ð¾Ð¹
ĠÐ½ÐµÐ´Ð¾ÑģÑĤ Ð¾Ð²ÐµÑĢ
ĠÑĥÐ¿ÑĢÐ°Ð² Ð»ÐµÐ½Ð¸Ðµ
ĠÐ¿Ð¾ÑĤÐµÐ½ÑĨÐ¸ Ð°Ð»Ð°
ĠÐ¿ÑĢÐµÐ´Ð¿ Ð¾Ð»Ð°Ð³
ĠÑĥÑĤ Ð¾ÑĩÐ½
ĠÐ¾Ð±Ð¼ÐµÐ½ Ð°
ĠÐ»ÐµÐºÐ°ÑĢ ÑģÑĤÐ²ÐµÐ½Ð½ÑĭÑħ
ÑĦÐ¸Ð½Ð°Ð½ Ñģ
ĠÑĦÑĥÑĤÐ± Ð¾Ð»Ñĥ
Ð°Ð»ÑĤ Ð¸Ð¹
ĠÐ´Ð¾ÑģÑĤÐ¸Ð³Ð½ ÑĥÑĤ
ĠÑĩÐµÐ¼Ð¿ Ð¸Ð¾Ð½
ĠÑĢÐ°Ðº ÐµÑĤ
ĠÑĢÐ°Ð·Ð²ÑıÐ· ÐºÐ¸
6 7
8 1
Ð ¬
Ġ ÑıÐ´
Ð½ ÐµÑģ
ÑĢ ÐµÐºÑĤ
Ñħ Ð¾Ð·ÑıÐ¹
ĠÐº ÑĢÑĥÐ³
ÐµÐ½Ð¸Ñı Ñħ
ĠÐł Ðµ
ĠÑĦ ÐµÐ²
Ð¸Ðº Ð²Ð¸Ð´
Ð¸Ð² ÑĪÐ¸Ñħ
ĠÐ¿ÑĢÐ¾ ÑĪ
ÑĥÐ± ÐµÐ¶
ÑĥÐ± ÑģÐ¸Ð´
ĠÐ½Ðµ ÑĦ
Ð¾Ñı Ð½
ĠÐ¿Ð¾Ð´ Ð°ÑĩÐ¸
ĠÑģÐ² Ð¾Ð´
ĠÐ±ÑİÐ´Ð¶ÐµÑĤ Ðµ
ĠÐ¿ÑĢÐ¾ÑĨ ÐµÐ´
ĠÐ¿ÑĢÐ¾Ð³ÑĢÐ°Ð¼Ð¼ Ð¾Ð¹
ĠÑģÐµÑĤ ÑıÐ¼
ĠÑįÑĤ Ð¾Ð¹
ĠÑĥÑģÑĤÐ°Ð½Ð¾Ð²Ð»ÐµÐ½ Ñĭ
ĠÐ¿ÑĢÐ¾Ð¸Ð·Ð²Ð¾Ð´ ÑģÑĤÐ²
ĠÐ¾ÑģÐ½Ð¾Ð² Ð½ÑĭÑħ
ĠÐ¾Ð¿ÐµÑĢÐ°ÑĤÐ¾ÑĢ Ð¾Ð²
ĠÑıÐ²Ð»Ñı ÑİÑīÐ¸ÑħÑģÑı
ÑĭÐ² Ð°ÐµÑĤÑģÑı
ĠÐŁÑĢÐ°Ð²Ð¸Ð» Ð°
ĠÐ·Ð½Ð°Ñĩ Ð¸Ð¼ÑĭÑħ
ĠÑģÐ¾ÑģÑĤÐ°Ð² Ð¾Ð²
ĠÑģÐ¾ÑĨÐ¸ Ð°Ð»ÑĮÐ½ÑĭÑħ
Ð¢ Ðķ
ĠÑĥÑĤÐ²ÐµÑĢÐ¶Ð´ Ð°ÐµÑĤ
ĠÐ´ÑĢÑĥÐ³ Ð¸Ð¼Ð¸
ĠÐ¾ÑģÑĥÑīÐµÑģÑĤÐ²Ð»ÑıÑİÑī ÐµÐ³Ð¾
Ġ6 0
ĠÐ¼ÐµÐ¶Ð´ÑĥÐ½Ð°ÑĢÐ¾Ð´ Ð½Ð¾Ð¹
Ð¾Ñį ÑĦÑĦ
ĠÐ¿ÑĢÐ¸Ð» Ð°Ð³
ĠÐ¿Ð¾Ð´Ð³Ð¾ÑĤÐ¾Ð² ÐºÑĥ
ĠÑĤÐµÑħÐ½ Ð¸ÑĩÐµÑģÐºÐ¾Ð¹
ĠÐ¼ÐµÑĤÐ¾Ð´ Ð¾Ð²
ĠÑĢÐ¾ÑģÑģÐ¸Ð¹ÑģÐº Ð¸Ð¼Ð¸
ĠÐ¿Ð¾Ð»ÑĮÐ·Ð¾Ð² Ð°ÑĤÐµÐ»
ĠÐ´Ð² Ð¸Ð³
ĠÐ·Ð°Ð¿ÑĢÐ¾Ñģ Ð°
ĠÐ´Ð¸ Ð°Ð³
Ð²ÐµÑĢ Ð´
ĠÑįÐºÐ¾Ð»Ð¾Ð³ Ð¸ÑĩÐµÑģÐºÐ¸
ĠÐ¾Ð¿Ð»Ð°ÑĤ Ñĭ
ĠÐ¾ÑħÑĢÐ°Ð½ Ñı
ĠÐ±Ð» Ð°Ð³
ĠÑĢÐ°Ð·Ð´ÐµÐ» Ð°
ĠÐ¿ÑĢÐµÐ´Ð»Ð¾Ð¶ ÐµÐ½Ð¸Ðµ
ĠÐ²ÑĭÐ´ÐµÐ» ÐµÐ½Ð½Ð¾Ð³Ð¾
ĠÐ¾ÑĤÐºÐ°Ð· Ð°
ĠÐ¼Ð¾Ð´ÐµÑĢÐ½ Ð¸Ð·Ð°ÑĨÐ¸Ð¸
ÑĢÐ°Ð» Ñı
ĠÐ¼Ð°ÑĢ ÑĤÐ°
ĠÑħÑĢÐ°Ð½ ÐµÐ½Ð¸Ñı
ĠÑģÑĤÐ¾ Ð¸Ð¼Ð¾ÑģÑĤÐ¸
ĠÐ³ÑĢÐ°Ð¶Ð´Ð°Ð½Ð¸Ð½ Ð°
ĠÑĥÑģ Ð¸Ð»
ÑĪÑĤ Ð°Ð±
ĠÐ¸Ð¼ÑĥÑīÐµÑģÑĤÐ² Ñĥ
ÐķÐĶÐķ ÐłÐĲ
ĠÑĦÐµÐ² ÑĢÐ°Ð»Ñı
6 2
6 9
ĠÐ¿ Ð¾Ð±ÐµÐ´
ĠÑģ Ð¸Ð½
ĠÐ² Ðµ
Ð¼ Ð¸Ð½Ð¸ÑģÑĤÑĢ
ĠÐ¿ÑĢ Ð¾ÑģÑĤÑĢÐ°Ð½
Ð¾Ð½ Ñĩ
ĠÑĢ ÐµÐ¿
ĠÑĤ Ð¾
Ð°ÑĤ ÑĥÑĢ
ĠÐ¼ ÑĥÐ»ÑĮÑĤ
Ð³ Ð¾Ð´
Ð¾Ð²Ð°Ð½ Ð¸ÐµÐ¼
ÑĥÑĩ Ð½Ð¾
ĠÑģÑĤ Ð°Ð±Ð¸Ð»ÑĮ
Ð°ÑĨÐ¸Ð¾Ð½ Ð½ÑĭÐ¹
ĠÑĤÐµÑħÐ½Ð¾Ð»Ð¾Ð³ Ð¸ÑıÐ¼
ĠÐ¿Ð¾Ð´ ÑĢÐ°Ð·Ð´ÐµÐ»
ĠÐ» ÑİÐ±
ĠÐ» Ð¸ÐºÐ²Ð¸Ð´
ĠÐŁÑĢ Ð¾
ĠÐ¾ÑĢÐ³Ð°Ð½Ð¸Ð· Ð°ÑĨÐ¸Ð¾Ð½Ð½Ð¾
Ġ3 2
Ð¡ Ðĺ
Ð¡ Ðļ
Ġ201 3
ĠÐ£ Ð¿ÑĢÐ°Ð²
ĠÑĢÐµÐ³ÑĥÐ» Ð¸ÑĢÐ¾Ð²Ð°Ð½Ð¸Ðµ
ĠÐ½Ð°Ð¿ÑĢÐ°Ð²Ð»ÐµÐ½ Ð¸Ð¹
ĠÐ¿Ð¾ÑģÑĤ Ð¾ÑıÐ½
ĠÐ°Ðº ÑĨÐ¸Ð¾Ð½
ĠÐ¾Ð´ Ð½Ð¾Ð¹
Ġ200 3
ĠÐ²Ñģ ÐµÐ³Ð¾
ĠÐ²Ð»Ð°Ð´ ÐµÐ»ÐµÑĨ
ÑıÑī Ð¸Ðµ
ÑģÑĤÐ²Ñĥ ÑİÑĤ
ĠÑģÐµÑĢÐ² Ð¸ÑģÐ¾Ð²
ĠÑģÐ¾ÑģÑĤÐ¾ÑıÐ½ Ð¸Ñı
ÐµÑħÐ½Ð¾Ð»Ð¾Ð³ Ð¸Ð¸
ĠÐ¸Ð½ÑĤÐµÐ³ ÑĢÐ°Ð»ÑĮÐ½ÑĭÑħ
ĠÑģÑĤÑĢÐ¾Ð¸ÑĤÐµÐ»ÑĮ ÑģÑĤÐ²Ð¾
ĠÐ¿ÐµÑĢÐµÐ´Ð°Ñĩ Ð°
ĠÑģÐ°Ð¹ÑĤ Ñĥ
ĠÐ¿Ð¾Ð»Ð½Ð¾Ð¼Ð¾Ñĩ Ð¸Ñı
ĠÑĤÐµÐ» ÐµÐ²
ĠÐ¸Ð½Ð´Ð¸Ðº Ð°ÑĤÐ¾ÑĢÐ¾Ð²
ÑģÐµÐ´ Ð°ÑĤÐµÐ»ÑĮ
ĠÐ°ÑĢ Ñħ
ĠÐ¸Ð½ÑģÑĤÑĢÑĥÐ¼ ÐµÐ½ÑĤÐ¾Ð²
ĠÑĥÐ»ÑĥÑĩ ÑĪÐµÐ½Ð¸Ñı
ĠÐ°Ð¿ÑĢ ÐµÐ»Ñı
ÐµÐ´Ð¾ÑģÑĤ ÑĥÐ¿
ĠÐ½Ð°ÑĥÐºÐ¾ÐµÐ¼ ÐºÐ¾Ð¹
ĠÑĤÐµÐ¿ Ð»
Ð¾ÑįÑĦÑĦ Ð¸ÑĨÐ¸
5 3
c h
Ð¾ ÑĨÐ¸
Ð° ÑĤÐµÐ¼
Ñħ Ð¾Ð¶Ð´
Ð¾Ð² Ð°Ñı
ĠÑģ Ð°Ð½
ĠÑģ ÑħÐµÐ¼
ÐµÑĢ Ð½Ð¾Ð³Ð¾
ÑĨÐ¸ Ñİ
ĠÐ½ ÐµÐº
ĠÐ½ Ð¾Ð²Ð¾Ð¹
ÑĦ Ð¸Ð·
ĠÑĤ Ð¾Ð³Ð¾
ÑģÑĤÐ²ÐµÐ½ Ð½Ð¾Ðµ
ĠÐŁ Ð¾Ñģ
ĠÐ¿ÐµÑĢ ÐµÑĢ
ĠÐºÐ¾Ð¼ Ð¼ÐµÑĢÑĨÐ¸
ĠÑģÐ¸ÑģÑĤÐµÐ¼ Ð°Ð¼
ĠÑģÐ² Ð¾Ð¹
ÐŁ Ð¾Ð´
ĠÑĤÑĢÐµÐ± Ð¾Ð²Ð°Ð½Ð¸Ðµ
ÑĢÐ°Ð´ Ð¸ÑĨÐ¸Ð¾Ð½
ÐĿ Ðŀ
ĠÐ¿Ð¾ÐºÐ°Ð·Ð°ÑĤÐµÐ» Ð¸
Ðķ Ðł
ĠÐ·Ð°Ð¿ ÑĢÐµÑī
ĠÑĥÑĤÐ²ÐµÑĢÐ¶Ð´ ÐµÐ½Ð½Ð¾Ð¹
ĠÐĿ Ð°
ĠÐ¾Ð´ Ð½
ĠÐ¿ÑĢÐ¾ÑĦ Ð¸Ð»Ð°ÐºÑĤ
ĠÐ°Ð´ Ð¼Ð¸Ð½Ð¸ÑģÑĤÑĢ
ĠÐ²ÑĭÑĩÐ¸ÑģÐ» Ð¸ÑĤÐµÐ»ÑĮÐ½Ð¾Ð¹
ĠÐ½Ð°Ð»Ð¸Ñĩ Ð¸Ðµ
Ġ19 43
ĠÐ¿ÑĢÐ°Ð²Ð¾ Ð¾ÑĤÐ½Ð¾ÑĪÐµÐ½Ð¸Ñı
ĠÐ¿Ð¾Ð´Ð»ÐµÐ¶ Ð¸ÑĤ
ĠÑĥÐ½ Ð¸Ð²ÐµÑĢÑģ
Ð¸ÑĦÐ¸ÑĨÐ¸ÑĢ Ð¾Ð²Ð°Ð½
ĠÐ¾Ð±Ð»Ð°ÑģÑĤ ÑĮ
ĠÑĢÐµÐºÐ¾Ð¼ÐµÐ½Ð´ Ð°ÑĨÐ¸Ð¹
ĠÐ±Ð» Ð¾Ðº
ĠÐ°Ð³ ÑĢÐµÐ³
ĠÐ¾ÑĤÐ²ÐµÑĤÑģÑĤÐ²ÐµÐ½ Ð½Ð¾ÑģÑĤÑĮ
ĠÐ½Ð°ÑħÐ¾Ð´ ÑıÑīÐ¸ÑħÑģÑı
ĠÐ¾ÑģÑĥÑīÐµÑģÑĤÐ²Ð»ÑıÑĤÑĮ ÑģÑı
Ðĸ ÐķÐĿÐĺÐķ
ĠÑģÐ¾Ðº ÑĢÐ°Ñī
ĠÐ¿ÑĢÐµÐ¿Ð°ÑĢÐ°ÑĤ Ð¾Ð²
ÑĥÐ»Ñı ÑĢ
ĠÐ¼Ð°Ð³ Ð¸ÑģÑĤ
Ð°Ð¿Ð¿Ð°ÑĢÐ°ÑĤ Ð½ÑĭÑħ
ĠÑĥÐ´ Ð¾Ð²Ð»ÐµÑĤ
ĠÐķÐ² ÑĢÐ¾Ð¿
ĠÐ£Ð¿ Ð¾Ð»Ð½Ð¾Ð¼Ð¾ÑĩÐµÐ½
ĠÐ¼Ð¾Ð»Ð¾Ð´ ÐµÐ¶
ĠÐ¿Ð¾Ð»ÑĥÐ¿ÑĢÐ¾Ð²Ð¾Ð´ Ð½Ð¸ÐºÐ¾Ð²ÑĭÑħ
ÐŁÑĢÐ¸Ð¼ ÐµÑĩ
Ð°ÑĤÐµÐ¼ Ð°ÑĤ
6 5
7 8
9 9
u r
Ġ [
Ð¸ Ð½Ñĭ
ĠÐ §
ĠÐ Ľ
ÐµÐ½ ÑĨÐ¸Ð¸
Ð» ÐµÑĩÐµÐ½Ð¸Ðµ
Ðº ÑĨÐ¸Ð¾Ð½
ĠÐ¸ Ð½Ð¾Ð³Ð¾
ÐµÑĢ Ð±
ÑĨÐ¸ ÐµÐ¹
ÑģÑĤÐ² ÑĥÑİÑīÐ¸Ñħ
ĠÐ¿ÑĢ ÑıÐ¼
Ð¿ Ð¾Ð²ÑĭÑĪÐµÐ½Ð¸Ðµ
ĠÐ½ Ð¸Ð·
ĠÐ½ ÑĥÐ¶Ð´
ĠÑĤ Ð°Ð¹Ð½
ĠÐ¼ Ð½Ð¾Ð³
Ð¸ÑĤ Ð°Ð½Ð¸Ñı
ĠÐŁ ÐµÑĢ
ÑİÑī Ð¸Ð¹
ĠÑģÐ¾ ÑĦÐ¸Ð½Ð°Ð½Ñģ
ĠÐ¸ÑģÐºÑĥÑģ ÑģÑĤÐ²ÐµÐ½Ð½ÑĭÐ¹
ĠÐ²Ñĭ ÑıÐ²Ð»ÐµÐ½Ð¸Ñı
ĠÐ» ÑĥÑĩ
ĠÑģÐ¾Ð¾ÑĤÐ²ÐµÑĤÑģÑĤÐ² ÑĥÑİÑĤ
Ð½Ð¸Ðº Ð°Ð¼Ð¸
ĠÐ° ÑģÐ¿
Ġ3 5
ĠÑĦÐ¾ÑĢÐ¼ Ð¸ÑĢÐ¾Ð²Ð°Ð½Ð¸Ñİ
ÐŁ ÑĢÐ°Ð²
Ð»ÐµÐº Ñģ
Ð°ÐºÑĤ Ð¸Ð²
Ð²ÐµÐ´ ÐµÐ½Ð¸Ñı
ĠÐ¸Ð¼ Ñı
ĠÑĥÑģÐ»Ð¾Ð² Ð¸ÑıÐ¼
ĠÐ¿ÑĢÐ¾Ð²ÐµÐ´ ÐµÐ½Ð½ÑĭÑħ
ÐĿ Ð°ÑĨÐ¸Ð¾Ð½
ĠÐ¿ÑĢÐµÐ´ÑģÑĤÐ°Ð² Ð¸ÑĤÐµÐ»ÐµÐ¹
ĠÐ¿ÑĢÐµÐ´ÑģÑĤÐ°Ð² Ð¸ÑĤÐµÐ»Ñı
ĠÑģÐ¾ÑĨÐ¸ Ð°Ð»ÑĮÐ½Ð¾Ðµ
ĠÐ²ÑĭÑģÐ¾Ðº Ð¾Ñį
ĠÐ°Ð²ÑĤ Ð¾ÑĢÑģÐºÐ¸Ñħ
ĠÐ¶ ÐµÐ»
ĠÐ¾Ð±ÑıÐ·Ð°Ð½ Ð½Ð¾ÑģÑĤÐ¸
ĠÐ¾Ð±ÑıÐ·Ð°Ð½ Ð½Ð¾ÑģÑĤÐµÐ¹
ĠÐĿ Ðµ
ĠÐ¾ÑĨÐµÐ½ ÐºÐµ
ĠÐ¾ÑĨÐµÐ½ ÐºÑĥ
ĠÐ²Ð¾Ð·Ð¼Ð¾Ð¶ Ð½Ð¾ÑģÑĤÐµÐ¹
Ġ9 0
ĠÐ¿Ð¾Ð´Ð³Ð¾ÑĤÐ¾Ð² Ð»ÐµÐ½
ĠÐ¸Ð½Ð¾ÑģÑĤÑĢÐ°Ð½ Ð½ÑĭÐ¼
Ð»ÑİÐ´ ÐµÐ½Ð¸Ñı
ĠÐ¿Ð¾Ð´Ð¿ÑĥÐ½ÐºÑĤ Ð°Ñħ
ĠÐĳ ÐµÐ·
ĠÐ½ÐµÐ¿ ÑĢ
Ð¸Ð·Ð¼ Ð°
ĠÑģÐ¾Ð¾Ð± ÑīÐµÑģÑĤÐ²Ð°
ĠÐ¿Ð¾ÑĤÑĢÐµÐ± Ð½Ð¾ÑģÑĤÐ¸
ĠÑĦÐ¾ÑĤ Ð¾Ð¿ÑĢÐ¸ÐµÐ¼
ĠÐ°ÐºÑĤÑĥ Ð°Ð»Ð¸Ð·Ð°ÑĨÐ¸Ð¸
ĠÐ²Ð½ÑĥÑĤÑĢÐµÐ½ Ð½ÐµÐ³Ð¾
ĠÐ°Ð²ÑĤÐ¾Ð¼Ð°ÑĤÐ¸Ð· Ð¸ÑĢÐ¾Ð²Ð°Ð½Ð½Ð¾Ð³Ð¾
ĠÐºÐ» Ð°ÑģÑģ
ĠÑĢÐµÐºÐ¾Ð½ ÑģÑĤÑĢÑĥÐºÑĨÐ¸Ð¸
ĠÐ´Ð¾Ð¿ÑĥÑģÐº Ð°ÐµÑĤÑģÑı
ĠÐĺÐ½ ÑĦÐ¾ÑĢÐ¼
ĠÑĤÑĢÐµÑĤÑĮ Ð¸Ð¼
ĠÐ¿Ð»Ð°ÑĤ ÑĦÐ¾ÑĢÐ¼
ĠÑįÐ½ÐµÑĢ Ð³Ð¾
ĠÐłÐ¾ÑģÑģÐ¸Ð¹ ÑģÐºÐ°Ñı
ĠÐ´Ð¾Ð²ÐµÐ´ ÐµÐ½Ð½ÑĭÑħ
ÐĽÐŀ ÐĸÐķÐĿÐĺÐķ
ĠÐ¾Ð±Ð½Ð°ÑĢÑĥÐ¶ ÐµÐ½Ð¸Ñı
ĠÐ¾Ð±ÑĢÐ°Ð·ÑĨ Ð¾Ð²
ĠÑĤÐ°Ð¹Ð½ Ñĥ
. ";
ÑĢ ÑĭÐ²
Ð» ÑĥÑĩ
Ðº Ð¾ÑģÑĤÐ¸
ĠÑģ ÐµÐ½ÑĤ
ÐµÑĢ ÑĤ
ÑģÐº Ð¾ÑĢ
ĠÐ¾Ð ·
Ð¾Ð» Ð¶
Ð¾Ð» Ð¾Ð¶
ĠÑĥ ÑĤÑĢ
ÑĪ Ð¸Ð¼Ð¸
ĠÐŁ ÑĢÐµÐ´
ĠÐ³ Ð¸Ð´
ÐµÐ½ÑĤ Ñĭ
Ð¸Ð² Ð°Ð½Ð¸Ðµ
Ð¸ÑĤÐµÐ»ÑĮ Ð½ÑĭÐµ
ĠÐ¾ Ñħ
Ð¾ÑĤÐ²ÐµÑĤ ÑģÑĤÐ²ÐµÐ½Ð½Ð¾
Ð¸ÑĢÐ¾Ð²Ð°Ð½ Ñĭ
ĠÑĥÑĩ ÐµÐ½
ĠÑĥÐºÐ°Ð·Ð°Ð½ Ð½ÑĭÐ¹
ĠÑĥÐºÐ°Ð·Ð°Ð½ Ð½Ð¾Ðµ
Ġ4 6
ĠÐ¿ÑĢÐ¸Ð½ Ð¸Ð¼
ĠÐ·Ð°Ð´ Ð°Ð½
ĠÑĦÐ¸Ð½Ð°Ð½ÑģÐ¾Ð² ÑĭÑħ
ĠÑģÐ¾Ð± ÑĭÑĤ
ĠÐ¿ÑĢÐ¾Ð¼ÑĭÑĪÐ»ÐµÐ½ Ð½Ð¾Ð³Ð¾
ĠÐ¿Ð¾Ð²Ñĭ Ñģ
ĠÐ¿Ð¾Ð²Ñĭ ÑĪ
ĠÐ´ÑĢÑĥÐ³ Ð¾Ð³Ð¾
ĠÐ¼ÑĥÐ½Ð¸ÑĨÐ¸Ð¿ Ð°Ð»ÑĮÐ½Ð¾Ð³Ð¾
ÑĢÐ¾Ñģ Ð¾Ð²
ÑĤÐµÑħÐ½Ð¾Ð»Ð¾Ð³ Ð¸Ð¹
ÑĭÑģ Ð¾Ðº
ĠÐ´Ð¾Ð¿Ð¾Ð»Ð½Ð¸ÑĤÐµÐ»ÑĮ Ð½ÑĭÑħ
ÑĤÐµÑħÐ½ Ð¸ÑĩÐµÑģÐºÐ¸Ñħ
ĠÑģÑĥÐ´ ÐµÐ±
ĠÐ¼Ð¸Ðº ÑĢ
ĠÐ¸Ð½ÑĤÐµÐ³ÑĢ Ð¸ÑĢÐ¾Ð²Ð°Ð½Ð½Ð¾Ð¹
ĠÐ¸Ð½ÑĤÐµÑĢÐµÑģ Ñĭ
ĠÐ²Ð°Ð» ÑİÑĤ
ÐłÐĲ ÐĴÐĺ
ĠÑįÐ»ÐµÐºÑĤÑĢ Ð¾ÑįÐ½ÐµÑĢÐ³
ĠÐŁÑĢÐ¾Ð³ÑĢÐ°Ð¼Ð¼ Ðµ
ĠÐ³ÐµÐ½ ÐµÑĢ
ĠÑģÐ¿ÑĢÐ°Ð² ÐºÐ°
ĠÐ½ÐµÐ² Ð¾Ð·Ð¼Ð¾Ð¶
ÑĤÐ²ÐµÑĢÐ´ Ð¸ÑĤÑĮ
ĠÐ³Ð°ÑĢ Ð°Ð½ÑĤ
ĠÐ´Ð¾ÑĢ Ð¾Ð³
ĠÐ·Ð°Ð¼ÐµÐ½ Ð¸ÑĤÑĮ
ĠÐ´Ð¸Ð°Ð³ Ð½Ð¾ÑģÑĤ
ĠÐ²ÑĭÑģÐ¾ÐºÐ¾Ñį ÑĦÑĦÐµÐºÑĤÐ¸Ð²
4 1
c e
l i
Ð ³Ð¾ÑģÑĥÐ´Ð°ÑĢ
Ġ Ð°Ð±
Ġ Ð¾ÑĢÑĥÐ¶
ÑģÑĤ Ð°Ð½Ð¾Ð²
Ð°Ð½ Ð½Ð°Ñı
ĠÑģ ÑĭÑĢ
ÑģÐº Ð¸Ð¼Ð¸
Ð¾ÑĤ Ð¸Ð²
Ð¾Ð½ Ð½Ð¾
ĠÑĤ Ð¾Ð½Ð½
ĠÑĤ Ð²ÐµÑĢÐ´
Ð¾Ð» ÑĥÑĩ
Ð¶ ÐµÐ½Ð¸Ñı
Ð¸ÑĢ Ð¸
Ð¾Ð± Ð½Ð¾Ð²
ÐµÐ· Ð´
ÑĥÑĢ Ð°
ÑĢÐ°Ð±Ð¾ÑĤ ÐºÐ¸
ĠÐ²Ñĭ Ð´
ĠÐºÐ¾Ð¼ Ð¸ÑģÑģ
ĠÐ¸Ð½ÑĦÐ¾ÑĢÐ¼Ð°ÑĨÐ¸Ð¾Ð½ Ð½ÑĥÑİ
ĠÐ¾Ð±ÐµÑģÐ¿ÐµÑĩ Ð¸Ð²Ð°ÐµÑĤÑģÑı
ĠÑģÐ¾Ð¾ÑĤÐ²ÐµÑĤÑģÑĤÐ² Ð¾Ð²Ð°ÑĤÑĮ
ĠÑĩÐ¸ÑģÐ» ÐµÐ½Ð½Ð¾ÑģÑĤÐ¸
ĠÑĥÑĩ Ð°
Ðŀ Ñģ
ĠÑĦÐ¾ÑĢÐ¼ Ð¸ÑĢÐ¾Ð²Ð°Ð½Ð¸Ð¸
ĠÑģÑĢÐµÐ´ÑģÑĤÐ² Ð°Ð¼Ð¸
ÐµÐ»ÑĮ Ð½ÑĭÑħ
ĠÑĥÑģÑĤÐ°Ð½Ð¾Ð²Ð»ÐµÐ½ Ð½ÑĭÐ¼Ð¸
ĠÐ½Ð°ÑĥÑĩ Ð½Ð¾Ð¹
ĠÐļÐ°Ð»Ð¸Ð½Ð¸Ð½Ð³ÑĢÐ°Ð´ Ð°
ĠÐ±Ð°Ð· Ð°
ĠÐ¾Ðº Ð¾Ð½Ñĩ
ĠÐ¾ÑĤÑĩÐµÑĤ Ñĭ
ĠÐ¿ÑĢÐµÐ´ÑĥÑģÐ¼Ð¾ÑĤÑĢÐµÐ½ Ð½ÑĭÐ¼
ĠÐ³ÑĢÐ°Ð¶Ð´Ð°Ð½ Ð°Ð¼Ð¸
ĠÑģÐ¾Ð³Ð»Ð° ÑĪÐµÐ½Ð¸Ð¸
Ð¸ÑĢÑĥ ÑİÑĤÑģÑı
ÑĨÐ¸Ð¾Ð½ Ð½ÑĭÑħ
ĠÐ¾ÑĨÐµÐ½ ÐºÐ°
ĠÐ¾Ð±Ñī ÐµÐ¹
Ġ9 26
ĠÐ½Ð¾ÑĢÐ¼Ð°ÑĤÐ¸Ð² Ð½ÑĭÐ¼Ð¸
Ġ200 4
ĠÐ½Ð°ÑĢÑĥ ÑĪ
ĠÐ²Ñģ Ðµ
ĠÐ²Ð·Ð°Ð¸Ð¼Ð¾Ð´ ÐµÐ¹ÑģÑĤÐ²Ð¸Ðµ
ĠÑĢÑĭÐ½ ÐºÐ¸
ĠÐºÐ¾Ð½ÐºÑĥÑĢÐµÐ½ÑĤÐ¾ÑģÐ¿Ð¾ÑģÐ¾Ð± Ð½Ð¾ÑģÑĤÐ¸
ĠÐĳ Ð°Ð»ÑĤÐ¸Ð¹
ĠÑħÐ°ÑĢÐ°ÐºÑĤÐµÑĢ Ð°
ÐĽ Ð¬
ĠÐ¿ÑĢÐ¾ÑĦÐµÑģÑģÐ¸Ð¾Ð½ Ð°Ð»ÑĮÐ½ÑĭÑħ
ÑĢÐ°Ð»ÑĮ Ð½Ð¾Ð³Ð¾
ĠÐ½ÐµÑģ Ð¾Ð¾ÑĤÐ²ÐµÑĤÑģÑĤÐ²
ĠÑĢÐ°ÑģÑģÐ¼Ð¾ÑĤÑĢ ÐµÐ½Ð¸Ðµ
ĠÐµÐ´Ð¸ Ð½Ð¾Ð¼
ÐºÐ¾Ð¼ Ð¿
ĠÑıÐ·Ñĭ ÐºÐ°
ĠÑģÐ±Ð¾ÑĢ Ð°
ĠÐ¿ÑĢÐµÐ´ÑĥÑģÐ¼Ð°ÑĤÑĢ Ð¸Ð²Ð°ÐµÑĤÑģÑı
ĠÐ¾ÑĤÐ²ÐµÑĤÑģÑĤÐ²ÐµÐ½ Ð½Ð¾ÑģÑĤÐ¸
ĠÐ½Ð°ÑħÐ¾Ð´ Ð¸ÑĤÑģÑı
ĠÑģÐ¾Ð²ÐµÑĢÑĪÐµÐ½ÑģÑĤÐ² Ð¾Ð²Ð°Ð½Ð¸Ñı
ĠÐ´Ð¾Ð³Ð¾Ð²Ð¾ÑĢ Ð°
ĠÐ³Ð¾ÑĢÐ¾Ð´ Ð°
ĠÐ²ÑĭÐ¿ÑĥÑģÐº Ð°
ĠÑģÐº Ð¾ÑĢ
ĠÐ¿ÐµÑĢÐµÐ² Ð¾Ð¾ÑĢÑĥÐ¶
Ð¸ÑģÑģÐ»ÐµÐ´ Ð¾Ð²Ð°ÑĤÐµÐ»ÑĮ
ĠÐ¾ÑĦÐ¸ÑĨÐ¸ Ð°Ð»ÑĮÐ½Ð¾Ð¼
ĠÑĥÑģÑĤÐ¾Ð¹ÑĩÐ¸Ð² Ð¾Ð³Ð¾
Ð¾Ð¿ÑĢÐ¾ Ð¸Ð·Ð²Ð¾Ð´
ĠÑĤÐ¾Ð¿Ð» Ð¸Ð²
ĠÑģÐ°Ð¼Ð¾ÑģÑĤÐ¾ÑıÑĤÐµÐ»ÑĮ Ð½Ð¾
ĠÐºÐ¾Ð½ÑģÑĤÑĢÑĥÐº ÑĨÐ¸Ð¹
ĠÑĢÑıÐ´ Ð°
ÑĨÐ°ÑĤ Ð¸
ĠÑĩÐµÐ¼Ð¿Ð¸Ð¾Ð½ Ð°ÑĤÐ°
ĠÐ²Ðµ ÑīÐµÑģÑĤÐ²
ĠÐºÐ¾Ð¼Ð¼ÐµÑĢÑĨÐ¸ Ð°Ð»Ð¸Ð·Ð°ÑĨÐ¸Ð¸
ĠÐ¶ÐµÐ» ÐµÐ·
ĠÑģÐµÐ½ÑĤ ÑıÐ±ÑĢÑı
7 2
7 9
8 4
a n
r o
Ð «
Ġ P
ÑģÑĤ ÑĢÐµÐ¼
ĠÐ¿ ÑıÑĤ
Ð² Ð¸Ð¶
ÑĨ Ð¸ÑıÑħ
ĠÐ½ Ð¾Ñı
ĠÐ´ Ð¸Ð½Ð°Ð¼
Ð¾Ð½ ÑĤ
Ð¾Ð¼ ÐµÑĤÑĢ
ĠÐº Ð°ÑĤ
Ð°Ð»ÑĮ Ð½Ð¾ÑģÑĤÑĮ
ÐµÐ¼ ÑĭÐ¹
Ð¸Ð¼ Ð¾Ð¹
ĠÐ¤ ÐķÐĶÐķÐłÐĲ
Ð¶ ÐµÐ½Ð¸Ð¸
ĠÐ¾ÑĤ Ð²
ÑģÑĤÐ²ÐµÐ½ Ð½ÑĭÐ¼
Ð°ÑĢ Ñı
ĠÐ¿ÑĢÐµÐ´ Ð°Ðº
ÐµÑĩ ÐµÐ½Ð¸Ñı
ĠÑģÐ¾ Ð¾ÑĤÐ²ÐµÑĤÑģÑĤÐ²ÐµÐ½Ð½Ð¾
Ð°Ð¿ ÑĢÐ¸Ð¼
ĠÐ¿ÑĢÐ¾ÐµÐºÑĤ Ð½Ð¾Ð³Ð¾
ĠÐ¿ÑĢÐ¾ÐµÐºÑĤ Ð°Ð¼
Ð¡ Ð¸ÑĢÐ¸
ÐĴ ÑĤ
ÑĦÐµÑĢ ÐµÐ½
ÐŁ ÐłÐĺ
ĠÐ¿Ð¾ÑĢÑıÐ´ Ðº
ĠÐ¾Ð±ÑĢÐ°Ð±Ð¾ÑĤ ÐºÐ¾Ð¹
10 00
ĠÐ½ÐµÐ¾Ð±ÑħÐ¾Ð´Ð¸Ð¼ ÑĭÐµ
ÐĶ ÐķÐĿ
ĠÐ²ÑĭÑģÐ¾Ðº Ð¾Ð¹
ĠÐ¿Ð¾Ð· Ð¸ÑĨÐ¸Ð¹
ĠÐ´Ð°Ð½ Ð½Ð¾Ð³Ð¾
ĠÐ¾Ð³ÑĢÐ°Ð½Ð¸Ñĩ Ð¸ÑĤÑĮ
ĠÑģÑĢÐ¾Ðº Ð¾Ð²
ĠÐ¾Ð±Ñī ÐµÐ´Ð¾ÑģÑĤÑĥÐ¿
ĠÑĢÐµÐ³Ð¸Ð¾Ð½ Ð°
Ð¾ÑģÐ¿Ð¾ÑģÐ¾Ð± Ð½Ð¾ÑģÑĤÐ¸
ĠĠĠĠĠĠĠĠ ĠĠĠĠ
ĠÐ¾Ð±ÐµÑģÐ¿ÐµÑĩÐ¸Ð² Ð°ÑĤÑĮ
ĠÐ²ÐµÐ´ ÐµÐ½Ð¸Ðµ
ĠÐ¾Ð¿ÑĤ Ð¾ÑįÐ»ÐµÐºÑĤÑĢÐ¾Ð½
ĠÑĦÐ¾Ð½Ð´ Ð¾Ð²
ĠÑĥÑĩÐ°ÑģÑĤÐ½Ð¸Ðº Ð°
ĠÐ¿ÑĢÐµÐ·Ð¸Ð´Ð¸ÑĥÐ¼ Ð¾Ð¼
ĠÑģÑĤÑĢÐ°ÑĤÐµÐ³ Ð¸ÑĩÐµÑģÐºÐ¾Ð³Ð¾
ĠÐŀÑģ Ð¾Ð±
ĠÐ¸Ð¼Ðµ ÐµÑĤ
ĠÑĤÐ¸Ð¿ Ð¾Ð²Ð¾Ð¹
ÐŃ Ð»ÐµÐºÑĤÑĢÐ¾Ð½
ÐŀÐ¡ Ð¡Ðĺ
ĠÐ¿Ð¾Ð´ÑĤÐ²ÐµÑĢÐ¶Ð´ Ð°ÑİÑīÐ°Ñı
ĠÐ±ÑĥÐ´ ÑĥÑĤ
ĠÐ¿ÑĢÐ¸Ð²Ð»ÐµÑĩ ÐµÐ½Ð¸Ñı
ĠÐ²Ð»Ð¸Ñı Ð½Ð¸Ðµ
ĠÐ²ÑĭÑĢ Ð°ÑģÑĤÐ¸
ĠÐºÐ²Ð°Ð» Ð¸ÑĦÐ¸ÐºÐ°ÑĨÐ¸Ð¸
ĠÑģÐ¾Ð²Ð¾ÐºÑĥÐ¿ Ð½Ð¾ÑģÑĤÑĮ
ÐĻ Ð¡Ðļ
ĠÑĢÐµÐ³Ð¸ÑģÑĤÑĢ Ð°ÑĨÐ¸Ð¸
ĠĠĠĠĠĠĠĠĠĠĠĠĠĠĠĠ ĠĠĠĠĠĠĠĠĠĠĠĠ
ĠÐ¿Ð¾ÑģÑĤÑĥÐ¿ Ð»ÐµÐ½Ð¸Ñı
ĠÐ·Ð°Ð²Ð¸Ñģ Ð¸Ð¼Ð¾ÑģÑĤÐ¸
ĠÐ²ÑĭÑĢÑĥÑĩ ÐºÐ¸
Ð½Ð°Ð»Ð¸ÑĤ Ð¸ÑĩÐµÑģÐºÐ¸Ð¹
ĠÐ¤ÐķÐĶÐķÐłÐĲ Ð¦
Ð°Ð¿ÑĢÐ¸Ð¼ ÐµÑĢ
Ð¡Ð¸ÑĢÐ¸ ÑĥÑģ
ÐŀÐ¡Ð¡Ðĺ ÐĻÐ¡Ðļ
- -
8 3
] ,
Ġ Ð°Ð½ÑĤ
Ġ ne
Ñģ Ð¸ÑģÑĤÐµÐ¼Ð°
Ñĥ Ð²
ĠÑģ Ð±
ĠÐ¿ÑĢ ÐµÑģÑĤ
ĠÐ½ Ð¾Ñģ
ÑĤÐµÐ ·
ĠÑĢ Ð°
ĠÐ½Ð° ÑĢÐ¾Ð´
ĠÐ· ÑĢ
Ð¸ÑĤ Ð°ÑĢ
ĠÐ³ Ð¾Ð»Ð¾Ñģ
Ð¸Ðº Ð¾Ð²
ĠÑĢÐµ ÑĪ
ĠÐ¸Ð½ÑĦÐ¾ÑĢÐ¼ Ð°ÑĨÐ¸ÐµÐ¹
ĠÐ» Ð¾Ðº
ÑĢÑĥ Ð·
ĠÐ³Ð¾Ð´ Ð¾Ð¼
Ð¾Ñĩ Ð½Ð¾Ð¹
Ð°ÑĤÐµÐ» ÐµÐ¼
ĠÑĤÐ°Ðº Ð¸Ð¼
ĠÐ·Ð° ÑĢÐ°Ð±Ð¾ÑĤ
ĠÐ¿ÑĢÐ°Ð² Ð¾Ð²ÑĭÐµ
ÑĢÐ°Ð· Ð²Ð¸ÑĤ
ĠÐ¸ÑģÐ¿Ð¾Ð»ÑĮÐ· Ð¾Ð²Ð°ÑĤÑĮ
ĠÐ»Ð¸ÑĨ Ð°Ð¼
ĠÑĢÐ°Ð·ÑĢÐ°Ð±Ð¾ÑĤ Ð°Ð½
201 6
ÐŁ ÐłÐĲÐĴÐĺ
ĠÐ´Ðµ ÑĤÐµÐ¹
ĠÐ¿ÑĢÐ¾Ð´ Ð¾Ð»Ð¶
ĠÐ¿ÑĢÐ¾Ð¸Ð·Ð²Ð¾Ð´ ÑģÑĤÐ²ÐµÐ½Ð½ÑĭÑħ
ÑĭÐ² Ð°ÑİÑĤÑģÑı
ĠÑįÐºÑģÐ¿ÐµÑĢÐ¸Ð¼ÐµÐ½ÑĤ Ð°Ð»ÑĮÐ½ÑĭÑħ
Ġ12 6
ÑĦÑĦ ÐµÐºÑĤ
ĠÑģÐ¾Ð³Ð»Ð° ÑĪÐµÐ½Ð¸Ðµ
ĠÑĤÐµÑĢÑĢÐ¸ÑĤÐ¾ÑĢ Ð¸Ð¹
ĠÐ¸ÑģÑģÐ»ÐµÐ´ Ð¾Ð²Ð°ÑĤÐµÐ»ÑĮ
ĠÐ¾Ð±ÑıÐ·Ð°ÑĤÐµÐ»ÑĮ ÑģÑĤÐ²Ð°
ĠÐ¿ÐµÑĢÐ¸Ð¾Ð´ Ð°
ĠÑĢÐµÐ³Ð¸Ð¾Ð½ Ð°Ð»ÑĮÐ½Ð¾Ð¹
ĠÐ¼ÐµÑĤ Ð°Ð»Ð»
ĠÐ½Ð°Ð´ ÐµÐ¶
ÑģÐµÐ» ÐµÑĢ
Ð¾Ð¿Ð¾Ð»Ð½ Ð¸ÑĤÑĮ
ĠÐ¿ÑĢÐ¾ÑĤ ÑıÐ¶ÐµÐ½
ĠÐºÐ¾Ð½ÐºÑĥÑĢÐµÐ½ÑĤÐ¾ÑģÐ¿Ð¾ÑģÐ¾Ð± Ð½Ð¾Ð¹
ĠÑĢÐ¾ÑģÑģÐ¸Ð¹ÑģÐº Ð°Ñı
ĠÐ¸Ð½Ð´ ÑĥÑģÑĤ
ĠÑĦÐ°ÐºÑĤ Ð¸ÑĩÐµÑģÐºÐ¸
ĠÐºÐ² Ð°ÑĢÑĤ
ĠÐ¿ÑĢÐ°Ð²Ð¾ Ð¾Ð±Ð»Ð°Ð´
ĠÑĥÐ³ Ð¾Ð»Ð¾Ð²
ĠÐ¿ÐµÑĢÐµÐ´Ð°Ñĩ Ñĥ
ĠÐ²Ð½ÐµÑģ ÐµÐ½Ð¸Ñı
ĠÑĦÐ¾ÑĤ Ð¾Ð³ÑĢÐ°ÑĦ
Ġ219 7
ĠÐ³Ð°Ð· Ð¾Ð¿ÑĢÐ¾Ð²Ð¾Ð´
ĠÐ¿ÑĢÐ¸Ð·Ð½ Ð°Ðº
ĠÐ¿Ð°ÑĢÑĤÐ½ÐµÑĢ Ð°Ð¼Ð¸
ĠÐ¿ÑĢÐµÐ´ÑĥÑģÐ¼Ð°ÑĤÑĢ Ð¸Ð²
Ð¼ÐµÑĤ Ð¾Ð´
ĠÐ±Ñĭ Ð»
ĠÐ±Ñĭ Ð»Ð¸
ĠÐ²Ð°Ð» Ð¾Ð²Ð¾Ð³Ð¾
ĠÐ¿Ð¾ÑĤÐµÐ½ÑĨÐ¸ Ð°Ð»
ĠÐ¼ÐµÑħÐ°Ð½Ð¸Ð·Ð¼ Ð°
ĠÐºÐ»ÑİÑĩ ÐµÐ²ÑĭÑħ
ĠÐ¿ÑĢÐµÐ´Ð¿ÑĢÐ¸Ð½Ð¸Ð¼Ð°ÑĤÐµÐ»ÑĮ ÑģÐºÐ¾Ð¹
ĠÐ¿ÑĢÐ¸Ð»Ð¾Ð¶ ÐµÐ½Ð¸Ð¸
ĠÑģÐ¾Ð¾Ð±Ñī ÐµÐ½Ð¸Ð¹
ĠÐ¼Ð°Ð» ÑĭÑħ
Ð¸ÑģÑģÐ»ÐµÐ´ Ð¾Ð²Ð°ÑĤÐµÐ»ÑĮÑģÐºÐ¸Ñħ
ĠÐ¾ÑĤÑģÑĥÑĤÑģÑĤÐ² Ð¸Ðµ
ĠÐ¸ÑģÑħÐ¾Ð´ Ñı
ĠÐ¾ÑģÐ²Ð¾ ÐµÐ½Ð¸Ñı
Ð¾Ð±ÑĢÐ°Ð·Ð¾Ð²Ð°ÑĤÐµÐ»ÑĮ Ð½ÑĭÑħ
ĠÐ´Ð¸ÑģÐº Ð²Ð°Ð»Ð¸ÑĦÐ¸ÑĨÐ¸ÑĢÐ¾Ð²Ð°Ð½Ð½ÑĭÑħ
ĠÑĪÐºÐ¾Ð»ÑĮ Ð½Ð¸ÐºÐ¾Ð²
ĠÐºÑĢÐ¸ÑģÑĤÐ°Ð»Ð» Ðµ
ĠÐ¿ÑĢÐ¾Ð´Ð² Ð¸Ð¶ÐµÐ½Ð¸Ðµ
ĠÐ²ÐµÐ´ÑĥÑī Ð¸Ñħ
ĠÐ½Ð°Ð· ÐµÐ¼
ĠÑģÐµÑĢÑĤÐ¸ÑĦÐ¸Ðº Ð°ÑĤ
ÐºÐ» Ð¾Ð½
ĠÐ£Ð¿Ð¾Ð»Ð½Ð¾Ð¼Ð¾ÑĩÐµÐ½ Ð½ÑĭÐ¹
ĠÑĥÑĤÑĢ Ð°ÑĤÐ¸Ð²
ÐŁÐłÐĺ ÐĽÐŀÐĸÐķÐĿÐĺÐķ
6 0
7 0
d a
e r
Ð» Ð°ÑĢÐ¾Ð²
Ñħ Ð¸Ð¼
ĠÑģ Ð¾Ð¿
ĠÑģ ÑĨÐµÐ½
ĠÐ² ÐµÑī
Ð¿ ÑĥÐ½ÐºÑĤ
Ð´ Ð¸
ÑĦ ÑĥÐ½
Ð¾Ñģ Ð²ÑıÐ·
ĠÐº Ð¾Ð³
ĠÐ¾Ð± Ð¾ÑģÐ½
Ð°Ð»ÑĮ Ð½Ð¾ÑģÑĤÐ¸
ĠÐ¼ Ð°ÑĤÐµÐ¼Ð°ÑĤ
Ð³ ÑĥÑģÑĤ
Ð¸Ð¼ Ð¾Ð³Ð¾
ÑĪ Ð¸Ð¹
ÑģÑĤÐ²ÐµÐ½ Ð½Ð¾ÑģÑĤÑĮ
ĠÐł ÐµÐ·ÑĥÐ»ÑĮÑĤÐ°ÑĤ
Ð°Ð· Ð°ÑĤÐµÐ»ÑĮ
Ð¸Ð´ Ñĥ
Ð¾Ð± Ð¾ÑĤ
ĠÑģÑĤ ÑĥÐ´
ĠÑģÑĤ Ð¾ÑĢÐ¾Ð½
ĠÑģÐ¾ Ð¾ÑĢÑĥÐ¶
ĠÑįÐº ÑģÑĤÑĢÐµÐ¼
ĠÐ¿Ð¾Ð´ ÑħÐ¾Ð´
ÑĥÑĢ Ð³
ĠÑĨ Ð¸Ðº
ÐµÐ² ÐµÑĢ
ÑĢÐ°Ð· ÑĢÐ°Ð±Ð¾ÑĤ
Ð¡ Ð¢ÐĴ
ĠÑĨÐµÐ» ÐµÐ²
Ðŀ ÐĻ
ĠÐ±ÑİÐ´Ð¶ÐµÑĤ Ð½Ð¾Ð¹
Ð¿ÑĢ Ð¾Ñģ
ÑıÐ² Ð»ÐµÐ½Ð¸Ðµ
ĠÑĢÐ°Ñģ ÑĩÐµÑĤ
ĠÑįÑĤ Ð¸ÐºÐ¸
ĠÑĦÐµÐ´ÐµÑĢÐ°Ð»ÑĮ Ð½Ð¾Ð¼Ñĥ
ĠÑĢÐ°ÑģÐ¿ Ð¾Ð·Ð½Ð°Ð²
ĠÑįÐ»ÐµÐºÑĤÑĢÐ¾Ð½ Ð½Ð¾Ð¼
ĠÐ°Ð² Ð³ÑĥÑģÑĤ
ĠÐ´Ð¾Ð» Ð»Ð°ÑĢÐ¾Ð²
ĠÑĩÐ°ÑģÑĤ Ð½Ð¾ÑģÑĤÐ¸
ĠÐ¿ÑĢÐ¾Ð¼ÑĭÑĪÐ»ÐµÐ½ Ð½ÑĭÑħ
ĠÐ¾Ð±ÑĬÐµÐ¼ Ð¾Ð²
ĠÑģÐ¿ÐµÑĨÐ¸ Ð°Ð»ÑĮÐ½ÑĭÑħ
ĠÐ¾Ð±ÑīÐµ ÑģÑĤÐ²ÐµÐ½Ð½Ð¾
ĠÐ¿ÑĢÐ¸Ð½ÑıÑĤ ÑĮ
ÑĤÐµÐ»ÐµÐºÐ¾Ð¼Ð¼ÑĥÐ½Ð¸ÐºÐ°ÑĨÐ¸Ð¾Ð½ Ð½ÑĭÐ¼
ĠÐ²Ð¾ ÐµÐ½Ð½Ð¾Ð¹
ĠÐ½ÐµÐ¿ ÑĢÐ°Ð²
ĠÑĢÐµÐµÑģÑĤ ÑĢÐµ
ĠÐºÑĢÐ¸ÑĤ Ð¸ÑĩÐµÑģÐºÐ¸Ñħ
ĠÐ¿Ð°ÑģÐ¿ Ð¾ÑĢÑĤ
ĠÑģÐ¾Ð´ÐµÑĢÐ¶Ð°Ñī ÐµÐ¹ÑģÑı
ĠÐ¢ ÑĢÐµÐ±
Ð¾Ð±ÐµÑģÐ¿ÐµÑĩ Ð¸ÑĤÑĮ
ĠÐ²Ð» Ð¾Ð¶ÐµÐ½Ð¸Ñı
ĠÐ°ÐºÑĤÑĥ Ð°Ð»Ð¸Ð·
ĠÐ³Ð¾ÑģÑĥÐ´Ð°ÑĢÑģÑĤÐ² Ð°Ð¼Ð¸
ĠÐ¾Ñĩ Ð¸ÑģÑĤ
ĠÐºÐ¾ Ð¾Ð¿
ĠÐ¿ÑĢÐµÐ´Ð¿ÑĢÐ¸Ð½Ð¸Ð¼Ð°ÑĤÐµÐ»ÑĮ ÑģÐºÐ¾Ð³Ð¾
ĠÐºÐ°Ð·Ð½Ð°ÑĩÐµÐ¹ ÑģÑĤÐ²Ð°
ĠÐłÐ°Ð· Ð¼ÐµÑĢ
ĠÑģÑĤÐ¸Ð¼ÑĥÐ» Ð¸ÑĢÐ¾Ð²Ð°Ð½Ð¸Ðµ
ĠÐ³Ð»Ð°Ð² Ð½ÑĭÐ¼
ĠÐ·Ð°ÑģÐµÐ´ Ð°Ð½Ð¸Ñı
ĠÐ·Ð½ Ð°Ð½Ð¸Ð¹
ĠÐ·Ð°Ð¿ÑĢÐ°ÑĪ Ð¸Ð²Ð°
ĠÐ¿Ð°ÑĢ Ð¾Ð¼
ĠÐ½ÐµÑģÐº Ð¾Ð»ÑĮ
ÐµÐ³Ð¸ÑģÑĤÑĢ Ð¸ÑĢÐ¾Ð²Ð°Ð½
ĠÐ¼Ð°Ðº ÑģÐ¸Ð¼
Ð²Ð²ÐµÐ´ ÐµÐ½Ð°
ĠÑĤÑĥÑĢ Ð¸ÑģÑĤ
ĠÑģÐ¸Ð³Ð½ Ð°Ð»Ð¾Ð²
ĠÐŁÐ¾Ñģ Ð»Ðµ
ĠÐ¿ÐµÑĢÐµÑĢ Ð°Ð±Ð¾ÑĤ
ĠÐ°ÑģÐ¿ ÐµÐºÑĤ
ĠÐ¾ÐºÐ¾Ð½Ñĩ Ð°Ð½Ð¸Ñı
ĠÐ¿Ð¾ÑĢÑıÐ´Ðº Ð¾Ð²ÑĭÐ¼
ĠÐ¤ÐķÐĶÐķÐłÐĲÐ¦ ÐĺÐĺ
ÐŀÐ¡Ð¡ÐĺÐĻÐ¡Ðļ ÐŀÐĻ
ĠÐ¿ÑĢÐµÑģÑĤ ÑĥÐ¿
ÑĢÐ°Ð·Ð²Ð¸ÑĤ Ð¸Ñı
ĠÐ°Ð²Ð³ÑĥÑģÑĤ Ð°
. )
Ð¸ ÑĤÐµÐº
ÑĢ Ñĭ
ÐµÐ½ Ð·
Ð» Ð°Ð¹Ð½
Ð² Ðµ
Ð² ÑĭÑģÐ¾Ðº
ĠÑģ Ð¿ÑĢÐ¾Ñģ
ĠÐ½ Ð¼
ĠÐ½ Ð¸Ð¼
Ð¾ÑĤ ÑĩÐµÑĤ
Ñī ÐµÑĢÐ±
ĠÑĢ ÑĥÑģ
ĠÐº Ð¾ÑįÑĦÑĦÐ¸ÑĨÐ¸
Ð¾Ð» Ð¸
Ð¾Ð» Ð¾Ðº
ĠÑĥ ÑģÐ¿
ĠÑĥ ÑīÐµÑĢÐ±
ĠÐ¼ Ð¾ÑĤÐ¸Ð²
Ð³ Ð»
Ð¸Ñĩ Ð½Ð¾ÑģÑĤÐ¸
ĠÐ¤ÐµÐ´ÐµÑĢ Ð°ÑĨÐ¸Ñı
ĠÐł ÐŀÐ¡Ð¡ÐĺÐĻÐ¡ÐļÐŀÐĻ
ĠÑį ÑĦÑĦÐµÐºÑĤ
ĠÑĢÐ°Ð· Ð²ÐµÐ´
ÐµÐ» ÐµÐ½
Ð¸Ð² Ð¸Ð´Ñĥ
ĠÑģÑĤ Ð¾ÑĢ
ĠÐ¾ ÑĦÐ¾ÑĢÐ¼
ĠÐ¾Ð¿ Ð°Ñģ
ĠÐ» Ð¾Ð³
ĠÐ½Ð°ÑģÑĤÐ¾ÑıÑī ÐµÐ¼
Ð¾ÑĤÐ¾ÑĢ ÑĭÐµ
ĠÐ³Ð¾ÑģÑĥÐ´Ð°ÑĢÑģÑĤÐ²ÐµÐ½ Ð½Ð°Ñı
ĠÐ¿ÑĥÐ½ÐºÑĤ Ð°Ñħ
Ð¸Ñģ Ð°Ð½Ð¸Ñı
Ð¼Ð¸ Ð½Ñĭ
Ð¾Ð³Ð» Ð°
ĠÐ²Ð¾Ð· Ð¼ÐµÑī
ĠÐ²Ð¾Ð· ÑĢÐ°ÑģÑĤ
ĠÐ²ÐºÐ»ÑİÑĩ ÐµÐ½Ð½ÑĭÑħ
ĠÐ½ÐµÐ¾Ð±ÑħÐ¾Ð´Ð¸Ð¼ Ð¾
Ð°ÑĤÐ¸Ð² Ð½Ð¾
ÐĿ ÐĲ
Ð°ÐµÐ¼ Ð¾Ð³Ð¾
ĠÑĦÐ¸Ð½Ð°Ð½ÑģÐ¾Ð² ÑĭÐ¹
ĠÐ·Ð°ÑıÐ² ÐºÐµ
ĠÑĥÑĢÐ¾Ð² Ð½ÐµÐ¼
ĠÐ³ÑĢÐ°Ð½ ÑĤ
Ġ202 5
ĠÑģÐ¾Ð³Ð»Ð° ÑĪÐµÐ½Ð¸Ñİ
ĠÑģÐ¾Ð³Ð»Ð°Ñģ Ð¾Ð²Ð°Ð½Ð¸Ðµ
ĠÑģÐµÑĢ Ð¸Ð¹
ĠÐ¿ÑĢÐ¸Ð¾ÑĢÐ¸ÑĤÐµÑĤ Ð¾Ð²
Ð¾Ð»Ð¾Ð³ Ð¸Ð¸
ĠÑĩÐµÐ»Ð¾Ð² ÐµÑĩÐµ
Ð£ Ð¢ÐĴ
ĠÑĥÐ²ÐµÐ´Ð¾Ð¼ Ð¸ÑĤÑĮ
ĠÑĤÐµÑħÐ½ Ð¸ÑĩÐµÑģÐºÐ¾Ð³Ð¾
ÑĢÐ°Ñģ ÑħÐ¾Ð´
ĠÐ½ÐµÐ¿ ÑĢÐµÐ´
ĠÐ¢ Ð°Ðº
ĠÐ¿ÑĢÐ¾ÑĦÐµÑģÑģÐ¸Ð¾Ð½ Ð°Ð»ÑĮÐ½Ð¾Ð¹
ĠÐ½Ð¾Ð¼ÐµÑĢ Ð¾Ð¼
ĠÐ´Ð¾Ð³Ð¾Ð² Ð¾ÑĢÐ¾Ð²
ĠÐ´Ð°ÑĤ Ñĥ
ĠÐ¼Ð¾Ñī Ð½Ð¾ÑģÑĤÐ¸
ĠÐ»Ð°Ð· ÐµÑĢÐ¾Ð²
ĠÐ·Ð°Ð¸Ð½ÑĤÐµÑĢÐµÑģÐ¾Ð²Ð°Ð½ Ð½ÑĭÐ¼Ð¸
ĠÑĤÐµÐ¼ Ð¿
ĠÐ¾ÑģÐ¾Ð± ÐµÐ½
ĠÑĤÑĢÐ°Ð½Ñģ Ð³ÑĢÐ°Ð½Ð¸Ñĩ
ĠÐ½Ð°Ñĩ Ð°Ð»Ð°
ĠÐ¾Ð½ Ð»Ð°Ð¹Ð½
ĠÐ²Ð¾Ð·Ð´ ÐµÐ¹ÑģÑĤÐ²Ð¸Ñı
Ðĸ ÐĶÐķÐĿ
ĠÐ°ÑĥÐ´Ð¸Ð¾Ð²Ð¸Ð·Ñĥ Ð°Ð»ÑĮÐ½Ð¾Ð³Ð¾
ĠÑĨÐµÐ½ Ð°Ñħ
ÐºÐ¾Ð½ÑģÑĤÑĢÑĥÐºÑĤ Ð¾ÑĢ
ÐºÐ¾Ð½ÑģÑĤÑĢÑĥÐºÑĤ Ð¾ÑĢÑģÐºÐ¸Ñħ
ĠÑĢÐ°ÑģÑĤ Ð¾ÑĢ
ĠÑĢÐ°ÑģÑĪÐ¸ÑĢ ÐµÐ½Ð¸Ðµ
ÑģÐºÑĢÑĭÑĤ Ð¸Ñı
ĠÐ°Ð²ÑĤÐ¾Ð¼Ð¾Ð±Ð¸Ð»ÑĮ Ð½ÑĭÑħ
ÐķÐł ÐĸÐĶÐķÐĿ
ĠÐ½Ð¾Ñı Ð±ÑĢÑı
ĠÐ¾ÑĤÐ² ÐµÑĩ
ĠÐ½ÐµÐ¿ÑĢÐ°Ð² Ð¾Ð¼
Ð¸ÑĤÐµÐº ÑĤ
Ð£Ð¢ÐĴ ÐķÐłÐĸÐĶÐķÐĿ
i s
Ð¸ Ð°Ð»ÑĮÐ½Ð¾
Ðµ ÑĦ
Ñģ Ð½
Ð» Ð°Ñģ
ĠÐ¿ Ð¾Ð¿
Ð¾Ð² Ð¾Ðµ
ÐµÑĢ Ð¾Ð¿ÑĢÐ¸ÑıÑĤ
ĠÐ² ÑĤÐ¾ÑĢ
ÑģÑĤÐ² Ð¸Ðµ
ĠÐ¿ÑĢ Ð¾ÑģÐ¿
Ð¿ Ð»
ĠÐº Ð°ÑĢÑĤ
ĠÑĤ ÑĢÐ°Ð´Ð¸ÑĨÐ¸Ð¾Ð½
ÐµÐ¼ ÑĥÑİ
ÑģÐ¿ ÐµÑĢÑĤ
Ð± Ð¸Ð½
Ð½Ð¾ÑģÑĤ ÑıÐ¼
ĠÐ± Ð°ÑĢÑĮ
Ð¸Ð² Ð½Ð¾Ð¹
ĠÐ¾ÑĢÐ³Ð°Ð½ Ðµ
ĠÑģÐ¾ Ñİ
Ð°ÑĤÐ¾ÑĢ Ñĭ
ĠÑįÐºÑģÐ¿ Ð¾ÑĢÑĤÐ°
ĠÑĢÐ°Ð·ÑĢÐ°Ð±Ð¾ÑĤ ÑĩÐ¸Ðº
201 3
202 5
ĠÑĥÐ¿ Ð¾Ð»Ð½Ð¾Ð¼Ð¾Ñĩ
ĠÐ²Ð¾Ð· Ð¾Ð±Ð½Ð¾Ð²
Ġ4 5
ĠÐ¾Ð¿ÐµÑĢÐ°ÑĤÐ¾ÑĢ Ñĥ
Ð½Ð¾Ð´ Ð¾ÑĢÐ¾Ð¶
ĠÐºÐ¾Ð¼Ð¿Ð»ÐµÐºÑģ Ð½Ð¾Ð¹
ĠÐ¾ÑĤÑĩÐµÑĤ Ð½ÑĭÐ¼
ĠÐ¿ÑĢÐµÐ´ÑĥÑģÐ¼Ð¾ÑĤÑĢÐµÐ½ Ñĭ
ÑĨÐµÐ½ ÐºÐ°
Ġ23 5
Ðľ Ð¸Ð½Ð¸ÑģÑĤÐµÑĢ
ĠÑģÐ¾Ð³Ð»Ð°Ñģ Ð¾Ð²Ð°Ð½
ĠÐŁÑĢÐµÐ·Ð¸Ð´ ÐµÐ½ÑĤ
ĠÐ¾Ð±ÑıÐ·Ð°Ð½ Ð½Ð¾ÑģÑĤÑĮ
ĠÐ¿ÑĢÐ¸Ð½ÑıÑĤ Ð¸Ðµ
17 85
Ð£ ÐŁ
Ð¸Ð»ÑĮ Ð½Ð¾Ð³Ð¾
ĠÑģÐ¾Ð·Ð´ Ð°ÑĤÑĮ
ĠÐ¿ÐµÑĢÐµÑĩ Ð½Ñı
ÐŀÐ± ÑĬÐµÐ¼
ĠÐ¸ÑģÐ¿Ð¾Ð»ÑĮÐ·Ñĥ ÐµÐ¼ÑĭÑħ
ĠÐ¸Ð½Ð´ Ð¸Ð²Ð¸Ð´Ñĥ
ĠÐŀÐ± Ñī
ĠÐŀÐ± ÑĢÐ°Ð±Ð¾ÑĤÐºÐ°
ĠÑĥÑĩÐ°ÑģÑĤÐ½Ð¸Ðº Ð¾Ð¼
ĠÐ²Ð¾Ð» Ð¾Ðº
ĠÐ±Ð¾Ð»ÑĮ ÑĪÐ¸Ðµ
ĠÐ½ÐµÐ· Ð°Ðº
ĠÑģÑĤÑĢÐ°Ñħ Ð¾Ð²ÑĭÑħ
ĠÐ´ÐµÐ¹ÑģÑĤÐ² ÑĥÑİÑī
Ð¿ÑĢÐ¾ ÑĨ
ĠÐºÐ°Ð¿Ð¸ÑĤ Ð°Ð»ÑĮÐ½Ð¾Ð³Ð¾
ĠÐ¸Ð½ÑĤÐµÑĢÐµÑģ Ð°Ñħ
ĠÑģÐ¾Ð¿ÑĢÐ¾Ð²Ð¾Ð¶Ð´ ÐµÐ½Ð¸Ñı
ĠÐ²ÑģÑĤÑĥÐ¿ Ð¸Ð²
ĠÑģÐ¾Ð±ÑģÑĤÐ²ÐµÐ½ Ð½Ð¾ÑģÑĤÑĮ
ĠÑĤÑĢÐ°Ð½Ñģ ÑĦÐ¾ÑĢÐ¼
ĠÐ²Ð»Ð¸Ñı Ð½Ð¸Ñı
ĠÐ²ÑĭÑģÐ¾ÐºÐ¾ÑĤÐµÑħÐ½Ð¾Ð»Ð¾Ð³ Ð¸ÑĩÐ½Ð¾Ð³Ð¾
ĠÐ¿ÑĢÐµÐ´Ð½Ð°Ð·Ð½Ð°Ñĩ ÐµÐ½Ð½ÑĭÑħ
ĠÑģÐ»Ð¾Ð¶ Ð½ÑĭÑħ
ÑģÐºÐ¾ ÑħÐ¾Ð·ÑıÐ¹
ĠÑģÐµÐ»ÑĮ ÑģÐºÐ¾ÑħÐ¾Ð·ÑıÐ¹
40 86
ĠÑĥÐ½Ð¸ÑĩÑĤ Ð¾Ð¶ÐµÐ½Ð¸Ñı
ĠÐºÐ¾Ð» Ð»ÐµÐºÑĤ
ĠÐ¿ÑĢÐ¸Ð¾Ð±ÑĢÐµÑĤ ÐµÐ½Ð¸Ðµ
ĠÑĥÐºÑĢÐµÐ¿ Ð»ÐµÐ½Ð¸Ðµ
ĠÐ´Ð°Ð»ÑĮÐ½ÐµÐ¹ ÑĪ
ĠÐ¿Ð¾ÑĢÑĤ Ð°Ð»Ðµ
ĠÐ´ÐµÑģÑı ÑĤÐ¸
ĠÐ°Ð³ÐµÐ½ÑĤ ÑģÑĤÐ²Ð¾
ĠÑĥÑĩÐµÐ½ ÑĭÑħ
ĠÐ¿ÑĢÐ¸Ð½Ð¸Ð¼ Ð°ÑĤÑĮ
ĠÐ²ÑĭÑģÐ¾ÐºÐ¾ÑįÑĦÑĦÐµÐºÑĤÐ¸Ð² Ð½ÑĭÑħ
ĠÐ¾ÑĢÑĥÐ¶ Ð¸Ñı
ĠÐ¶ÐµÐ»ÐµÐ· Ð½Ð¾Ð´Ð¾ÑĢÐ¾Ð¶
ĠÐ¿ÑĢÐµÐ´Ð°Ðº ÑģÐµÐ»ÐµÑĢÐ°ÑĨÐ¸Ð¸
n ing
Ġ c
Ñģ ÑģÐ»ÐµÐ´
ÑĢ ÐµÐ¿
Ñĥ Ðº
ĠÐ¿ Ð¸ÑģÑĮ
Ð¾Ð² Ð¾Ð»ÑĮ
Ð¾ÑĤ Ñĭ
Ð¾ÑĤ ÑĢÐ°
Ð¾Ð½ Ð½Ð¾Ð¹
ĠÑĤ ÐµÑģÑĤ
ĠÐ¼ Ð¾
ĠÐ¼ Ð°ÑĤÑĢ
Ð°Ð» Ð¸
Ð°Ð» ÐµÐ¹
Ð°Ð» Ð°Ð½Ñģ
ĠÐ³ Ð¾Ð»Ð¾Ð²
Ð¾Ðº Ð°Ð·Ð°ÑĤÐµÐ»
Ð¸ÑĤÐµÐ»ÑĮ Ð½Ð¾Ðµ
ĠÑĩ ÐµÑĤ
ĠÑĢÐµ ÑĩÐ¸
Ð»ÐµÐ½ Ð½ÑĭÑħ
Ð°Ñģ Ð¾Ð²
ĠÑĤÐµÑħÐ½Ð¾Ð»Ð¾Ð³ Ð¸ÑıÑħ
Ð¾ÑģÑĤÐ°Ð² Ð»ÐµÐ½Ð¸Ðµ
ÑĢÐ° ÑģÐ¿
Ð°ÑĤÐµÐ»ÑĮ Ð½ÑĭÐµ
ĠÐºÐ¾Ð½ ÑĦÐµÑĢÐµÐ½
ĠÑĤÐ°Ðº ÑĥÑİ
ĠÐ¿ÑĢÐµÐ´Ð¾ÑģÑĤÐ°Ð² Ð¸ÑĤÑĮ
ĠÐŁÑĢÐ°Ð²Ð¸ÑĤÐµÐ»ÑĮ ÑģÑĤÐ²ÐµÐ½Ð½Ð¾Ð¹
ĠÐºÐ¾ÑĤÐ¾ÑĢ Ð¾Ð¼Ñĥ
ĠÑĥÑĩ ÐµÐ±
ÐĴ ÐĲ
Ð°ÑĤÐ¾ÑĢ Ð¾Ð¼
ĠÑįÐºÐ¾Ð½Ð¾Ð¼ Ð¸ÑĩÐµÑģÐºÐ¸Ñħ
ĠÑĦÐ¾ÑĢÐ¼ Ð¾Ð¹
ĠÑģÑĤÐ°ÑĤÑĮ ÑıÐ¼Ð¸
ĠÐ¾Ð±ÑĢÐ°Ð· Ð¾Ð¼
Ð°Ð± Ð¾ÑĢ
ĠÑĥÑģÑĤÐ°Ð½Ð¾Ð²Ð»ÐµÐ½ Ð¸Ð¸
ĠÑįÐ»ÐµÐºÑĤÑĢÐ¾Ð½ Ð½Ð¾Ð³Ð¾
Ġ10 00
ĠÐ¼Ð°Ñģ ÑĪÑĤÐ°Ð±
ĠÑĤÐµÑĢ Ð¼Ð¸Ð½
ÐĶ Ð»Ñı
ĠÐ³ÑĢÐ°Ð¶Ð´Ð°Ð½ ÑģÐºÐ¾Ð³Ð¾
ĠÑĩÐ°ÑģÑĤ ÑĮ
ĠÐ¾Ð±Ñī ÐµÐ¼
ĠÐ½Ð°Ð» Ð¾Ð³Ð¾Ð²
ĠÐ°Ðº ÑĥÑģÑĤ
ĠÐ¾Ð±ÑīÐµ ÑģÑĤÐ²ÐµÐ½Ð½ÑĭÐ¼Ð¸
ĠÑİÑĢÐ¸Ð´ Ð¸ÑĩÐµÑģÐºÐ¾Ðµ
ĠÑįÐºÑģÐ¿ÐµÑĢÑĤ Ð½ÑĭÐ¼
ĠÐ½Ð°ÑĢÑĥ ÑĪÐµÐ½Ð¸Ðµ
Ð¸ÑĦÐ¸Ðº Ð°ÑĨÐ¸Ñı
ĠÐ²Ð·Ð°Ð¸Ð¼Ð¾Ð´ ÐµÐ¹ÑģÑĤÐ²
ĠÐ´Ð¾Ð¿Ð¾Ð»Ð½Ð¸ÑĤÐµÐ»ÑĮ Ð½Ð¾Ð¹
ĠÐ´Ð¾Ð¿Ð¾Ð»Ð½Ð¸ÑĤÐµÐ»ÑĮ Ð½ÑĭÐµ
ĠÑģÐ¾Ð·Ð´ Ð°Ð½Ð½ÑĭÑħ
ĠÑħÐ°ÑĢÐ°ÐºÑĤÐµÑĢ Ð¸Ð·
ĠÐºÐ¾ÑĢ ÑĢÐµÐºÑĤ
ĠÑĦÐ°ÐºÑĤ Ð¸ÑĩÐµÑģÐºÐ¾Ðµ
ĠÑģÐ¾Ð¾Ð± ÑīÐµÑģÑĤÐ²
ĠÐ¼ÐµÑģÑıÑĨ ÐµÐ²
Ġ16 12
ĠÐ¿ÑĢÐµÐ´Ð¾ÑģÑĤÐ°Ð²Ð»Ñı ÐµÐ¼Ð¾Ð¹
ĠÐ´Ð² ÑĥÑħ
ĠÐºÐ¾Ð¼Ð¿ÐµÑĤÐµÐ½ ÑĨÐ¸Ð¸
ĠÐķ ÑģÐ»Ð¸
ĠÐ¼Ð¾Ñī Ð½ÑĭÑħ
ĠÐ½ÐµÐ´Ð¾ÑģÑĤ Ð¸Ð¶ÐµÐ½Ð¸Ñı
ĠÑĢÐ°Ð·Ð´ÐµÐ» Ðµ
ĠÐ¿ÑĢÐµÐ¿ ÑıÑĤ
ĠÑĢÐµÐ¶Ð¸Ð¼ Ðµ
ĠÑĥÑĩÑĢÐµÐ¶Ð´ ÐµÐ½Ð¸Ð¹
ĠÑĤÐµÐ¼ Ð°ÑĤ
ĠÐ¿ÑĢÐ¸Ð½ÑĨÐ¸Ð¿ Ð¸Ð°Ð»ÑĮÐ½Ð¾
ĠÐ¦ÐµÐ½ÑĤ ÑĢ
ĠÐ²Ð¾Ð·Ð²ÑĢÐ°ÑĤ Ð°
ĠÑħÐ°ÑĢÐ°ÐºÑĤÐµÑĢÐ¸ÑģÑĤ Ð¸ÐºÐ¸
ĠÐ¿ÑĢÐµÐ´Ð»Ð¾Ð¶ ÐµÐ½Ð¸Ð¹
ĠÑģÐ¾Ð¾Ð±Ñī ÐµÐ½Ð¸ÑıÐ¼Ð¸
ĠÐ²ÑĭÑģÐ¾ÐºÐ¾ÑĤÐµÑħÐ½Ð¾Ð»Ð¾Ð³ Ð¸ÑĩÐ½ÑĭÑħ
ÐĿÐ° ÑĥÑĩÐ½Ð¾
ĠÐ²Ð¾Ð·Ð½Ð¸Ðº Ð½Ð¾Ð²
ĠÐ²Ð°Ð¶ Ð½ÐµÐ¹
ĠÐ°Ð¿ÑĢ Ð¾Ð±
ĠÑĢÐ°Ð·ÑĢÐµ ÑĪ
ĠÐ¿Ð¾ÑĢÑĥÑĩ ÐµÐ½Ð¸Ñİ
ĠÑĢÐ°Ð´Ð¸Ð¾ÑįÐ»ÐµÐºÑĤÑĢÐ¾Ð½ Ð½Ð¾Ð¹
ĠÐ¾ÑģÑĤ Ð°ÑĤ
ĠÐ¿ÐµÑĢÐµÑħÐ¾Ð´ Ð°
ĠÑĢÐµÐ³ÑĥÐ»Ð¸ÑĢÑĥÑİÑī ÐµÐ³Ð¾
ĠÑĥÐ½Ð¸ÑĩÑĤ Ð¾Ð¶
ĠÑģÐ»ÑĥÐ¶Ð± Ñĭ
ĠÑģÑĤÐµÐ¿ ÐµÐ½Ð¸
ĠÐ¸Ð·Ð¾Ð±ÑĢÐ°Ð¶ ÐµÐ½Ð¸Ð¹
ĠÐ¿ÑĢÐ¸ÑģÐ¾ÐµÐ´Ð¸Ð½ ÐµÐ½Ð¸Ñı
Ð¾ÑĤÐµÑħ Ð½
ĠÐ±ÑĥÑħÐ³Ð°Ð»ÑĤÐµÑĢ Ð¾Ð¼
ĠÑģÑĥÑīÐµÑģÑĤÐ² ÑĥÑİÑīÐ¸Ñħ
ĠÐ¼Ð¸ÐºÑĢÐ¾ ÑįÐ»ÐµÐºÑĤÑĢÐ¾Ð½
ĠÑĦÐ°Ðº ÑĤÐ°
ĠÐ»Ð¸ÐºÐ²Ð¸Ð´ Ð°ÑĨÐ¸Ð¸
ĠÐ°ÑĢÑħ Ð¸ÑĤÐµÐºÑĤ
ĠÐ¼Ð¾Ð»Ð¾Ð´ÐµÐ¶ Ð¸
ĠÐ½Ð¸Ð· Ðº
Ð¸ÑģÑģÐ»ÐµÐ´Ð¾Ð²Ð°ÑĤÐµÐ»ÑĮ ÑģÐºÐ¸Ðµ
da ta
ÐºÐ¾Ð½ÑģÑĤÑĢÑĥÐºÑĤÐ¾ÑĢ ÑģÐºÐ¸Ðµ
ĠÐ¿ÑĢÐ¾ÑģÐ¿ ÐµÐºÑĤ
ÐľÐ¸Ð½Ð¸ÑģÑĤÐµÑĢ ÑģÑĤÐ²Ð¾
8 9
; ";
Ġ A
Ġ G
Ð¾ ÑĪ
Ð¾ Ð¾Ð±ÑĢÐ°Ð·
Ð¾ ÑĢÐ°Ð¼Ð¸
Ñģ Ñĭ
Ñģ ÑĮ
ĠÐ »ÑĮ
ÑĢ ÑıÐ·
Ð» Ð½
Ð» Ð°Ð³
Ðº Ð°Ð¼Ð¸
Ð°Ð½ ÑĤÐ¾Ð²
ÐµÑĢ Ð²
ÐµÑĢ ÐµÐ¶
ÐµÑĢ ÐµÐ³
Ð¿ Ð¿
Ð¾ÑĤ Ð°
Ð¾ÑģÑĤ ÑĢÐ¾
ĠÐº Ð»Ð°ÑģÑĤ
Ð¾Ð¹ Ð½Ð¾Ð³Ð¾
ĠÐ¼ ÐµÐ»Ð¸Ð¾ÑĢ
Ð± Ñĭ
ĠÐ³ ÐµÑĤÐµÑĢ
ĠÑĢÐ°Ð· Ð²
ĠÐ± ÐµÑģÐ¿
ÑİÑī ÐµÐ¹
Ð¾Ð± ÑĢ
Ð¾Ð± Ð¸Ð»
ĠÑĢÐµ Ð°ÐºÑĤ
Ð°Ñĩ Ð°
ĠÐ½Ð°ÑģÑĤ Ð¾ÑıÑīÐµÐµ
ĠÑĥÑģÑĤ Ð°Ð²
Ð¸ÑĢÐ¾Ð²Ð°Ð½ Ð½Ð°Ñı
ĠÐ¿ÑĥÐ½ÐºÑĤ Ð°Ð¼Ð¸
ĠÐ¡ Ð²ÐµÐ´ÐµÐ½Ð¸Ñı
ĠÐ·Ð°ÐºÐ¾Ð½ Ð¾Ð²
ĠÑĢÐµÐ·ÑĥÐ»ÑĮÑĤÐ°ÑĤ Ð¸Ð²
ĠÐ¾ÑģÑĥÑīÐµÑģÑĤÐ²Ð»Ñı ÑİÑĤ
ĠÑģÑĥÐ±ÑĬÐµÐºÑĤ Ðµ
ĠÐ½Ð°Ð¿ÑĢÐ°Ð² Ð¸ÑĤÑĮ
ÐŁ Ð£
ĠÑĥÐºÐ°Ð·Ð°Ð½ Ð½ÑĭÐ¼Ð¸
ĠÑĥÐºÐ°Ð·Ð°Ð½ Ð½ÑĥÑİ
ĠÐ¾Ð±ÑĢÐ°Ð· Ð¾Ð²Ð°Ð½Ð¸Ðµ
ĠÐ¿ÑĢÐ¾Ð³ÑĢÐ°Ð¼Ð¼ Ð½Ð¾Ðµ
ÐµÐ¶Ð´ ÑĥÐ½Ð°ÑĢÐ¾Ð´
Ð¸ÑĤÐµÐ» ÑıÐ¼Ð¸
ĠÐ½ÐµÐ¾Ð±ÑħÐ¾Ð´Ð¸Ð¼ Ð°
ĠÑĨÐµÐ½ÑĤ ÑĢÐ°Ð¼
ĠÑĨÐµÐ½ÑĤ ÑĢÐ°Ð¼Ð¸
Ð°ÐµÐ¼ Ð°Ñı
ĠÐ£ ÑĤÐ²ÐµÑĢÐ´Ð¸ÑĤÑĮ
ĠÐ¼Ð°ÑģÑģÐ¾Ð² Ð¾Ð³Ð¾
ÑĢÐ¾ ÑĦ
ĠÐ¿ÑĢÐ¸Ð¼ÐµÐ½ ÐµÐ½Ð¸Ñİ
ĠÑģÐ¾Ð´ ÐµÐ¹ÑģÑĤÐ²Ð¸Ðµ
ĠÐ²ÑĭÑģÐ¾Ðº Ð¸Ð¼
ĠÐ¿ÑĢÐ¾Ð¼ÑĭÑĪÐ»ÐµÐ½ Ð½Ð¾Ð¹
ĠÐ¸ÑģÑģÐ»ÐµÐ´ Ð¾Ð²Ð°Ð½Ð¸Ñİ
ĠÐ½Ð°ÑĨÐ¸Ð¾Ð½ Ð°Ð»ÑĮÐ½Ð¾Ð³Ð¾
Ðľ ÐµÑĢÐ¾Ð¿ÑĢÐ¸ÑıÑĤ
ĠÑģÐ¾Ð´ÐµÑĢÐ¶ Ð°ÑĤÑĮ
ÑĢÐ°Ðº ÑĢÐ°Ñģ
ĠÐ¾Ð±ÑĬÐµÐºÑĤ Ñĭ
ĠÐĺ Ðļ
ĠÐ¾Ð±Ñī Ð¸Ð¹
ĠÑįÑĦÑĦÐµÐºÑĤÐ¸Ð² Ð½Ð¾Ð³Ð¾
ÐºÑĢ Ð¾ÑĤ
ĠÐ¸ÑģÑĤ Ð¾ÑĢ
ĠÐ¼ÐµÑĤ ÑĢ
ĠÐ¸Ð½ÑĦ ÑĢÐ°ÐºÑĢÐ°Ñģ
Ġ200 8
ĠÑįÐºÑģÐ¿ÐµÑĢÑĤ Ð½Ð¾
ĠÐ½ÐµÐ´ Ð¾Ð¿
ĠÑģÐ¿Ð¾ÑģÐ¾Ð± Ð¾Ð²
ĠÑĢÑĭÐ½ ÐºÐ¾Ð²
ĠÐ²Ð²ÐµÐ´ ÐµÐ½Ð½ÑĭÑħ
ĠÑĦÐ¸Ð½Ð°Ð½Ñģ Ð°Ð¼Ð¸
ĠÑģÐ¾Ð´ÐµÑĢÐ¶Ð°Ñī Ð°Ñı
ĠÐ½ÐµÑģ ÐµÑĤ
ĠÐ¿Ð¾ÑĤÑĢÐµÐ± Ð¸ÑĤÐµÐ»ÐµÐ¹
ĠÑĤÐ¸Ð¿ Ð¾Ð²
Ð¿ÑĢÐ¾ ÐµÐºÑĤ
ĠÑģÑĢÐµÐ´ÑģÑĤÐ²Ð° Ñħ
ĠÐ°Ð´ÑĢÐµÑģ Ð°
ĠÐ¾ÑĤÐµÑĩÐµ ÑģÑĤÐ²ÐµÐ½Ð½Ð¾Ð¹
ĠÐľÐ¾ÑģÐº Ð²Ðµ
ĠÑĢÐµÐ¶Ð¸Ð¼ Ð¾Ð²
ĠÐ¿ÑĢÐ¾Ð²Ð°Ð¹Ð´ÐµÑĢ Ð°
ĠÐ¿ÑĢÐ¾Ð²Ð°Ð¹Ð´ÐµÑĢ Ñĥ
ÑİÑīÐ¸Ðµ ÑģÑı
ĠÐ·Ð´Ð¾ÑĢÐ¾Ð² ÑĮÑİ
ĠÐ¿ÑĢÐµ Ð¾Ð±ÑĢÐ°Ð·
ĠÐ¸Ð½Ð¶ÐµÐ½ ÐµÑĢ
ĠÑģÑĤÐ°ÑĤ ÑĥÑģ
ÑģÑĤÐ¸ÑĤÑĥ ÑĨÐ¸Ð¾Ð½
ĠÑĢÐ°Ð·ÑĢÐµ ÑĪÐµÐ½Ð¸Ñı
ĠÐ»Ð¸Ð´ ÐµÑĢÐ¾Ð²
ĠÐ°Ð½Ð°Ð»Ð¾Ð³ Ð¸Ñĩ
ĠÐ¡ÑĤÑĢÐ°ÑĤÐµÐ³ Ð¸Ñı
ĠÐºÐ¾ÑģÐ¼ Ð¸ÑĩÐµÑģÐºÐ¸Ñħ
ÐŁÑĢÐµÐ´ ÑģÐµÐ´Ð°ÑĤÐµÐ»ÑĮ
ÑĥÐ±ÑģÐ¸Ð´ Ð¸Ñı
ĠÐ±Ð»Ð°Ð³ Ð¾Ð¿ÑĢÐ¸ÑıÑĤ
ur al
ĠÐ½ÐµÑģÐ¾Ð¾ÑĤÐ²ÐµÑĤÑģÑĤÐ² Ð¸Ðµ
ÐŃÐ»ÐµÐºÑĤÑĢÐ¾Ð½ Ð½ÑĭÐ¹
ĠÐ¸Ð½Ð´ÑĥÑģÑĤ ÑĢÐ¸
ĠÑģÑĨÐµÐ½ Ð°ÑĢ
ĠÐ½ÐµÐ¿ÑĢÐµÐ´ ÑģÑĤÐ°Ð²
9 4
d e
g en
o m
Ġ S
Ġ II
Ð¸ ÐµÐ²
Ð½ Ð°ÑĨÐ¸Ð¾Ð½
Ñĭ ÑģÐ»
ÐµÐ½ Ð½ÑĥÑİ
Ð» Ð¸Ðº
ĠÐ¿ Ð°ÑĨÐ¸
ĠÐ¿ ÐµÐ½Ñģ
ĠÐ² ÐµÑĢ
ÐµÐ´ ÐµÐ½Ð¸Ðµ
ÑĢÐ°Ð ³
Ð¼ Ð¾
ĠÐ¿ÑĢ Ð¾Ð¿
Ð¿ Ð¾ÑģÑĤÐ°Ð½Ð¾Ð²Ð»ÐµÐ½
ĠÐ½ ÐµÐ³Ð¾
ĠÐ½ ÐµÐ³
ÑģÐº ÑĥÑİ
Ð¸Ð¹ ÑģÐºÐ¾Ð¼
Ð¾ÑģÑĤ ÑĮÑİ
Ð¾Ð¼ Ðµ
ÐµÐº Ð²
ĠÐ½Ð° Ð¸Ð¼ÐµÐ½Ð¾Ð²Ð°Ð½Ð¸Ðµ
Ð¸Ð¼ Ð¿
Ð°Ð» Ð°Ð½ÑĤ
ĠÐ¾ÑĤ ÐºÐ»Ð¾Ð½
ĠÐ± Ð°Ðº
Ġ1 12
ĠÑĢÐµ ÑĪÐµÐ½Ð¸ÐµÐ¼
Ð°Ñģ ÑĮ
ĠÐ²Ñĭ Ð±
ĠÐºÐ¾Ð½ Ð²ÐµÑĢ
ĠÐ¿ÑĢÐ¾ÐµÐºÑĤ Ñĥ
ÐµÐ² ÑĤ
ÑĥÑİÑī Ð¸Ðµ
Ð¸ÑĢÐ¾Ð²Ð°Ð½ Ð½Ð¾ÑģÑĤÐ¸
ĠÐ·Ð°ÐºÐ¾Ð½ Ð½ÑĭÐµ
ĠÑĨÐµÐ» ÑıÐ¼
ĠÑįÐºÐ¾Ð½Ð¾Ð¼ Ð¸ÐºÐµ
ĠÑĦÐ¾ÑĢÐ¼ Ð°Ð¼
Ð´ÐµÑĢÐ¶ ÐºÐ°
ĠÐĴ Ð»Ð°Ð´
Ġ4 3
ĠÑģÐ»ÑĥÑĩ Ð°Ð¹
ĠÐ¼ÐµÑĢÐ¾Ð¿ÑĢÐ¸ÑıÑĤ Ð¸ÑıÑħ
ĠÐ¾Ð±ÑĬ ÑıÐ²Ð»ÐµÐ½Ð¸Ñı
ĠÐ²ÑĭÐ¿ Ð»Ð°ÑĤ
Ð¢ Ðŀ
ĠÐ·Ð°Ñī Ð¸Ñī
ĠÐ´Ð°Ð½ Ð½Ð¾Ð¹
ĠÐ¾Ð³ÑĢÐ°Ð½Ð¸Ñĩ ÐµÐ½Ð¸Ð¹
ĠÑĥÑĤÐ²ÐµÑĢÐ¶Ð´ ÐµÐ½Ð½Ð¾Ð³Ð¾
ĠÐ½Ð°ÑĨÐ¸Ð¾Ð½ Ð°Ð»ÑĮÐ½ÑĭÐµ
ĠÐ²ÑĭÐ¿Ð¾Ð»Ð½ Ñı
ĠÐ¼ÐµÐ¶Ð´ÑĥÐ½Ð°ÑĢÐ¾Ð´ Ð½ÑĭÐ¼
ĠÑĨÐ¸ÑĦÑĢÐ¾Ð² Ð¾Ð¼Ñĥ
ĠÐ¼ÐµÐ´Ð¸ÑĨÐ¸Ð½ ÑģÐºÐ¾Ðµ
ĠÐ¼Ð¸ÑĢ Ð¾Ð²ÑĭÑħ
ÐµÑģÑı Ñĩ
ĠÐ¸Ð½ÑĤÐµÐ»Ð»ÐµÐºÑĤÑĥ Ð°Ð»ÑĮÐ½ÑĭÑħ
ÐŀÐ± ÐµÑģÐ¿ÐµÑĩÐµÐ½Ð¸Ðµ
ĠÐ¿ÑĢÐ¾ÑĨÐµÑģÑģ Ð°
ĠÑģÐ¾Ð±Ð»ÑİÐ´ Ð°ÑĤÑĮ
ÐŁÑĢ Ð¸
ĠÐ½ÐµÑģ Ð¾Ð±
ĠÐ²Ð»Ð°Ð´ÐµÐ»ÑĮÑĨ Ñĥ
ĠÐ¿Ð¾Ð·Ð²Ð¾Ð»Ñı ÑİÑīÐ¸Ðµ
ĠÑģÐ½ Ð¸Ð¶
ĠÑįÑĤÐ°Ð¿ Ðµ
ĠÐ¿ÑĢÐµÐ²ÑĭÑĪ Ð°ÐµÑĤ
ĠÐ°Ð±Ð·Ð°ÑĨ Ðµ
ĠÐ·Ð°Ð¼ ÐµÑģÑĤ
ĠÐºÑĢÐ¸ÑĤÐµÑĢ Ð¸ÑıÐ¼
ĠÐ²Ð½ÑĥÑĤÑĢÐµÐ½ Ð½ÐµÐ¼
Ð½Ð¾Ð³ Ð»Ð°Ñģ
ĠÐ¸Ð½ÑĤÐµÐ³ÑĢ Ð°ÑĨÐ¸Ð¸
ĠÐ¿ÑĢÐ¸Ð½ÑĨÐ¸Ð¿ Ð¾Ð²
ĠÐºÐ¾Ð½ÑĤÑĢÐ¾Ð»ÑĮ Ð½ÑĭÑħ
ĠÑģÑĤÑĢÐ°Ð½Ð¸ÑĨ Ñĭ
ĠÐłÐ°Ð· Ð²Ð¸ÑĤÐ¸Ðµ
ĠÑĪÐ¸ÑĢÐ¾Ðº Ð¾Ð³Ð¾
ĠÐ½Ð°Ð¿ÑĢÐ°Ð²Ð»Ñı ÑİÑĤÑģÑı
ĠÑĤÐµÐºÑĥÑī ÐµÐ¼
ĠÐ¿Ð¾ÑģÑĤÐ°Ð² Ñī
ar ning
ĠÐ´Ð¾ÑģÑĤÐ¾Ð²ÐµÑĢ Ð½Ð¾ÑģÑĤÐ¸
ĠÐ´Ð¾Ð± Ð°Ð²
ĠÑģÐ¿ÐµÐºÑĤ ÑĢÐ°
ĠÐ°ÑĤ Ð¾Ð¼
ĠÐ¿ÑĥÐ±Ð»Ð¸Ðº Ð°ÑĨÐ¸Ð¹
ĠÐµÐ´Ð¸Ð½ Ð¸ÑĨ
ĠÑģÐµÐºÑĤ Ð¾ÑĢÐ¾Ð²
ĠÐ½Ð°Ð² Ñĭ
ĠÐ¿ÑĢÐ¾ÑĤÐ¸Ð²Ð¾Ð´ ÐµÐ¹ÑģÑĤÐ²Ð¸Ñı
ĠÐ¿Ð¾ÑģÐ»ÐµÐ´ÑģÑĤÐ² Ð¸Ð¹
le arning
ĠÐłÐµ ÑĪÐµÐ½Ð¸Ðµ
ĠÑĢÑĥÑģ ÑģÐºÐ¾Ð¼
ĠÐºÐ¾Ð½ÑĦÐµÑĢÐµÐ½ ÑĨÐ¸ÑıÑħ
ĠÐ»ÑĮ Ð³Ð¾ÑĤ
ĠÐ¿ÐµÐ½Ñģ Ð¸Ð¾Ð½
Ð¿Ð¾ÑģÑĤÐ°Ð½Ð¾Ð²Ð»ÐµÐ½ Ð¸ÐµÐ¼
7 1
f ic
Ġ C
Ð¾ Ð¸Ð½
Ð¾ Ð¸ÑĤÐµÐ»ÑĮÑģÑĤÐ²Ð¾
Ð½ Ð°Ðº
Ñģ Ð¾Ð·Ð´
ÑĢ ÐµÐ·
ÐµÐ½ Ð½Ð¾Ð¼Ñĥ
Ð» Ð°Ñĩ
Ð² ÑĢÐ°Ñī
ĠÑģ ÐµÐ³
ĠÐ² Ð¸ÑĢ
ÑģÑĤÐ² Ð¾Ð²Ð°ÑĤÑĮ
Ð¾ÑĤ Ð½ÑĭÑħ
ÑĤÐµÐ ¶
ĠÐ´ Ð°Ð²
Ð¾Ð½ Ð°Ñħ
ÐµÐº Ð°Ð½Ð°Ð»
ĠÐº Ð¾Ñģ
ĠÐº ÑĢÐµÐ´
ĠÑĤ Ð°Ð¼
ÐµÐ¼ ÑĭÐ¼Ð¸
ĠÐ· Ð²
ĠÐ· ÐµÐ¼
Ð¸ÑĤ ÐµÑĤÐ°
Ð¸Ñĩ Ð½Ð¾
ĠÐ³ Ðµ
ĠÐ¿ÑĢÐµÐ´ Ð¼ÐµÑĤ
Ð°Ð¼ ÐµÑĢ
ÑĦÐ¾ÑĢÐ¼ Ð¸ÑĢÐ¾Ð²Ð°Ð½Ð¸Ðµ
ĠÑģÑĤ Ð°
ĠÑģÑĤ Ð°Ð½
ĠÑģÑĤ Ð°Ð²
Ð»ÐµÐ½ ÑĩÐµ
ĠÐ¸Ð½ÑĦÐ¾ÑĢÐ¼ Ð°ÑĤ
Ð°ÑĨÐ¸Ð¾Ð½ Ð½Ð°Ñı
ĠÐ¿ÐµÑĢ ÐµÐ¿
ĠÑĤÐµÑħÐ½Ð¾Ð»Ð¾Ð³ Ð¸ÑĩÐµÑģÐºÐ°Ñı
Ġ2 23
ĠÐ²Ñĭ ÑĢÐ°Ð¶
ĠÐ» Ð°Ð±Ð¾ÑĢ
ĠÑģÐ¸ÑģÑĤÐµÐ¼ Ð°ÑĤ
Ðĺ ÑģÑģÐ»ÐµÐ´
ĠÑģÐ» ÐµÐ´
ĠÐ¸Ð· Ð»ÑĥÑĩ
ÐµÐ³ ÑĥÐ»
ĠÑģÑĢÐµÐ´ Ð½ÐµÐ³Ð¾
ĠÑĥÑĩ Ð¸ÑĤ
Ġ3 9
ĠÐ¡ Ð¾Ð³Ð»Ð°Ñģ
Ð¸Ñģ Ð»Ñı
ĠÐ·Ð°ÐºÐ¾Ð½ Ð½ÑĭÑħ
ĠÐľ Ð¸Ð½
ĠÑįÐºÑģÐ¿ Ð¾ÑĢÑĤ
ĠÐ±ÑİÐ´Ð¶ÐµÑĤ Ð½Ð¾Ð³Ð¾
ÑĤÑĢ Ð¾Ð¸ÑĤÐµÐ»ÑĮÑģÑĤÐ²Ð¾
ĠÐ´Ðµ ÑĦ
ĠÑģÐ¾Ð·Ð´Ð°Ð½ Ð¸Ð¸
ĠÐ¾Ð¿ÑĢÐµÐ´ÐµÐ» ÐµÐ½Ð¸Ðµ
10 0
ÐĲ Ð½Ð°Ð»Ð¸ÑĤÐ¸ÑĩÐµÑģÐºÐ¸Ð¹
ĠÑģÐ¾ÑģÑĤÐ°Ð² Ðµ
ĠÐ²ÑĭÑģÐ¾Ðº Ð¾ÑĤ
ĠÐ²ÑĭÑģÐ¾Ðº Ð¾Ðº
ĠÐ¶ ÑĥÑĢ
ĠÑĥÑĤÐ²ÐµÑĢÐ¶Ð´ Ð°ÐµÑĤÑģÑı
ĠÐĺ Ð¢
ĠÐ¼Ð¸ÑĢ Ð¾Ð²Ð¾Ð¼
ĠÐ¸ÑģÐºÐ»ÑİÑĩ Ð¸ÑĤÑĮ
ĠÐºÐ¾Ð½ÐºÑĥÑĢÑģ Ð½Ð¾Ð³Ð¾
ĠÑĤÐµÑħÐ½ Ð¸ÑĩÐµÑģÐºÐ¸Ð¼
ĠÑĥÑģÑĤÐ°Ð½Ð°Ð²Ð» Ð¸Ð²Ð°ÐµÑĤ
ÑĤÐµÐº ÑģÑĤ
ĠÐ¸ÑģÐ¿Ð¾Ð»ÑĮÐ·Ñĥ ÐµÐ¼ÑĭÐµ
ÐĽ ÐķÐĿÐĺÐķ
ĠÐŁÐ¾Ð» ÑĥÑĩ
ĠÐ°Ð²ÑĤÐ¾Ð¼Ð°ÑĤ Ð¸Ð·Ð°ÑĨÐ¸Ð¸
ĠÑģÐ½ Ð¸Ð·
ĠÐ¸Ð¼Ðµ ÑİÑīÐ¸Ñħ
ĠÐ´Ð°ÑĤ Ð°
ĠÐ´Ð¸ ÑģÐ¿
ĠÐ¿Ð¾Ð´Ð¿Ð¸Ñģ Ð°Ð½Ð½Ð°Ñı
ĠÐ·Ð°ÑĤÑĢÐ°ÑĤ Ñĭ
ĠÐ¾ÑĤÐ´ÐµÐ»ÑĮ Ð½ÑĭÐµ
ĠÑģÐ¾ÑĤÑĢÑĥÐ´ Ð½Ð¸ÐºÐ¾Ð²
ĠÐ¼Ð¾Ñī Ð½Ð¾ÑģÑĤÐµÐ¹
ĠÑıÐ·Ñĭ ÐºÐµ
ĠÑįÐºÐ¾Ð»Ð¾Ð³ Ð¸ÑĩÐµÑģÐºÐ¾Ð¹
ĠÐ¿ÐµÑĢÐ² Ð¾Ð¼
ĠÐ¿ÐµÑĢÐ² Ð¾Ðµ
ĠÐ¿Ð¾Ð´ÑĤÐ²ÐµÑĢÐ¶Ð´ Ð°ÑİÑīÐ¸Ñħ
ĠÑģÐ¾Ð²ÑĢÐµÐ¼ ÐµÐ½Ð½Ð¾Ð¹
ĠÐ¾ÑĤÑģÑĥÑĤ ÑģÑĤÐ²ÑĥÐµÑĤ
ĠÑĥÐ¿ÑĢÐ°Ð² Ð»Ñı
ĠÐ¸Ð½ÑĤÐµÑĢÐµÑģ Ð°Ð¼
ĠÑĤÐµÐ» ÐµÐºÐ°Ð½Ð°Ð»
ĠÐºÐ¾Ð½ÑĦ Ð»Ð¸Ðº
ĠÐ¿ÑĢÐµ Ð¸Ð¼
Ð¸ÑĢÐ¾Ð² ÐºÐ¸
ĠÐ¸Ð½Ð¶ÐµÐ½ ÐµÑĢÐ½Ð¾Ð¹
ĠÐ±Ð¸ Ð¾Ð»Ð¾Ð³
Ð»Ð¾Ðº Ð¾Ð²
ĠÐ¸Ð½Ð²ÐµÑģÑĤÐ¸ÑĨÐ¸Ð¾Ð½ Ð½ÑĭÑħ
ĠÐĳÐ°Ð½ ÐºÐ¾Ð¼
ĠÐ±Ð°Ð»Ð» Ð¾Ð²
ĠÐ³Ð¾ÑĤÐ¾Ð² Ð½Ð¾ÑģÑĤÐ¸
ĠÐ»Ð¸Ð½ ÐµÐ¹
ĠÐºÐ¾Ð´ ÐµÐºÑģÐ°
ĠÐµÑģÑĤÐµ ÑģÑĤÐ²ÐµÐ½Ð½Ð¾Ð³Ð¾
ĠÐ¾Ð¿ÐµÑĢÐ°ÑĤÐ¾ ÑĢÐ°Ð¼
Ð¢Ðķ ÐĽÐ¬
ĠÐ´Ð²Ð¸Ð³ Ð°ÑĤÐµÐ»ÐµÐ¹
ÑħÐ¾Ð¶Ð´ ÐµÐ½Ð¸Ñı
ĠÑģÐ²Ð¾Ð¹ ÑģÑĤÐ²
ĠÑĥÐ´Ð¾Ð²Ð»ÐµÑĤ Ð²Ð¾ÑĢ
ĠÐ»ÑĥÑĩ ÑĪÐ¸Ñħ
ĠÐĺÐ½ÑĦÐ¾ÑĢÐ¼ Ð°ÑĨÐ¸Ñı
ĠÑģÐ¾Ð¾ÑĢÑĥÐ¶ ÐµÐ½Ð¸Ð¹
ĠÑģÐ¿ÑĢÐ¾Ñģ Ð°
ĠÐ»Ð°Ð±Ð¾ÑĢ Ð°ÑĤÐ¾ÑĢ
Ð¢ÐķÐĽÐ¬ Ð¡Ð¢ÐĴ
8 7
t r
Ġ learning
Ð¾ ÑĦ
Ð¾ ÐµÐ¼
Ð¾ ÑĥÑģÑĤ
Ð½ Ð¸
Ð° ÑĤÐµÐ¶
Ñģ Ð¸Ð»ÑĮÐ½Ð¾Ð³Ð¾
Ñĥ ÐµÑĤÑģÑı
ÑģÑĤ ÑĢ
ĠÐ¿ Ð°ÑĤ
Ðº Ð¾Ð»ÑĮ
Ðº Ð¾ÑģÐ¼
Ð°Ð½ Ð¸ÐµÐ¼
ĠÑģ Ð²ÐµÑĤ
ĠÑģ ÑĩÐ¸ÑĤ
ÐµÑĢ Ð½Ð¾Ðµ
Ð¼ Ð°ÑĨ
ĠÐ½ ÐµÑĢ
ÑĦ Ð¾ÑĢÑĤ
ĠÑĢ ÐµÐ»
ĠÑĢ ÑĥÐ±ÐµÐ¶
ĠÑĢ Ð¾Ð±Ð¾ÑĤ
Ð¾Ð¼ Ð°ÑĤ
ĠÐº ÐĴÑĤ
ĠÑĥ Ð´ÐµÐ»ÑĮ
ĠÑĥ ÑģÐºÐ¾ÑĢ
ĠÐ¸Ð½ ÑĥÑİ
ĠÐ¸Ð½ ÑĤÐµÑĢÐ½ÐµÑĤ
ĠÐ¤ Ð¾ÑĢÐ¼
ĠÑĦ Ð°Ð¼
20 06
Ð°ÑĢ Ð¼Ð°ÑĨ
ĠÑĢÐ°Ð· Ð½Ð¾Ð³Ð»Ð°Ñģ
Ð¸Ð² Ð½Ð¾Ð³Ð¾
ÑİÑī Ð¸Ð¼Ð¸
Ð¸Ð´ Ðµ
ĠÑģÑĤ ÐµÐº
Ð»ÐµÐ½ Ð½Ð¾Ð¹
ĠÑĤÐµÑħ Ð½Ð¸ÐºÐ°
Ð¸Ð»Ð¸ Ñī
ÑĢÑĥ Ð¶Ðµ
ÑıÐ· Ð°Ð½
ĠÐºÐ¾Ð¼ ÑĦÐ¾ÑĢÑĤ
ĠÐºÐ¾Ð½ ÐµÑĩ
ĠÐ¿ÐµÑĢÑģÐ¾Ð½ Ð°Ð»ÑĮÐ½ÑĭÐ¼Ð¸
Ð¾Ð»ÑĮÐ· Ð¾Ð²Ð°Ð½Ð¸Ðµ
ĠÐ¾Ð±ÐµÑģÐ¿ÐµÑĩ Ð¸Ð²Ð°ÑİÑĤ
ĠÐ¿ÑĢÐ°Ð² Ð¾Ð²Ð¾Ð¹
ĠÐ³Ð¾ÑģÑĥÐ´Ð°ÑĢÑģÑĤÐ²ÐµÐ½ Ð½ÑĭÐ¹
Ġ3 8
ĠÑĥÐºÐ°Ð· Ð°ÑĤÐµÐ»
Ð½Ð¾Ð² ÑĢÐµÐ¼
ĠÑĢÐµÐ·ÑĥÐ»ÑĮÑĤÐ°ÑĤ Ð°Ð¼Ð¸
Ð¿ÑĢ Ð¾Ð¼ÑĭÑĪÐ»ÐµÐ½
ĠÐļ Ð¾Ð´
ÑıÐ² Ð»ÐµÐ½Ð¸Ð¸
Ð½Ð°Ñĩ ÐµÐ½Ð¸Ðµ
ĠÐ¾Ð¿ÐµÑĢ ÐµÐ¶
ĠÑģÐ¿ Ð¾ÑĢÑĤ
ĠÑįÐºÑģÐ¿ÐµÑĢ ÑĤÐ¾Ð²
ĠÐ¿Ð¾ÑĢÑıÐ´ ÐºÐ¾Ð²ÑĭÐ¹
Ġ5 4
ĠÐ¾Ð¿ÑĢÐµÐ´ÐµÐ» Ð¸ÑĤÑĮ
ĠÐ¿Ð» Ð°ÑĤÐµÐ¶
ĠÐ²ÐºÐ»ÑİÑĩ ÐµÐ½Ð¸Ñı
ÑĢÐ°ÑĤÐµÐ³ Ð¸Ñı
ĠÑĢÐ°ÑģÐ¿ Ð¾Ð»Ð¾Ð¶
ĠÐ´Ð¾ÑģÑĤÐ¸Ð¶ ÐµÐ½Ð¸ÐµÐ¼
ĠÐ·Ð°ÑıÐ² Ð¸ÑĤÐµÐ»Ñı
ĠÑĥÑĢÐ¾Ð² Ð½ÐµÐ¹
ĠÐ³ÑĢÐ°Ð½ Ð¸ÑĨ
ĠÐ¿Ð¾Ð· Ð¸ÑĨÐ¸Ð¸
ĠÑģÐ¾Ð³Ð»Ð° ÑĪÐµÐ½Ð¸Ð¹
Ð¸ÑĢÑĥ ÑİÑĤ
ĠÐ¶ Ð¸Ð»Ð¸Ñī
ĠÐ²ÑĭÐ¿Ð¾Ð»Ð½ ÐµÐ½Ð¸ÐµÐ¼
ĠÑĢÐµÐ³ÑĥÐ» Ð¸ÑĢÐ¾Ð²Ð°Ð½Ð¸Ñİ
ĠÐ¾Ð±ÑĢÐ°Ð·Ð¾Ð²Ð°Ð½Ð¸Ñı Ñħ
ĠÐ¿Ð¾Ð»ÑĥÑĩÐ°ÑĤÐµÐ»Ñı Ð¼
ĠÐ°Ðº ÑģÐµÐ»ÐµÑĢÐ°ÑĨÐ¸Ð¸
ĠÐ·Ð°ÐºÐ»ÑİÑĩ ÐµÐ½Ð¸Ð¸
ĠÐ¾Ð´ Ð¸Ð½
ĠÑİÑĢÐ¸Ð´ Ð¸ÑĩÐµÑģÐºÐ¸Ð¼Ð¸
ĠÐ¿ÐµÑĢÐµÐ´ Ð¾Ð²ÑĭÑħ
ĠÐ¼ÐµÑģÑĤ Ð¾
ĠÐĵ ÐŀÐ¡Ð¢
ĠÐ£ÐºÐ°Ð· Ð°Ð½Ð½ÑĭÐµ
ĠÐ¼Ð¸ÑĢ Ð¾Ð²Ð¾Ð¹
ĠÐ½Ð¾ÑĢÐ¼Ð°ÑĤÐ¸Ð² Ð½ÑĭÐµ
ĠÑĤÑĢÐ°Ð½ÑģÐ¿ Ð¾ÑĢÑĤÐ°
ĠÐĶ Ð¾Ð¿Ð¾Ð»Ð½Ð¸ÑĤÑĮ
ĠÑĢÑĭÐ½ ÐºÐ°Ñħ
ĠÑģÐ¾Ð´ÐµÑĢÐ¶Ð°Ñī ÐµÐ¹
ĠÑĦÐ¸Ð· Ð¸ÑĩÐµÑģÐºÐ¾Ð¹
ĠÑģÑĤÑĢÐ¾Ð¸ÑĤÐµÐ»ÑĮ ÑģÑĤÐ²Ñĥ
ĠÑģÑĥÐ´ Ð°
ĠÐ¿Ð¾Ð·Ð²Ð¾Ð»Ñı ÐµÑĤ
ĠÐ´Ð² Ð¾Ð¹Ð½Ð¾Ð³Ð¾
ĠÑģÑĤÐ°Ð½Ð´Ð°ÑĢÑĤ Ð¸Ð·Ð°ÑĨÐ¸Ð¸
ĠÐ³Ð°Ð· Ð°
ĠÑĢÐµÐºÐ¾Ð¼ÐµÐ½Ð´ Ð°ÑĤÐµÐ»ÑĮÐ½ÑĭÐµ
ĠÐ½ÐµÐ´Ð¾ÑģÑĤ Ð°ÑĤÐ¾Ñĩ
Ð²ÐµÑĢ ÑĤ
ĠÑģÐ±Ð¾ÑĢ Ð¾Ð²
ĠÐ¸Ð´ÐµÐ½ÑĤ Ð¸ÑĦÐ¸ÐºÐ°ÑĨÐ¸Ð¸
ĠÐ²Ð¸Ð´Ðµ Ð¾
ĠÐ¾ÐºÐ°Ð·ÑĭÐ² Ð°ÑİÑīÐ¸Ñħ
ĠÐ¿ÑĢÐµÐ´Ð¿ Ð¸ÑģÐ°Ð½Ð¸Ñı
ĠÐ²ÑģÑĤÑĥÐ¿ Ð»ÐµÐ½Ð¸Ñı
ĠÐ²ÑģÑĤÑĥÐ¿ Ð°ÐµÑĤ
ĠÐºÐ°Ð¶Ð´ Ð¾Ð³Ð¾
ĠÐ¿ÑĢÐ¾Ð±Ð»ÐµÐ¼ Ñĭ
ĠÑĪÐº Ð¾Ð»
ĠÑĩÐ»ÐµÐ½ Ð¾Ð²
ĠÑģÐ¾Ð²Ð¾ÐºÑĥÐ¿ Ð½Ð¾ÑģÑĤÐ¸
ĠÑĥÑĩÐ°ÑģÑĤÐ¸ Ñİ
ĠÐŀÑĤ Ð²ÐµÑĤ
ĠÐ¿ÑĢÐ¸Ð²Ð»ÐµÐº Ð°ÑĤÐµÐ»ÑĮ
ĠÐĵÐ¾ÑģÑĥÐ´Ð°ÑĢ ÑģÑĤÐ²ÐµÐ½Ð½Ð°Ñı
ĠÐ½Ð°Ðº Ð¾Ð¿
ĠÐ·Ð½ Ð°Ð½Ð¸Ñı
ĠÑħÐ°ÑĢÐ°ÐºÑĤÐµÑĢÐ¸ÑģÑĤÐ¸Ðº Ð°Ð¼Ð¸
ĠÐŁÐ¾Ð»Ð¾Ð¶ ÐµÐ½Ð¸ÐµÐ¼
ĠÐ·Ð°Ð½ÑıÑĤ ÑĭÑħ
ĠÐ·Ð°Ð²ÐµÑĢ ÑĪÐµÐ½Ð¸Ñı
ĠÐ°Ð½ Ð³Ð»
ÑĢÐµÐº Ð¾Ð½
ĠÐ·Ð°Ð´Ð¾Ð»Ð¶ÐµÐ½ Ð½Ð¾ÑģÑĤÐ¸
ĠÑĢÐµÐ¹ÑĤ Ð¸Ð½Ð³Ð°
ĠÑģÐ¾Ð²ÐµÑĢ ÑĪÐµÐ½Ð¸Ð¸
ĠÐ¿ÑĢÐ¾ÑĪ ÐµÐ´
ĠÑģÐ¸Ð½ ÑĤÐµÐ·
ĠÑģÑĤÐ°Ð±Ð¸Ð»ÑĮ Ð½Ð¾ÑģÑĤÐ¸
ĠÐ£Ð¿ÑĢÐ°Ð² Ð»ÐµÐ½Ð¸Ðµ
ÑıÑīÐ¸Ðµ ÑģÑı
ÐŁÑĢÐ¸Ð¼ÐµÑĩ Ð°Ð½Ð¸Ðµ
ĠÐŁÐµÑĢ ÐµÑĩ
ĠÐ¿Ð¾Ð²ÑĭÑģ Ð¸ÑĤÑĮ
ĠÑįÐ»ÐµÐºÑĤÑĢÐ¾ÑįÐ½ÐµÑĢÐ³ Ð¸Ð¸
ĠÑĤÐ²ÐµÑĢÐ´ Ð¾ÑĤ
ĠÐŀÑģÐ¾Ð± ÐµÐ½Ð½Ð¾ÑģÑĤÐ¸
ĠÐ¿ÑĢÐ°Ð²Ð¾Ð¾Ð±Ð»Ð°Ð´ Ð°ÑĤÐµÐ»Ñı
ĠÐ½ÐµÑģÐºÐ¾Ð»ÑĮ ÐºÐ¸Ñħ
ĠÐ°Ð¿ÑĢÐ¾Ð± Ð°ÑĨÐ¸Ð¸
ĠÑĤÐ°Ð¼ Ð¾Ð¶
Ð°ÑĢÐ¼Ð°ÑĨ ÐµÐ²ÑĤ
E M
u t
w or
Ġ Ð¸Ð³
Ðµ ÑıÑĤÐµÐ»ÑĮ
ÑĤ ÐµÐ½Ñģ
Ñģ ÑĢÐµÐ´
ÑģÑĤ Ð¸ÑĤ
ÑģÑĤ ÑĢÐ¾Ð¸ÑĤÐµÐ»ÑĮ
ÐµÐ½ ÐµÐ¹
Ð» ÐµÐ³
Ð°Ð½ Ð½Ð¾Ðµ
Ð¾ÑĢ Ð½ÑĭÑħ
Ð¿ Ð»Ð°Ð½
ĠÐ½ ÐµÑĤ
ĠÐ½ ÐµÑĤÑĢ
Ð¾ÑĤ Ð²ÑĢÐ°Ñī
ĠÐ´ Ð»
ĠÐ´ Ð¸ÑģÑĤ
ĠÐº Ð°ÑĢ
ĠÐº ÑĢÐµÐ¼
ĠÑĤ ÐµÐ½Ð´
ĠÑĥ Ð·
ÐµÐ¼ Ð°Ñı
ĠÐ¼ Ð³
ĠÐ¼ Ð¸Ð½
ĠÐ· Ð°Ð³
Ð¸Ð¼ ÑĭÐµ
ÑĪ ÐµÐ¹
ÑĪ Ð¸Ð±
ÑĪ ÐºÐ¾Ð»ÑĮ
Ð± ÑĢ
Ð± Ð»Ð¾ÐºÐ¾Ð²
ĠÐ¤ÐµÐ´ÐµÑĢ Ð°ÑĨÐ¸ÐµÐ¹
ĠÐł Ð°ÑģÐ¿
ĠÐł ÐµÐ°Ð»Ð¸Ð·Ð°ÑĨÐ¸Ñı
Ñį ÑĤ
Ð· Ð°ÑĢ
ĠÐ³ ÑĢÑĥÐ·
Ð°Ð² ÑĤ
Ð°Ð¼ ÐµÑī
Ð¾Ð· Ð°Ð¼ÐµÑī
ÑĥÐ´ Ð¾ÑģÐ¿Ð¾ÑģÐ¾Ð±Ð½Ð¾ÑģÑĤÐ¸
ĠÐ¾ ÑĪÐ¸Ð±
Ð¾Ñı ÑĤ
Ð¾Ñĩ Ð½Ð¾Ð³Ð¾
ĠÐºÐ¾Ð¼ Ð¼ÑĥÐ½
ĠÐŁÑĢ Ð¸Ð¼
ĠÐ´Ð¾ÑģÑĤ Ð°ÑĤÐ¾Ñĩ
Ð¸ÑĢÐ¾Ð²Ð°Ð½ Ð½ÑĭÐ¹
ĠÑĩÐ¸ÑģÐ» Ð°
Ð½Ð¾Ð² ÐµÐ½Ð½ÑĭÐ¼Ð¸
ÐĴ ÐĽÐķÐĿÐĺÐķ
ĠÐ¡ Ð¤
Ð°ÑĨÐ¸Ñı Ð¼Ð¸
ĠÐ»Ð¸ÑĨ Ðµ
Ġ201 0
ÐŁ ÐŀÐ¡Ð¢
ĠÐ¼ÐµÑĢ Ð°Ñħ
ĠÐ¿ÑĢÐ¾Ð³ÑĢÐ°Ð¼Ð¼ Ñĥ
ĠÐ´ÐµÑıÑĤÐµÐ»ÑĮ Ð½Ð¾ÑģÑĤÑĮÑİ
ĠÐ¸Ð¼ ÑĥÑīÐµ
Ð¸ÑĤÐµÐ» Ñİ
ĠÐ½ÐµÐ¾Ð±ÑħÐ¾Ð´Ð¸Ð¼ ÑĥÑİ
Ð°ÑĤÐ¸Ð² Ð½ÑĭÐµ
Ð½Ñı Ñı
ÐĿ Ð°ÑģÑĤÐ¾ÑıÑī
ÐĲ ÐĿÐŀ
11 6
ĠÑĦÐ¸Ð½Ð°Ð½ÑģÐ¾Ð² Ð¾
ĠÐ·Ð°ÑıÐ² Ð»ÐµÐ½Ð¸Ñı
ĠÐ¼Ð¾Ð´ ÐµÐ»ÑĮ
ĠÐ·Ð°Ð¿ Ð»Ð°Ð½
Ð¸Ð³ Ð¸
ÐµÐ´ÑĢ ÐµÐ½Ð¸Ðµ
ĠÐ²ÑĭÐ¿Ð¾Ð»Ð½ ÐµÐ½Ð¸Ð¸
ĠÐĺ Ð¡
ĠÐ¿ÑĢÐ¸Ð¾ÑĢÐ¸ÑĤÐµÑĤ Ð½ÑĭÐ¼
ĠÐ¿ÑĢÐ¸Ð² Ð¾Ð´
ĠÐ¿ÑĢÐ¸Ð² Ð»ÐµÑĩÐµÐ½Ð¸Ðµ
Ð¿ÑĢÐ°Ð² Ð¾Ð²ÑĭÑħ
ĠÐ¾Ð±ÑīÐµ Ðµ
ĠÐ²Ð·Ð°Ð¸Ð¼ Ð¾ÑģÐ²ÑıÐ·
ĠÐ´Ð¾ÐºÑĥÐ¼ÐµÐ½ÑĤ Ð°Ð¼Ð¸
ĠÐ¼ÐµÐ´Ð¸ÑĨÐ¸Ð½ ÑģÐºÐ¸Ðµ
ĠÐ¿Ð¾Ð´Ð³Ð¾ÑĤÐ¾Ð² ÐºÐµ
ĠÐºÐ¾Ð½ÐºÑĥÑĢÑģ Ð½Ð¾Ð¼
ĠÐ²Ð¸Ð´ Ñĥ
ĠÐ¸Ð½Ð¾ÑģÑĤÑĢÐ°Ð½ Ð½Ð¾Ð³Ð¾
ĠÐ²Ñģ ÐµÐ¼
ĠÐ³ÑĢÑĥÐ¿Ð¿ Ð¾Ð¹
ĠÐ¼Ð¾Ð´ÐµÐ» Ð¸ÑĢÐ¾Ð²Ð°Ð½Ð¸Ñı
ĠÑħÐ°ÑĢÐ°ÐºÑĤÐµÑĢ Ð¸Ð·Ñĥ
ĠÑĥÑģÑĤÐ°Ð½Ð°Ð²Ð» Ð¸Ð²
ĠÐ½Ð°Ð»Ð¸Ñĩ Ð¸Ñı
ĠÐ°Ð¿Ð¿Ð°ÑĢÐ°ÑĤ Ð¾Ð²
ÑĢÐ°ÑĦ Ð¸Ðº
ÑĢÐµ Ð°ÑĨÐ¸Ð¾Ð½Ð½Ð¾Ð¹
ĠÑĢÐ°Ð·Ð»Ð¸Ñĩ Ð½Ð¾Ð³Ð¾
ĠÐ¸ÑģÐ¿Ð¾Ð»ÑĮÐ·Ñĥ ÐµÑĤÑģÑı
ĠÑĦÐ°ÐºÑĤ Ð¾ÑĢÐ¾Ð²
ĠÑģÐ¾Ð±Ð»ÑİÐ´ ÐµÐ½Ð¸Ðµ
ĠÑģÐ¾Ð±Ð»ÑİÐ´ ÐµÐ½Ð¸ÐµÐ¼
ĠÑĢÑĥÐºÐ¾Ð²Ð¾Ð´ Ð¸ÑĤÐµÐ»Ñı
ĠÐ¸Ð½Ð½Ð¾Ð² Ð°ÑĨÐ¸Ð¾Ð½Ð½ÑĭÑħ
Ð½Ð¾Ñģ Ð¾Ð²
in e
ĠÑĥÐ³ Ð»
ĠÐ¿Ð¾ÑĤ Ð¾Ðº
ÐŃ Ðº
ÐŃ Ðļ
ĠÑĢÐµÐºÐ¾Ð¼ÐµÐ½Ð´ Ð°ÑĨÐ¸Ð¸
ĠÑģÐ±Ð¾ÑĢ Ð°Ñħ
ĠÐ¿Ð°ÑĢÑĤÐ½ÐµÑĢ Ð¾Ð²
ĠÐ´Ð¾Ð²ÐµÑĢ ÐµÐ½Ð½Ð¾Ð³Ð¾
ĠÐ¿Ð»Ð°Ð½Ð¾Ð² Ð¾Ðµ
II I
ĠÐ¿ÑĢÐ¸Ð¼ÐµÐ½Ñı ÐµÐ¼ÑĭÑħ
ĠÐºÐ»ÑİÑĩ ÐµÐ²
ĠÐ¿Ð¾Ð¼Ð¾Ñī ÑĮÑİ
ĠÐ¿ÑĢÐ¸Ð»Ð¾Ð¶ ÐµÐ½Ð¸ÐµÐ¼
ĠÐ¿ÑĢÐ¸ÑĩÐ¸Ð½ ÐµÐ½Ð¸Ñı
ĠÐ¾ÑĤÐºÐ°Ð· Ðµ
ĠÐ¾Ð±ÑĢÐ°Ð±Ð°ÑĤÑĭÐ² Ð°ÐµÐ¼ÑĭÑħ
ĠÐ´Ð¾Ð¿ÑĥÑģÐº Ð°ÑĤÑĮ
ĠÑĤÐ¾Ñĩ ÐµÐº
ĠÑĤÐµÐºÑĥÑī ÐµÐ³Ð¾
ĠÐŀÑĤ ÑĩÐµÑĤ
ÐĿÐ° Ð¸Ð¼ÐµÐ½Ð¾Ð²Ð°Ð½Ð¸Ðµ
Ð¾ÑģÐ½ Ð°Ð±
ĠÐ°ÑĥÐ´Ð¸Ð¾Ð²Ð¸Ð·Ñĥ Ð°Ð»ÑĮÐ½ÑĭÑħ
ĠÑģÑĤÐ¸Ð¼ÑĥÐ» Ð¸ÑĢÐ¾Ð²Ð°Ð½Ð¸Ñı
ĠÐ½Ð°Ð»Ð¾Ð³ Ð°Ñħ
ĠÑĢÐ°ÑģÐ¿ÑĢÐµÐ´ÐµÐ» ÐµÐ½Ð¸Ñı
ĠÐ¾ÑĤÑģÑĥÑĤÑģÑĤÐ² Ð¸Ð¸
ĠÐ¿Ð¾ÑģÑĤÐ°Ð½Ð¾Ð² Ð»ÑıÐµÑĤ
ĠÐ¿ÑĢÐ¸ÐµÐ¼ Ð°
ÑĢÐ¾Ð¼ Ðµ
ĠÐ½Ð°Ð½ ÐµÑģ
ĠÐ½ÐµÑģÐº Ð¾Ð»ÑĮÐºÐ¾
ĠÐ²Ð· Ð½Ð¾ÑģÐ¾Ð²
ĠÑĥÐ½Ð¸Ðº Ð°Ð»ÑĮÐ½ÑĭÑħ
ĠÐºÐ¾Ð¼Ð¿Ð»ÐµÐºÑĤ ÑĥÑİÑīÐ¸Ñħ
ÐŀÑģ Ð½Ð¾Ð²
ĠÑģÐµÑĢÑĤÐ¸ÑĦÐ¸ÐºÐ°ÑĤ Ð¾Ð²
ÑĦÑĥÐ½ ÐºÑĨÐ¸Ð¾Ð½
ĠÐºÐ¾Ð³ Ð½Ð¸ÑĤ
ÑĢÐ°ÑģÑħÐ¾Ð´ Ñĭ
ĠÐ¿Ð¸ÑģÑĮ Ð¼ÐµÐ½
ĠÐ¿ÐµÐ½ÑģÐ¸Ð¾Ð½ Ð½Ð¾Ðµ
ĠÐºÐ¾Ñģ Ð²
ÑģÑĤÐ¸ÑĤ ÑĥÑĤ
ĠÐ½ÐµÑĤÑĢ ÑĥÐ´Ð¾ÑģÐ¿Ð¾ÑģÐ¾Ð±Ð½Ð¾ÑģÑĤÐ¸
ĠÐ´Ð¸ÑģÑĤ Ð°Ð½
ĠÐ¼Ð³ Ð½Ð¾Ð²ÐµÐ½Ð½ÑĭÐ¼Ð¸
ÐŁÐŀÐ¡Ð¢ ÐĲÐĿÐŀ
ÐĿÐ°ÑģÑĤÐ¾ÑıÑī Ð¸Ð¹
ÐŁÐŀÐ¡Ð¢ÐĲÐĿÐŀ ÐĴÐĽÐķÐĿÐĺÐķ
7 5
p i
¶ Ð¸Ð´
Ġ ÑĤÐµÐ»ÐµÐºÐ¾Ð¼
Ðµ ÑģÐ»Ð¸
Ñģ ÑĥÐ¶Ð´
Ñĥ ÐºÑĤ
Ñĭ ÑģÑı
ĠÐ¿ Ð¾Ð²ÐµÑĢ
ĠÐ¿ ÐµÐ½ÐµÐ¹
ĠÑģ Ð¸Ð¼
ĠÐ² Ð¾ÑģÑĤ
Ð¿ Ð°ÑĢÑĤÐ½ÐµÑĢ
ĠÐ¾Ð »
ĠÐ¾Ð ¶Ð¸Ð´
Ð¾ÑģÑĤ ÑĢÐ¾Ð¸ÑĤÐµÐ»ÑĮ
ĠÑĢ Ð°ÑĨÐ¸Ð¾Ð½
ĠÑĤ ÑĭÑģÑı
ĠÐ¾Ð± ÑĥÑģÐ»
ĠÐ¾Ð± ÑģÑĥÐ¶Ð´
Ð¾Ð³ ÑĢÐ°Ð´
Ð¸Ð¼ Ð°Ð½Ð¸Ñı
ÑĪ Ð°Ñı
ĠÑĦ Ð°ÑĢÐ¼Ð°ÑĨÐµÐ²ÑĤ
Ð°ÑģÑĤ Ð¾ÑıÑīÐµÐµ
ÐµÐ» ÐµÐ¹
Ð¸Ð» Ð¸Ð·Ð°ÑĨÐ¸Ð¸
ĠÐ¿ÑĢÐ¾ Ñĩ
ĠÐ¿ÑĢÐ¾ Ð¸Ñģ
ÑİÑī ÐµÐ¹ÑģÑı
Ð¸Ð´ ÐµÐ½Ð¸Ñı
Ð¾Ð¿ ÑĤ
ĠÑģÐ¾ ÐµÐ´Ð¸Ð½
ĠÐ¿Ð¾Ð» Ð½Ð¾Ð¼
Ð¾Ñĩ Ð°ÑģÑĤ
ÑģÐ¾Ð² ÐµÑĢÑĪÐµÐ½
ĠÐ¿ÑĢÐ¾ÐµÐºÑĤ Ð½ÑĭÐ¹
ÐµÐ² ÑĢÐµÐ¼
Ðĺ Ð¯
Ð°ÑİÑī Ð¸Ð¼Ð¸
ĠÐ¡ ÑĥÐ±ÑģÐ¸Ð´Ð¸Ñı
ĠÐ·Ð°ÐºÐ¾Ð½ Ð½ÑĥÑİ
ĠÑĨÐµÐ» ÑıÐ¼Ð¸
Ðŀ ÑĤ
ĠÐľ ÐĺÐ¡
Ð¿ÑĢ Ð¾Ð´
ĠÐ»Ð¸ÑĨ ÐµÐ½Ð·
ÑĥÐ¼ Ð°Ð½
ĠÐ¿ÑĢÐ¾ÑĨ ÐµÐ½ÑĤ
ĠÐ½Ð°Ð¿ÑĢÐ°Ð² Ð»ÐµÐ½Ð¸Ðµ
201 0
ĠÐ¾Ð±ÑĢÐ°Ð· Ð¾Ð²Ð°Ð½Ð¸Ñİ
Ð°Ð± Ð°ÑĢ
ĠÑģÑĦÐµÑĢ Ð°Ñħ
ĠÑĢÐ°Ð±Ð¾ÑĤ Ð°ÑİÑīÐ¸Ñħ
ĠÑģÐ¾Ð·Ð´Ð°Ð½ Ñĭ
ĠÐ´Ð¾ÑģÑĤÑĥÐ¿ Ð½Ð¾ÑģÑĤÑĮ
ĠÐ¿Ð¾Ðº ÑĢÑĭÑĤ
Ġ4 2
Ġ4 90
ĠÐ¸Ð¼ ÐµÐ½
ĠÑıÐ²Ð»Ñı ÑİÑīÐ¸ÐµÑģÑı
ĠÐľÐ¸Ð½Ð¸ÑģÑĤÐµÑĢ ÑģÑĤÐ²Ñĥ
ĠÐ½ÐµÐ¾Ð±ÑħÐ¾Ð´Ð¸Ð¼ Ð¾ÑģÑĤÑĮ
ĠÐ½ÐµÐ¾Ð±ÑħÐ¾Ð´Ð¸Ð¼ ÑĭÐ¼Ð¸
ĠÐ¿ÑĢÐµÐ´ÑģÑĤÐ°Ð² Ð»ÐµÐ½Ð¸Ðµ
ĠÑģÐ¾ÑģÑĤÐ°Ð² Ð¸ÑĤ
ĠÑĦÐ¸Ð½Ð°Ð½ÑģÐ¾Ð² Ð¾Ð¹
ĠÐ´Ð¾Ð» Ð¸
Ð¢ ÐµÑħ
ĠÑģÐ¾Ð´ÐµÑĢÐ¶ Ð°Ð½Ð¸Ñİ
ĠÐ¾ÑģÐ½ Ð°Ñī
ĠÑģÐ¿Ðµ ÑĨ
ĠÐłÐ¾ÑģÑģ Ð¸Ñı
ĠÑİ ÑģÑĤ
ĠÐ°Ðº ÑģÐµÐ»ÐµÑĢ
ÐºÑĢ Ð¾Ð¼Ðµ
ĠÐ¾Ð±Ð¾ÑĢ Ð¾Ð½Ñĭ
ĠÐ¾Ð´ Ð½Ð¾Ð²ÑĢÐµÐ¼
ĠÐĵ ÐĺÐ¡
ĠÑĢÑĭ Ð½Ð¾Ðº
ÑĩÐµ ÑģÑĤÐ²Ð¾
ĠÐĳ ÑİÐ´Ð¶ÐµÑĤ
ĠÐ¾Ð±Ð¾ÑĢÑĥÐ´ Ð¾Ð²Ð°Ð½Ð¸Ðµ
ĠÐ¿Ð¾Ð»ÑĮÐ· Ð¾Ð²Ð°Ð½Ð¸Ñı
ĠÐ¾Ð±ÐµÑģÐ¿ÐµÑĩÐ¸Ð² Ð°ÑİÑīÐµÐµ
ĠÐ¿ÐµÑĢÑģÐ¿ÐµÐºÑĤÐ¸Ð² Ñĥ
ĠÑĢÐ°Ð·Ð»Ð¸Ñĩ Ð½ÑĭÐµ
ÑįÐºÐ¾Ð½Ð¾Ð¼ Ð¸ÑĩÐµÑģÐºÐ¾Ðµ
ĠÐ¾Ð¿ÑĤ Ð¸Ð¼
ĠÐ¾ÑĤÑĢÐ°ÑģÐ» ÑĮ
ĠÐĹ ÐµÐ»ÐµÐ½
________ ____
ĠÑĦÐ¸Ð· Ð¸ÑĩÐµÑģÐºÐ¸Ð¼Ð¸
ĠÐ¿ÑĢÐµÐ´Ð¾ÑģÑĤÐ°Ð²Ð»Ñı ÑİÑĤÑģÑı
ĠÐ¿ÑĢÐµÐ´Ð¾ÑģÑĤÐ°Ð²Ð»Ñı ÑĤÑĮ
ĠÑĦÑĥÐ½ÐºÑĨÐ¸Ð¾Ð½ Ð°Ð»ÑĮÐ½ÑĭÑħ
ĠÐ¿ÑĢÐµÐ´ÑģÑĤÐ°Ð²Ð»ÐµÐ½ Ð½Ð¾Ð¹
ĠÐ·Ð°Ð¿ÑĢÐ¾Ñģ Ð¾Ð²
ĠÐ¿Ð¾Ð´Ð¿Ð¸Ñģ Ð°Ð½Ð¸Ñı
ĠÐ»Ð°Ð· ÐµÑĢÐ½Ð¾Ð¹
ĠÐ¿ÑĢÐ¸Ð·Ð½ Ð°Ð½Ð¸Ð¸
ĠÐºÐ°Ð¿Ð¸ÑĤ Ð°Ð»
ĠÐºÑĢÐ¸ÑĤÐµÑĢ Ð¸Ñİ
ĠÐ¿Ð»Ð°Ð½Ð¾Ð² ÑĭÐ¹
ĠÑĢÐ°ÑģÐ¿ÑĢÐ¾ÑģÑĤÑĢÐ°Ð½Ñı ÐµÐ¼Ð¾Ð¹
ĠÐ¿ÑĢÐ¸Ð²Ð»ÐµÑĩ ÐµÐ½Ð¸Ñİ
ĠÑģÐ»ÑĥÐ¶ Ð°ÑīÐ¸Ñħ
ĠÐ¿Ð¸Ð»Ð¾ÑĤ Ð½Ð¾Ð³Ð¾
Ð°Ð½Ð°Ð»Ð¸ÑĤ Ð¸ÑĩÐµÑģÐºÐ¾Ðµ
ĠÑģÐ²Ð¾Ð±Ð¾Ð´ Ñĭ
ĠÐ¸Ð½Ð´Ð¸Ðº Ð°ÑĤÐ¾ÑĢÐ°
ĠÐ°Ð»Ð³Ð¾ÑĢÐ¸ÑĤÐ¼ Ð¾Ð²
ĠÑĦÑĥÐ½Ð´Ð°Ð¼ÐµÐ½ÑĤ Ð°Ð»ÑĮÐ½ÑĭÐµ
ĠÐ²Ð¾Ð·Ð´ ÑĥÑĪ
ĠÐ¿ÑĢÐ¸Ð²Ð»ÐµÐº Ð°ÐµÐ¼ÑĭÑħ
ĠÐ·Ð°ÐºÐ°Ð·ÑĩÐ¸Ðº Ð°Ð¼Ð¸
ĠÐ¾Ð±ÑīÐµÑģÑĤÐ² Ð¾
ĠÐ·Ð°ÑģÐµÐ´ Ð°Ð½Ð¸Ð¸
ĠÑģÐ¸ÑĤÑĥ Ð°ÑĨÐ¸Ð¹
ĠÐºÐ°ÑĤÐµÐ³Ð¾ÑĢ Ð¸Ð¹
ĠÐºÐ°ÑĤÐµÐ³Ð¾ÑĢ Ð¸Ð¸
ÑĢÐ¸Ð¼ Ð¸Ð½
ĠÑĤÐ¾Ð¿Ð» Ð¸Ð²Ð°
ĠÐ±Ð°Ð½ ÐºÑĢÐ¾ÑĤ
ĠÑĪÑĤÑĢÐ°ÑĦ Ð¾Ð²
ĠÐ½ÐµÐ·Ð°Ð²Ð¸Ñģ Ð¸Ð¼Ð¾ÑģÑĤÐ¸
.. .
ĠÐ´ÐµÑĤ Ð°Ð»ÐµÐ¹
ĠÑĢÐµÐ³Ð»Ð°Ð¼ÐµÐ½ÑĤ Ð¾Ð¼
ĠÐ´Ð¾ÑĢÐ¾Ð¶ Ð½Ð¾Ð¹
ĠÑĢÐ°Ð¹ Ð¾Ð½Ðµ
ĠÐ¿ÑĢÐ¾ÑĨÐµÐ´ ÑĥÑĢÐ°
ĠÐ°ÐºÑĨÐ¸Ð¾Ð½ ÐµÑĢÐ½ÑĭÑħ
ĠÑģÐ¾ÑĦÐ¸Ð½Ð°Ð½Ñģ Ð¸ÑĢÐ¾Ð²Ð°Ð½Ð¸Ñı
ĠÐ¾Ð¿ÑĤÐ¾ÑįÐ»ÐµÐºÑĤÑĢÐ¾Ð½ Ð½ÑĭÑħ
ÑĥÐ² ÑģÑĤÐ²
ÐŁÐłÐĲÐĴÐĺ Ð¢ÐķÐĽÐ¬Ð¡Ð¢ÐĴ
ĠÐ³Ð°Ð·Ð¾Ð¿ÑĢÐ¾Ð²Ð¾Ð´ Ð¾Ð²
ĠÑĥÑģÐ¿ ÐµÑĪ
fic i
ĠÐ¶ÑĥÑĢ Ð½Ð°Ð»
ĠÐ°Ð½Ð³Ð» Ð¸Ð¹ÑģÐºÐ¾Ð¼
wor k
ĠÐ´Ð¸ÑģÑĤÐ°Ð½ ÑĨÐ¸Ð¾Ð½
ĠÑĤÑĭÑģÑı Ñĩ
ĠÐĹÐµÐ»ÐµÐ½ Ð¾Ð³ÑĢÐ°Ð´
ĠÐ±Ð°Ð½ÐºÑĢÐ¾ÑĤ ÑģÑĤÐ²Ð°
ÐŁÐłÐĲÐĴÐĺÐ¢ÐķÐĽÐ¬Ð¡Ð¢ÐĴ Ðŀ
* *
0 1
a tion
r e
u s
Ġ s
Ġ x
Ð¾ ÐµÐ²
ÑĢ Ð°Ñĩ
ÑģÑĤ Ð¾Ñı
ĠÐ¿ Ð¸ÑĤÐ°Ð½Ð¸Ñı
Ñĩ ÐµÐ¹
ĠÑģ Ñĥ
ĠÑģ ÐµÐº
ÐµÑĢ Ð½ÑĭÐµ
Ð¾ÑĢ Ð¾Ð¼
Ð¾ÑĢ Ð°Ñħ
ĠÐ¿ÑĢ Ð¾Ðº
ĠÐ¿ÑĢ Ð¾Ð¶
Ð¿ Ð¾Ð»Ð½
ĠÐ½ ÐµÐ¼
ĠÐ½ Ð¸Ð¶
ĠÐ½ Ð¾Ð²ÑĭÐ¼
ĠÐ½ Ð°Ð¼ÐµÑĢ
Ð¾Ð´ Ð°ÑĢÑı
Ð¾Ð½ ÐµÐ½ÑĤ
ĠÑĥ Ð¶Ðµ
ĠÐ½Ð° Ñģ
ĠÐ¸Ð½ ÑĤÐµÐ½Ñģ
Ð¸Ñĩ Ð½ÑĭÐµ
Ð¸Ð½ ÑģÑĤÐ²Ð¾Ð¼
Ð± Ð¾Ð»ÐµÐµ
ĠÐ¾ÑĤ ÑĩÐµÑģÑĤÐ²Ð¾
Ð½Ð¾ÑģÑĤ Ð½ÑĭÑħ
Ð¸Ð» Ð°
ĠÐ¿ÑĢÐµÐ´ ÑģÐµÐ´
ĠÐ¿ÑĢÐµÐ´ Ð¾ÑĤÐ²ÑĢÐ°Ñī
Ġ1 20
Ð¸ÑĤÐµÐ»ÑĮ Ð½Ð¾ÑģÑĤÑĮ
Ð¾Ð± ÑĬÐµÐ¼
ĠÑģÑĤ Ð°Ð´
ĠÐ¸Ð½ÑĦÐ¾ÑĢÐ¼ Ð¸ÑĢÐ¾Ð²Ð°Ð½Ð½Ð¾ÑģÑĤÐ¸
ĠÑĤÐµÑħ Ð½Ð¾Ð³
ÐµÑĩ ÐµÐ±
Ġ" ,
ĠÐ» ÑİÐ´
ĠÐ» ÐµÑĩÐµÐ±
ĠÐ³Ð¾Ð´ Ð¾Ð²
Ð¾Ñĩ Ð½Ð°Ñı
ĠÐ¿Ð¾Ð»ÑĥÑĩ Ð°ÐµÑĤ
ĠÑģÐ² Ð¸Ð´Ðµ
ĠÐ¾Ð±ÐµÑģÐ¿ÐµÑĩ ÐµÐ½Ð¸Ð¸
ÑĥÐ¿ ÑĢÐ°Ð²
Ð¸ÑĢÐ¾Ð²Ð°Ð½ Ð½Ð¾Ðµ
ĠÐ¾ÑĢÐ³Ð°Ð½Ð¸Ð· Ð°ÑĨÐ¸Ð¾Ð½Ð½ÑĭÑħ
Ġ3 4
ĠÐºÐ¾Ð¼Ð¿ Ð°Ð½Ð¸Ñı
ĠÐºÐ¾Ð¼Ð¿ Ð°Ð½Ð¸Ð¸
ÐĴ ÑģÐµÐ³Ð¾
ĠÑĨÐµÐ» Ð¾ÑģÑĤ
ĠÑĨÐµÐ» Ð¾Ð¼
ĠÐ¾ÑģÑĥÑīÐµÑģÑĤÐ²Ð»Ñı ÐµÐ¼ÑĭÑħ
ÑĥÐ¼ Ð°
ĠÐĴ Ñģ
ĠÐ´Ð¾ ÑĪÐºÐ¾Ð»ÑĮ
Ġ4 56
ÑĭÐ² Ð°ÐµÑĤ
ĠÐ²ÐºÐ»ÑİÑĩ ÐµÐ½Ð¸Ð¸
ĠÐ´Ð¾Ðº Ð»Ð°Ð´
ĠÐ¼Ð°Ñģ Ñģ
ĠÑĥÑĩÐ°ÑģÑĤ Ð¸Ð¸
ĠÐ¸Ñģ Ñĩ
ĠÐ¿ÑĢÐ¾Ð¼ÑĭÑĪÐ»ÐµÐ½ Ð½Ð¾ÑģÑĤÑĮ
ĠÑģÐ¾Ð¾ÑĤÐ²ÐµÑĤÑģÑĤÐ²ÑĥÑİÑī ÐµÐ¼
ĠÐ¾Ð±ÑıÐ·Ð°ÑĤÐµÐ»ÑĮ Ð½ÑĭÑħ
Ġ7 0
ĠÐ¾Ð±ÑĬÐµÐºÑĤ Ð°Ð¼
ĠÐ¿Ð¾ÑģÑĤ ÑĢÐ¾
ĠÑĢÐ°Ð·Ð¼ÐµÑī Ð°ÑİÑĤÑģÑı
ĠÑĥÐ¿Ð¾Ð»Ð½Ð¾Ð¼Ð¾ÑĩÐµÐ½ Ð½ÑĭÐ¼Ð¸
ĠÐ¼ÐµÐ¶Ð´ÑĥÐ½Ð°ÑĢÐ¾Ð´ Ð½ÑĭÐµ
Ġ9 5
Ġ8 0
ĠÐ²Ð¸Ð´ Ñĭ
Ġ200 5
ĠÐ½Ð°ÑĢÑĥ ÑĪÐµÐ½Ð¸Ð¹
ĠÑĦÑĥÐ½Ðº ÑĨÐ¸Ñı
ĠÑģÐ¿Ð¾ÑģÐ¾Ð± Ð°Ð¼Ð¸
Ġ19 4
ĠÑģÐ¾ÑģÑĤÐ¾ÑıÐ½ Ð¸Ðµ
ĠÑģÐ¾Ð´ÐµÑĢÐ¶Ð°Ñī Ð¸Ðµ
ĠÑģÐ²Ð¾ Ð¸
ĠÐ¢ ÐµÑħÐ½Ð¾Ð»Ð¾Ð³Ð¸Ð¸
Ð¿ÐµÑĢ Ð°ÑĤÑĥÑĢ
ĠÐ½Ð°Ð± Ð»ÑİÐ´ÐµÐ½Ð¸Ñı
ĠÐ¿ÑĢÐµÐ´Ð¾ÑģÑĤÐ°Ð²Ð»ÐµÐ½ Ð½ÑĭÑħ
ĠÑĥÐ²ÐµÐ»Ð¸Ñĩ ÐµÐ½Ð¸Ñı
ĠÑģÑĤÐ°Ð½Ð´Ð°ÑĢÑĤ Ð°Ð¼
ĠÐ·Ð°Ð¿ÑĢÐ¾Ñģ Ñĥ
ĠÐ¿ÑĢÐµÐ²ÑĭÑĪ Ð°ÑİÑīÐ¸Ð¹
ĠÐ¾ÑĤÑģÑĥÑĤ ÑģÑĤÐ²ÑĥÑİÑĤ
ĠÐ¿ÑĢÐµÐ´ÑĥÑģÐ¼Ð°ÑĤÑĢ Ð¸Ð²Ð°ÑİÑĤ
ĠÐľÐ¾ÑģÐº Ð²Ñĭ
ĠÐ²Ð½ÑĥÑĤÑĢÐµÐ½ Ð½Ð¸Ñħ
ĠÑĥÑĩÑĢÐµÐ¶Ð´ ÐµÐ½Ð¸ÑıÑħ
ti fici
ĠÐºÐ¾ÑĢÐ¿Ð¾ÑĢ Ð°ÑĨÐ¸Ð¹
ĠÐ°ÐºÑĤÐ¸Ð² Ð½ÑĭÑħ
ĠÐ´Ð¾Ð³Ð¾Ð²Ð¾ÑĢ Ð¾Ð¼
ĠÐ¾ÑĤÐ½Ð¾Ñģ ÑıÑĤÑģÑı
ĠÐ¾ÑĤÐ½Ð¾Ñģ ÑıÑīÐ¸ÐµÑģÑı
ĠÐ¿ÑĢÐ°Ð²Ð¸Ð» Ð°
Ð°Ð½Ð°Ð»Ð¸ÑĤ Ð¸ÑĩÐµÑģÐºÐ¸Ñħ
ĠÐ½Ð°Ñĩ Ð°Ð»
ĠÑĢÐµÐºÐ¾Ð½ ÑģÑĤÑĢÑĥÐº
ĠÑĢÐµÐºÐ¾Ð½ ÑģÑĤÑĢÑĥÐºÑĨÐ¸Ñı
ĠÐ¿Ð¾Ð½ ÑıÑĤÐ¸Ñı
ĠÑģÐ¾ÑħÑĢÐ°Ð½ ÐµÐ½Ð¸Ðµ
ĠÐ½Ð°Ð¿ÑĢÐ°Ð²Ð»Ñı ÐµÑĤÑģÑı
ĠÑĢÐµÐ³Ð¸ÑģÑĤÑĢ Ð°ÑĨÐ¸Ð¾Ð½Ð½ÑĭÐ¹
ĠÐ·Ð°Ð± Ð»Ð¾Ðº
ĠÑħÑĢÐ°Ð½ ÐµÐ½Ð¸Ðµ
ĠÐ¿Ð°ÑĢÐ°Ð¼ ÐµÑĤÑĢ
ĠÐ²Ð°Ð¶ Ð½ÑĭÑħ
ĠÑģÑĥÑīÐµ ÑģÑĤÐ²ÐµÐ½Ð½Ð¾
ĠÑģÑĤÐ¾ Ð¸Ð¼Ð¾ÑģÑĤÑĮ
ĠÐ¼Ð°Ð³ Ð½Ð¸ÑĤ
Ð¿ÑĢÐµÐ´ ÑģÑĤÐ°Ð²
Ð¾Ð¿ÑĢÐ¾ ÑĨÐµÑģÑģ
ĠÑĥÐ¼ÐµÐ½ÑĮ ÑĪÐµÐ½Ð¸Ñı
ĠÑĥÑģÑĤÑĢÐ°Ð½ ÐµÐ½Ð¸Ñİ
ĠÐ¾ÑĩÐµÑĢÐµÐ´ ÑĮ
ĠÐ¿ÑĢÐ¾ÑģÑĢÐ¾Ñĩ ÐµÐ½Ð½Ð¾Ð¹
ĠÐ¿ÑĢÐ¾ÑģÑĢÐ¾Ñĩ ÐµÐ½Ð½Ð°Ñı
ĠÐ¿Ð¾Ñĩ ÑĤÑĭ
Ð¸Ð·Ð¸Ð¾Ð½ Ð½ÑĭÑħ
ĠÐ·Ð°Ð´Ð¾Ð»Ð¶ÐµÐ½ Ð½Ð¾ÑģÑĤÑĮ
ĠÐ¾Ð¿ÑĥÐ±Ð»Ð¸Ðº Ð¾Ð²Ð°Ð½Ð¸Ñı
ĠÐ¿ÑĢÐ¸Ð¾ÑģÑĤÐ°Ð½Ð¾Ð²Ð»ÐµÐ½ Ð°
ĠÐ¿ÑĢÐ¸Ð»Ð°Ð³ Ð°ÐµÐ¼ÑĭÐµ
ĠÐ¾ÑħÑĢÐ°Ð½Ñı ÐµÐ¼ÑĭÑħ
ĠÐ½ÐµÐº Ð¾ÑĤÐ¾ÑĢÑĭÐµ
ĠÐ¾Ð´Ð½ Ð¸Ð¼
ĠÐĽ Ð¸ÑĨ
ĠÐ¾Ñħ Ð²
ĠÑģÑĭÑĢ ÑĮÑı
ĠÐ¿ÐµÑĢÐµÐ²Ð¾Ð¾ÑĢÑĥÐ¶ ÐµÐ½Ð¸Ðµ
ĠĠĠĠĠĠĠĠĠĠĠĠĠĠĠĠĠĠĠĠĠĠĠĠĠĠĠĠ Ġ
ĠÑģÐ¾Ð¿ Ð¾ÑģÑĤÐ°Ð²
ĠÑĨÐ¸Ðº Ð»Ð°
ĠÐ¢ÑĢÐµÐ± Ð¾Ð²Ð°Ð½Ð¸Ñı
ĠÐºÐ¾Ð¾Ð¿ ÐµÑĢÐ°ÑĨÐ¸Ð¸
ĠÐ·Ð°Ð¿ÑĢÐ°ÑĪÐ¸Ð²Ð° ÐµÐ¼Ð¾Ð¹
ĠÐ¿Ð°ÑĢÐ¾Ð¼ Ð°
ĠÐ°ÑģÐ¿ÐµÐºÑĤ Ð¾Ð²
ĠÐ¾ÑģÐ¾Ð±ÐµÐ½ Ð½Ð¾ÑģÑĤÐµÐ¹
ĠÑĤÑĢÐ°Ð´Ð¸ÑĨÐ¸Ð¾Ð½ Ð½ÑĭÑħ
Ð¿ÑĢÐ¾ÑĨ ÐµÐ½ÑĤÐ¾Ð²
ĠÑĤÑĢÐ°Ð½ÑģÑĦÐ¾ÑĢÐ¼ Ð°ÑĨÐ¸Ð¸
ĠÑĢÐ°Ð·ÑĢÐµÑĪ ÐµÐ½Ð½ÑĭÑħ
Ð¾ÑĤÐµÑħÐ½ Ð¸ÑĩÐµÑģÐºÐ¸Ñħ
ĠÑĢÐµÐ·ÑĥÐ»ÑĮÑĤÐ°ÑĤÐ¸Ð² Ð½Ð¾ÑģÑĤÐ¸
ĠÐ²ÐµÑĢ Ð¾ÑıÑĤ
ĠÐ²ÑĭÐ± ÑĢÐ¾ÑģÐ¾Ð²
ĠÐĴÐ»Ð°Ð´ ÐµÐ»ÐµÑĨ
ÑģÐ¾Ð·Ð´ Ð°ÑĤÑĮ
ĠÑĢÑĥÐ±ÐµÐ¶ Ð¾Ð¼
ĠÐŀÑĤÐ²ÐµÑĤ ÑģÑĤÐ²ÐµÐ½Ð½Ð¾ÑģÑĤÑĮ
ÑģÑĤÑĢÐ¾Ð¸ÑĤÐµÐ»ÑĮ ÑģÑĤÐ²Ð¾
ĠÐ·Ð°Ð³ ÑĢÑıÐ·
Ð·Ð°ÑĢ ÐµÐ³Ð¸ÑģÑĤÑĢÐ¸ÑĢÐ¾Ð²Ð°Ð½
ĠÐ¿Ð¾ÐºÑĢÑĭÑĤ Ð¸Ð¹
ĠÑİÑģÑĤ Ð¸ÑĨÐ¸Ð¸
ĠÐĳÑİÐ´Ð¶ÐµÑĤ Ð½Ð¾Ð³Ð¾
ĠÐ½Ð¸Ð¶ Ðµ
tifici al
f i
f or
o l
t work
Ġ in
Ð¸ Ð°Ð»ÑĮÐ½Ð¾Ð³Ð¾
Ñģ Ð°
Ñģ Ð¾ÑħÑĢÐ°Ð½
ĠÐ ¥
ÑĢ Ðº
ÑĢ Ð°ÑĨÐ¸Ð¸
ÑĢ Ð¸ÑģÑĤÐ°Ð»Ð»
Ñı ÐµÑĤÑģÑı
ĠÐ¿ ÐµÐ´
Ðº ÑĢÐµÐ¼
Ð² Ð¾Ð»ÑĮ
Ñĩ Ð¸ÐºÐ¸
ÐµÑĢ Ð¼Ð¸Ð½Ñĭ
Ð´ Ð¾Ð»Ñı
ĠÐ´ ÐµÐ½ÑĮ
ĠÐ´ ÑĥÑħ
Ð¾ÑģÑĤ ÑĢÑĥÐºÑĤÑĥÑĢ
ĠÑĢ Ð¾Ð»Ð¸
Ð¾Ð» Ð¸Ð´
Ð¸Ð· Ð¾Ð²Ð°Ð½
Ð¸Ð· Ð¼ÐµÑĢ
ĠÐ· Ð°ÑĤ
Ð³ ÑĢÑĥÐ¿Ð¿
Ð¸Ñĩ Ð½Ð¾ÑģÑĤÑĮ
ÑĪ ÑĢÑĥ
Ð¸Ð½ ÑĤÐµÐ»Ð»ÐµÐºÑĤ
Ð°Ð» Ð°Ð²
ĠÐł ÐµÑģÐ¿
Ñį ÑĦÑĦÐµÐºÑĤÐ¸Ð²
20 02
ĠÐ³ Ð°
Ð¸Ðº Ñģ
Ð°Ð² ÑĪÐ¸Ñħ
ĠÐ¿ÑĢÐµÐ´ ÑĬ
Ð¸Ð² Ð½ÑĭÐµ
Ð¸Ð»Ð¸ Ñİ
ĠÐ» ÐµÑģ
Ð¸ÑģÑĤÐµÐ¼ Ñĭ
ĠÑģÐ¸ÑģÑĤÐµÐ¼ Ð½Ð¾Ð³Ð¾
Ð¸ÑĢÐ¾Ð²Ð°Ð½ Ð½ÑĭÐ¼
Ð¡ ÑĢÐµÐ´
ĠÑĤÑĢ Ð¸Ð´
Ð°ÑİÑī ÐµÐ¼Ñĥ
ĠÐ¡ Ð¸ÑģÑĤÐµÐ¼Ð°
Ð¸Ñģ ÑĨÐ¸Ð¿
ĠÑĨÐµÐ» ÐµÐ²ÑĭÐµ
ĠÐľ Ðŀ
ĠÑįÐºÐ¾Ð½Ð¾Ð¼ Ð¸ÑĩÐµÑģÐºÐ¸Ð¹
Ð¿ÑĢ Ð¾Ð±Ð»ÐµÐ¼
ÑĤÑĢ Ð¾Ð»ÑĮ
ĠÐ¾ÑģÑĥÑīÐµÑģÑĤÐ²Ð»Ñı ÐµÐ¼Ð¾Ð¹
ÑĥÐ¼ Ð°Ð¶
Ð¸ÑĨÐ¸ ÑĤ
ÐŁ Ðŀ
ĠÑĤÑĢÐµÐ± Ð¾Ð²Ð°Ð½Ð¸ÐµÐ¼
ĠÐ¿ÑĢÐ¾Ð´ Ð°Ð¶
Ġ5 2
ĠÐ¸ÑģÐ¿Ð¾Ð»Ð½Ð¸ÑĤÐµÐ»ÑĮ Ð½ÑĭÐ¼
ĠÐ¾Ð¿ÑĢÐµÐ´ÐµÐ» ÐµÐ½Ð½ÑĭÐ¼
ĠÐ²ÐºÐ»ÑİÑĩ Ð°ÑİÑīÐ¸Ð¹
ĠÐ·Ð°Ð´ ÐµÐ»
Ð¸Ð¼Ð° ÐµÑĤÑģÑı
Ð°Ð³ Ð¾Ð³
Ġ15 2
ĠÐ¾Ð±ÑĬ ÑıÐ²Ð»ÐµÐ½Ð¸Ð¸
ĠÐ·Ð°ÐºÐ¾Ð½Ð¾Ð´Ð°ÑĤÐµÐ»ÑĮ Ð½ÑĭÐµ
ĠÐ³ÑĢÐ°Ð¶Ð´Ð°Ð½ ÑģÐºÐ¸Ñħ
Ð¢ ÐµÑħÐ½Ð¾Ð»Ð¾Ð³Ð¸Ð¸
ĠÑģÐ¾Ð¾ÑĤÐ²ÐµÑĤÑģÑĤÐ²ÑĥÑİÑī Ð¸Ð¼
ĠÐ¾Ð³ÑĢÐ°Ð½Ð¸Ñĩ ÐµÐ½Ð½Ð¾Ð³Ð¾
ĠÐ¿Ð¾Ð²Ñĭ ÑĪÐµÐ½Ð¸Ñİ
ĠÐ·Ð°ÑīÐ¸ÑĤ Ñĥ
Ðľ ÐŀÐ¡
ĠÑģÐ¾Ð³Ð»Ð°Ñģ Ð½Ð¾
ĠÑģÐ¾Ð³Ð»Ð°Ñģ Ð¾Ð²Ð°Ð½Ð¸Ñı
Ðļ ÐĴÐĲ
Ġ6 5
ĠÑįÑĦÑĦÐµÐºÑĤÐ¸Ð² Ð½ÑĭÑħ
ĠÐ¿Ð»Ð°Ð½ Ð¸ÑĢÑĥÐµÐ¼ÑĭÑħ
ĠÐ¾Ð±ÑĥÑĩ Ð°ÑİÑīÐ¸ÑħÑģÑı
ĠÐ¼ÐµÐ¶Ð´ÑĥÐ½Ð°ÑĢÐ¾Ð´ Ð½Ð¾Ð¼
ĠÑĢÐµÐ³Ð¸Ð¾Ð½ Ð°Ð»ÑĮÐ½ÑĭÐµ
Ð¾Ð»Ð¾Ð³ Ð¸ÑĩÐµÑģÐºÐ¾Ð³Ð¾
ĠÐ¼ÐµÐ´Ð¸ÑĨÐ¸Ð½ ÑģÐºÐ¾Ð³Ð¾
ĠÐ½Ð¾ÑĢÐ¼Ð°ÑĤÐ¸Ð² Ð½ÑĭÐ¼
ĠÐ²Ñģ ÐµÐ¹
ĠÐ¾Ð±ÑĢÐ°Ð·Ð¾Ð²Ð°ÑĤÐµÐ»ÑĮ Ð½ÑĭÐµ
Ð¾Ð½Ð¸ÑĤÐ¾ÑĢ Ð¸Ð½Ð³
ĠÑĢÐ°Ð´Ð¸ Ð¾Ð»Ð¾Ðº
ĠÐ¾ÑĤÐ²ÐµÑĤ ÑģÑĤÐ²ÐµÐ½Ð½Ð¾Ð³Ð¾
ĠÐ¿ÑĢÐ¾ÑĨÐµÑģÑģ Ñĭ
ĠÐ²ÑĢÐµÐ¼ ÐµÐ½Ð½Ð¾Ð¹
ĠÑĢÑĥÐºÐ¾Ð²Ð¾Ð´ Ð¸ÑĤÐµÐ»Ðµ
ĠÐ¿Ð¾ÑĤÑĢÐµÐ± Ð½Ð¾ÑģÑĤÐµÐ¹
ĠÑĥÑģÑĤÐ°Ð½Ð¾Ð² Ð»ÐµÐ½Ð¸Ðµ
ĠÐ·Ð°Ð¿ÑĢÐ¾Ñģ Ñĭ
ĠÐ³Ð°Ð· Ð¾ÑĤ
ĠÑįÐ»ÐµÐ¼ ÐµÐ½ÑĤÐ½Ð¾Ð¹
ĠÐ³Ð¾ÑģÑĥÐ´Ð°ÑĢÑģÑĤÐ²Ð° Ñħ
ĠÑĢÐµÐºÐ¾Ð¼ÐµÐ½Ð´ Ð°ÑĤÐµÐ»ÑĮÐ½ÑĭÑħ
Ð¾Ð±ÐµÑģÐ¿ÐµÑĩ ÐµÐ½Ð¸Ñı
ĠÑĢÐ¸ÑģÐº Ð¸
ĠÐ°Ð³ Ð¸ÑĤ
ĠÐ´Ð¾Ð¿Ð¾Ð»Ð½ ÐµÐ½Ð°
ĠÐ´Ð¾Ð²ÐµÑĢ Ð¸Ñı
ĠÐľÐ¾ÑģÐº Ð²Ð°
ĠÑĥÑĩÑĢÐµÐ¶Ð´ ÐµÐ½Ð¸Ñı
ĠÐ¿ÑĢÐ¸Ð½Ð¸Ð¼Ð° ÐµÑĤÑģÑı
ĠÐ²Ð¾Ð´ Ñĭ
ĠÐºÐ°Ð¶Ð´ ÑĭÐ¹
ĠÐ¿Ð¾Ð¸ÑģÐº Ð¾Ð²Ð¾Ð¹
ĠÐ½Ð°Ñĩ Ð¸Ð½
ĠÑģÐº Ð²Ð¾Ð·
ĠÐ²ÑĭÑģÐ¾ÐºÐ¾ÑĤÐµÑħÐ½Ð¾Ð»Ð¾Ð³ Ð¸ÑĩÐ½Ð¾Ð¹
ĠÐºÐ²Ð°Ð» Ð¸ÑĦÐ¸ÑĨÐ¸ÑĢÐ¾Ð²Ð°Ð½Ð½ÑĭÑħ
ĠÑĥÐ³ÑĢÐ¾Ð· Ñĭ
ĠÐ¸Ð½Ð¸ÑĨÐ¸Ð°ÑĤÐ¸Ð² Ð½Ð¾Ð³Ð¾
ĠÑĩÐ»ÐµÐ½ Ð°Ñħ
ÑĢÐµÐ³ ÑĥÐ»
ĠÐ¼Ð°ÑĢ ÑĪÑĢÑĥ
ĠÑģÐµÑĢÑĤ Ð¸ÑĦÐ¸ÐºÐ°ÑĨÐ¸Ð¸
te r
ĠÐ¿Ð¾Ð² ÑĤÐ¾ÑĢ
ĠÐ¿Ð¾ÑģÑĤÐ°Ð½Ð¾Ð² Ð»ÐµÐ½Ð¸Ñı
ĠÐ¿Ð¾ÑģÑĤÐ°Ð½Ð¾Ð² Ð»ÐµÐ½Ð¸Ðµ
ĠÑģÐ¾Ð²ÐµÑĤ Ð¾Ð¼
ĠÐ¸Ð½Ð²ÐµÑģÑĤÐ¸ÑĨÐ¸Ð¾Ð½ Ð½Ð¾Ð³Ð¾
ĠÐļÐ¾Ð½ ÑģÑĤÐ¸ÑĤÑĥ
ĠÑģÐ¾ÑģÑĤÐ°Ð²Ð¸Ð» Ð°
ĠÑģÐ²ÐµÑĢÑħ Ð²ÑĭÑģÐ¾Ðº
ĠÑģÐ¸ÑĤÑĥ Ð°ÑĨÐ¸Ð¸
Ð¤ÐµÐ´ÐµÑĢ Ð°Ð»ÑĮÐ½ÑĭÐ¼
ĠÐºÐ¾Ð» Ð»ÐµÐ³
ĠÑįÐ½ÐµÑĢ Ð³Ð¾Ñģ
ĠÐºÐ¾Ð¾ÑĢÐ´Ð¸Ð½ Ð°ÑĨÐ¸Ð¸
ĠÑĥÐ¼ÐµÐ½ÑĮ ÑĪ
ĠÐºÐ¾Ð½ÐºÑĢÐµÑĤ Ð½ÑĭÑħ
ĠÑģÑĦÐ¾ÑĢÐ¼ Ð¸ÑĢÐ¾Ð²Ð°Ð½Ð½ÑĭÑħ
ĠÐ´Ð°Ð»ÑĮÐ½ÐµÐ¹ ÑĪÐµÐ³Ð¾
Ð½Ð¾Ð¿ ÑĢÐ°Ð²
ĠÐ½Ð°Ð² Ð¸Ð³
ma ch
ĠÑĩÐ¸ÑģÑĤ ÑĭÑħ
ĠÐ¾Ð¿Ð¸Ñģ Ð°Ð½Ð¸Ðµ
ĠÐ²ÑĭÑıÐ²Ð»ÐµÐ½ Ð½Ð¾Ð³Ð¾
ĠÑĢÐµÐ¹ÑĤ Ð¸Ð½Ð³
ĠÑģÑĤÐµÐ½Ð´ Ð¾Ð²
ĠÐ²Ð¾Ð¾ÑĢÑĥÐ¶ ÐµÐ½Ð¸Ñı
ĠÐ¿ÑĢÐ¾ÑģÑĤÑĢÐ°Ð½ ÑģÑĤÐ²Ð°
ÐĿÐ°ÑĨÐ¸Ð¾Ð½ Ð°Ð»ÑĮÐ½Ð°Ñı
ĠÑĦÐ¾ÑĤÐ¾Ð¿ÑĢÐ¸ÐµÐ¼ Ð½ÑĭÑħ
ĠÑģÐ¾Ð±ÑĭÑĤ Ð¸Ð¹
ĠÐ°Ð± Ð¾Ð½ÐµÐ½ÑĤ
ĠÐ½Ð¾Ñģ Ð¸ÑĤÐµÐ»Ðµ
ĠÐ½Ð°ÑĢÐ¾Ð´ Ð¾Ð²
Ð¾Ð³Ð»Ð° ÑĪÐµÐ½Ð¸Ñı
ĠÑĢÐ°ÑģÑĤÐ¾ÑĢ Ð¶ÐµÐ½Ð¸Ð¸
ĠÐ¼Ð°ÑĤÑĢ Ð¸ÑĩÐ½ÑĭÑħ
ĠÐ¼Ð¸ÐºÑĢÐ¾ÑįÐ»ÐµÐºÑĤÑĢÐ¾Ð½ Ð¸ÐºÐ¸
ÐľÐµÑĢÐ¾Ð¿ÑĢÐ¸ÑıÑĤ Ð¸Ñı
ĠÐ±Ð»Ð°Ð³Ð¾Ð¿ÑĢÐ¸ÑıÑĤ Ð½ÑĭÑħ
ĠÐ±Ð°Ðº Ð°Ð»Ð°Ð²
ÐĺÑģÑģÐ»ÐµÐ´ Ð¾Ð²Ð°Ð½Ð¸Ñı
ĠÑĤÐ²ÐµÑĢÐ´Ð¾ÑĤ ÐµÐ»ÑĮÐ½ÑĭÑħ
ĠÐŀÑĤÑĩÐµÑĤ Ñĭ
ĠÐ¿Ð¾Ð²ÐµÑĢ Ñħ
ÐľÐŀÐ¡ ÐļÐĴÐĲ
ĠÐºÐ¾Ð»Ð»ÐµÐ³ Ð¸Ð°Ð»ÑĮÐ½Ð¾Ð³Ð¾
mach ine
" )
Ġ m
Ð¾ Ð¾Ð±
ÑĤ ÑĭÑģ
ÑĢ Ð¾Ð»
Ñĭ Ð»
Ð» Ð°Ð¼
Ðº ÑĨÐ¸Ð¹
Ð¾Ð² Ð°ÑĤÐµÐ»ÐµÐ¹
Ñĩ Ð°ÑģÑĤÐ¸
ÑĨ Ð¸Ð´
ÐµÑĢ Ð°
ĠÐ² Ð»Ð¾Ð¶
ĠÐ² Ð²Ð¾Ð´
Ð¼ ÐµÑĩ
Ð¾ÑĢ Ðµ
Ð¾ÑĢ ÐµÑĩ
ĠÐ¿ÑĢ Ð¸Ð³
ĠÐ½ Ð°Ð¿
Ð´ Ð¾ÑĢÐ¾Ð¶
Ð¾Ð½ Ð½ÑĭÑħ
Ð¾Ñģ ÑħÐ¾Ð´
Ð¾Ð¼ Ð¿
ĠÐº ÑĥÑĢ
ĠÐ½Ð° ÑĢÐº
ĠÐ¸Ð½ ÑģÑĤÐ¸ÑĤÑĥ
ĠÐ¸Ð½ ÑģÑĤÐ¸ÑĤÑĥÑĤ
ĠÐ¸Ð½ ÑĨÐ¸Ð´
ĠÐ¼ Ð¾Ð±Ð¸Ð»ÑĮ
Ð³ ÑĢÐ°ÑĦÐ¸Ðº
Ð°Ðº Ñĥ
Ð¸ÑĤ ÐµÑĢ
ĠÐ¤ Ð¾Ð½Ð´
ĠÐ¤ Ðĵ
ĠÐ¾ÑĤ ÑģÑĤÐ°Ð²
ĠÐ¾ÑĤ ÑħÐ¾Ð´Ð¾Ð²
Ð¸Ðº Ð°Ð·
Ð¸Ð² Ð¾Ð²
Ð¸Ð² Ð°ÑİÑīÐ¸Ñħ
Ð¸Ð² ÑĪÐ¸Ð¼
Ð¸Ð´ Ð¾Ð²
Ð¸ÑĤÐµÐ»ÑĮ ÑģÑĤÐ²Ð°
ĠÑĢÐµ ÑĨÐµÐ¿
Ð¾Ð¿ ÐµÑĢ
Ð¾Ð¿ Ð¾Ð»Ð½Ð¸ÑĤÐµÐ»ÑĮ
Ð»ÐµÐ½ Ð¸Ð¹
ÑĢÐ°Ð½ ÑģÐ¿
ĠÑĤÐµÑħÐ½Ð¾Ð»Ð¾Ð³ Ð¸ÑĩÐµÑģÐºÐ¸Ðµ
ĠÐ¿Ð¾Ð´ ÐºÐ»ÑİÑĩ
ÑĥÑĢ Ð±Ð¸Ð½
ÑĥÑĢ ÐµÐ³ÑĥÐ»
ĠÐ²Ñĭ ÑģÑĤÑĥÐ¿
ĠÐ» ÐµÐ³
Ð°ÑĤÐµÐ» ÑıÐ¼Ð¸
ÑĢÐ¾Ð² ÐµÐ´ÐµÐ½Ð¸Ðµ
ĠÑģÐ¸ÑģÑĤÐµÐ¼ Ð°Ð¼Ð¸
ĠÐºÐ¾Ð½ ÑģÑĤÑĢÑĥÐºÑĤ
ĠÐºÐ¾Ð½ ÑĤÐµÐºÑģÑĤ
ĠÐ·Ð° ÐµÐ¼
ĠÐ¸Ð· Ð²
ĠÐ´Ð¾ÑģÑĤ Ð¾Ð¸Ð½
ÑĥÐ¿ ÑĢÐµÐ¶Ð´
ĠÐºÐ¾ÑĤÐ¾ÑĢ Ð¾Ðµ
Ð¸ÑĢÐ¾Ð²Ð°Ð½ Ð¾
Ġ3 23
ĠÐºÐ¾Ð¼Ð¿ Ð¾Ð·
ĠÐ¡ ÑĢÐµÐ´
ĠÐ·Ð°ÐºÐ¾Ð½ Ð½Ð¾Ð³Ð¾
ĠÐ±ÑİÐ´Ð¶ÐµÑĤ Ð°Ð¼
ĠÑĢÐµÐ³ ÑĥÐ»ÑıÑĢ
ÐŁ Ð¾Ð²ÑĭÑĪÐµÐ½Ð¸Ðµ
ĠÑģÐ¿ Ð»Ð°Ð²
ĠÑįÑĤ Ð¾
Ð¸Ð²Ð° ÐµÐ¼ÑĭÑħ
ÐµÐ¿ ÑĢ
ĠÐ¾ÑģÐ½Ð¾Ð² Ð¾Ð¹
ĠÐŀ Ð¿
Ġ4 1
Ġ4 8
ĠÐ²ÐºÐ»ÑİÑĩ ÐµÐ½Ð¸Ñİ
ĠÐ½Ð°ÑĥÑĩ Ð½Ð¾Ð³Ð¾
ÐĿ ÐĺÐĺ
ĠÑģÐ¾ÑģÑĤÐ°Ð² Ð°
ĠÐºÐ¾Ð¼Ð¿Ð»ÐµÐºÑģ Ð½ÑĭÑħ
ĠÐºÐ¾Ð½ÑĤÑĢÐ¾Ð» ÐµÐ¼
ĠÐ´Ð¾Ð¿ ÑĥÑģÑĤ
ĠÐ¿ÑĢÐµÐ´ÑĥÑģÐ¼Ð¾ÑĤÑĢÐµÐ½ Ð½Ð¾Ð¹
ĠÐ³ÑĢÐ°Ð¶Ð´Ð°Ð½ ÑģÐºÐ¾Ð¹
ĠÐ²ÑĭÑģÐ¾Ðº Ð¸Ñħ
ĠÑĩÐ°ÑģÑĤ ÑıÐ¼Ð¸
ĠÐ¾Ð³ÑĢÐ°Ð½Ð¸Ñĩ ÐµÐ½Ð¸Ð¸
ĠÑĥÑĤÐ²ÐµÑĢÐ¶Ð´ ÐµÐ½Ð¸Ðµ
ĠÑĥÑĤÐ²ÐµÑĢÐ¶Ð´ ÐµÐ½Ð½ÑĭÑħ
ĠÑĥÑĤÐ²ÐµÑĢÐ¶Ð´ Ð°ÑİÑĤÑģÑı
Ð³Ð¾ÑĤÐ¾Ð² ÐºÐ°
ĠÐ½Ð°ÑĨÐ¸Ð¾Ð½ Ð°Ð»ÑĮÐ½ÑĭÐ¼
Ðľ Ð¾ÑģÐº
Ðľ Ð¸ÑĪ
ĠÑģÐ¾Ð³Ð»Ð°Ñģ Ð¸Ð¸
ĠÐ¾ÑģÐ½ Ð¾Ð²Ð°Ð½Ð¸Ð¹
Ðļ Ð¡
ĠÐ¼Ð°ÑĤÐµÑĢ Ð¸Ð½ÑģÑĤÐ²Ð¾Ð¼
ĠÐĿ ÐµÐ·
ĠÐĿ Ð°ÑģÑĤÐ¾ÑıÑīÐµÐµ
ĠÑģÐµÑĢ Ð¸Ð¸
ĠÑĢÐ°Ð·Ð¼ÐµÑī ÐµÐ½Ð°
ĠÐ¾Ð±Ð¾ÑĢ Ð¾ÑĤ
ĠÐ´Ð¾ÐºÑĥÐ¼ÐµÐ½ÑĤ Ð°Ñħ
ĠÐ´Ð¾ÐºÑĥÐ¼ÐµÐ½ÑĤ Ð°ÑĨÐ¸ÐµÐ¹
ĠÑģÐ°Ð¹ ÑĤÐ¾Ð²
ĠÐ¿Ð¾Ð´Ð³Ð¾ÑĤÐ¾Ð² ÐºÐ°
Ð¸ÑĦÐ¸Ðº Ð°ÑĨÐ¸Ñİ
ÑĥÑģÑĤ Ð¸Ð½
Ð¡ÑĤ ÑĢÐ°ÑĤÐµÐ³Ð¸Ñı
ÑĢÐ°ÑĤ ÑĥÑĢÑĭ
ĠÑģÐ¾Ð·Ð´ Ð°ÑİÑĤÑģÑı
ĠÐ²ÑĭÑĩÐ¸ÑģÐ» ÐµÐ½Ð¸Ð¹
ÑĤÐµÑħÐ½ Ð¸ÑĩÐµÑģÐºÐ¾Ðµ
Ġ19 96
ĠÐ¸Ð½Ð´ ÐµÐºÑģÐ°
ĠÐŀÐ± ÐµÑģÐ¿ÐµÑĩÐµÐ½Ð¸Ðµ
ĠÑģÐ²Ð¾ ÐµÐ²ÑĢÐµÐ¼
ĠÐ¿ÑĢÐµÐ² Ð¾ÑģÑħÐ¾Ð´
ĠÐ¸Ð½Ð½Ð¾Ð² Ð°ÑĨÐ¸Ð¾Ð½Ð½Ð¾Ð³Ð¾
ÐŁÑĢ Ð¾Ð³ÑĢÐ°Ð¼Ð¼
ĠÐ¿Ð¾Ð»ÑĮÐ·Ð¾Ð² Ð°ÑĤÐµÐ»Ñı
ĠÐ½ÐµÑģ ÑĩÐ°ÑģÑĤ
Ðĵ Ð¾ÑģÑĥÐ´Ð°ÑĢ
ĠÐ¾ÑĤÐºÑĢÑĭÑĤ Ð¾Ð¼
ĠÐ¾ÑĤÐºÑĢÑĭÑĤ Ð¾Ð³Ð¾
ĠÐŀÑģ Ð½
ĠÐ²Ð¾Ð¿ÑĢÐ¾Ñģ Ð¾Ð²
ĠÐ¸Ð¼Ðµ ÑİÑĤ
ĠÐ¾Ð¿ÑĭÑĤ Ð°
ĠÐ´ÐµÐ¹ÑģÑĤÐ² Ð¸Ðµ
ĠÐ½ÐµÐºÐ¾Ð¼Ð¼ÐµÑĢÑĩÐµ ÑģÐºÐ°Ñı
ĠÑĢÐ¸ÑģÐº Ð°
ÐµÑĢÐ½ Ð¸Ð·Ð°ÑĨÐ¸Ñı
ĠÐºÐ°Ð¿Ð¸ÑĤ Ð°Ð»Ðµ
ĠÐ¿ÑĢÐ¾ÑĤÐ¸Ð² Ð¾ÑĢÐµÑĩ
ÑıÑĤÑĮ ÑģÑı
ĠÐ·Ð°ÐºÐ°Ð· ÑĩÐ¸ÐºÐ¾Ð²
ĠÐ¿Ð¾ÑģÐ»ÐµÐ´ Ð½Ð¸Ðµ
ĠÐ´Ð¾Ð³Ð¾Ð²Ð¾ÑĢ Ñĭ
ĠÐ¿ÑĢÐµÐº ÑĢÐ°ÑĤÐ¸ÑĤÑĮ
ĠÐ¾ÑģÐ¾Ð± Ð¾Ð¹
ĠÑģÑĤÐ°Ð½Ð´Ð°ÑĢ ÑĤÐ°
ĠÐ¿ÑĢÐµÐ´Ð¿ÑĢÐ¸Ð½Ð¸Ð¼Ð°ÑĤÐµÐ»ÑĮ ÑģÑĤÐ²Ð°
ĠÐ¿ÑĢÐ¾Ð²Ð¾Ð´ Ð¸ÑĤ
ĠÐ¿ÑĢÐ¾Ð²Ð¾Ð´ Ð¸Ð¼ÑĭÑħ
ĠÐºÐ°Ð´ÑĢÐ¾Ð² Ð¾Ð³Ð¾
ĠÑģÐ¾ÑĤÑĢÑĥÐ´Ð½Ð¸ÑĩÐµ ÑģÑĤÐ²Ð¾
Ġ26 92
Ġ26 81
ĠÑĤÐ¾Ð² Ð°ÑĢ
ĠÑĥÐ³ÑĢÐ¾Ð· Ñĥ
ĠÐ¿ÐµÑĢÐµÐ² Ð¾Ð´
ĠÐ¿ÐµÑĢÐµÐ² Ð¾Ð·
ĠÐ¸Ð½Ð¸ÑĨÐ¸Ð°ÑĤÐ¸Ð² Ñĭ
ĠÐ²ÑħÐ¾Ð´ ÑıÑīÐ¸Ñħ
ĠÑģÐ¾ÑħÑĢÐ°Ð½ ÐµÐ½Ð¸Ñı
ĠÑģÐ¾ÑģÑĤÐ°Ð²Ð»Ñı ÑİÑĤ
ĠÐ¿ÑĢÐ¸ÑĢÐ¾Ð´ Ð½ÑĭÑħ
ĠÐŁÑĢÐ¾Ð³ÑĢÐ°Ð¼Ð¼ Ð°
ĠÐ´Ð¾ÑħÐ¾Ð´ Ð¾Ð²
ĠÐ¸Ð½ÑģÑĤÑĢÑĥÐ¼ ÐµÐ½ÑĤ
ĠÐ¿ÑĢÐµÐºÑĢÐ°Ñī ÐµÐ½Ð¸Ñı
ĠÐ¿ÑĢÐµÐºÑĢÐ°Ñī ÐµÐ½Ð¸Ð¸
Ð²Ñĭ Ñĩ
ĠÑģÐ²ÑıÐ·Ð°Ð½ Ð½Ð¾Ð¹
Ð¿Ð¾Ð´ Ð¿ÑĥÐ½ÐºÑĤ
ĠÑģÐ¾Ðº ÑĢÐ°ÑĤÐ¸ÑĤÑĮ
ĠÐ½Ð°Ðº Ð°Ñĩ
ÑĢÐ¸ Ð°ÑĤÐ°
ĠÑģÐµÐ»ÑĮ ÑģÐºÐ¾Ð³Ð¾
ĠÑĢÐµÐ°Ð»Ð¸Ð·Ñĥ ÐµÐ¼ÑĭÑħ
ĠÐ¿ÑĢÐ°ÐºÑĤ Ð¸Ðº
ĠÐ´Ð¾ÑģÑĤÐ¾Ð²ÐµÑĢ Ð½Ð¾ÑģÑĤÑĮ
ĠÑĤÐµÑĢÑĢÐ¸ÑĤÐ¾ÑĢÐ¸ Ð°Ð»ÑĮÐ½Ð¾Ð¼
Ð°Ð½Ñģ ÐµÑĢ
ĠÐ²Ð½ÐµÑĪ Ð½ÐµÐ¹
ĠÑĢÐ°Ð´Ð¸Ð¾ÑįÐ»ÐµÐºÑĤÑĢÐ¾Ð½ Ð½ÑĭÑħ
ĠÐ´Ð¾Ð± Ñĭ
ĠÐĳÐ°Ð½ ÐºÐ°
ĠÐ´Ð¾Ð»Ð³Ð¾ÑģÑĢÐ¾Ñĩ Ð½Ð¾Ð³Ð¾
ĠÑĢÐ°Ð·ÑĢÐ°Ð±Ð°ÑĤÑĭÐ² Ð°ÐµÐ¼ÑĭÑħ
ĠÑĢÐ°Ð² Ð½Ð¾Ð¿ÑĢÐ°Ð²
ĠÐ¾Ð±ÑģÐ»ÑĥÐ¶ Ð¸Ð²Ð°Ð½Ð¸Ðµ
ĠÐ´ÐµÐ½ÐµÐ¶ Ð½ÑĭÐ¼Ð¸
ĠÑĢÐ°ÑģÑģÑĩÐ¸ÑĤ ÑĭÐ²Ð°ÐµÑĤÑģÑı
ĠÐ²ÑĭÐ· Ð¾Ð²
ĠÑĤÐµÑĢÑĢÐ¾ÑĢ Ð¸ÑģÑĤ
ĠÑģÐµÑĤÐµÐ² Ð¾Ð¹
ĠÐ¼Ð¾ÑĢ ÑģÐºÐ¾Ð³Ð¾
ĠÐ¿ÑĢÐ¸Ð½Ð°Ð´Ð»ÐµÐ¶ Ð½Ð¾ÑģÑĤÐ¸
ĠÑģÐ¿ÐµÑĨÐ¸Ð°Ð»Ð¸Ð· Ð¸ÑĢÐ¾Ð²Ð°Ð½Ð½ÑĭÑħ
ĠÑģÑĤÐ°ÑĤÐ¸ÑģÑĤ Ð¸ÐºÐ¸
ĠÐ½Ð°ÑĩÐ¸ÑģÐ» ÐµÐ½Ð½ÑĭÐµ
ĠÐ²Ð½Ð¾Ñģ ÑıÑĤÑģÑı
ĠÐ¼ÑĥÐ»ÑĮÑĤ Ð¸Ð¼
ĠÐŁÑĢÐ¾ ÐµÐºÑĤ
ĠÑĤÐµÐ»ÐµÐ² Ð¸Ð´ÐµÐ½Ð¸Ñı
ĠÐ¼Ð°Ð³Ð¸ÑģÑĤ ÑĢÐ°ÑĤÑĥÑĢÑĭ
ÐŁÑĢÐ°Ð² Ð¸ÑĤÐµÐ»ÑĮÑģÑĤÐ²Ð¾
ÐĿÐ°ÑĨÐ¸Ð¾Ð½ Ð°Ð»ÑĮÐ½ÑĭÐ¹
ĠÐ¾Ð· Ð½Ð°Ñĩ
ĠÑģÑĥÐ´ÐµÐ± Ð½Ð¾Ð³Ð¾
ĠÐ¼Ð¸ÐºÑĢ Ð¾Ð¿ÑĢÐ¾ÑĨÐµÑģÑģ
Ð¾Ð¼ÐµÑĤÑĢ Ð¸ÑĩÐµÑģÐºÐ¸Ñħ
ĠÐ·Ð°ÑĢÐ°Ð±Ð¾ÑĤ Ð½Ð¾Ð¹
ĠÐ½Ð°Ð´ÐµÐ¶ Ð½Ð¾ÑģÑĤÐ¸
Ð£Ð¢ÐĴÐķÐłÐĸÐĶÐķÐĿ Ð«
ĠÑģÐµÐ»ÑĮÑģÐºÐ¾ÑħÐ¾Ð·ÑıÐ¹ ÑģÑĤÐ²ÐµÐ½Ð½ÑĭÑħ
ĠÑĥÑģÑĤÐ°Ð² Ð½Ð¾Ð¼
ĠÑģÑĤÐ°ÑĤÑĥÑģ Ð°
ĠÐºÐ¾Ð½Ð²ÐµÑĢ ÑĤÐ¾Ð²
ĠÐ¿Ð¾ÑģÑĤÐ°Ð²Ñī Ð¸ÐºÐ¾Ð²
ĠÐ´Ð°Ð² Ð»ÐµÐ½Ð¸Ñı
ĠÐ·ÐµÐ¼ ÐµÐ»ÑĮ
ĠÑĥÑĩÐ¸ÑĤ ÑĭÐ²
ĠÐ´ÐµÑĦ Ð¸ÑĨÐ¸ÑĤ
ĠÐŁÐ¾Ð»ÑĥÑĩ Ð°ÑĤÐµÐ»ÑĮ
ĠÐ´Ð¸ÑģÐ¿ Ð°Ð½ÑģÐµÑĢ
ĠÑĤÐµÐ»ÐµÐºÐ°Ð½Ð°Ð» Ð¾Ð²
ĠÑģÑĩÐ¸ÑĤ Ð°ÐµÑĤÑģÑı
ĠÐ¾Ð¿ÐµÑĢÐµÐ¶ Ð°ÑİÑīÐµÐ³Ð¾
ĠÐ¿ÑĢÐ¸Ð²Ð»ÐµÐºÐ°ÑĤÐµÐ»ÑĮ Ð½Ð¾ÑģÑĤÐ¸
ĠÑĤÐµÐ»ÐµÐºÐ¾Ð¼ Ð¼ÑĥÐ½Ð¸ÐºÐ°ÑĨÐ¸Ð¹
ĠÐ²Ð¾ÑģÑĤ ÑĢÐµÐ±
ĠÐ·Ð°Ð±Ð»Ð¾Ðº Ð¸ÑĢÐ¾Ð²Ð°Ð½Ð½Ð¾Ð³Ð¾
ĠÐ´ÑĥÑħ Ð¾Ð²
ĠÐ³Ð°Ð·Ð¾ÑĤ ÑĥÑĢÐ±Ð¸Ð½
ĠÐ±Ð°ÐºÐ°Ð»Ð°Ð² ÑĢÐ¸Ð°ÑĤÐ°
ĠÐ¤Ðĵ Ð£ÐŁ
ÐľÐ¸ÑĪ ÑĥÑģÑĤÐ¸Ð½
ĠÐ½ÐµÑģÑĩÐ°ÑģÑĤ Ð½ÑĭÑħ
ĠÐ³Ð°Ð·Ð¾ÑĤÑĥÑĢÐ±Ð¸Ð½ Ð½ÑĭÑħ
1 30
9 3
I V
b i
l li
u p
Ð ¥
Ġ M
Ġ T
Ġ p
Ð¾ ÑĨÐµÐ½ÐºÐ°
Ð¸ Ð°Ð»ÑĮÐ½ÑĭÑħ
ÑĤ Ñĥ
Ñģ Ð¸Ñħ
Ñı ÐµÑĤ
Ñı ÑģÐ½
Ð» Ð¸Ð²
Ð» Ð¸ÑĨ
Ð¾Ð² Ð°
Ð°Ð½ Ñĭ
ĠÑģ ÐµÐ½Ñģ
ÐµÑĢ Ð¾ÑģÑģÐ¸Ð¹
Ð½Ð¾Ð ¶
ĠÐ² Ð¾Ð¹
ĠÐ² Ð¾ÑģÐ¿
ĠÐ¿ÑĢ Ð¸Ñħ
Ð¿ Ð¾Ð»
Ð¿ Ð¾Ð²Ñĭ
ĠÐ½ ÐµÐ»
ÑĦ Ð¸ÑĢ
ĠÐ´ Ð¸ÑĦ
Ð¾Ð´ Ð°Ð²
Ð¾Ñģ ÑĮ
ĠÐº ÑĥÑĢÑģÐ¾Ð²
ĠÐ¾Ð± ÑĢÐ°ÑĤÐ¸ÑĤÑĮ
ĠÑĥ ÑĢÐ°Ð½
ĠÐ½Ð° Ð¸Ð¼ÐµÐ½
ÐµÐ¼ Ð¸ÑĢ
Ð¸Ð½ ÐµÐ¹
Ð± ÑĥÑĢÐ³
ĠÐ¾ÑĤ Ð½ÐµÑģ
ÑĤÐµÐ» ÐµÐ¹
ĠÐ³ ÑĢÐ°Ð´
Ð°ÑĢ Ð¸Ð¸
Ð¸Ð» Ð°ÑģÑĮ
ĠÐ¿ÑĢÐµÐ´ ÑĥÐ¿ÑĢÐµÐ¶Ð´
ĠÐ± Ð¾ÑĢ
ĠÐ± ÑĥÐ¼Ð°Ð¶
Ð¸Ð² Ð°Ð½Ð¸Ñİ
Ð¸Ð´ Ð°
Ð¸ÑĤÐµÐ»ÑĮ Ð½ÑĭÐ¹
ÑĥÑģ Ð½ÑĭÑħ
Ð¾Ð± Ñĭ
ĠÑĩ ÑĢÐµÐ·
ĠÑĢÐµ ÑĦÐµÑĢ
ĠÑĢÐµ ÑĪÐµÐ½Ð¸Ð¸
ĠÑģÑĤ Ð¾Ð¹
ĠÑĤÐµÑħÐ½Ð¾Ð»Ð¾Ð³ Ð¸ÑĩÐµÑģÐºÐ¾Ðµ
ĠÐ·Ð°Ðº ÑĢÐµÐ¿
ĠÐ¸Ð½ÑĤÐµÐ»Ð»ÐµÐºÑĤ Ð¾Ð¼
Ð¸Ð»Ð¸ ÑģÑĮ
Ð°ÑĤÐµÐ»ÑĮ Ð½Ð¾Ð¹
ĠÐºÐ¾Ð½ ÑĨÐµÐ¿
ĠÐºÐ¾Ð½ ÑģÑĤÐ¸ÑĤÑĥÑĨÐ¸Ð¾Ð½
ĠÐ¸Ð½ÑĦÐ¾ÑĢÐ¼Ð°ÑĨÐ¸Ð¾Ð½ Ð½Ð°Ñı
ĠÑģÐ² Ð°ÑĢ
ĠÐ¿ÑĢÐ¾ÐµÐºÑĤ Ð½Ð¾
ĠÐ¿ÐµÑĢÑģÐ¾Ð½ Ð°Ð»Ð°
ĠÐ´Ð¾ÑģÑĤ Ð¸Ð³
ÑĥÐ¿ ÐµÑĢ
ĠÐ¾ÑĢÐ³Ð°Ð½Ð¸Ð· ÑĥÐµÑĤ
ĠÐ¿ÑĥÐ½ÐºÑĤ Ð¾Ð²
ÐĴ Ð½
ÐµÑģÑĤ ÑĮ
Ð¸ÑĤÑĮ ÑģÑı
ĠÐ±ÑİÐ´Ð¶ÐµÑĤ Ñĥ
Ð¿ÑĢ ÐµÑĤ
ĠÑĦÐ¾ÑĢÐ¼ Ð¸ÑĢÑĥÐµÑĤ
ĠÐ¿ÑĢÐ¾ÑĨ ÐµÐ½ÑĤÐ°Ð¼Ð¸
ÐŁ Ð¾
ÐŁ ÐµÑĢ
ĠÐ¿ÑĢÐ¾Ð³ÑĢÐ°Ð¼Ð¼ Ð¸ÑĢÐ¾Ð²Ð°Ð½Ð¸Ñı
ĠÑģÐ¿ Ð¾ÑĢÑĤÐ°
ĠÐ¿Ð¾Ð´Ð´ÐµÑĢÐ¶ ÐºÐµ
Ð°ÐºÑĤ Ð¸Ð²Ð½ÑĭÑħ
ĠÑįÑĤ Ð¸Ð¼
ĠÐ¸ÑģÐ¿Ð¾Ð»Ð½Ð¸ÑĤÐµÐ»ÑĮ Ð½ÑĭÑħ
ĠÐ¾ÑģÐ½Ð¾Ð² Ñĥ
ĠÐ¾Ð¿ÑĢÐµÐ´ÐµÐ» ÐµÐ½Ð½Ð¾Ð¼
ĠÐ¿Ð» Ð°Ð·
ĠÐ²ÐºÐ»ÑİÑĩ Ð°ÑİÑīÐ¸Ðµ
ĠÐ²ÐºÐ»ÑİÑĩ Ð¸ÑĤÐµÐ»ÑĮÐ½Ð¾
Ð°Ð¹ Ð½ÑĭÑħ
Ð»Ð°Ð´ Ð½ÑĭÐµ
ĠÑģÐ¾Ð² ÐµÑĢÑĪ
ÐĺÐ½ ÑĦÐ¾ÑĢÐ¼
ĠÑįÐ»ÐµÐºÑĤÑĢÐ¾Ð½ Ð¸ÐºÐ°
Ġ15 8
ĠÐ±ÐµÐ·Ð¾Ð¿Ð°Ñģ Ð½ÑĭÑħ
Ð°ÐµÐ¼ ÑĭÐ¼
Ġ12 3
Ð½Ð¸ÐºÐ¾Ð² Ð¾Ð¹
ĠÑģÐ¾ÑĨÐ¸ Ð°Ð»ÑĮÐ½Ð¾Ð³Ð¾
ĠÐ³ÑĢÐ°Ð¶Ð´Ð°Ð½ ÑģÑĤÐ²Ð°
ĠÑģÐ¾Ð´ ÐµÐ¹ÑģÑĤÐ²Ð¸Ñı
ĠÑĩÐ°ÑģÑĤ ÑıÑħ
Ð¸ÑģÐº ÑĥÑģÑģÑĤÐ²ÐµÐ½Ð½ÑĭÐ¹
Ð¸ÑģÐº ÑĢÐ¸Ð¼Ð¸Ð½
ĠÐ½Ð°ÑĨÐ¸Ð¾Ð½ Ð°Ð»ÑĮÐ½ÑĭÐ¼Ð¸
ĠÑĢÐµÐ³ÑĥÐ» Ð¸ÑĢÐ¾Ð²Ð°Ð½Ð¸Ð¸
ĠÐ¿Ð¾Ð»ÑĥÑĩÐ°ÑĤÐµÐ»Ñı Ð¼Ð¸
ÐµÐ´Ð¸ÑĨÐ¸ Ð½Ñĭ
ĠÑĩÐµÐ»Ð¾Ð² ÐµÐºÐ¾Ð¼
Ð£ ÐĶ
Ġ200 1
ĠÐ¸Ð½Ð¾ÑģÑĤÑĢÐ°Ð½ Ð½Ð¾Ð¹
Ġ14 86
ĠÑĤÑĢÐ°Ð½ÑģÐ¿Ð¾ÑĢÑĤ Ð½Ð¾
ĠÐ½ÐµÐ´ Ð¸ÑģÐºÑĢÐ¸Ð¼Ð¸Ð½
ĠÑģÐ¿Ð¾ÑģÐ¾Ð± Ð°Ñħ
ĠÐ°Ð½Ð°Ð» Ð¸ÑĤ
ÑıÑī ÐµÐ³Ð¾
Ð½Ðµ ÑĥÑĢÐµÐ³ÑĥÐ»
ĠÐ¸Ð½ÑĤÐµÐ»Ð»ÐµÐºÑĤÑĥ Ð°Ð»ÑĮÐ½Ð¾Ð³Ð¾
ĠÐ²ÐµÐ´ ÐµÑĤ
ÑįÐºÐ¾Ð½Ð¾Ð¼ ÑĢÐ°Ð·Ð²Ð¸ÑĤÐ¸Ñı
ĠÐ¿ÑĢÐµÐ² ÑĭÑģ
ĠÐ¿ÑĢÐ°Ð²Ð¾ Ð¾ÑħÑĢÐ°Ð½
ÑĢÐ°Ð»ÑĮ Ð½Ð¾Ð¹
ĠÑģÑĥÐ´ Ð¾Ð²
ĠÐ¾ÑĤÐºÑĢÑĭÑĤ ÑĭÐ¼
Ġ17 7
ĠÐ´Ð² Ð°Ð´
ĠÐ¿ÑĢÐµÐ´ÑģÑĤÐ°Ð²Ð»ÐµÐ½ Ð½ÑĭÐµ
ĠÐ³Ð» ÑĥÐ±
ĠÐ¿Ð¾ÑĤ ÐµÑĢ
ĠÐµÐ´Ð¸ Ð½Ð¾Ð»
ĠÐ´ÐµÐ¹ÑģÑĤÐ² ÑĥÑİÑīÐ¸Ñħ
Ð°Ð¿Ð¸ÑĤ Ð°Ð»ÑĮÐ½ÑĭÐµ
ĠÐ¼Ð¸Ðº ÑĢÐ¾Ñģ
ĠÑĤÐ¾ÑĢÐ³ Ð¾Ð²Ð¾Ð¹
ĠÐ¿ÑĢÐ¸Ð·Ð½ Ð°ÑĤÑĮ
ĠÐļÐ¾Ð¼ Ð¿
ĠÐºÑĢÐ¸ÑĤÐµÑĢ Ð¸Ð¸
ĠÐ±ÑĥÐ´ ÑĥÑī
ĠÐ¾Ð±ÑıÐ·Ð°ÑĤÐµÐ»ÑĮÑģÑĤÐ² Ð°Ð¼
ĠÑįÐ½ÐµÑĢÐ³ÐµÑĤ Ð¸ÑĩÐµÑģÐºÐ¸Ñħ
ĠÐ¸ÑģÐºÑĥÑģÑģÑĤÐ²ÐµÐ½ Ð½ÑĭÐ¼
ĠÐ¿ÑĢÐµÐ´Ð»Ð¾Ð¶ ÐµÐ½Ð¸Ñİ
ĠÐ¿ÑĢÐ¾Ð²Ð¾Ð´ Ð¸ÑĤÑģÑı
ĠÐ¿Ð¾Ð¸ÑģÐº Ð°
ĠÐ°Ð²ÑĤÐ¾Ð¼Ð°ÑĤÐ¸Ð· Ð¸ÑĢÐ¾Ð²Ð°Ð½Ð½Ð¾Ð¹
ĠÐ²Ð¾ÑģÑģÑĤ Ð°Ð½Ð¾Ð²
ĠÐ·Ð°Ð½ Ð¸Ð¼
ĠÐŃ Ðº
ĠÐŃ Ðļ
ĠÐ¼ÐµÐ¶ Ð²ÐµÐ´Ð¾Ð¼
ĠÐ¿ÑĢÐ¾Ð³Ð½Ð¾Ð· Ð°
ĠÐ¿ÑĢÐ¾Ð³Ð½Ð¾Ð· Ð¸ÑĢÐ¾Ð²Ð°Ð½Ð¸Ñı
ĠÐ°ÑģÑģ Ð¾ÑĨÐ¸
ĠÑĤÑĢÐ°Ð½Ñģ ÑĦÐµÑĢ
ĠÐ¿Ð¾Ð½ ÑıÑĤ
ĠÐ¸Ð½Ð¸ÑĨÐ¸Ð°ÑĤÐ¸Ð² Ð½Ð¾Ðµ
ĠÐºÐ°Ð»ÐµÐ½Ð´ Ð°ÑĢ
ĠÑģÐ¾ÑģÑĤÐ°Ð²Ð»Ñı ÑİÑīÐ¸Ñħ
ĠÐ°Ð»Ð³Ð¾ÑĢÐ¸ÑĤÐ¼ Ñĭ
ĠÐ±Ð¸Ð·Ð½ÐµÑģ Ð°
ĠÐ²Ð¾Ð·Ð½Ð¸Ðº ÑĪÐ¸Ðµ
ĠÐ¾ÑĦÐ¸ÑĨÐ¸ Ð°Ð»ÑĮÐ½Ð¾Ð³Ð¾
ĠÑĤÑĢÐµÑĤÑĮ Ð¸Ñħ
ĠÐ³Ð»Ð°Ð² Ð½Ð¾Ð¼
ĠÐ·Ð°ÐºÐ°Ð·ÑĩÐ¸Ðº Ð¾Ð¼
te lli
ĠÑĢÐµÐ³ÑĥÐ»Ð¸ÑĢÑĥÑİÑī Ð¸Ð¹
ĠÐ±Ð°Ð½ ÐºÐ°
Ð¾Ð·Ð½Ð°Ð² Ð°Ð½Ð¸Ðµ
ĠÐ´ÐµÐ½ÐµÐ¶ Ð½ÑĭÐ¼
ĠÐ±ÑĥÑħÐ³Ð°Ð»ÑĤÐµÑĢ Ðµ
ĠÐ²ÑĭÐ· Ð¾Ð²Ñĭ
ĠÐ¿ÑĢÐ¸Ð²ÐµÐ´ ÐµÐ½Ñĭ
ĠÐ¾ÑĩÐµÑĢÐµÐ´ Ð½Ð¾Ð¹
ĠÐ½ÐµÐ¸ÑģÐ¿Ð¾Ð»Ð½ ÐµÐ½Ð¸Ñı
Ð³Ð¾ÑĤ Ð°Ð²Ð»
ĠÐ¾Ð¿ÐµÑĢÐ°ÑĤÐ¾ ÑĢÐ°Ð¼Ð¸
ĠÑĢÐ°ÑģÐ¿Ð¾ÑĢÑıÐ¶ ÐµÐ½Ð¸ÐµÐ¼
ĠÑģÐ¾Ð´ÐµÑĢÐ¶Ð°ÑīÐ¸Ñħ ÑģÑı
ĠÐ¿ÑĢÐµÐ´Ð¿Ð¾Ð»Ð°Ð³ Ð°ÐµÑĤ
ĠÑĢÐµÐ¿ ÑĥÑĤ
ĠÑģÐ°Ð½ ÐºÑĨÐ¸Ð¹
ĠÐ·Ð°Ð¿ÑĢÐµÑī ÐµÐ½Ð¾
ĠÐ¿ÑĢÐ¾ÑĦÐ¸Ð»Ð°ÐºÑĤ Ð¸ÑĩÐµÑģÐºÐ¸Ñħ
ĠÑĥÐ½Ð¸Ð²ÐµÑĢÑģ Ð¸ÑĤÐµÑĤ
ĠÐ½ÐµÐ²Ð¾Ð·Ð¼Ð¾Ð¶ Ð½Ð¾ÑģÑĤÐ¸
ĠÐ´Ð¸Ð°Ð³Ð½Ð¾ÑģÑĤ Ð¸ÐºÐ¸
ĠÐºÐ¾Ð¼Ð¸ÑģÑģ Ð¸ÐµÐ¹
ÐºÐ¾Ð¼Ð¿ ÑĮÑİÑĤ
Ġne twork
ĠÑĦÐ¾ÑĤÐ¾Ð³ÑĢÐ°ÑĦ Ð¸ÑĩÐµÑģÐºÐ¸Ñħ
ÑħÐ¸Ð¼ Ð¸Ð¸
ĠÑĢÐ°ÑģÐ¿Ð¾Ð·Ð½Ð°Ð² Ð°Ð½Ð¸Ñı
ĠÐ¾ÑĩÐ¸ÑģÑĤ ÐºÐ¸
ĠÐ¿ÐµÑĢÐµÑĢÐ°Ð±Ð¾ÑĤ ÐºÐ¸
ĠÑĥÑīÐµÑĢÐ± Ð°
ĠÑģÑĤÐ¾ÑĢ Ð¾Ð½Ñĭ
ĠÐ¾Ð¿Ð°Ñģ Ð½ÑĭÑħ
ĠÐ¾ÑĤÐ²ÐµÑĩ Ð°ÑİÑīÐ¸Ñħ
ĠÐŀÐ±Ñī Ð¸Ðµ
ĠÐ²ÑģÑĤÑĥÐ¿Ð¸Ð² ÑĪÐµÐ³Ð¾
ĠÑĤÐµÐ¼Ð°ÑĤ Ð¸ÐºÐµ
ĠÐ²Ð°Ð¶Ð½ÐµÐ¹ ÑĪÐ¸Ñħ
ĠG a
ĠÐ³ÐµÑĤÐµÑĢ Ð¾ÑģÑĤÑĢÑĥÐºÑĤÑĥÑĢ
ĠÐ°Ð½Ð°Ð»Ð¾Ð³Ð¸Ñĩ Ð½ÑĭÐ¼Ð¸
gen ce
ĠÐ²ÑĭÐ¿Ð»Ð°ÑĤ Ñĭ
ĠÐ½Ð°Ð²Ñĭ ÐºÐ¾Ð²
ĠÑĢÐµÐ» Ð¸Ð³Ð¸
ĠÑĥÐ´ÐµÐ»ÑĮ Ð½ÑĭÐ¹
ĠÑĦÐ°Ð¼ Ð¸Ð»Ð¸Ñİ
ĠÑģÑĤÐµÐº Ð¾Ð»
ĠÐļÐ¾Ð´ ÐµÐºÑģ
ĠÐ¼Ð¸Ð½ ÐµÑĢ
Ð±ÑĢ ÑĮ
ĠÐ¸Ð¼ÑĥÑīÐµ ÑģÑĤÐ²Ð°
ĠÑħÐ°ÑĢÐ°ÐºÑĤÐµÑĢÐ¸Ð·Ñĥ ÐµÑĤÑģÑı
ĠÐ¿Ð¸ÑģÑĮÐ¼ÐµÐ½ Ð½Ð¾Ð¹
ĠÐ¿ÑĢÐ¾Ð¸Ñģ ÑħÐ¾Ð´
ĠÑģÑĥ Ð²ÐµÑĢ
ĠÐ¿ÑĢÐ¾Ðº ÑĥÑĢ
ĠÐĴÑģ ÐµÐ¼Ð¸ÑĢ
ĠÐ¿Ð°ÑĢÐ°Ð¼ÐµÑĤÑĢ Ñĭ
ÑģÐ¾ÑħÑĢÐ°Ð½ ÐµÐ½Ð¸Ðµ
ĠÐ¿ÐµÐ´ Ð°Ð³Ð¾Ð³
ÑĢÐ°Ð½ÑģÐ¿ Ð¾ÑĢÑĤ
ĠÐ·Ð°ÐµÐ¼ Ð½ÑĭÑħ
Ð²ÑĭÑĩ Ð°Ð¹Ð½ÑĭÑħ
ĠÐ¿ÑĢÐ¸Ñħ Ð¾Ð´
ĠÐ¾Ð±ÑĢÐ°ÑĤÐ¸ÑĤÑĮ ÑģÑı
ĠÐ±ÑĥÐ¼Ð°Ð¶ Ð½Ð¾Ð¼
ĠÑĩÑĢÐµÐ· Ð²ÑĭÑĩÐ°Ð¹Ð½ÑĭÑħ
telli gence
ĠÑĢÐµÐ»Ð¸Ð³Ð¸ Ð¾Ð·
5 11
T U
g e
t y
Ġ F
Ġ data
Ð¾ Ð½Ð¾Ð¹
Ðµ ÑĨÐ¸
Ð½ ÐµÐ½Ð½ÑĭÑħ
Ð½ ÑĥÑĤ
Ð½ ÐµÐ³Ð¾Ð´
Ð½ Ð°Ð¿ÑĢÐ¸Ð¼ÐµÑĢ
ÑĤ Ð½ÑĭÑħ
ÑĢ ÐµÑģÑģ
Ñĭ ÑģÐº
ÐµÐ½ ÐµÑĢ
Ð» Ð¸Ð±Ð¾
ĠÐ¿ ÑıÑĤÑĮ
Ð² ÑĤ
Ð² Ð¾Ð¹
Ð¾Ð² ÑĥÑİ
Ð°Ð½ Ð°
Ñĩ ÐµÐ»Ð¾Ð²
ÐµÑĢ ÐµÐ´Ð¸
ĠÐ² Ð¾Ð»Ð½
Ð¾ÑĢ ÑģÐºÐ¾Ð¹
Ð¿ Ð¾Ñģ
Ð¿ Ð¾ÑĢÑĤ
ĠÐ½ ÑĢÐ°Ð²
Ð¾ÑĤ ÑıÐ¶ÐµÐ½
Ð´ Ð°
Ð´ ÐµÐºÑģ
ĠÐ´ ÐµÐ¼
Ð¾Ð½ Ð½Ð¾Ð³Ð¾
ĠÑĢ Ð¾Ð·Ð½
Ð¾Ð¼ ÐµÐ»Ð¸Ð¾ÑĢ
ĠÑĤ Ð°Ð»Ð°Ð½ÑĤ
ĠÐ¾Ð± ÑħÐ¾Ð´
ĠÐ¾Ð± Ð½Ð¾Ð²
ĠÐ¾Ð± ÑģÑĤÐ¾Ñı
Ð°ÑĤ ÑĩÐµÐ¹
ĠÑĥ Ð±
ĠÑĥ Ð¿ÑĢ
ĠÐ¼ Ð¾ÑģÑĤ
ĠÐ¼ Ð¸Ð»
ĠÐ¼ ÐµÐ´Ð¸ÑĨÐ¸Ð½Ñĭ
ĠÐ¼ Ð°ÑĤÑĩÐµÐ¹
Ð¸ÑĤ Ñĭ
Ð± ÐµÐ·
Ð°Ð» Ñĭ
ĠÐ¾ÑĤ Ð¼ÐµÐ½
ĠÐ¾ÑĤ Ð»Ð¸Ñĩ
ĠÐł ÐµÐ³
ĠÑĦ Ð¸Ð»ÑĮ
ĠÑĦ Ð¸ÐºÑģ
Ñį Ð»ÐµÐºÑĤÑĢ
ĠÐ³ ÑĥÐ¼Ð°Ð½
Ð½Ð¾ÑģÑĤ Ð¾ÑĢÐ¾Ð½
ĠÐ¿ÑĢÐµÐ´ ÐµÐ»ÑĮ
ĠÐ± ÐµÑĢÐµÐ³
Ð¾Ð± Ñī
ÑĥÐ± ÑĬÐµÐºÑĤ
ĠÑĤÐµÑħÐ½Ð¾Ð»Ð¾Ð³ Ð¸ÑĩÐµÑģÐºÐ¸Ð¼
ĠÐ½Ðµ ÑģÑĤ
ĠÐ½Ðµ Ð¾Ð´
ĠÐ½Ðµ ÑģÐ¾Ð²ÐµÑĢÑĪÐµÐ½
Ð°Ð´ ÐµÐ¼
Ð¾Ð»ÑĮ Ð½Ð¾Ð¹
ĠÐ¿Ð¾Ð´ Ð²Ð¸Ð¶
ĠÐ¿Ð¾Ð´ Ð³Ð¾ÑĤÐ°Ð²Ð»
Ð°Ñĩ Ñĥ
ĠÐ²Ñĭ ÑĢÐ°Ð±Ð¾ÑĤ
Ð¾Ñĩ Ð½ÑĭÐµ
ĠÑģÐ¸ÑģÑĤÐµÐ¼ Ð¾Ð¹
ĠÑĤÐ°Ðº Ð¾Ð¼
ĠÐ¸Ð½ÑĦÐ¾ÑĢÐ¼Ð°ÑĨÐ¸Ð¾Ð½ Ð½Ð¾Ðµ
ĠÐ¿Ð¾Ð»ÑĥÑĩ Ð¸Ð²ÑĪÐ¸Ñħ
ÐµÑģ Ð¾Ð¾Ð±ÑĢÐ°Ð·
ÐµÑģ Ð¾Ð¼ÐµÐ»Ð¸Ð¾ÑĢ
ĠÑģÐ¾Ð¾ÑĤÐ²ÐµÑĤÑģÑĤÐ² ÑĥÐµÑĤ
ĠÐ¿ÑĢÐ°Ð² Ð¾Ð²Ð¾Ð¼Ñĥ
ĠÐºÐ¾ÑĤÐ¾ÑĢ ÑĭÐ¼Ð¸
Ð¸ÑĢÐ¾Ð²Ð°Ð½ Ð¸ÐµÐ¼
ĠÐ° Ñį
Ġ3 31
Ð¡ ÑĤÑĢÐ¾Ð¸ÑĤÐµÐ»ÑĮÑģÑĤÐ²Ð¾
ĠÐºÐ¾Ð¼Ð¿ ÐµÐ½Ñģ
ĠÐ¡ Ð¾Ð´
ĠÐ¡ ÑĢÐ¾Ðº
Ðŀ ÐŁ
Ð¾Ð²Ñĭ Ð²
ĠÐľ ÐµÐ¶Ð´ÑĥÐ½Ð°ÑĢÐ¾Ð´
ÐŁ ÑĢÐ¾
ĠÑĤÑĢÐµÐ± Ð¾Ð²Ð°Ð½Ð¸Ñİ
ĠÑĤÑĢÐµÐ± ÑĥÐµÑĤ
12 5
Ġ5 7
ĠÑĥÑģÑĤÐ°Ð½Ð¾Ð²Ð»ÐµÐ½ Ð½ÑĭÐ¹
ĠÐ¾ÑģÐ½Ð¾Ð² Ð½ÑĭÐ¼
ĠÐ¾Ð¿ÑĢÐµÐ´ÐµÐ» ÐµÐ½Ð½Ð¾Ð¹
ÑĭÐ² Ð°ÑİÑīÐ¸Ñħ
ĠÐ²ÐºÐ»ÑİÑĩ ÐµÐ½Ñĭ
ĠÐ½ÐµÐ¾Ð±ÑħÐ¾Ð´Ð¸Ð¼ ÑĭÐ¼
ÐĺÐ½ Ð²ÐµÑģÑĤ
ĠÐļÐ°Ð»Ð¸Ð½Ð¸Ð½Ð³ÑĢÐ°Ð´ Ðµ
Ġ12 88
ĠÐ¾Ðº ÑĢÑĥÐ³
ĠÐºÐ¾Ð½ÑĤÑĢÐ¾Ð» Ðµ
ĠÐ³ÑĢÐ°Ð¶Ð´Ð°Ð½ Ð°Ð¼
ĠÐ²ÑĭÑģÐ¾Ðº Ð¾Ð³Ð¾
ĠÐ²ÑĭÑģÐ¾Ðº Ð¾Ð¿ÑĢÐ¾Ð¸Ð·Ð²Ð¾Ð´
ĠÐ´Ð°Ð½ Ð½Ð¾Ð¼Ñĥ
ĠÑģÐ¾Ð¾ÑĤÐ²ÐµÑĤÑģÑĤÐ²ÑĥÑİÑī ÐµÐµ
ĠÐ¾Ð³ÑĢÐ°Ð½Ð¸Ñĩ ÐµÐ½Ð½Ð¾Ð¹
ĠÑĥÑĤÐ²ÐµÑĢÐ¶Ð´ ÐµÐ½Ð½ÑĭÐ¼
Ðľ ÐŃÐļ
ĠÐ¾Ð±ÑĬÐµÐ¼ Ñĭ
Ð°ÑĤÐµÑĢ Ð¸
Ð°Ð½Ð´ Ð°ÑĢÑĤ
ĠÐ½Ð°Ð¿ÑĢÐ°Ð²Ð»ÐµÐ½ Ð°
ĠÐ´ÑĢÑĥÐ³ Ð¸Ð¼
ĠÐ¾ÑģÑĥÑīÐµÑģÑĤÐ²Ð»ÑıÑİÑī Ð¸Ðµ
Ðļ ÐĲ
ĠÑĢÐµÑģÑĥÑĢÑģ Ñĭ
ĠÐĺ Ð·
ĠÐ¿Ð»Ð°Ð½ Ð¸ÑĢÐ¾Ð²Ð°Ð½Ð¸Ðµ
ĠÑĢÐµÐ³Ð¸Ð¾Ð½ Ð°Ð»ÑĮÐ½ÑĭÐ¼
ĠÐ¾Ð±ÑīÐµ ÑģÑĤÐ²ÐµÐ½Ð½Ð¾Ð³Ð¾
ĠÐ¾Ð±ÑīÐµ ÑģÑĤÐ²ÐµÐ½Ð½Ð¾Ð¹
ĠÐ¾Ð´ Ð½Ð¾ÑģÑĤÐ¾ÑĢÐ¾Ð½
ĠÐ½Ð°Ñĥ Ðº
ĠÐ¾Ð±ÑĢÐ°Ð·Ð¾Ð²Ð°ÑĤÐµÐ»ÑĮ Ð½ÑĭÐ¼
ĠÑģÐ¿Ð¾ÑģÐ¾Ð± Ð½Ð¾ÑģÑĤÐ¸
Ð½ÐµÑĢÐ³ ÐµÑĤ
ÑĤÑĮ ÑģÑı
ĠÐºÑĢÐ¸ÑĤ Ð¸ÑĩÐµÑģÐºÐ¾Ð¹
ĠÐ¾Ð¿ÑĤ Ð¸ÐºÐ¾
ĠÐŀÐ± ÑıÐ·Ð°Ð½
ĠÐ¿Ð¾Ð»Ð¸ÑĤ Ð¸ÐºÐ°
ĠÐ¿Ð¾ÑĤÑĢÐµÐ± Ð»ÐµÐ½Ð¸Ñı
ĠÑģÐ½ Ð¸Ð¶ÐµÐ½Ð¸Ñı
ĠÐ½Ð°Ð± Ð¾ÑĢ
ĠÐ½Ð°Ð± Ð»ÑİÐ´
ĠÑĥÐ²ÐµÐ»Ð¸Ñĩ Ð¸ÑĤÑĮ
ĠÐ²Ð½ÐµÑģ ÐµÐ½Ð¸Ðµ
ĠÐ´Ð°ÑĤ Ðµ
ĠÐµÐ´Ð¸ Ð½Ð¾Ð³Ð¾
Ġ27 4
ĠÑįÑĤÐ°Ð¿ Ð°Ñħ
ĠÐ¾Ð±Ð»Ð°ÑģÑĤ ÐµÐ¹
ĠÐ¸Ð½ÑĤÐµÑĢ Ð¿ÑĢÐµÑĤ
ÐºÐ¾Ð¼ Ð¼ÑĥÐ½Ð¸ÐºÐ°ÑĨÐ¸Ð¾Ð½
ĠÐ¿Ð¾Ð´ÑĤÐ²ÐµÑĢÐ¶Ð´ ÐµÐ½Ð¸Ñı
ĠÐ¿ÑĢÐ¾Ð²Ð°Ð¹Ð´ ÐµÑĢÐ¾Ð²
ĠÐºÐ°Ð¿Ð¸ÑĤ Ð°Ð»ÑĮÐ½ÑĭÐµ
ĠÐ¿ÑĢÐµÐ¿ Ð¾Ð´Ð°Ð²
ĠÐµÐ¶ÐµÐ³Ð¾Ð´ Ð½Ð¾Ð¹
ÑģÑĤÐ²ÑĥÑİÑī Ð¸Ðµ
ĠÐ¾Ñĩ ÐµÑĢÐµÐ´Ð¸
ĠÐ¦ÐµÐ½ÑĤ ÑĢÐ°
ĠÐ¿ÑĢÐ¸Ð²Ð»ÐµÑĩ ÐµÐ½Ð¸ÐµÐ¼
ĠÐºÐ»ÑİÑĩ ÐµÐ²Ð¾Ð¹
ĠÐºÐ»ÑİÑĩ ÐµÐ²Ð¾Ð³Ð¾
ĠÐ¿Ð¾Ð»Ð¾Ð¶ÐµÐ½Ð¸Ñı Ð¼Ð¸
ĠÐ²ÑĭÐ´ÐµÐ» ÐµÐ½Ð½ÑĭÑħ
ĠÐ¿ÑĢÐ¸Ð»Ð¾Ð¶ ÐµÐ½Ð¸Ñİ
ĠÐºÐ°Ð¶Ð´ Ð¾Ð¹
ĠÑģÐ¾Ð¾Ð±Ñī ÐµÐ½Ð¸Ñı
ĠÐ¿ÑĢÐ°Ð²Ð¸Ð» Ð°Ð¼Ð¸
ĠÐ¼ÐµÐ¶ Ð±ÑİÐ´Ð¶ÐµÑĤ
ĠÐŀÑģÐ½Ð¾Ð² Ð½ÑĭÐµ
ĠÐºÐ» Ð¸Ð½
ĠÐ¿ÑĢÐµÐ´Ð» Ð°Ð³
ĠÐ¿ÑĢÐ¸Ñģ ÑĥÐ¶Ð´
ĠÐ·Ð°ÑĢ ÐµÐ³Ð¸ÑģÑĤÑĢ
ĠÑĨÐµÐ½ÑĤÑĢ Ð¾Ð¼
ĠÐ¾Ð½ Ð¸
ĠÑĤÐ¾Ñĩ ÐºÐ¸
ĠÐ¼Ð¾Ð´ÐµÑĢÐ½ Ð¸Ð·
ÑĢÐ°Ð» Ð¸Ð·Ð¾Ð²Ð°Ð½
ĠÐ¿ÑĢÐ¸ÑĢÐ¾Ð´ Ð½Ð¾Ð³Ð¾
ĠÐ¿ÑĢÐ¸ÑĢÐ¾Ð´ Ð¾Ð¿
Ð¾Ð±ÑĢÐ°Ð¶ ÐµÐ½Ð¸Ñı
ĠÐ³ÐµÐ½ ÐµÑĢÐ°ÑĨÐ¸Ð¸
ar tificial
ĠÐ¿Ð»Ð°ÑĤ Ñĭ
ĠI n
ĠÑĥÑĤ Ð¸Ð»Ð¸Ð·Ð°ÑĨÐ¸Ð¸
ĠÐºÐ°Ñģ Ð°ÑİÑīÐµÐ¼Ñĥ
en t
Ð¿ÑĢÐµÐ´ Ð¾ÑģÑĤÐ°Ð²
ĠÐ·Ð°Ð¿ÑĢÐ°ÑĪ Ð¸Ð²Ð°ÐµÑĤ
ĠÐŁÐ¾Ð»Ð¾Ð¶ ÐµÐ½Ð¸Ðµ
ĠÐ·Ð°ÐºÑĥÐ¿ Ð¾Ðº
ĠÐ£Ð¿ ÑĢÐ°Ð²Ð»ÐµÐ½Ð¸Ñı
ĠÑģÑĤÐµÐ¿ ÐµÐ½ÑĮ
ĠÐ¸Ð·Ð¾Ð±ÑĢÐ°Ð¶ ÐµÐ½Ð¸Ñı
ĠÐ¸Ð¼Ð¿Ð¾ÑĢÑĤ Ð½Ð¾Ð³Ð¾
ĠÐ¾Ð±ÑģÐ»ÑĥÐ¶ Ð¸Ð²Ð°Ð½Ð¸Ñı
ĠÐ¿ÑĢÐ¾ÑĤÐ¾ÐºÐ¾Ð» Ð°
ĠÑĥÐ´Ð°Ð» Ð¸ÑĤÑĮ
ĠÑĤÐµÑĢÑĢÐ¾ÑĢ Ð¸Ð·Ð¼Ð°
ĠÐ¿Ð¾ÑģÐ»ÐµÐ´ÑģÑĤÐ² Ð¸Ñı
ĠÐ¾Ð±ÑĬÐµÐ´Ð¸Ð½ ÐµÐ½Ð¸Ñı
ĠÐĿÐ°ÑģÑĤÐ¾ÑıÑī Ð°Ñı
Ð¿ÑĢÐ¾Ð¸Ð·Ð²Ð¾Ð´ ÑģÑĤÐ²Ð¾
ĠÐºÐ¾Ð½ÑĦÐ¸Ð´ÐµÐ½ÑĨÐ¸ Ð°Ð»ÑĮÐ½Ð¾Ð¹
ĠÐºÐ¾Ð½ÑĦÐ¸Ð´ÐµÐ½ÑĨÐ¸ Ð°Ð»ÑĮÐ½Ð¾ÑģÑĤÑĮ
ĠÐ½Ð¾Ð²Ð¾ÑģÑĤ Ð½Ð¾Ð³Ð¾
ĠÐ½Ð¾Ð²Ð¾ÑģÑĤ Ð½Ð¾Ð¹
ĠÐºÑĢÑĥÐ¿ Ð½ÑĭÑħ
ÑİÑīÐ¸Ð¼ ÑģÑı
ĠÐºÐ¾Ð¼Ð¿ÑĮÑİÑĤ ÐµÑĢÐ½ÑĭÑħ
ĠÑģÐµÐ¼ ÐµÐ¹
ĠÐºÐ°Ð½Ð°Ð» Ð¾Ð²
ĠÐ½Ð°ÑĩÐ¸ÑģÐ» ÐµÐ½Ð½Ð¾Ð¹
ĠÑģÑĢÐµÐ´Ð½ÐµÐ¼ ÐµÑģÑıÑĩ
ĠÐ½ÐµÐ´Ð¾ÑģÑĤÐ¾Ð²ÐµÑĢ Ð½Ð¾ÑģÑĤÐ¸
ĠÑĢÐ°ÐºÐµÑĤ Ð½Ð¾
ĠÐŁÑĢÐ¾ ÑĨÐµÑģÑģ
ĠÐ¿Ð¾ÑģÑĤÐ¾ÑıÐ½ Ð½Ð¾
ĠÐ°Ð´Ð¼Ð¸Ð½Ð¸ÑģÑĤÑĢ Ð°ÑĤÐ¸Ð²
ĠÐ°Ð³ÑĢÐµÐ³ Ð°ÑĤÐ¾ÑĢÐ°
ĠÐķÐ²ÑĢÐ¾Ð¿ ÐµÐ¹
ĠÐ¿ÑĢÑıÐ¼ Ð¾
ĠÑĦÐ¾ÑĤÐ¾Ð¿ÑĢÐ¸ÐµÐ¼ Ð½Ð¸ÐºÐ¾Ð²
ĠÐ¾Ð· Ð½Ð°Ðº
ĠÐĳÐ°Ð»ÑĤÐ¸Ð¹ ÑģÐº
-- --
ĠÑĢÐ° ÑģÐºÑĢÑĭÑĤÐ¸Ñı
ĠÐ¿ÑĢÐ¾ÑĤÑıÐ¶ÐµÐ½ Ð½Ð¾ÑģÑĤÑĮÑİ
ĠÑĦÐ¾ÑĤÐ¾Ð³ÑĢÐ°ÑĦ Ð¸Ð¸
Ð¼ÐµÑĤÐ¾Ð´ Ð¸ÑĩÐµÑģÐºÐ¾Ðµ
ĠÐ±ÑĭÐ» Ð¾
ĠÐ½Ð°Ð·ÐµÐ¼ Ð½Ð¾Ð³Ð¾
ĠÑĥÑĤÑĢÐ°ÑĤÐ¸Ð² ÑĪÐ¸Ð¼
ĠÑĥÑĤÑĢÐ°ÑĤÐ¸Ð² ÑĪÐ¸Ð¼Ð¸
ĠÐ°ÐºÑĤÑĥÐ°Ð»Ð¸Ð· Ð°ÑĨÐ¸Ñİ
ĠÑĤÑĥÑĢÐ¸ÑģÑĤ ÑģÐºÐ¾
ĠÑĢÐ°Ð·Ð²ÐµÐ´ ÐºÐ°Ð¼
ĠÑģÐµÑĢÐ¸Ð¹ Ð½Ð¾Ð³Ð¾
ÑģÐ¿ÐµÑĢÑĤ Ð½ÑĭÐ¹
ĠÑģÐ¾Ñİ Ð·
ĠÑĥÐ¿Ð¾Ð»Ð½Ð¾Ð¼Ð¾Ñĩ ÐµÐ½Ð½ÑĭÑħ
ĠÑħÐ°ÑĢÐ°ÐºÑĤÐµÑĢÐ¸Ð· ÑĥÑİÑī
ĠÐ²Ð¾Ð·Ð½Ð¸ÐºÐ½Ð¾Ð² ÐµÐ½Ð¸Ñı
ĠÐ·Ð°ÑīÐ¸Ñī ÐµÐ½Ð½Ð¾ÑģÑĤÐ¸
ĠÐ°ÑĤÐ¾Ð¼ Ð½Ð¾Ð¹
ĠÑģÐ²Ð¾Ð¹ÑģÑĤÐ² Ð°Ð¼Ð¸
ĠÐ¿Ð»Ð°ÑĤÐµÐ¶ ÐµÐ¹
ÑĢÐµÐºÐ¾Ð½ ÑģÑĤÑĢÑĥÐºÑĨÐ¸Ñı
Ð¾ÑģÐ½Ð°Ð± Ð¶ÐµÐ½Ð¸Ñı
ĠÑģÐ¿ÐµÑĨ ÑħÐ¸Ð¼Ð¸Ð¸
ĠÑģÐµÐº ÑĢÐµÑĤ
ĠÐ¿ÑĢÐµÐ´ÑĬ ÑıÐ²Ð»Ñı
ĠÐ·Ð°Ð´ÐµÐ» Ð°
ÑĢÐ¾Ð» ÐµÑģÐ¾Ð¼ÐµÐ»Ð¸Ð¾ÑĢ
ĠÐ²Ð»Ð¾Ð¶ ÐµÐ½Ð¸Ð¹
ĠÐ½Ð°ÑĢÐº Ð¾ÑĤ
ĠÐ¸Ð½ÑģÑĤÐ¸ÑĤÑĥ ÑĤÐ¾Ð²
ĠÐ´Ð¾ÑģÑĤÐ¾Ð¸Ð½ ÑģÑĤÐ²Ð¾
ĠÐ½Ð°ÐºÐ°Ñĩ ÐºÐ¾Ð¹
ÑĥÐ¿ÐµÑĢ ÐºÐ¾Ð¼Ð¿ÑĮÑİÑĤ
ĠÐŃÐļ Ðĳ
ĠÑģÑĥÐ²ÐµÑĢ ÐµÐ½
ÑĩÐµÐ»Ð¾Ð² ÐµÐº
Ð¾ÑĤÑıÐ¶ÐµÐ½ Ð½Ð¾ÑģÑĤÑĮ
ĠÑĤÐ°Ð»Ð°Ð½ÑĤ Ð»Ð¸Ð²
ĠÐ¾Ð±ÑģÑĤÐ¾Ñı ÑĤÐµÐ»ÑĮ
ÐĺÐ½Ð²ÐµÑģÑĤ Ð¸ÑĨÐ¸Ð¾Ð½
ĠÐºÐ°ÑģÐ°ÑİÑīÐµÐ¼Ñĥ ÑģÑı
ĠÑģÑĢÐµÐ´Ð½ÐµÐ¼ÐµÑģÑıÑĩ Ð½Ð¾Ð¹
ĠÐ¾Ð·Ð½Ð°Ðº Ð¾Ð¼
" ).
- ,
1 20
S O
Ġ ÐµÐ²
Ġ ÐµÐ¼Ñĥ
Ð¸ ÑĢÐ°Ð¶
Ð½ Ð¾ÑĤ
Ð½ ÐµÐ²
Ñģ Ð¾Ð³Ð»Ð°ÑĪÐµÐ½Ð¸Ñı
Ñĥ Ð·
ÐµÐ½ Ðµ
ÐµÐ½ Ðº
ĠÐ¿ Ð¸Ñī
ĠÐ¿ ÑģÐ¸Ñħ
Ðº Ð»Ð°Ð´
Ðº Ð°Ð¿Ð¸ÑĤÐ°Ð»ÑĮÐ½ÑĭÐµ
ĠÐ¸ Ð½Ð¾Ð¼Ñĥ
Ð°Ð½ ÐºÑĤ
ĠÑģ Ð¾ÑģÑĤ
ĠÑģ ÑĥÐ¿ÐµÑĢÐºÐ¾Ð¼Ð¿ÑĮÑİÑĤ
ÐµÑĢ ÑĪÐµÐ½Ð¸Ðµ
ĠÐ² ÑģÐºÑĢÑĭÑĤÐ¸Ñı
ÐµÐ´ Ð¸ÐºÐ¾
ÐµÐ´ ÐµÑıÑĤÐµÐ»ÑĮ
Ð¾ÑĢ Ð±
Ð¾ÑĢ Ð½ÑĭÐµ
ĠÐ¿ÑĢ Ð¸Ð·
Ð¿ Ð¾Ð»ÑĥÑĩ
ĠÐ½ Ð°Ð¿ÑĢÐ¸Ð¼ÐµÑĢ
Ð´ Ð¾
ĠÐ´ Ð¸Ð·
ĠÐ´ ÐµÐ»Ð¾Ð²
Ð¾Ð´ Ð¾Ð»
ĠÐº ÑĥÑĢÑģ
ĠÑĤ Ð¸ÑĢÐ°Ð¶
ĠÐ¾Ð± ÑģÑĤÐ°Ð½Ð¾Ð²
ĠÐ¸Ð½ Ð°Ñı
ĠÐ¼ Ð¸Ð³
ĠÐ¼ ÐµÐ½ÑĮ
ĠÐ¼ ÐµÐ´Ð¸ÐºÐ¾
ĠÐ· Ð¾Ð½
Ð± Ð¾Ð»ÑĮ
ĠÐ¾ÑĤ Ð·
ĠÐ¾ÑĤ ÑĢÐ°Ð±Ð¾ÑĤÐºÐ¸
Ñį Ð½ÐµÑĢÐ³ÐµÑĤ
Ð°ÑģÑĤ ÑĮ
ĠÐ³ Ð¸Ð±
Ð°Ð² ÐµÑĢÑĪÐµÐ½Ð¸Ðµ
Ð¾Ðº Ð°Ð·
ĠÐ¿ÑĢÐ¾ Ð¸Ð½ÑĦÐ¾ÑĢÐ¼
ÑİÑī ÐµÐµ
Ð¸ÑĤÐµÐ»ÑĮ Ð½ÑĭÐ¼
ĠÑĩ Ð°ÑģÐ¾Ð²
ÑĥÐ± ÐµÐ¶Ð½ÑĭÑħ
ĠÑģÑĤ Ð°ÑĨÐ¸Ð¾Ð½
Ð¾Ð¿ Ð¾Ð»ÑĥÑĩ
Ð»ÐµÐ½ Ñĭ
ĠÐ¿ÐµÑĢ ÐµÐ¼
Ð¾Ð²Ð°Ð½Ð¸Ñı Ð¼Ð¸
Ð°Ð¿ Ð°Ð´
ĠÐ½Ðµ Ð¾Ð¿ÑĢÐµÐ´ÐµÐ»
Ð¾Ð»ÑĮ ÑĨ
ĠÐ¿Ð¾Ð´ ÑħÐ¾Ð´Ð¾Ð²
ĠÐ²Ñĭ Ð³Ð¾Ð´
ĠÐ» Ð¸ÑĩÐ½Ð¾ÑģÑĤÐ¸
ÑĬ ÐµÐ·Ð´
Ð¾Ñĩ Ð½Ð¾Ð¼
Ð°ÑĤÐµÐ»ÑĮ Ð½Ð¾Ð³Ð¾
ĠÐºÐ¾Ð¼ Ð¼ÐµÐ½ÑĤ
ĠÑĤÐ°Ðº Ð¸Ð¼Ð¸
ĠÑĤÐ°Ðº Ð¾Ð¼Ñĥ
ĠÐŁÑĢ Ð¸ÐºÐ°Ð·
ĠÐ¿Ð¾Ð»ÑĥÑĩ Ð°ÑĤÑĮ
Ð¸ÑģÐ» ÐµÐ½Ð¸Ðµ
ĠÐ¸Ð· Ð½Ð¾Ñģ
ĠÐ¿ÑĢÐ°Ð² Ð¾Ð²ÑĭÐ¼
ÑĥÐ»ÑĮ Ñģ
ĠÐ¾ÑģÑĥÑīÐµÑģÑĤÐ² Ð»ÐµÐ½
ĠÐ³Ð¾ÑģÑĥÐ´Ð°ÑĢÑģÑĤÐ²ÐµÐ½ Ð½Ð¾
Ġ3 6
Ð¡ Ð¢
Ð°ÑİÑī ÑĥÑİ
ĠÐ¡ Ð¾Ð·Ð´Ð°Ð½Ð¸Ðµ
ĠÐ¡ ÐµÐ²ÐµÑĢ
ĠÐ¡ Ð²Ð¾Ð¹
ĠÐ¡ Ð°Ð½ÐºÑĤ
Ð°ÑĨÐ¸Ñı Ñħ
ĠÐļ Ð»ÑİÑĩ
201 2
ÐŁ ÐµÑĤÐµÑĢ
Ð¼ÐµÑĢ ÑĤ
ĠÑģÐ²ÑıÐ· ÑĮ
ĠÐĴ Ñĭ
ÐµÐ¹ÑģÑĤÐ² Ð¸Ð¸
ĠÑįÑĤ Ð¾Ð¼Ñĥ
ĠÐ±ÐµÐ· Ð´
ĠÐ¿Ð¾ÑĢÑıÐ´ ÐºÑĥ
ĠÐ²Ð¾Ð· Ð»Ð¾Ð¶
Ð¸Ð¾Ð½ Ð½Ð¾
Ġ5 1
Ġ5 5
Ġ5 23
ĠÐŀ Ðļ
Ġ4 7
ĠÐ¸Ð¼ Ð¼
ĠÑıÐ²Ð»Ñı ÑĤÑĮÑģÑı
ÑĭÐ² Ð°Ð½Ð¸Ñı
Ð¸ÑĤÐµÐ» ÑıÐ¼
Ð°ÑĤÐ¸Ð² Ð½Ð¾Ðµ
ĠÐ½Ð°ÑĥÑĩ Ð½ÑĭÐµ
ÐµÑī ÐµÐ½Ð¸Ñı
ĠÐ±Ð°Ð· Ð¾Ð²Ð¾Ð¹
ĠÑģÐ¾ÑĨÐ¸ Ð°Ð»ÑĮÐ½ÑĭÐµ
ĠÑĢÐµÐ°Ð»Ð¸Ð· ÑĥÑİÑīÐ¸Ñħ
ĠÑĩÐ°ÑģÑĤ Ð½ÑĭÑħ
Ð°ÑĢÑĤ Ð°Ð»ÑĮÐ½Ð¾
Ð¸ÑĢÑĥ ÐµÐ¼Ð¾Ð¹
ĠÑģÐ¾Ð¾ÑĤÐ²ÐµÑĤÑģÑĤÐ²ÑĥÑİÑī ÐµÐ¼Ñĥ
ĠÐ¶ Ð¸Ð²
ĠÑĥÑĤÐ²ÐµÑĢÐ¶Ð´ ÐµÐ½Ð¸Ñı
ĠÑĤÑĢÐ°Ð½ Ð·
ĠÐ¾Ð±ÑĬÐµÐ¼ Ñĥ
ĠÐ½Ð°Ð¿ÑĢÐ°Ð²Ð»ÐµÐ½ Ð¾
ĠÑĢÐµÑģÑĥÑĢÑģ Ð¾Ð¼
ĠÑĢÐ°Ð·Ð¼ÐµÑī Ð°ÐµÑĤ
ĠÑĥÐ¿Ð¾Ð»Ð½Ð¾Ð¼Ð¾ÑĩÐµÐ½ Ð½ÑĭÐµ
ĠÐ°Ðº Ð°Ð´ÐµÐ¼
ĠÐ¼ÐµÐ¶Ð´ÑĥÐ½Ð°ÑĢÐ¾Ð´ Ð½ÑĭÐ¼Ð¸
Ð¾Ð»Ð¾Ð³ Ð¸ÑĩÐµÑģÐºÐ¸Ñħ
ĠÐ¾Ð´ Ð¾Ð±ÑĢ
ĠÐ½Ð°Ñĥ ÐºÐµ
Ġ9 1
ĠÐ¼ÐµÑģÑĤ Ðµ
ĠÐ¼ÐµÑģÑĤ Ð°
ĠÐºÐ¾Ð½ÐºÑĥÑĢ ÐµÐ½ÑĨÐ¸Ð¸
ĠÐ¼Ð¸ÑĢ Ð¾Ð²Ð¾Ð¼Ñĥ
ĠÐ¸ÑģÐºÐ»ÑİÑĩ Ð¸ÑĤÐµÐ»ÑĮÐ½Ð¾
ĠÐºÐ¾Ð½ÐºÑĥÑĢÑģ Ðµ
ĠÑĥÐ²ÐµÐ´Ð¾Ð¼ Ð»ÑıÐµÑĤ
ĠÐ½Ð°ÑĢÑĥ ÑĪÐµÐ½Ð¸Ð¸
ĠÑĤÐµÑħÐ½ Ð¸ÑĩÐµÑģÐºÐ¾Ð¼Ñĥ
ĠÐ½ÐµÐ´ Ð²Ð¸Ð¶
ĠÐ¿ÑĢÐ¾ÑĤ Ñı
ĠÐ³ÑĢÑĥÐ¿Ð¿ Ñĥ
ĠÐ¼Ð°ÑĪÐ¸Ð½ Ð½Ð¾Ðµ
ĠÐ¼Ð°ÑĪÐ¸Ð½ Ð¾ÑģÑĤÑĢÐ¾
ĠÐºÐ¾Ð½ÐºÑĥÑĢÐµÐ½ÑĤÐ¾ÑģÐ¿Ð¾ÑģÐ¾Ð± Ð½Ð¾Ð³Ð¾
ĠÐºÐ¾Ð½ÐºÑĥÑĢÐµÐ½ÑĤÐ¾ÑģÐ¿Ð¾ÑģÐ¾Ð± Ð½Ð¾ÑģÑĤÑĮ
ĠÐ´Ð¾Ð¿Ð¾Ð»Ð½Ð¸ÑĤÐµÐ»ÑĮ Ð½Ð¾Ð¼Ñĥ
ĠÐ°Ð²ÑĤÐ¾Ð¼ Ð¾Ð±Ð¸Ð»
ĠÐ¼ÐµÑĤÐ¾Ð´ Ð¾Ð»Ð¾Ð³
ĠÑĥÑģÑĤÐ°Ð½Ð°Ð²Ð» Ð¸Ð²Ð°ÑĤÑĮ
ĠÐ²Ð¾ ÐµÐ½Ð½ÑĭÑħ
ÑĢÐ°Ñģ ÑħÐ¾Ð´Ð¾Ð²
ĠÐ¶Ð¸Ð·Ð½ ÐµÐ´ÐµÑıÑĤÐµÐ»ÑĮ
ĠÑĦÐ¸Ð½Ð°Ð½Ñģ Ð¸ÑĢÐ¾Ð²Ð°Ð½Ð¸Ñİ
ĠÑĢÐ¾ÑģÑģÐ¸Ð¹ÑģÐº Ð¸Ðµ
ĠÐ½Ð¾Ð¼ ÐµÐ½Ðº
ĠÐ¸Ð½Ð²ÐµÑģÑĤ Ð¾ÑĢÐ¾Ð²
ĠÐ¿ÐµÑĢÑģÐ¿ÐµÐºÑĤÐ¸Ð² Ðµ
ĠÐ¾ÑĤÐ²ÐµÑĤ ÑģÑĤÐ²ÐµÐ½Ð½ÑĭÑħ
ÑįÐºÐ¾Ð½Ð¾Ð¼ Ð¸ÑĩÐµÑģÐºÐ¾Ð¹
ĠÐ¿Ð¾Ð»Ð¸ÑĤ Ð¸ÐºÑĥ
Ð²ÐµÐ»Ð¸Ñĩ ÐµÐ½Ð¸Ðµ
ĠÑĦÐ¸Ð· Ð¸ÑĩÐµÑģÐºÐ¾Ð³Ð¾
ĠÑĦÐ¸Ð· Ð¸ÐºÐ¾
ÐµÐ³Ð¾Ð´ Ð½Ð¾
Ðĵ ÐŀÐ¡Ð¢
Ðĵ Ð»Ð°Ð²
ĠÐ¾ÑĤÐºÑĢÑĭÑĤ ÑĭÐ¹
Ð°ÑĤÑĢÐ°ÑĤ Ñĭ
ĠÐ½Ð°Ð± Ð¾ÑĢÐ°
ĠÐ¿ÑĢÐµÐ´Ð¿ÑĢÐ¸ÑıÑĤ Ð¸ÑıÑħ
ĠÐ·Ð°Ð² Ð¾Ð´
ĠÑĤÐ¸Ð¿ Ð°
ĠÑĢÐµÐº Ð»Ð°Ð¼
ĠÑĢÐ¸ÑģÐº Ð°Ð¼Ð¸
ĠÐ¿ÑĢÐµÐ´ÑĥÑģÐ¼Ð°ÑĤÑĢ Ð¸Ð²Ð°ÐµÑĤ
ĠÐºÑĢÐ¸ÑĤÐµÑĢ Ð¸Ñı
ĠÐ¿Ð»Ð°Ð½Ð¾Ð² ÑĭÑħ
ĠÑĥÐ¿ÑĢÐ°Ð² Ð»ÐµÐ½ÑĩÐµ
ĠÐ¿ÑĢÐ¸Ð½ÑĨÐ¸Ð¿ Ñĭ
ĠÑĥÑģÐ»Ð¾Ð²Ð¸Ñı Ð¼Ð¸
ĠÐ¦ÐµÐ½ÑĤ ÑĢÐ°Ð»ÑĮÐ½Ð¾Ð³Ð¾
ĠÐ¿Ð¾Ð»Ð¾Ð¶ ÐµÐ½Ð¸Ðµ
ĠÐ¿ÑĢÐµÐ´Ð¿ Ð¾Ñģ
ĠÐ²ÑĭÐ´ÐµÐ» ÐµÐ½Ð¸Ðµ
ĠÐ¾ÑĤÐ½Ð¾Ñģ ÑıÑīÐ¸ÑħÑģÑı
ĠÐºÐ°Ð¶Ð´ Ð¾Ð¼Ñĥ
ĠÐ¿ÑĢÐ¸ÑĩÐ¸Ð½ ÐµÐ½Ð¸Ðµ
ĠÐ³Ð¾ÑĢÐ¾Ð´ Ðµ
ĠÐ¾Ð±ÑĢÐ°Ñī ÐµÐ½Ð¸Ð¹
ĠÐ²ÑĢÐµÐ´ Ð½ÑĭÑħ
ĠÐ¿ÑĢÐµÐ´ÑģÑĤÐ°Ð²Ð»Ñı ÑİÑĤ
ĠÐ·Ð°ÑĢ ÑĥÐ±ÐµÐ¶
ĠÐ·Ð°ÑĢ ÑĥÐ±ÐµÐ¶Ð½ÑĭÑħ
ĠÐłÐ°Ð· ÑĢÐ°Ð±Ð¾ÑĤÐºÐ°
ĠÐ¼Ð¾Ð´ÐµÑĢÐ½ Ð¸Ð·Ð°ÑĨÐ¸Ñİ
ĠÐºÐ²Ð°Ð» Ð¸ÑĦÐ¸ÑĨÐ¸ÑĢÐ¾Ð²Ð°Ð½
ĠÐ²ÑħÐ¾Ð´ Ð½ÑĭÑħ
ĠÐ°ÑĢ ÐµÐ½Ðµ
ĠÐ´Ð¾Ð¼ ÐµÐ½Ð½Ð¾Ðµ
ĠÑģÑĥÑīÐµ ÑģÑĤÐ²ÐµÐ½Ð½Ð¾Ðµ
ĠÑĨÐµÐ½ Ð½Ð¾ÑģÑĤÐµÐ¹
ÐłÐĺ ÐļÐ¡
ĠÐ»Ð¸Ð´ ÐµÑĢ
ĠÐºÐ°Ñģ Ð°ÑİÑīÐ¸ÑħÑģÑı
Ð²Ð¾ÑĢ ÑĩÐµ
Ð¸Ð²ÐµÑĢÑģ Ð¸ÑĤÐµÑĤ
ĠÐĳÐ°Ð½ Ðº
ĠÐŁÐ¾Ð»Ð¾Ð¶ ÐµÐ½Ð¸Ð¸
ĠÐķÐ² ÑĢÐ°Ð·
ĠÐ±Ð¸Ð±Ð»Ð¸Ð¾ÑĤÐµÐº Ð¸
Ð¾ÑīÐ°Ð´ ÑĮ
ĠÑĪÐºÐ¾Ð»ÑĮ Ð½Ð¸ÐºÐ°Ð¼Ð¸
ĠÐ¸Ð·Ð¼ÐµÑĢ ÐµÐ½Ð¸Ñı
ĠÑģÑĥÐ¼Ð¼ Ñĭ
ĠÑĪÑĤÑĢÐ°ÑĦ Ð½ÑĭÑħ
Ð¾ÑĤÐµÑħ Ð½Ð¸ÐºÐ¸
ĠÐ¾ÑĤÑĢÐ°Ð¶ Ð°ÑİÑīÐ¸Ñħ
ĠÐ±Ð¾Ð»ÑĮÑĪ Ð¸Ð½
ÑĨÐµÐ» ÐµÐ²Ð¾Ð³Ð¾
ĠÑĤÐµÑĢÑĢÐ¾ÑĢ Ð¸Ð·Ð¼
ĠÐ´Ð¸Ð°Ð¿Ð°Ð· Ð¾Ð½Ðµ
ĠÐ´ÐµÑģÑı ÑĤ
ĠÐ¾ÑĦÐ¸Ñģ Ð°
ĠÐ½ÐµÐ¹ÑĢÐ¾Ð½ Ð½ÑĭÑħ
ĠÐ¿ÑĢÐµÐ´ÑĭÐ´ÑĥÑī ÐµÐ¹
ĠÐ·Ð°Ð¿ÑĢÐµÑĤ Ñĭ
ĠÐ¼Ð¾ÑĢ ÑģÐºÐ¾Ð¹
ÑĥÑģÐ» ÑĥÐ³
ĠÐºÐ¾Ð¿ Ð¸Ð¸
ĠÐºÐ¾Ð¼Ð¼ÐµÑĢÑĩÐµ ÑģÐºÐ¸Ñħ
ĠÐ¿ÑĢÐµÐ´Ð¿Ð¾Ð»Ð°Ð³ Ð°ÐµÑĤÑģÑı
ĠÑĢÐ°ÐºÐµÑĤ Ð½ÑĭÑħ
ĠÑıÐ´ ÐµÑĢÐ½Ð¾Ð³Ð¾
ĠÐºÑĢÑĥÐ³ Ñĥ
ĠÑģÐ²Ð¾Ð´ Ð½Ð¾Ð³Ð¾
ĠÐ¿Ð¾Ð»ÑĮÐ·Ð¾Ð²Ð°ÑĤÐµÐ» ÑıÐ¼
ĠÐ¼ÑĥÐ»ÑĮÑĤ Ð¸Ð¿
ĠÑĤÐµÐ¿Ð» Ð¾Ð²
ĠÐ±Ð»Ð¾Ðº Ð¸ÑĢÐ¾Ð²Ð°Ð½Ð¸Ðµ
ĠÑģÐ¾ÐºÑĢÐ°Ñī ÐµÐ½Ð¸Ðµ
ĠÐķÐ²ÑĢÐ¾Ð¿ Ñĭ
ÐŁÑĢÐ¸Ð¼ÐµÑĩ Ð°Ð½Ð¸Ñı
ĠÐ¿Ð¾Ð²ÑĭÑĪ ÐµÐ½Ð½Ð¾Ð¹
ĠÐ²Ð°Ð»ÑİÑĤ Ñĭ
Ð³Ð¾ÑģÑĥÐ´Ð°ÑĢ ÑģÑĤÐ²ÐµÐ½Ð½Ð°Ñı
ĠÑģÑĭÑĢ ÑĮ
ĠÐ¾Ð±ÑīÐµÐ´Ð¾ÑģÑĤÑĥÐ¿ Ð½Ð¾Ð¹
ĠÐ¸ÑģÑģÐ»ÐµÐ´Ð¾Ð²Ð°ÑĤÐµÐ»ÑĮ ÑģÐºÐ¸Ð¹
ĠÐºÐ²Ð°ÑĢÑĤ Ð°Ð»
ĠÐ²ÐµÑī ÐµÐ¹
ĠÐłÐµÐ·ÑĥÐ»ÑĮÑĤÐ°ÑĤ Ñĭ
ĠÑģÑĤÑĥÐ´ ÐµÐ½ÑĤÐ¾Ð²
ĠÑįÐºÑģÑĤÑĢÐµÐ¼ Ð¸ÑģÑĤ
ĠÑĢÐ°ÑģÑĩÐµÑĤ Ð°
ĠÐ²Ð¾Ð·Ð¼ÐµÑī ÐµÐ½Ð¸Ñı
ĠÐ±Ð°ÑĢÑĮ ÐµÑĢÑĭ
ĠÐ´ÐµÐ¹ÑģÑĤÐ²ÑĥÑİÑī Ð¸Ð¼
ĠÐ°ÐºÑĥÑģÑĤ Ð¾ÑįÐ»ÐµÐºÑĤÑĢÐ¾Ð½
ĠÐ½ÐµÐ´Ð¾Ð¿ ÑĥÑģÑĤ
ĠÐ½ÐµÐ¿ÑĢÐµÐ´ÑģÑĤÐ°Ð² Ð»ÐµÐ½Ð¸Ñı
ÐµÐºÐ² Ð°ÑĢÑĤÐ°Ð»ÑĮÐ½Ð¾
ĠÐ²ÑĭÑģÐ¾ÐºÐ¾Ðº Ð²Ð°Ð»Ð¸ÑĦÐ¸ÑĨÐ¸ÑĢÐ¾Ð²Ð°Ð½Ð½ÑĭÑħ
ĠÑģÐ½Ð¸Ð· Ð¸ÑĤÑĮ
ĠÐºÐ¾Ð½ÑĦÐ»Ð¸Ðº ÑĤÐ¾Ð²
tr a
ĠÐ¿Ð°ÑĤ ÐµÐ½ÑĤ
Ð¿ÑĢÐ¾Ð¼ÑĭÑĪÐ»ÐµÐ½ Ð½Ð¾Ð³Ð¾
ÑįÑĤ Ð°Ð¿
ĠÐ¶ÑĥÑĢÐ½Ð°Ð» Ð°Ñħ
ĠÐĹÐµÐ»ÐµÐ½Ð¾Ð³ÑĢÐ°Ð´ ÑģÐº
ĠÐ»ÐµÑĩÐµÐ± Ð½Ð¾Ð³Ð¾
ĠÐĽÐ¸ÑĨ Ð¾
Ġin telligence
ĠÑĤÑĢÐ¸Ð´ ÑĨÐ°ÑĤÐ¸
Ð¸ÑģÑĨÐ¸Ð¿ Ð»Ð¸Ð½
ĠÐ¾ÑĤÑģÑĤÐ°Ð² Ð°Ð½Ð¸Ðµ
ĠÐ½ÐµÐ» Ð¸Ð½ÐµÐ¹
ĠÑĥÑĢÐ°Ð½ Ð°
ĠÐ±Ð¾ÑĢ ÑĮ
ĠÑĢÐµÑĦÐµÑĢ ÐµÐ½Ð´
ĠÐ´Ð²Ð°Ð´ ÑĨÐ°ÑĤÐ¸
ĠÐĴÑģÐµÐ¼Ð¸ÑĢ Ð½Ð¾Ð¹
ĠÐľÐµÐ¶Ð´ÑĥÐ½Ð°ÑĢÐ¾Ð´ Ð½Ð¾Ð¹
ĠÐ¾ÑĤÐ· ÑĭÐ²
ĠÐºÐ¾Ð¼Ð¼ÐµÐ½ÑĤ Ð°ÑĢÐ¸Ð¸
ĠÐ¡Ð²Ð¾Ð¹ ÑģÑĤÐ²Ð¾
ÐŁÐµÑĤÐµÑĢ Ð±ÑĥÑĢÐ³
ĠÐŀÐļ Ð£ÐĶ
ĠÐ½Ð¾Ð¼ÐµÐ½Ðº Ð»Ð°ÑĤ
" );
. ;
A I
c on
p l
Ġ D
Ð¾ Ð¾Ñĩ
Ð¸ Ð¾Ð±ÑĢÐµÑĤ
Ðµ Ð¾Ð±ÐµÑģÐ¿ÐµÑĩÐµÐ½Ð¸Ñı
Ð½ ÑĢÐ°Ð²
Ð½ Ð¸Ð²ÐµÑĢÑģÐ¸ÑĤÐµÑĤ
Ñĥ ÐºÐ°
Ð¸Ð ³Ð¾
ÑģÑĤ Ð¾Ñĩ
Ñı ÑİÑĤÑģÑı
Ñı Ð±ÑĢÑĮ
Ð» Ð¾Ð²
Ð» ÐµÑĤ
ĠÐ¿ ÑĥÑĤ
Ðº ÑĥÑĢ
Ðº Ð¾Ðµ
Ðº ÑĢÑĥÐ¶
Ð² Ð°Ð½
Ð² Ð¾ÑĢÑı
Ð¾Ð² Ð¾Ð´
Ñĩ Ð°Ñģ
ÐµÑĢ Ð½Ð¾
ÐµÑĢ ÑĭÐ²
ĠÐ² ÐµÐ»Ð¸Ñĩ
Ð¼ Ð¾Ñģ
Ð¼ Ð»Ð½
Ð¾ÑĢ Ð¾Ð¶Ð´
Ð¿ Ð¾ÑģÑĤÐ°Ð²
Ð¿ Ð»Ð°ÑĤ
ĠÐ½ ÐµÐ¼Ñĥ
Ð¸Ð¹ Ð½ÑĭÑħ
ÑĦ Ð¾ÑĤ
ÑĦ ÐµÐ¹
ĠÐ´ Ð¸Ð¾Ð´
ĠÐ´ Ð½ÐµÐ¼
ĠÐ´ Ð»Ð¸Ð½
Ð¾Ð´ Ð³Ð¾ÑĤÐ¾Ð²
Ð¾Ð´ ÐµÑĢÐ½Ð¸Ð·Ð°ÑĨÐ¸Ñı
ÐµÑĤ ÐµÐ½Ð´
ÐµÑĤ Ð½Ð¸Ñħ
Ð¾Ñģ ÑĥÑīÐµÑģÑĤÐ²
Ð¾Ñģ Ð½Ð¾Ð²
Ð¾Ñģ Ð¢ÐµÑħ
ĠÑĤ Ð¾Ðº
ĠÐ¾Ð± Ð¶
ĠÐ½Ð° ÑĢÐ°Ñī
Ð¾Ð³ ÑĢÐ°Ð½Ð¸Ñĩ
Ð¾Ð²Ð°Ð½ Ð½Ð¾Ð³Ð¾
Ð¸Ð¼ Ð¾Ð¼
Ð¸Ð¼ Ð°Ð½Ð¸Ðµ
Ð¸Ð½ ÑıÑĤ
Ð°Ð» Ð¾Ð³
ĠÐŁ Ð»Ð°Ð½
Ġ( "
Ð°ÑĢ Ð¸
Ð°ÑĢ Ñĥ
ĠÑį Ð¿
ÐµÐ½ÑĤ Ð°Ð±
Ð¸Ð» Ð¾
Ð¸Ð» Ð¸Ñı
Ð¸Ð² Ð°ÑİÑīÐ¸Ðµ
ĠÐ¿ÑĢÐ¾ Ð¸Ð·
ÑİÑī ÐµÐ¼
Ð¾Ð± ÑĥÑĩ
Ð¾Ð± ÑĬÐµÐºÑĤ
ĠÑĢÐµ ÑģÐ¿
ĠÑĢÐµ Ð°Ð»ÑĮÐ½Ð¾Ð³Ð¾
Ð¾Ð· Ð¸ÑĤÐ¾ÑĢ
Ð¾Ð· Ð°Ñī
ĠÑģÑĤ ÑĢ
ĠÑģÑĤ Ð¾ÑĩÐ½ÑĭÑħ
ĠÐ¸Ð½ÑĦÐ¾ÑĢÐ¼ Ð¸ÑĢÐ¾Ð²Ð°Ð½Ð¸Ñı
Ð°ÑĨÐ¸Ð¾Ð½ Ð½ÑĭÐ¼
ÑĢÐ°Ð½ Ñģ
ÐµÑĩ ÐµÐ½Ð¸Ð¸
ĠÑĤÐµÑħÐ½Ð¾Ð»Ð¾Ð³ Ð¸ÑĩÐµÑģÐºÐ¸Ð¹
ĠÐ¾Ñģ Ð¼
Ġ2 12
ÐºÑĤ ÑıÐ±ÑĢÑĮ
ĠÐ¿Ð¾Ð» ÐµÐ·
ĠÐ¿Ð¾Ð» Ð½Ð¾ÑģÑĤÑĮÑİ
ĠÐ²Ñĭ ÑıÐ²Ð»ÐµÐ½Ð¸Ðµ
ĠÐ» ÐµÑĩÐµÐ½Ð¸Ñı
ĠÑĢÐ°Ð·Ð²Ð¸ÑĤ ÑĭÑħ
ĠÐºÐ¾Ð½ ÑĨÐµÐ½ÑĤ
Ð¸ÑĨ Ñĭ
ĠÐŁÑĢ ÐµÐ³
ĠÐ¿Ð¾Ð»ÑĥÑĩ ÐµÐ½Ð¸Ñİ
ĠÐ¿ÐµÑĢÑģÐ¾Ð½ Ð°Ð»ÑĮÐ½ÑĭÐ¼
ĠÐ¾Ð±ÐµÑģÐ¿ÐµÑĩ ÐµÐ½Ð¸ÐµÐ¼
ÐµÐ² Ð¾Ðµ
ĠÑģÐ» Ð¾ÐµÐ²
ĠÐ¸Ð· Ð±
ĠÑĩÐ¸ÑģÐ» ÐµÐ½Ð½Ð¾ÑģÑĤÑĮ
ĠÐ¾ÑģÑĥÑīÐµÑģÑĤÐ² Ð»ÐµÐ½Ð¸Ñİ
ĠÐ³Ð¾ÑģÑĥÐ´Ð°ÑĢÑģÑĤÐ²ÐµÐ½ Ð½Ð¾Ð¼Ñĥ
Ð¡ Ð¡
Ð¡ ÐµÐ²ÐµÑĢ
ĠÑĤÑĢ Ð»Ð½
ĠÑĨÐµÐ» ÐµÑģÐ¾Ð¾Ð±ÑĢÐ°Ð·
Ð¤ Ð¾Ð½Ð´
ĠÑįÐºÐ¾Ð½Ð¾Ð¼ Ð¸ÑĩÐµÑģÐºÐ¸Ðµ
Ð¾Ð¿ÑĢ Ð¾ÑĩÐ½ÑĭÑħ
Ð¾Ð¿ÑĢ Ð¸Ð¾Ð±ÑĢÐµÑĤ
ĠÑģÑĢÐµÐ´ÑģÑĤÐ² Ð°Ð¼
ĠÐ´Ð¾ ÑĢÐ°Ð±Ð¾ÑĤ
ĠÑĤÑĢÐµÐ± ÑĥÐµÑĤÑģÑı
ĠÑįÑĤ Ð°Ð»
Ð¸Ð²Ð° ÐµÐ¼Ð¾Ð³Ð¾
ĠÐ¿Ð¾ÑĢÑıÐ´ ÐºÐ¾Ð¼
ÐµÐ»ÑĮ Ð½ÑĭÐ¹
ĠÐ¿ÑĢÐ¾Ð´ Ð¾Ð²Ð¾Ð»ÑĮ
ĠÑĥÑģÑĤÐ°Ð½Ð¾Ð²Ð»ÐµÐ½ Ð¾
ĠÐ¿Ð¾Ðº Ð°Ð·Ð°ÑĤÐµÐ»ÑĮ
ĠÐ¿ÑĢÐ¾Ð¸Ð·Ð²Ð¾Ð´ Ð¸ÑĤÐµÐ»ÐµÐ¹
Ð°Ð½Ð¸Ñı Ð¼
ĠÐ¾Ð¿ÑĢÐµÐ´ÐµÐ» ÐµÐ½Ñĭ
ĠÐŀ ÐºÑĤÑıÐ±ÑĢÑĮ
ĠÐ¿Ð» Ð°ÑĤÐ°
ĠÐ²ÑĭÑģ ÑĪÐ¸Ð¼
ĠÐ¸Ð¼ Ð¸ÑĤ
ĠÐ²ÐºÐ»ÑİÑĩ Ð°ÑİÑĤ
Ð¼ÑĥÐ½ Ð¸ÑĨÐ¸Ð¿
ÐĿ Ð¾Ð²ÑĭÐµ
Ð°Ð³ Ð°Ð½Ð´
ĠÑĤÐµÑĢ Ð¼
ÐµÑī Ð°Ð½Ð¸Ñı
11 9
Ð°ÐµÐ¼ Ð¾Ðµ
ĠÐ£ ÑģÑĤ
ĠÑįÐºÑģÐ¿ÐµÑĢÐ¸Ð¼ÐµÐ½ÑĤ Ð°Ð»ÑĮÐ½Ð¾Ð¹
ĠÑįÐºÑģÐ¿ÐµÑĢÐ¸Ð¼ÐµÐ½ÑĤ Ð°Ð»ÑĮÐ½Ð¾
ĠÑįÐºÑģÐ¿ÐµÑĢÐ¸Ð¼ÐµÐ½ÑĤ Ð°Ð»ÑĮÐ½Ð¾Ð¼Ñĥ
ĠÐ·Ð°ÑıÐ² Ð»ÐµÐ½Ð¸Ðµ
ĠÐ·Ð°ÑıÐ² ÐºÐ°Ð¼Ð¸
ĠÐ·Ð°ÑıÐ² Ð¸ÑĤÐµÐ»Ñİ
ĠÑģÐ»ÐµÐ´ÑĥÑİÑī ÐµÐµ
ĠÐ²ÑĭÑģÐ¾Ðº Ð¸Ð¹
ĠÑĩÐ°ÑģÑĤ ÐµÐ¹
ĠÐ¶ Ðµ
ĠÐ·Ð°Ð¿ Ð¾Ð»Ð½
Ð°Ñī ÐµÐ¹
Ð¸ÑģÐº Ð°
Ð¸ÑģÐº ÑĥÑģ
ĠÐ¾Ð±ÑĬÐµÐ¼ Ð°Ñħ
Ġ7 2
ĠÐ¾Ð±ÑĬÐµÐºÑĤ Ð°Ð¼Ð¸
ĠÐ½Ð°Ð¿ÑĢÐ°Ð²Ð»ÐµÐ½ Ñĭ
ĠÐ½Ð°Ð¿ÑĢÐ°Ð²Ð»ÐµÐ½ Ð½Ð¾Ð¹
ĠÐ½Ð°Ð¿ÑĢÐ°Ð²Ð»ÐµÐ½ Ð½Ð°Ñı
ĠÐ¾ÑģÑĥÑīÐµÑģÑĤÐ²Ð»ÑıÑİÑī Ð¸Ð¼Ð¸
Ġ6 1
ĠÐºÐ°ÑĩÐµ ÑģÑĤÐ²Ð¾
ĠÑįÑĦÑĦÐµÐºÑĤÐ¸Ð² Ð½Ð¾Ð¹
ĠÑĢÐ°Ð·Ð¼ÐµÑī ÐµÐ½Ð½Ð¾Ð¹
ĠÐ°Ðº Ðº
ĠÐ¾Ð±Ð¾ÑĢ Ð¾Ð½Ð½Ð¾
ĠÐ¿ÑĢÐ¸Ð½ÑıÑĤ ÑĭÑħ
ĠÐ·Ð°ÐºÐ»ÑİÑĩ Ð°ÐµÑĤÑģÑı
ÐµÐ´Ð¸ÑĨÐ¸Ð½ ÑģÐºÐ¸Ñħ
ĠÐ¸ÑģÑĤ ÐµÑĩÐµÐ½Ð¸Ñı
ĠÑģÐ¸Ð» Ð¾Ð²ÑĭÑħ
ÑĢÐ°Ñī ÐµÐ½Ð¸Ðµ
ĠÑĢÑĭ Ð±
Ð£ Ð½Ð¸Ð²ÐµÑĢÑģÐ¸ÑĤÐµÑĤ
ĠÐ¸Ð½Ð¾ÑģÑĤÑĢÐ°Ð½ Ð½ÑĭÐµ
ĠÑĥÐ²ÐµÐ´Ð¾Ð¼ Ð»ÐµÐ½Ð¸Ð¸
ĠÐ¾ÑģÐ½Ð¾Ð²Ð°Ð½ Ð½ÑĭÑħ
ÑĤÐµÑħÐ½Ð¾Ð»Ð¾Ð³ Ð¸ÑĩÐµÑģÐºÐ¸Ñħ
Ð°ÑĢÐ°ÐºÑĤÐµÑĢ Ð¸ÑģÑĤ
ĠÐ³ÑĢÑĥÐ¿Ð¿ Ð°
ĠÐ¿Ð¾Ð´Ð¿ÑĥÐ½ÐºÑĤ Ð°Ð¼Ð¸
ĠÐ°Ð½Ð°Ð» Ð¾Ð³Ð¾Ð²
ĠÑģÐ¾Ð·Ð´ Ð°ÐµÑĤ
ĠÐ¼ÐµÑĤÐ¾Ð´ Ð¸Ðº
ĠÐ¿ÑĢÐ¾Ð´ÑĥÐºÑĤ Ñĭ
Ð½Ð° ÑĥÑĩ
ĠÐ¶Ð¸Ð·Ð½ ÐµÐ¾Ð±ÐµÑģÐ¿ÐµÑĩÐµÐ½Ð¸Ñı
ĠÐ¸Ð½Ð²ÐµÑģÑĤ Ð¸ÑĨÐ¸Ð¸
ĠÐ¾ÑĤÐ²ÐµÑĤ ÑģÑĤÐ²ÐµÐ½Ð½ÑĭÐ¹
Ġ19 95
Ġ19 91
ĠÑģÐ¾ÑģÑĤÐ¾ÑıÐ½ Ð¸Ð¸
ĠÐĲ Ð½Ð°Ð»Ð¸ÑĤ
ĠÐ¾ÑĤÑĢÐ°ÑģÐ» ÐµÐ²Ð¾Ð¹
ÑĥÐºÐ¾Ð²Ð¾Ð´ Ð¸ÑĤÐµÐ»ÑĮ
ĠÑģÐ²Ð¾ ÐµÐ¼
ĠÑĥÑĩÐ°ÑģÑĤÐ½Ð¸Ðº Ð°Ñħ
ÐĽ ÐĲ
ĠÐ¸ÑģÐ¿Ð¾Ð»Ð½ ÐµÐ½Ð¸Ðµ
ĠÑģÐ¾Ð±Ð»ÑİÐ´ ÐµÐ½Ð¸Ð¸
ĠÐºÐ² Ð°Ð½ÑĤÐ¾Ð²
ĠÑĦÑĥÐ½ÐºÑĨÐ¸Ð¾Ð½ Ð°Ð»ÑĮÐ½Ð¾
Ðĵ Ð¾ÑģÐ¢ÐµÑħ
ĠÑĥÐ½ Ð¸ÑĦÐ¸ÑĨÐ¸ÑĢÐ¾Ð²Ð°Ð½Ð½ÑĭÑħ
Ðĳ ÐłÐĺÐļÐ¡
ĠÐ¿ÑĢÐµÐ´Ð¿ÑĢÐ¸ÑıÑĤ Ð¸ÑıÐ¼Ð¸
ĠÑģÐµÑĢÐ²Ð¸Ñģ Ñĭ
ĠÑģÑĤÑĢÐ°Ñħ Ð¾Ð²Ð°Ð½Ð¸Ñı
ĠÐµÐ¶ ÐµÐºÐ²Ð°ÑĢÑĤÐ°Ð»ÑĮÐ½Ð¾
ĠÐ°Ð²ÑĤÐ¾Ð½Ð¾Ð¼ Ð½Ð°Ñı
ĠÐ¾Ð±Ð»Ð°ÑģÑĤ ÑĮÑİ
ĠÐ¸Ð½Ð¸ÑĨÐ¸ Ð°ÑĤÐ¾ÑĢ
ĠÐ¿Ð¾Ð´Ð¿Ð¸Ñģ ÑĭÐ²Ð°ÑİÑĤÑģÑı
ĠÐ¾ÑĤÐ´ÐµÐ»ÑĮ Ð½ÑĭÐ¼
ĠÐ¾ÑħÑĢÐ°Ð½ Ðµ
Ð¿ÑĢÐ¾Ð³ÑĢÐ°Ð¼Ð¼ Ð½Ð¾Ð³Ð¾
ĠÐ¿ÐµÑĢÐ² Ð¾Ð³Ð¾
ĠÐ¿ÐµÑĢÐ² ÑĥÑİ
Ð¾ÑĤÐµÑħÐ½Ð¾Ð»Ð¾Ð³ Ð¸Ð¸
ĠÐ±Ð» Ð°Ð½
ĠÐ±Ð» Ð¸Ð¶
ĠÐ°ÐºÑĤÑĥ Ð°Ð»ÑĮÐ½ÑĭÑħ
ĠÐ¿ÑĢÐµÐ´Ð¿ÑĢÐ¸Ð½Ð¸Ð¼ Ð°ÑĤÐµÐ»ÐµÐ¹
ĠÐºÐ°Ð¿Ð¸ÑĤ Ð°Ð»ÑĮÐ½ÑĭÑħ
ĠÑģÑĤÑĢÑĥÐºÑĤÑĥÑĢ Ðµ
ĠÑģÑĤÑĢÑĥÐºÑĤÑĥÑĢ Ñĥ
ĠÑģÑĤÑĢÑĥÐºÑĤÑĥÑĢ Ñĭ
ÐĺÐ¡ Ðŀ
39 7
ĠÑĢÐµÐ¶Ð¸Ð¼ Ñĥ
ĠÐµÐ¶ÐµÐ³Ð¾Ð´ Ð½Ð¾Ð³Ð¾
ĠÐµÐ¶ÐµÐ³Ð¾Ð´ Ð½Ð¾Ðµ
35 7
ĠÑĥÑĩÑĢÐµÐ¶Ð´ ÐµÐ½Ð¸ÑıÐ¼Ð¸
ĠÐ¿ÑĢÐ¸Ð½ÑĨÐ¸Ð¿ Ð°Ð¼Ð¸
ĠÑĢÐ°ÑģÐ¿ÑĢÐ¾ÑģÑĤÑĢÐ°Ð½Ñı ÑİÑĤÑģÑı
Ð¼ÐµÑģÑĤ Ðµ
ĠÐ¦ÐµÐ½ÑĤ ÑĢÐ¾Ð¼
ĠÐ¾ÐºÐ°Ð·ÑĭÐ² Ð°ÑİÑīÐ¸Ð¹
ĠÐ¾ÐºÐ°Ð·ÑĭÐ² Ð°Ð²ÑĪÐ¸Ñħ
ĠÑħÐ¾Ð·ÑıÐ¹ ÑģÑĤÐ²Ð¾
Ð°ÑİÑīÐµÐ³Ð¾ ÑģÑı
ĠÐ¾Ð±ÑĢÐ°Ñī ÐµÐ½Ð¸Ð¸
ĠÐ¿ÑĢÐ¸Ðº Ð°Ð·
ĠÐ¿ÑĢÐ¾Ð³Ð½Ð¾Ð· Ð¸ÑĢÐ¾Ð²Ð°Ð½Ð¸Ðµ
Ð´Ðµ ÑıÑĤÐµÐ»ÑĮ
ĠÑħÐ°ÐºÐ°ÑĤ Ð¾Ð½
ĠÐ¿ÑĢÐµÐ´ÑģÑĤÐ°Ð²Ð»Ñı ÑİÑĤÑģÑı
ĠÐºÐ°Ð·Ð½Ð°ÑĩÐµÐ¹ ÑģÐºÐ¸Ñħ
ĠÐºÐ°Ð·Ð½Ð°ÑĩÐµÐ¹ ÑģÐºÐ¾Ð³Ð¾
ĠÐ¸Ð¼Ð¿ Ð¾ÑĢÑĤÐ°
ĠÑĤÐµÐºÑĥÑī Ð¸Ñħ
ĠÐ´Ð¾Ð¼ ÐµÐ½Ð½ÑĭÑħ
ĠÑĥÐ»ÑĥÑĩ ÑĪ
ÑĢÐ¾Ð¿ ÐµÐ¹
ĠÐ´ÐµÐ½ ÐµÐ¶Ð½ÑĭÑħ
ĠÑĢÐ°ÑģÐ¿ÑĢÐµÐ´ÐµÐ» ÐµÐ½Ð¸Ðµ
ĠÑĤÐµÑĢÑĢÐ¸ÑĤÐ¾ÑĢÐ¸ Ð°Ð»ÑĮÐ½ÑĭÐ¹
Ð¸Ð½ÑĦÐ¾ÑĢÐ¼ Ð°ÑĨÐ¸Ð¾Ð½Ð½ÑĭÑħ
Ð¤ÐµÐ´ÐµÑĢ Ð°Ð»ÑĮÐ½Ð¾Ðµ
ĠÑĥÐ¼ÐµÐ½ÑĮ ÑĪÐµÐ½Ð¸Ðµ
ĠÐ·Ð°ÐºÑĥÐ¿ ÐºÐµ
ĠÐŀÑĢÐ³Ð°Ð½ Ð¸Ð·
ĠÑģÑĥÐ¼Ð¼ Ð°
ĠÐºÐ¾Ð½ÑģÑĤÑĢÑĥÐº ÑĨÐ¸Ð¾Ð½Ð½ÑĭÑħ
ĠÐ¸Ð¼Ð¿Ð¾ÑĢÑĤ Ð¾Ð·Ð°Ð¼ÐµÑī
ĠÐºÑĢÐ¸ÑģÑĤÐ°Ð»Ð» Ð¾Ð²
ĠÐ´ÐµÐ½ÐµÐ¶ Ð½Ð¾Ð³Ð¾
ĠR pi
ĠÑĥÐ´Ð°Ð» ÐµÐ½Ð¸Ñİ
ĠÑĢÐ°ÑģÑģÑĩÐ¸ÑĤ ÑĭÐ²
ĠÐ²Ð· ÑĢÑĭÐ²
ĠÐºÐ¾Ð½Ñģ ÑĥÐ»ÑĮÑĤ
ĠÐºÐ¾Ð½Ñģ Ð¾Ð»Ð¸Ð´
ĠÐĿÐ°ÑģÑĤÐ¾ÑıÑī Ð¸Ð¹
Ð¾Ð¿ÑĢÐµÐ´ÐµÐ» ÐµÐ½Ð¸Ðµ
ĠÑĢÐ°ÑģÐ¿Ð¾ÑĢÑıÐ¶ ÐµÐ½Ð¸Ð¹
ĠÐĹÐ°Ðº Ð»ÑİÑĩ
ĠÐ½ÐµÐ´Ð¾ÑģÑĤÐ¾Ð²ÐµÑĢ Ð½Ð¾Ð¹
ĠÐ¿ÑĢÐ¾ÑĨÐµÐ´ ÑĥÑĢ
ĠÑĢÐµÐ¿ Ð¾Ð·Ð¸ÑĤÐ¾ÑĢ
ĠÐ£Ð¿ÑĢÐ°Ð² Ð»ÐµÐ½Ð¸ÐµÐ¼
ĠÐ°Ð´Ð¼Ð¸Ð½Ð¸ÑģÑĤÑĢ Ð°ÑĤÐ¸Ð²Ð½Ð¾
ĠÑģÐ¾ÐºÑĢÐ°Ñī ÐµÐ½Ð¸Ñı
ĠÑĥÐ´Ð¾Ð²Ð»ÐµÑĤ Ð²Ð¾ÑĢÑı
ĠÑģÐ¾ÑĦÐ¸Ð½Ð°Ð½Ñģ Ð¸ÑĢÐ¾Ð²Ð°Ð½Ð¸Ðµ
ÐŁÑĢÐ°Ð² Ð¸ÑĤÐµÐ»ÑĮÑģÑĤÐ²Ð°
ĠÐ²Ð°Ð»ÑİÑĤ Ð½ÑĭÐ¼
ĠÐ³ÐµÐ½ÐµÑĢ Ð°ÑĤÐ¸Ð²Ð½ÑĭÑħ
ĠÐ³Ð°ÑĢÐ°Ð½ÑĤ Ð¸Ð¹
ĠÑģÐºÐ¾ÑĢ Ð¾Ð¹
ĠÐ¿ÐµÑĢÐµÐ²Ð¾Ð¾ÑĢÑĥÐ¶ ÐµÐ½Ð¸Ñı
ĠĠĠĠĠĠĠĠĠĠĠĠĠĠĠĠĠĠĠĠĠĠĠĠĠĠĠĠ ĠĠ
Ġne ural
ĠÐ·ÑĢ ÐµÐ½Ð¸Ñı
ĠÐ·Ð°ÑĢÐ°Ð±Ð¾ÑĤ Ð½Ð°Ñı
ĠÐ¿ÑĢÐ¾ÑĤÑıÐ¶ÐµÐ½ Ð½Ð¾ÑģÑĤÐ¸
Ð´Ð¸ Ð°Ð¿Ð°Ð·
ĠÐºÐ¾ÑįÑĦÑĦÐ¸ÑĨÐ¸ ÐµÐ½ÑĤ
ĠÑģÑĤÐ¾ÑĢ Ð¾Ð½Ð¾Ð¹
ĠÐ¾ÑĦÐ¾ÑĢÐ¼ Ð»Ñı
ĠÐ²Ð¾Ð·ÑĢÐ°ÑģÑĤ Ðµ
ĠÑĤÐµÐ¼Ð¿ Ñĭ
ĠÑģÐ¾Ñİ Ð·Ð°
ĠÑĢÐ°Ð·ÑĢÐ°Ð±Ð¾ÑĤÑĩÐ¸Ðº Ð°Ð¼
ĠÑĥÐ¿Ð¾Ð»Ð½Ð¾Ð¼Ð¾Ñĩ ÐµÐ½Ð½Ð¾Ð¹
ĠÐ´Ð°Ð»ÑĮÐ½ÐµÐ¹ÑĪ ÐµÐµ
ÑĥÐº Ð»Ðµ
ĠÑĩÐµÑĤ Ð²ÐµÑĢÑĤ
ĠÐ¼ÐµÐ»Ð¸Ð¾ÑĢ Ð°ÑĨÐ¸Ð¸
ĠÑĢÐµÐ°ÐºÑĤ Ð¾ÑĢÐ¾Ð²
ĠÐ¿ÑĢÐ¾Ð¿ Ð°Ð³Ð°Ð½Ð´
ĠÐ½ÐµÑģÐ¾Ð± Ð»ÑİÐ´ÐµÐ½Ð¸Ñı
ĠÑģÐµÐ³ Ð¼ÐµÐ½ÑĤ
ĠÐ¸Ð·Ð»ÑĥÑĩ ÐµÐ½Ð¸Ñı
ĠÐ¡Ð¾Ð³Ð»Ð°Ñģ Ð¸Ðµ
Ð¾ÑĥÑģÑĤ Ð¾Ð¹ÑĩÐ¸Ð²
ĠÑĢÐ°Ð·Ð½Ð¾Ð³Ð»Ð°Ñģ Ð¸Ð¹
ĠÑģÐ¿Ð¾ÑĢÑĤ Ð¸Ð²Ð½Ð¾Ð¹
ĠÐ³ÑĢÑĥÐ· Ð¾Ð²
ĠÐ¾ÑĪÐ¸Ð± Ð¾Ðº
ĠÐĺÐ¡ Ðŀ
ÑĦÑĥÐ½ÐºÑĨÐ¸Ð¾Ð½ Ð°Ð»ÑĮÐ½ÑĭÑħ
ĠÐºÐ¾Ð³Ð½Ð¸ÑĤ Ð¸Ð²Ð½ÑĭÐµ
ĠÐºÐ¾ÑģÐ² ÐµÐ½Ð½Ð¾
Ð°Ð±Ð°ÑĢ Ð¸ÑĤÐ½ÑĭÑħ
ĠÐ¿ÑĢÐµÐ´ÑģÐµÐ´ Ð°ÑĤÐµÐ»Ñı
ĠÐ¸ÑģÑĩ Ð¸ÑģÐ»Ñı
ĠÐ°Ð³Ð¸ÑĤ Ð°ÑĨÐ¸Ð¾Ð½Ð½ÑĭÐµ
ĠÑģÐºÐ²Ð¾Ð· Ð½Ð¾Ð³Ð¾
ĠÑįÐ½ÐµÑĢÐ³Ð¾Ñģ Ð±
ĠÐ½Ð°Ð¿ ÑĢÑı
Ð°ÐºÑĥ ÑĥÐ¼
ĠÑģÐ¿Ð»Ð°Ð² Ð¾Ð²
ÐŁÑĢÐ¾Ð³ÑĢÐ°Ð¼Ð¼ Ð°
ĠÐŀÑģÐ½ Ð¾Ð²Ð°Ð½Ð¸ÑıÐ¼Ð¸
ĠÐ´Ð¾Ð±Ñĭ ÑĩÐ¸
ĠÐ¾Ð·Ð½Ð°Ñĩ Ð°ÑİÑĤ
ĠÐ²Ð¾ÑģÑĤÑĢÐµÐ± Ð¾Ð²Ð°Ð½
ĠÐ´ÑĥÑħÐ¾Ð² Ð½Ð¾
ĠÑĢÐµÐ¿ÑĥÑĤ Ð°ÑĨÐ¸Ñİ
ĠÐ¿ÐµÐ´Ð°Ð³Ð¾Ð³ Ð¸ÑĩÐµÑģÐºÐ¸Ñħ
ĠÑĦÐ¸ÐºÑģ Ð¸ÑĢÑĥÐµÑĤ
ĠÐ½ÐµÑģÐ¾Ð²ÐµÑĢÑĪÐµÐ½ Ð½Ð¾Ð»
ĠÐ¿ÑĢÐ¸ÑģÑĥÐ¶Ð´ Ð°ÐµÐ¼ÑĭÐ¹
ĠÐ¼Ð¾Ð´ÐµÑĢÐ½Ð¸Ð· Ð¸ÑĢÑĥÐµÐ¼ÑĭÑħ
ĠÐ¿ÑĢÐ¾Ð¸Ð½ÑĦÐ¾ÑĢÐ¼ Ð¸ÑĢÐ¾Ð²Ð°ÑĤÑĮ
ĠÑģÑĤÐ°ÑĨÐ¸Ð¾Ð½ Ð°ÑĢÐ½ÑĭÑħ
ĠÐ²ÑĭÐ³Ð¾Ð´ Ð¾Ð¿ÑĢÐ¸Ð¾Ð±ÑĢÐµÑĤ
ĠÐ¿ÑĢÐ¾ÑĤÑı Ð¶ÐµÐ½Ð¸Ð¸
ĠÐ¼ÑĥÐ»ÑĮÑĤÐ¸Ð¿ Ð»ÐµÐºÑģ
Ð¼Ð¾Ñģ ÑĦÐµÑĢ
ĠÐ¾Ð±Ð¶ Ð°Ð»
ĠÐŁÑĢÐµÐ³ Ð¾Ð»Ñı
Ð¡ÐµÐ²ÐµÑĢ Ð½ÑĭÐ¹
" :
, "
3 86
5 17
A s
F G
a c
a m
c tion
e d
o de
u n
y s
Ġ <
Ð¾ ÑĢÐ°Ð¼
Ð¸ Ð°Ð´
Ð½ Ñİ
ĠÐ ¨
Ñĥ Ð²ÐµÐ»Ð¸ÑĩÐµÐ½Ð¸Ðµ
Ñı Ð³
Ñĭ Ñĩ
Ð» Ð°Ð¶Ð´
Ðº Ð¾ÑģÑĤÑĮ
ÑĮ Ðµ
ÑĮ ÐµÐ²
ĠÑģ ÐµÐ¹
ĠÑģ Ð´ÐµÑĢÐ¶
ÐµÑĢ Ð½ÑĭÐ¼
ÐµÐ´ ÐµÐ½Ð¸Ñı
ÑĢÐ°Ð ¹
Ð¼ Ð¸Ðº
Ð¼ ÐµÐ½ÑĤÐ°
Ð¾ÑĢ Ð¾ÑģÑĤ
Ð¾ÑĢ Ð½Ð¾Ð¹
Ð¾ÑĢ ÑĭÐ²
ĠÐ¿ÑĢ Ð¾Ð¼
ĠÐ¿ÑĢ ÐµÑĤÐµÐ½Ð´
Ð¿ Ð¾Ð±ÐµÐ´
Ð¿ Ð¾ÐºÐ°Ð·Ð°ÑĤÐµÐ»
ÑģÐº Ñĥ
Ð¾Ð´ Ð¸Ð¾Ð´
ĠÑĢ Ð¾Ð»ÑĮ
ĠÑĢ Ð¾Ð¶Ð´
ĠÑĤ Ð°Ð¹
ĠÑĤ Ð²Ð¾ÑĢÑĩÐµ
ĠÑĥ Ð¼
ĠÑĥ ÑĢÐµÐ³ÑĥÐ»
ÐµÐ¼ Ð¾Ðµ
ÐµÐ¼ Ð¾Ð½ÑĤ
ĠÐ¼ Ð¼
ĠÐ¼ Ð¾ÑĢÑģÐºÐ¸Ñħ
ĠÐ· Ð¾Ð½Ð´
Ð°Ðº ÑĥÑģÑĤ
Ð°Ðº ÑģÐ¸Ð¼
Ð¸Ð¼ Ð¾
Ð¸Ð¼ ÑĭÐ¹
Ð¶ ÐµÐ½Ð¸Ðµ
Ð»Ñı ÑİÑīÐ¸Ñħ
ĠÐł Ð°ÑģÑģ
ĠÐŁ Ð¾ÐºÐ°Ð·Ð°ÑĤÐµÐ»
ĠÐ³ ÐµÑĢ
ĠÐ³ Ð´Ðµ
Ð½Ð¾ÑģÑĤ ÑıÑħ
ĠÑĢÐ°Ð· Ð³
Ð½Ð¾ Ñĩ
Ð¸Ð» Ñı
ĠÐ± ÐµÐ»
ĠÐ± Ð°Ð»Ð°Ð½Ñģ
ĠÐ¿Ð¾ ÑĪ
Ð¸ÑģÑĤ Ð¾ÑĢÐ¾Ð²
ĠÑĩ Ð°Ñģ
ĠÑĩ ÑĥÐ²ÑģÑĤÐ²
Ð¾Ð· ÑĢÐ°Ñĩ
ĠÑģÑĤ ÑĢÐ¾Ðº
Ð¾Ð¿ Ð¾ÑĤÑĢÐµÐ±
Ð¾Ð¿ Ð¾Ð»Ð°Ð³
Ð»ÐµÐ½ Ð½ÑĭÐ¼
Ð°Ñģ ÑĪÑĤÐ°Ð±
ĠÑĤÐµÑħ Ð½Ð¸Ðº
ĠÐ¿ÐµÑĢ ÐµÑģÑĤ
ÑĥÐ´ ÐµÐ»ÑĮÐ½ÑĭÐ¹
ĠÑĤÐµÑħÐ½Ð¾Ð»Ð¾Ð³ Ð¸ÑıÐ¼Ð¸
ĠÐ¿Ð¾Ð´ Ð°Ð²
ĠÐ¿Ð¾Ð´ Ð²ÐµÐ´Ð¾Ð¼
ĠÐ²Ñĭ ÑĢÐ¾Ñģ
ĠÑģÐ¸ÑģÑĤÐµÐ¼ Ð½ÑĭÑħ
ĠÐºÐ¾Ð½ ÑĨ
ĠÐºÐ¾Ð½ ÐµÑĨ
ĠÐ¸Ð½ÑĦÐ¾ÑĢÐ¼Ð°ÑĨÐ¸Ð¾Ð½ Ð½Ð¾Ð¼
ĠÐ¿Ð¾Ð»ÑĥÑĩ Ð¸ÑĤÑĮ
ĠÐ¾Ð±ÐµÑģÐ¿ÐµÑĩ ÐµÐ½Ð½Ð¾ÑģÑĤÐ¸
Ðĺ ÑģÑĤÐ¾Ñĩ
ÑĥÑİÑī Ð¸Ð¼
ĠÐ¸Ð· ÑĥÑĩ
ÑĢÐ°Ð· ÑĭÑģÐº
ĠÐ° ÑĥÑĤ
ĠÐ¾ÑģÑĥÑīÐµÑģÑĤÐ² Ð»ÐµÐ½Ð¸ÐµÐ¼
ĠÑĥÐºÐ°Ð· Ð°ÑĤÐµÐ»ÐµÐ¹
ĠÐ¡ ÑĥÐ±ÑĬÐµÐºÑĤ
Ð¸Ñģ Ð¸
ĠÑĢÐµÐ· Ð¸Ð´
ĠÐľ Ð¾Ð½Ð¸ÑĤÐ¾ÑĢÐ¸Ð½Ð³
Ð¿ÑĢ Ð¾ÑĤÑıÐ¶ÐµÐ½Ð½Ð¾ÑģÑĤÑĮ
ĠÑĦÐ¾ÑĢÐ¼ Ð¸ÑĢÑĥÐµÑĤÑģÑı
ĠÐļ Ð¾Ð»ÑĮÑĨ
ĠÐ»Ð¸ÑĨ Ð°Ñħ
ÑĦÐµÑĢ ÐµÐ½ÑĨÐ¸
__ _
ĠÑģÑĤÐ°ÑĤÑĮ Ñı
ĠÐ¾Ð¿ÐµÑĢ Ð°ÑĤÐ¸Ð²Ð½Ð¾
Ð°Ð± ÑĢ
ĠÑģÐ¿ ÑĥÑĤ
Ðł Ðµ
ĠÐĴ ÐĴ
ĠÐ¿Ð¾Ð´Ð´ÐµÑĢÐ¶ Ð°Ð½Ð¸Ñı
ĠÑįÑĤ Ð¸
Ġ5 9
ĠÐ¸ÑģÐ¿Ð¾Ð»Ð½Ð¸ÑĤÐµÐ»ÑĮ Ð½ÑĭÐ¹
ĠÑĥÑģÑĤÐ°Ð½Ð¾Ð²Ð»ÐµÐ½ Ð½Ð¾Ð³Ð¾
ĠÐ¿Ð¾Ðº Ð°Ð·
ĠÐ¾ÑģÐ½Ð¾Ð² Ñĭ
ĠÐ¾ÑģÐ½Ð¾Ð² Ð½Ð¾Ð¹
ĠÐ¾Ð¿ÑĢÐµÐ´ÐµÐ» ÑıÑĤÑĮ
ĠÐ¾Ð¿ÑĢÐµÐ´ÐµÐ» ÐµÐ½Ð½ÑĭÐ¹
ĠÐŀ ÑĨÐµÐ½ÐºÐ°
ĠÐ¸Ð¼ ÐµÑĤÑĮ
ĠÐ¤ÐµÐ´ÐµÑĢÐ°Ð»ÑĮ Ð½Ð¾Ðµ
Ð°ÑĤÐ¸Ð² Ð½Ð¾Ð³Ð¾
ĠÐ´Ð¾Ðº Ð°Ð·Ð°ÑĤÐµÐ»ÑĮ
Ġ10 1
ĠÐ·Ð½Ð°Ñĩ Ð¸Ð¼
ĠÐ·Ð½Ð°Ñĩ Ð¸Ð¼Ð¾ÑģÑĤÑĮ
ĠÑĨÐµÐ½ÑĤ ÑĢÐ°Ð»Ð¸Ð·Ð¾Ð²Ð°Ð½
ĠÐ¿ÑĢÐµÐ´ÑģÑĤÐ°Ð² Ð¸ÑĤÐµÐ»Ð¸
11 8
ÐĶ Ð¾Ð»Ñı
ĠÑģÐ¾ÑģÑĤÐ°Ð² Ð°Ð¼
ĠÐ£ ÑģÑĤÐ°Ð½Ð¾Ð²
ĠÐ±Ð°Ð· Ñĥ
ĠÑģÐ»ÑĥÑĩÐ° Ð¸
ĠÑįÐºÑģÐ¿ÐµÑĢÐ¸Ð¼ÐµÐ½ÑĤ Ð°Ð»ÑĮÐ½ÑĭÐ¹
ĠÐ·Ð°ÐºÐ¾ Ð½Ñĭ
ĠÐ³ÑĢÐ°Ð½ ÑĤÑĭ
ĠÐ¾ÑĤÑĩÐµÑĤ Ð¾Ð²
ĠÐ²ÑĭÑģÐ¾Ðº Ð¾Ð²Ð¾Ð»ÑĮ
ĠÑĩÐ°ÑģÑĤ Ð¾ÑĤ
ĠÑĢÐ°ÑģÑħÐ¾Ð´ Ð½Ð¾Ð³Ð¾
ĠÐ¾Ð³ÑĢÐ°Ð½Ð¸Ñĩ ÐµÐ½Ð¸Ðµ
ĠÐ¶ Ð¸Ð»
ĠÐ·Ð°Ð¿ Ð¸ÑģÑĮ
Ðľ Ð¾Ð´ÐµÑĢÐ½Ð¸Ð·Ð°ÑĨÐ¸Ñı
ĠÑĢÐ°ÑģÐ¿ÑĢÐ¾ÑģÑĤÑĢÐ°Ð½ ÐµÐ½Ð¸ÐµÐ¼
ĠÐ²ÑĭÐ¿Ð¾Ð»Ð½ ÐµÐ½Ð½ÑĭÑħ
ĠÐ²ÑĭÐ¿Ð¾Ð»Ð½ ÑıÑĤÑĮ
ÑĥÐ³ Ð°
ĠÐ´ÑĢÑĥÐ³ Ð¾Ð¹
Ðļ ÑĢÐ¾Ð¼Ðµ
ĠÐĺ ÑģÐº
ĠÐ²Ð½ÐµÐ´ÑĢ ÐµÐ½Ð¸Ð¸
ĠÐ¿Ð»Ð°Ð½ Ð¾Ð¼
ĠÑĢÐ°Ð·Ð¼ÐµÑī ÐµÐ½Ñĭ
ĠÐ½Ð¾ÑĢÐ¼ Ð°Ð¼Ð¸
ĠÐ¾Ð±ÑĥÑĩ ÐµÐ½Ð¸Ñİ
ĠÑĢÐµÐ³Ð¸Ð¾Ð½ Ðµ
ĠÐ´Ð¾Ð»Ð¶ Ð½Ð¾ÑģÑĤÐ½ÑĭÑħ
ĠÐ¾Ð±Ð¾ÑĢ Ð¾Ð½Ðµ
ĠÐ·Ð°ÐºÐ»ÑİÑĩ ÐµÐ½Ð¸Ð¹
ĠÐ¾Ð´ Ð½Ð¾
ĠÐ¾Ð´ Ð½Ð¾Ð¼Ñĥ
ĠÑģÐ¸Ð» Ñĭ
ĠÐ²Ð¾Ð·Ð¼Ð¾Ð¶ Ð½ÑĭÑħ
ĠÐ¼ÑĥÐ½Ð¸ÑĨÐ¸Ð¿ Ð°Ð»ÑĮÐ½ÑĭÐµ
ĠÐ¼ÑĥÐ½Ð¸ÑĨÐ¸Ð¿ Ð°Ð»ÑĮÐ½ÑĭÐ¼Ð¸
ĠÐºÑĢ Ð°ÑĤ
ĠÐ¼ÐµÐ´Ð¸ÑĨÐ¸Ð½ Ðµ
ĠÐĵ ÑĢÐ°Ð½
ĠÑĢÑĭ Ð½Ð¾Ñĩ
ĠÑįÐºÑģÐ¿ÐµÑĢÑĤ Ð½ÑĭÐ¹
ĠÑįÐºÑģÐ¿ÐµÑĢÑĤ Ð¸Ð·Ñĥ
Ġ14 3
ĠÑĤÑĢÐ°Ð½ÑģÐ¿Ð¾ÑĢÑĤ Ð¸ÑĢÐ¾Ð²ÐºÐ¸
ÑĤÐµÑħÐ½Ð¾Ð»Ð¾Ð³ Ð¸ÑĩÐµÑģÐºÐ¾Ðµ
ĠÑģÐ¿Ð¾ÑģÐ¾Ð± Ñĭ
ĠÑģÐ¿Ð¾ÑģÐ¾Ð± Ð¾Ð¼
ĠÑģÐ¿Ð¾ÑģÐ¾Ð± ÑģÑĤÐ²ÑĥÐµÑĤ
ĠÑģÐ¿Ð¾ÑģÐ¾Ð± ÑģÑĤÐ²Ð¾Ð²Ð°ÑĤÑĮ
ĠÑģÐ¾Ð·Ð´ Ð°ÑİÑĤ
ĠÐ²ÑĭÑĩÐ¸ÑģÐ» ÐµÐ½Ð¸Ñı
ÐµÐ´Ð¸Ð½ Ð¸ÑĨ
ĠÑĥÑģÑĤÐ°Ð½Ð°Ð²Ð» Ð¸Ð²Ð°
ĠÑĥÑģÑĤÐ°Ð½Ð°Ð²Ð» Ð¸Ð²Ð°ÑİÑĤ
ÑıÑī ÐµÐ¹
ĠÐ²Ð¾ ÐµÐ½Ð½Ð¾
ĠÐ¾Ð±ÐµÑģÐ¿ÐµÑĩÐ¸Ð² Ð°ÑİÑīÐµÐ¹
ĠÐ½Ð¾Ð¼ Ð¸Ð½
Ð»Ð°ÑģÑĤ ÑĮ
15 6
ĠÐ¾Ð¿ÑĤ Ð¸ÑĩÐµÑģÐºÐ¾Ð³Ð¾
ĠÐ¾Ð¿ÑĤ Ð¸ÐºÐ¸
ĠÐĹ Ð°Ð´
ĠÑģÐ²Ð¾ Ñİ
ĠÐ¢ ÐµÑĢÐ¼Ð¸Ð½Ñĭ
ĠÐ¿Ð¾Ð»Ð¸ÑĤ Ð¸ÑĩÐµÑģÐºÐ¸Ñħ
ĠÐ¸ÑģÐ¿Ð¾Ð»Ð½ ÐµÐ½Ð¸Ð¸
ĠÐ¸ÑģÐ¿Ð¾Ð»Ð½ Ð¸ÑĤÐµÐ»ÐµÐ¹
ĠÐ±Ð¾Ð»ÑĮ ÑĪÐ¸Ð¼
Ð¾ÑģÐº Ð¾ÑĢÐ¾ÑģÑĤ
ĠÑģÑĥÐ´ Ð¾Ð¿ÑĢÐ¾Ð¸Ð·Ð²Ð¾Ð´
in ing
ĠÐ¿Ð¾ÑĤÑĢÐµÐ± Ð¸ÑĤÐµÐ»ÑĮ
Ðĳ ÑİÐ´Ð¶ÐµÑĤ
Ð¿ÐµÑĢ Ð²
ĠÑģÑĤÑĢÐ°ÑĤÐµÐ³ Ð¸ÑĩÐµÑģÐºÐ¸Ðµ
ÑĢÐ¾Ð¹ ÑģÑĤÐ²Ð°
ĠÐ½Ð°Ð± Ð¾ÑĢÑĭ
ĠÑįÐ½ÐµÑĢÐ³ Ð¸Ð¸
ĠÑģÑĤÐ°Ð½Ð´Ð°ÑĢÑĤ Ðµ
ĠÐ¿ÑĢÐµÐ´ÑģÑĤÐ°Ð²Ð»ÐµÐ½ Ð¸Ñİ
ĠÐ¾Ð¿ÑĭÑĤ Ð½ÑĭÑħ
ĠÑĤÐ¸Ð¿ Ð¾Ð²Ð¾Ð³Ð¾
ĠÑĢÐµÐº ÑĢÐµÐ°ÑĨÐ¸Ð¾Ð½Ð½Ð¾Ð¹
ĠÑįÑĤÐ°Ð¿ Ñĭ
ĠÐ¿Ð¾Ð´Ð¿Ð¸Ñģ ÑĮÑİ
ĠÐ¿Ð¾Ð¼ ÐµÑī
ĠÐķ Ð´Ð¸
ĠÐ¸Ð½ÑĤÐµÑĢ ÑĦÐµÐ¹
ĠÐ¼Ð¾Ñī Ð½Ð¾ÑģÑĤÑĮÑİ
ĠÑįÐºÐ¾Ð»Ð¾Ð³ Ð¸ÑĩÐµÑģÐºÐ¸Ñħ
Ð¿ÑĢÐ¾Ð³ÑĢÐ°Ð¼Ð¼ Ð°
ĠÑģÐ¾Ð²ÑĢÐµÐ¼ ÐµÐ½Ð½ÑĭÐ¼
ĠÐ°ÐºÑĤÑĥ Ð°Ð»ÑĮÐ½Ð¾ÑģÑĤÑĮ
ĠÑĢÐ°Ð·Ð´ÐµÐ» Ñĥ
Ð°ÑİÑīÐµÐ¹ ÑģÑı
ĠÐ¾ÑĤÐ²ÐµÑĤÑģÑĤÐ²ÐµÐ½ Ð½ÑĭÐµ
ĠÐ¾ÑĤÐ²ÐµÑĤÑģÑĤÐ²ÐµÐ½ Ð½Ð¾ÑģÑĤÑĮÑİ
Ð¾ÑģÐ¼ Ð¸ÑĩÐµÑģÐºÐ¾Ð¹
ĠÐ·Ð°Ð¼ ÐµÑĩ
ĠÐºÑĢÐ¸ÑĤÐµÑĢ Ð¸ÐµÐ²
ĠÐ¿Ð»Ð°Ð½Ð¾Ð² Ð¾Ð³Ð¾
ĠÐ´ÐµÐ» ÐµÐ³
ĠÑĤÐµÐ¼ Ñĥ
Ð¸ÑĢÑĥÑİÑī ÐµÐ¹
ĠÐ¸Ð·Ð¼ÐµÐ½ÐµÐ½Ð¸Ñı Ð¼Ð¸
ÐłÐĲ ÐĿ
ĠÐ¿ÑĢÐ¾Ð²Ð°Ð¹Ð´ÐµÑĢ Ð¾Ð¼
Ð¸ÑĢÐ¾Ð²Ð°ÑĤÑĮ ÑģÑı
ĠÐ¿ÑĢÐ¸Ð»Ð¾Ð¶ ÐµÐ½Ð¸Ðµ
ĠÑģÐ¼ ÑĭÑģÐ»
ĠÐ¿Ð¾Ð¸ÑģÐº Ð¾Ð²ÑĭÑħ
ĠÐ¿ÑĢÐ¸ÑĢ Ð¾ÑģÑĤ
Ġ07 1000
ĠÐ¼Ð°Ð» Ð¾Ð³Ð¾
ĠÐ³ÑĢÐ°Ð½ÑĤÐ¾Ð² Ð°Ñı
ĠÐºÐ°Ð·Ð½Ð°ÑĩÐµÐ¹ ÑģÐºÐ¸Ð¹
ĠÐ¿Ð¾Ð½ Ð¸Ð¼Ð°ÐµÑĤÑģÑı
ĠÐ¸Ð½Ð´Ð¸Ðº Ð°ÑĤÐ¾ÑĢÑĭ
ĠÑģÐ¾Ð²Ð¾ÐºÑĥÐ¿ Ð½ÑĭÐ¹
ĠÐ½Ð°Ð¿ÑĢÐ°Ð²Ð»Ñı ÑĤÑĮ
ĠÐ°Ð»Ð³Ð¾ÑĢÐ¸ÑĤÐ¼ Ð°
ĠÐ¿ÑĢÐµÐ´ÑĪÐµÑģÑĤÐ²ÑĥÑİÑī Ð¸Ð¹
ĠÐŁÑĢÐ¾Ð³ÑĢÐ°Ð¼Ð¼ Ð¾Ð¹
ĠÐ³ÐµÐ½ ÐµÑĤ
ĠÐ´Ð¾Ð¼ ÐµÐ½Ð½Ð¾Ð³Ð¾
ĠÑĤÐ¾Ð¿ Ð¾Ð»Ð¾Ð³
ĠÐ¿ÑĢÐµÐ´Ð½Ð°Ð·Ð½Ð°Ñĩ ÐµÐ½Ñĭ
ÑĢÐ¾Ð´ Ð¸Ð½Ð°Ð¼
ĠÐ±Ð¸ Ð¾Ð¼ÐµÑĤÑĢÐ¸ÑĩÐµÑģÐºÐ¸Ñħ
ĠÐ¡Ð¾Ð² ÐµÑĤ
ĠÐ¿ÑĢÐµÐ¿Ð°ÑĢÐ°ÑĤ Ñĭ
ĠÐ¿Ð¾Ð² Ð»ÐµÑĩ
ĠÐ²ÐµÑģ ÑĮ
ĠÐ¸ÑģÑħÐ¾Ð´ Ð½ÑĭÑħ
ĠÐ¸Ð½Ð²ÐµÑģÑĤÐ¸ÑĨÐ¸Ð¾Ð½ Ð½Ð¾Ð¹
ĠÐ¾ÑģÐ²Ð¾ ÐµÐ½Ð¸Ðµ
Ð¸Ð½ÑĦÐ¾ÑĢÐ¼ Ð°ÑĨÐ¸Ñı
ĠÐºÑĥÐ»ÑĮÑĤÑĥÑĢ Ð½Ð¾
ĠÐ·Ð°ÐºÑĥÐ¿ ÐºÑĥ
ĠÐ¸Ð·Ð¼ÐµÑĢ ÐµÐ½Ð¸Ð¹
ĠÐ°ÑĤ Ð¼Ð¾ÑģÑĦÐµÑĢ
ĠÑĥÑģÑĤÑĢÐ°Ð½ ÐµÐ½Ð¸Ðµ
ĠÐ¾ÑĤÑĢÐ°Ð¶ ÐµÐ½Ð¸Ñı
ĠR fi
ÑĨÐµÐ» ÐµÐ¹
ĠÑĩÐ¸ÑģÑĤ Ð¾Ð¹
ĠÐĿÐ°ÑģÑĤÐ¾ÑıÑī Ð¸Ðµ
ĠÐºÐ¾Ð½ÑĦÐ¸Ð´ÐµÐ½ÑĨÐ¸ Ð°Ð»ÑĮÐ½Ð¾ÑģÑĤÐ¸
ĠÐ²ÑĭÑıÐ²Ð»ÐµÐ½ Ð½ÑĭÑħ
ĠÐºÐ¾Ð½ÑĤ Ð°ÐºÑĤ
ĠÑģÐµÑĤÐµÐ² Ð¾Ð³Ð¾
ĠÐ³Ð»Ð¾Ð± Ð°Ð»ÑĮÐ½ÑĭÑħ
Ð½Ð°Ð´Ð·Ð¾ÑĢ Ð°
ĠÐ²ÑĭÐ±Ð¾ÑĢ Ð°
ĠÐľÐ¾ÑģÐºÐ¾Ð² ÑģÐºÐ¸Ð¼
ĠÐºÐ°Ð½Ð°Ð» Ð¸Ð·
ĠÐ¿ÑĢÐ¸Ð¾ÑģÑĤÐ°Ð½Ð¾Ð²Ð»ÐµÐ½ Ð¸Ð¸
ĠÐ´Ð¾ÑģÑĤÐ¸Ð³Ð½ÑĥÑĤ Ð¾Ðµ
ĠÐ¿Ð¾Ð»ÑĮÐ·Ð¾Ð²Ð°ÑĤÐµÐ» ÑıÐ¼Ð¸
ĠÐ±Ð»Ð°Ð³ Ð¾Ð´Ð°ÑĢÑı
ĠÐ¿Ð¾Ð±ÐµÐ´ Ð¸ÑĤÐµÐ»ÐµÐ¹
ĠÐ¿Ð¾Ð±ÐµÐ´ Ð¸ÑĤÐµÐ»Ñı
ĠÐ¿Ð¾Ð´ÑĢÐ°Ð·Ð´ÐµÐ» Ð¾Ð¼
ĠÐ¿ÑĢÑıÐ¼ Ð¾Ð³Ð¾
ĠÐ½ÐµÐ¿ÑĢ ÐµÑĢÑĭÐ²
ĠÐºÐ»Ð°ÑģÑģ Ð°
ĠÐ´Ð¾ÑĢÐ¾Ð³ Ð¸
ĠÑĥÑĩÐ° ÑģÑĤÐ²ÑĥÑİÑīÐ¸Ñħ
ĠÐĳÐ°Ð»ÑĤÐ¸Ð¹ ÑģÐºÐ¾Ð³Ð¾
ĠÐºÐ°ÑĤ Ð°Ð»
ĠÑģÐ± Ð°Ð»Ð°Ð½Ñģ
ĠÐ¸ÑģÑģÐ»ÐµÐ´Ð¾Ð²Ð°ÑĤÐµÐ»ÑĮ ÑģÐºÐ¸Ð¼
ĠÐ¿ÑĢÐµÐ´ÑĥÑģÐ¼Ð°ÑĤÑĢÐ¸Ð² Ð°ÑİÑīÐ¸Ñħ
ĠÐ¾Ð±Ð¾ÑģÐ½ Ð¾Ð²Ð°Ð½Ð¸Ðµ
ĠÐ¼Ð°ÑĤÐµÐ¼Ð°ÑĤ Ð¸ÑĩÐµÑģÐºÐ¾Ð³Ð¾
ĠÐ³ÑĢÐ°Ð½ÑĤ Ð¾Ð¿Ð¾Ð»ÑĥÑĩ
ĠÐºÐ°ÑĢÑĤ Ñĭ
ĠÐ²Ð¾Ð»Ð¾Ðº Ð½Ð°
Ġc on
ĠÐ¿ÑĢÐµÐ¿ÑıÑĤ ÑģÑĤÐ²
ĠÑĥÐ½Ð¸ÑĩÑĤÐ¾Ð¶ ÐµÐ½Ð¸Ðµ
ĠÐ¿ÑĢÐ¾ÑģÐ¿ÐµÐºÑĤ Ð¾Ð¼
ĠÐ½ÐµÐ´Ð¾Ð¿ ÑĥÑī
ĠÐ¸Ð½Ð´ÑĥÑģÑĤÑĢÐ¸ Ð°Ð»ÑĮÐ½ÑĭÑħ
ĠÐ½ÐµÐ¿ÑĢÐµÐ´ÑģÑĤÐ°Ð² Ð»ÐµÐ½Ð¸Ðµ
ĠS i
ĠÐ¿Ð°ÑĨÐ¸ ÐµÐ½ÑĤÐ¾Ð²
Ð¸Ð¼Ð¿ Ð¸Ð°Ð´
ĠÐ½ÐµÑģÐ¾Ð± Ð»ÑİÐ´
ĠÐ²Ð¸ÑĢ ÑĤÑĥ
ĠÑģÑĤÐ°Ð² ÐºÐ¸
ĠÐ¿ÑĢÐµÐ¸Ð¼ ÑĥÑīÐµÑģÑĤÐ²
ĠÐ¿ÑĢÐµÐ¸Ð¼ ÑĥÑīÐµ
ĠÐ»Ð¸Ð½ÐµÐ¹ Ð½Ð¾Ð¹
Ð¾ÑĦ ÑĪ
ĠÑĥÐºÐ°Ð·Ð°ÑĤÐµÐ» Ð¸
ĠÑĢÐ°ÑģÐ¿Ð¾Ð»Ð¾Ð¶ ÐµÐ½Ð½ÑĭÑħ
ĠÐ¿ÑĢÐ¾ÑĪÐµÐ´ ÑĪÐ¸Ñħ
ĠÐŁÐµÑĢÐµÑĩ Ð¸ÑģÐ»ÐµÐ½Ð¸Ðµ
ĠÑĤÐµÐ½Ð´ ÐµÐ½ÑĨÐ¸Ð¸
ĠÐłÐ°ÑģÐ¿ Ð¾Ð·Ð½Ð°Ð²Ð°Ð½Ð¸Ðµ
ĠÐŁÑĢÐ¸Ð¼ Ð¾ÑĢÑģÐºÐ¾Ð¹
ĠÐ²Ð·Ð°Ð¸Ð¼Ð¾ÑģÐ²ÑıÐ· Ð°Ð½Ð½ÑĭÑħ
ĠÐ¾Ð» Ð¸Ð¼Ð¿Ð¸Ð°Ð´
ĠÐ¾Ð±ÑĥÑģÐ» Ð¾Ð²
** )
Ġ120 0
ĠÑĤÐµÑħÐ½Ð¾Ð³ ÐµÐ½Ð½ÑĭÑħ
ĠÐ»ÑİÐ´ ÐµÐ¹
ĠÑģÐ²Ð¸Ð´Ðµ ÑĤÐµÐ»ÑĮ
ĠÑĢÐµÐºÐ¾Ð½ÑģÑĤÑĢÑĥÐº ÑĨÐ¸ÐµÐ¹
Ð¸Ð½ÑĤÐµÐ»Ð»ÐµÐºÑĤ Ð°
ĠÐ½Ð°ÑĩÐ¸Ð½ Ð°Ñı
ĠÐ¼Ð°ÑĢÑĪÑĢÑĥ ÑĤÐ°
ĠÑģÐ²ÐµÑĢÑħÐ²ÑĭÑģÐ¾Ðº Ð¾ÑĩÐ°ÑģÑĤ
ĠÐ´Ð¸ÑģÐ¿Ð°Ð½ÑģÐµÑĢ Ð¸Ð·Ð°ÑĨÐ¸Ð¸
Ð½Ð¾Ð¶ Ðµ
ĠÐ´Ð¸ÑĦ ÑĦÐµÑĢÐµÐ½ÑĨÐ¸
ĠÐ³Ð»ÑĥÐ± Ð¾Ðº
ĠÐµÐ´Ð¸Ð½Ð¾Ð» Ð¸ÑĩÐ½Ð¾Ð³Ð¾
ĠÐ¾Ð±Ð½Ð¾Ð² Ð»ÐµÐ½Ð¸Ðµ
ĠÐ¾ÑĤÐ¼ÐµÐ½ Ðµ
ĠÐ¡Ð¾Ð´ ÑĢÑĥÐ¶Ðµ
Ð¿ÑĢÐµÐ´Ð¾ÑģÑĤÐ°Ð² Ð»ÐµÐ½Ð¸Ñı
ÐĺÐ½Ð²ÐµÑģÑĤÐ¸ÑĨÐ¸Ð¾Ð½ Ð½ÑĭÐµ
ĠÐ¾Ð·Ð½Ð°ÐºÐ¾Ð¼ Ð»ÐµÐ½Ð¸Ñı
ĠÐ´Ð¸Ð· Ð°Ð¹Ð½
Ð¾ÐºÐ°Ð· Ð°Ð½Ð¸ÐµÐ¼
ĠÐ¸Ð¼Ð¼ Ñĥ
ĠÐ½ÐµÐ´Ð²Ð¸Ð¶ Ð¸Ð¼Ð¾Ð³Ð¾
ĠÐ¶Ð¸Ð·Ð½ÐµÐ´ÐµÑıÑĤÐµÐ»ÑĮ Ð½Ð¾ÑģÑĤÐ¸
ĠÐķÐ²ÑĢÐ°Ð· Ð¸Ð¹
Ð¿Ð¾ÑģÑĤÐ°Ð² ÐºÐµ
Ð¾Ð´Ð³Ð¾ÑĤÐ¾Ð² ÐºÐ¸
Ð¸ÑģÐºÑĥÑģ ÑģÑĤÐ²ÐµÐ½Ð½Ð¾Ð³Ð¾
ĠÐ½ÐµÑģÐ¾Ð²ÐµÑĢÑĪÐµÐ½Ð½Ð¾Ð» ÐµÑĤÐ½Ð¸Ñħ
ode l
ĠÑģÐµÐ¹ ÑĩÐ°Ñģ
ĠÐļÐ¾Ð»ÑĮÑĨ ÐµÐ²Ð¾Ð³Ð¾
E C
V I
a t
a ut
a ge
c o
n i
o f
t h
Ġ B
Ġ k
Ġ on
Ġ an
Ð¾ Ñħ
Ð¾ ÑĢÐ°Ð·
Ð¾ Ð¾ÑĢÐ´Ð¸Ð½
Ð½ ÐµÐº
ÑĤ Ð¾ÑĢÐ¾Ð²
Ñģ ÑĥÐ´Ð°ÑĢ
ÑģÑĤ ÑĢÐ¾
ÑģÑĤ ÐµÐ½Ð´
ÑģÑĤ ÑĢÐ¾Ð´
Ñĭ Ð»Ð¸
ÐµÐ½ Ñĩ
ÐµÐ½ ÑĨÐ¸Ñı
Ðº Ð¾ÑĢ
Ðº Ð¸Ðµ
Ðº Ð¾Ð³
Ðº Ð¾Ð³Ð¾
Ðº ÑĥÑĢÑģ
Ðº Ð¾ÑģÑĤÑĮÑİ
ÑĮ ÐµÐ·
Ð°Ð½ ÐºÑĨÐ¸Ð¾Ð½
Ñĩ ÐµÑĢÐµÐ·
ĠÑģ Ð¼ÐµÐ½
ĠÑģ ÑģÑĭ
ĠÑģ Ð³ÑĢÑĥÐ¿Ð¿
ĠÐ² ÐµÐºÑĤ
ĠÐ² Ð°ÑĢÐ¸
ĠÐ² ÐµÐ½Ñĩ
ÐµÐ´ ÑģÑĤÐ²
Ð¾ÑĢ ÑĨÐ¸
Ð¾ÑĢ ÐµÑģ
Ð¾ÑĢ Ð¸ÐµÐ½ÑĤ
ĠÐ½ ÐµÑħ
ÑģÐº ÑĥÑĢÑģ
Ñİ Ð¼Ð¸Ð½
ÑĦ Ð»
Ð¾Ð´ ÐµÑĢÐ¶
Ð¾Ð´ Ð¾ÑĢÐ¾Ð´
ÐµÑĤ Ð¾Ð²
Ð¾Ð½ Ð¸Ñı
ĠÑĢ Ð¾ÑģÐ¿
Ð°ÑĤ ÑĭÑħ
Ð¾Ð¹ Ð½ÑĭÑħ
ÐµÐ¼ Ð¾Ð¼
Ð¾Ð³ ÐµÐ½Ð½ÑĭÑħ
ĠÐ· Ð°Ð»
Ð³ Ð°
Ð¸ÑĤ Ð°ÑĢÐ½ÑĭÑħ
Ð¸Ñĩ Ð½ÑĭÐ¹
Ð¸Ð½ ÑĨÐ¸Ð¿
ĠÐ¤ Ð¸Ð½Ð°Ð½
Ð± Ð¸
ĠÐ¾ÑĤ Ð´
Ð¾ÑģÑģ Ð¸Ñı
ĠÐł ÐµÐºÐ¾Ð¼ÐµÐ½Ð´
ĠÐł ÑĥÐºÐ¾Ð²Ð¾Ð´Ð¸ÑĤÐµÐ»ÑĮ
Ð°ÑģÑĤ ÑĢÐ¾ÑĦ
ĠÐŁ Ð¾Ð½
ĠÐ³ ÑĢ
Ð°ÑĢ Ð°Ñı
ĠÑĢÐ°Ð· Ð¼ÐµÑĤ
Ġ1 16
Ð¸ÑĢ Ð¾Ð´
ĠÐ¿ÑĢÐ¾ ÑħÐ¾Ð¶Ð´
ÑİÑī Ð°Ñı
ÑĥÐ½ Ð´
Ð¸ÑĤÐµÐ»ÑĮ Ð½Ð°Ñı
Ð¸ÑĤÐµÐ»ÑĮ Ð½Ð¾ÑģÑĤÑĮÑİ
ĠÑģÑĤ Ð°Ð½Ð¾Ð²
Ð¾Ð¿ Ð¾Ð²
Ð¾Ð¿ ÑĢÐ°Ð²
Ð°Ñģ Ñĭ
Ð½Ð¾Ð» Ð¸ÑĤÐ½ÑĭÑħ
ÐµÐ· Ð´Ð¾Ðº
ÑĢÐµÐ´ Ð¸ÑĤ
ĠÑĤÐµÑħÐ½Ð¾Ð»Ð¾Ð³ Ð¸Ñı
ĠÐ¾Ñģ Ð²
Ġ2 16
Ġ2 29
ĠÑįÐº ÑģÐºÑĥÑĢÑģ
Ġ20 35
ĠÐ» Ð¸ÑģÑĤ
Ð¾Ñĩ Ð¸Ðµ
ĠÐ½Ð°ÑģÑĤ ÑĥÐ¿
ĠÐ³Ð¾ÑģÑĥÐ´Ð°ÑĢ ÑģÑĤÐ²Ð¾
ĠÐ¿Ð¾Ð»ÑĥÑĩ ÐµÐ½Ð½Ð¾Ð¹
ĠÐ¿Ð¾Ð»ÑĥÑĩ ÐµÐ½Ð½ÑĭÐµ
ĠÐ¿ÑĢÐ¾ÐµÐºÑĤ Ð°Ð¼Ð¸
Ð´Ð°Ð½ Ð¸Ð¹
ĠÐ¿ÑĢÐµÐ´Ð¾ÑģÑĤÐ°Ð² Ð»ÑıÐµÑĤ
ÐµÐ² ÑĭÐ¼Ð¸
ÑĥÑİÑī Ð°Ñı
ĠÑĥÑĩ Ð°ÑīÐ¸Ñħ
Ġ3 3
Ð¡ Ð¾ÑĨÐ¸
ĠÐ¡ Ð¾Ð±ÑĢÐ°Ð½
ĠÐ·Ð°ÐºÐ¾Ð½ Ðµ
Ð¤ ÐŁÐ£
ĠÑĢÐµÐ· ÐµÑĢÐ²
ĠÐľ Ð¾Ð´
ĠÐľ Ð°ÑĪÐ¸Ð½
ĠÐ±ÑİÐ´Ð¶ÐµÑĤ Ð½Ð¾Ð¼Ñĥ
Ð¿ÑĢ Ð¸Ð±
ÑĥÐ¼ Ð¾Ð²
ĠÑĢÐ°Ð·ÑĢÐ°Ð±Ð¾ÑĤ Ð°Ð½Ð½ÑĭÐµ
Ð¼Ð¾ÑĤÑĢ ÐµÐ½Ð¸Ðµ
ĠÑĥÐºÐ°Ð·Ð°Ð½ Ð¸Ðµ
ĠÐ¼ÐµÑĢ Ðµ
Ð¼ÐµÑĢ Ð½ÑĭÑħ
ĠÑģÐ¿ Ð¸ÑĢ
ĠÑĥÐ¿ Ð»Ð°Ñĩ
Ðł Ð¾ÑģÑģÐ¸Ñı
ĠÑģÐ¾Ð·Ð´Ð°Ð½ Ð°
Ġ0 6
ĠÐ¿ÑĢÐ¾Ð´ Ð»ÐµÐ½
Ð¸Ð¾Ð½ Ð°
Ġ5 26
ĠÑĥÑģÑĤÐ°Ð½Ð¾Ð²Ð»ÐµÐ½ Ð¸Ñİ
ĠÐ¿ÑĢÐ¾Ð¸Ð·Ð²Ð¾Ð´ ÑģÑĤÐ²ÐµÐ½Ð½Ð¾Ð¹
ĠÐ¾ÑģÐ½Ð¾Ð² Ð½Ð¾Ð¼
ĠÐ¾ÑģÐ½Ð¾Ð² Ð¾Ð¿Ð¾Ð»Ð°Ð³
ĠÐ¾Ð¿ÑĢÐµÐ´ÐµÐ» ÐµÐ½Ð¸Ñİ
ĠÐ¾Ð¿ÑĢÐµÐ´ÐµÐ» ÐµÐ½Ð½Ð¾Ð³Ð¾
ĠÐ¾Ð¿ÑĢÐµÐ´ÐµÐ» ÐµÐ½Ð½Ð¾Ð¼Ñĥ
Ġ4 9
ÑĭÐ² Ð°ÑĤÑĮ
ĠÐ²ÐºÐ»ÑİÑĩ Ð°ÑĤÑĮ
ĠÐ²ÐºÐ»ÑİÑĩ Ð°ÑİÑĤÑģÑı
ĠÐ²ÐºÐ»ÑİÑĩ ÐµÐ½Ð½ÑĭÐµ
10 4
ĠÐ½ÐµÐ¾Ð±ÑħÐ¾Ð´Ð¸Ð¼ Ð°Ñı
Ð¸Ð¼Ð° ÑİÑĤ
ĠÐ·Ð½Ð°Ñĩ Ð¸Ð¼Ð¾ÑģÑĤÐ¸
ĠÐ·Ð½Ð°Ñĩ Ð¸ÑĤÐµÐ»ÑĮÐ½Ð¾
ĠÐ¿ÑĢÐ¾Ð´Ñĥ Ðº
ĠÑĨÐµÐ½ÑĤ ÑĢÑĥ
Ð¾Ð¿Ð°Ñģ Ð½Ð¾ÑģÑĤÑĮ
ĠÑĤÐµÑĢ Ð¼Ð¸Ð½Ñĭ
Ð¸Ð¼ÐµÐ½ ÐµÐ½Ð¸Ðµ
ĠÐ´Ð¾ÑģÑĤÐ¸Ð¶ ÐµÐ½Ð¸Ñİ
ÐĶ Ðĺ
ĠÑģÐ¾ÑģÑĤÐ°Ð² Ñĭ
Ð°ÐµÐ¼ Ð¾ÑģÑĤÐ¸
ĠÑįÐºÑģÐ¿ÐµÑĢÐ¸Ð¼ ÐµÐ½ÑĤÐ°
ĠÐºÐ¾Ð¼Ð¿Ð»ÐµÐºÑģ Ð½ÑĭÐ¹
ÑĤÐµÑħ Ð¸Ð¼
ĠÐºÐ¾Ð½ÑĤÑĢÐ¾Ð» Ð¸ÑĢÑĥ
ĠÐ²ÑĭÑģÐ¾Ðº Ð°Ñı
ĠÐ²ÑĭÑģÐ¾Ðº Ð¾ÑģÐºÐ¾ÑĢÐ¾ÑģÑĤ
ĠÐ´Ð°Ð½ Ð½Ð¾Ð¼
ĠÐ¿ÑĢÐ¾Ð¼ÑĭÑĪÐ»ÐµÐ½ Ð½ÑĭÐµ
ĠÑģÐ¾Ð¾ÑĤÐ²ÐµÑĤÑģÑĤÐ²ÑĥÑİÑī Ð¸Ð¼Ð¸
ĠÐ¶ Ð¸Ð´
ÑĢÐ¾ÑģÑĤÑĢÐ°Ð½ ÐµÐ½Ð¸Ðµ
ĠÑĥÑĤÐ²ÐµÑĢÐ¶Ð´ Ð°ÐµÐ¼ÑĭÐ¹
ĠÐ·Ð°ÑīÐ¸ÑĤ Ð°
ĠÐ·Ð°ÐºÐ¾Ð½Ð¾Ð¼ ÐµÑĢ
ĠÑģÐ¾Ð´ÐµÑĢÐ¶ Ð¸ÑĤ
ĠÐ¾Ð±ÑıÐ·Ð°ÑĤÐµÐ»ÑĮ Ð½Ð¾Ð³Ð¾
ĠÐ¡ÑĤ Ð°ÑĢÐ°Ñı
ĠÐ¾ÑģÐ½ Ð°ÑģÑĤ
ĠÐ¾Ð±ÑĬÐµÐºÑĤ Ð°
ĠÐ¾ÑģÑĥÑīÐµÑģÑĤÐ²Ð»ÑıÑİÑī ÐµÐµ
Ġ6 6
ĠÐĺ ÑģÐ¿
ĠÐĿ Ð¾Ð²Ð°Ñı
ĠÐ¾ÑĨÐµÐ½ Ð¸Ð²Ð°ÐµÑĤÑģÑı
ĠÐ¾Ð±Ñī ÐµÑĢÐ¾ÑģÑģÐ¸Ð¹
ĠÑĢÐµÐ³Ð¸Ð¾Ð½ Ð¾Ð²
ĠÐ¿ÑĢÐ¸Ð² ÐµÑģÑĤÐ¸
Ð¿ÑĢÐ°Ð² Ð¾Ð²Ð¾Ðµ
ĠÑģÑĤÑĢÐ°Ð½ Ð°Ñħ
ĠÐ·Ð°ÐºÐ»ÑİÑĩ Ð°ÑİÑĤÑģÑı
ĠÐ·Ð°ÐºÐ»ÑİÑĩ Ð°ÐµÐ¼Ð¾Ð³Ð¾
Ð¾Ñį Ð»ÐµÐºÑĤÑĢ
ĠÐ¸ÑģÑĤ ÐµÑĩÐµÐ½Ð¸Ð¸
ĠÐ¿ÐµÑĢÐµÐ´ Ð°Ð²
17 3
ĠÐ¼ÐµÑģÑĤ Ð¾Ð¼
ĠÐ¼ÐµÑģÑĤ Ð¾ÑĢÐ¾Ð¶Ð´
ĠÐĵ Ð£ÐŁ
ĠÐ¾Ð¿ÑĢÐµÐ´ÐµÐ»Ñı ÑİÑīÐ¸Ð¹
Ð£ ÐºÐ°Ð·
ĠÐ¿Ð¾Ð´Ð³Ð¾ÑĤÐ¾Ð² ÐºÐ¾Ð¹
ĠÐ²Ð¸Ð´ Ð¾Ð¼
ĠÑĤÐµÑħÐ½ Ð¸ÑĩÐµÑģÐºÐ¾Ðµ
ĠÑĤÐµÑħÐ½ Ð¸ÑĩÐµÑģÐºÐ¸Ðµ
ĠÑĩÐµÐ»Ð¾Ð²ÐµÐº Ñĥ
ĠÑĤÑĢÐ°Ð½ÑģÐ¿Ð¾ÑĢÑĤ Ð½Ð¾Ð³Ð¾
ĠÐ°Ð´ ÐµÐºÐ²
ĠÐĶ Ð¾Ð¿Ð¾Ð»Ð½Ð¸ÑĤÐµÐ»ÑĮ
ĠÐ´Ð¾Ð¿Ð¾Ð»Ð½Ð¸ÑĤÐµÐ»ÑĮ Ð½Ð¾Ðµ
ĠÑģÐ¾Ð·Ð´ Ð°ÐµÑĤÑģÑı
ĠÐ¿Ð¾ÐºÐ°Ð·Ð°ÑĤÐµÐ»Ñı Ð¼
ĠÐ¾Ð±Ð¾ÑĢÑĥÐ´ Ð¾Ð²Ð°Ð½Ð¸ÐµÐ¼
Ġ18 1
ĠÑĤÑĢÑĥÐ´ Ð¾Ð²ÑĭÑħ
ĠÑĤÑĢÑĥÐ´ Ð¾ÐµÐ¼
ĠÑĢÐ°Ð´Ð¸ Ð¾ÑĤ
ĠÐ½ÐµÐ¿ Ð¾Ð»
ĠÐ¾Ð±ÐµÑģÐ¿ÐµÑĩÐ¸Ð² Ð°ÑİÑīÐ¸Ðµ
ĠÐ¶Ð¸Ð·Ð½ ÐµÐ½Ð½Ð¾Ð³Ð¾
ĠÐ°Ð¿Ð¿Ð°ÑĢÐ°ÑĤ Ð°
ĠÐ¾ÐºÐ°Ð· Ð°ÑĤÑĮ
ĠÐ¾ÐºÐ°Ð· Ð°Ð½Ð¸Ðµ
ĠÐ¾ÐºÐ°Ð· Ð°Ð½Ð¸Ð¸
ĠÐ¿ÐµÑĢÐµÑĩ Ð¸ÑģÐ»
ĠÐ¿ÐµÑĢÐµÑĩ Ð¸ÑģÐ»Ñı
ĠÐºÐ¾ÑĢ ÑĢÑĥÐ¿
ĠÐ¿ÐµÑĢÑģÐ¿ÐµÐºÑĤÐ¸Ð² Ð½Ð¾Ð¹
ĠÐ¿ÐµÑĢÑģÐ¿ÐµÐºÑĤÐ¸Ð² Ð½ÑĭÐ¼
ÐŀÐ± Ñī
ĠÐ¿ÑĢÐ¾ÑĨÐµÑģÑģ Ð°Ð¼Ð¸
ĠÑģÐ¾Ð´ÐµÑĢÐ¶Ð°Ñī Ð¸Ð¹
ĠÐĹ Ð°Ð²ÐµÑĢÑĪÐµÐ½Ð¸Ðµ
ĠÑĥÑĩÐ°ÑģÑĤÐ½Ð¸Ðº Ð°Ð¼
ĠÐ¸ÑģÐ¿Ð¾Ð»Ð½ Ñı
ĠÐ¸ÑģÐ¿Ð¾Ð»Ð½ Ð¸ÑĤÐµÐ»ÑıÐ¼Ð¸
ĠÑĢÑĥÐºÐ¾Ð²Ð¾Ð´ ÑģÑĤÐ²Ð¾Ð²Ð°ÑĤÑĮ
ĠÐ¿ÑĢÐ¾ÑĦÐµÑģÑģÐ¸Ð¾Ð½ Ð°Ð»ÑĮÐ½Ð¾Ðµ
ĠÐ½Ð¾Ð¼ÐµÑĢ Ð°
ĠÐ°Ð²ÑĤÐ¾Ð¼Ð°ÑĤ Ð¸ÑĩÐµÑģÐºÐ¾Ð³Ð¾
ĠÐ¿ÑĢÐµÐ´Ð¾ÑģÑĤÐ°Ð²Ð»Ñı ÑİÑīÐ¸Ñħ
ĠÐ¿ÑĢÐµÐ´Ð¾ÑģÑĤÐ°Ð²Ð»Ñı ÐµÐ¼Ð¾Ð³Ð¾
ĠÑĦÑĥÐ½ÐºÑĨÐ¸Ð¾Ð½ Ð¸ÑĢÐ¾Ð²Ð°Ð½Ð¸Ðµ
ĠÑįÐºÑģÐ¿Ð»ÑĥÐ°ÑĤ Ð°ÑĨÐ¸Ð¾Ð½Ð½ÑĭÑħ
ĠÐ¿Ð¾Ð·Ð²Ð¾Ð»Ñı ÑİÑīÐµÐ¹
ĠÐ¦ ÐµÐ»ÑĮ
ĠÑĥÐ²ÐµÐ»Ð¸Ñĩ ÐµÐ½Ð¸Ñİ
ĠÑģÑĤÐ°Ð½Ð´Ð°ÑĢÑĤ Ñĭ
ĠÑģÐµÑĢÐ²Ð¸Ñģ Ñĥ
ĠÐ¿ÑĢÐµÐ´ÑģÑĤÐ°Ð²Ð»ÐµÐ½ Ñĭ
ĠÐ·Ð°Ð² ÐµÑĢÑĪ
ĠÑĦÐ¾ÑĤ Ð¾Ð´Ð¸Ð¾Ð´
Ð»ÐµÑĩ ÐµÐ½Ð¸Ñı
ÑģÑĥÑĤ ÑģÑĤÐ²Ð¸Ðµ
ĠÑįÐ»ÐµÐ¼ ÐµÐ½ÑĤÐ°Ð¼Ð¸
ÐµÑħÐ°Ð½ Ð¸ÑĩÐµÑģÐºÐ¸Ñħ
ĠÑįÑĤÐ°Ð¿ Ð°
on om
ĠÐ¿Ð¾Ð¼ ÐµÑħ
ĠÐķ Ð¶
ĠÐ¼Ð¾Ñī Ð½Ð¾ÑģÑĤÑĮ
ÐºÐ¾Ð¼ Ð¼ÑĥÐ½
ĠÑıÐ·Ñĭ Ðº
ÐºÐ¾Ð½ Ñģ
ĠÑģÐ¾Ð²ÑĢÐµÐ¼ ÐµÐ½Ð½Ð¾Ð³Ð¾
ĠÐºÐ¾Ð¼Ð¿Ð¾Ð½ ÐµÐ½ÑĤ
ĠÑģÑĤÑĢÑĥÐºÑĤÑĥÑĢ Ð°
ĠÐ¿ÑĢÐ¾ÑĤÐ¸Ð² Ð¾
ĠÐ¿ÑĢÐ¾ÑĤÐ¸Ð² Ð¾Ð¿ÑĢÐ°Ð²
ĠÐºÑĢÐ¸ÑĤÐµÑĢ Ð¸ÑıÐ¼Ð¸
ĠÐ´Ð¾Ð²ÐµÑĢ ÐµÐ½Ð½ÑĭÐµ
ĠÑĥÑĩÑĢÐµÐ¶Ð´ ÐµÐ½Ð¸Ñİ
ĠÐ¿ÑĢÐ¸Ð½Ð¸Ð¼Ð° ÐµÐ¼ÑĭÐµ
ĠÑĤÐµÐ¼ Ð¿ÐµÑĢÐ°ÑĤÑĥÑĢ
ĠÑĢÐ¾ÑģÑĤ Ð¾Ð¼
ĠÑĥÐ¿ÑĢÐ°Ð² Ð»ÐµÐ½Ð¸Ð¸
ĠÐ¸Ð½ÑĤÐµÐ³ÑĢ Ð¸ÑĢÐ¾Ð²Ð°Ð½Ð½ÑĭÑħ
ĠÐ¿ÑĢÐ¸Ð½ÑĨÐ¸Ð¿ Ð°Ñħ
ĠÑĢÐ°ÑģÐ¿ÑĢÐ¾ÑģÑĤÑĢÐ°Ð½Ñı ÐµÑĤÑģÑı
ĠÑĥÑģÑĤÑĢÐ¾Ð¹ ÑģÑĤÐ²Ð°
ti c
ĠÐ²Ð°Ð» Ð¸Ð´
ĠÐ¦ÐµÐ½ÑĤ ÑĢÐ°Ð»ÑĮ
ĠÑįÐ»ÐµÐºÑĤÑĢ Ð¾Ð¼
ĠÐ¿Ð¾ÑģÐ»ÐµÐ´ Ð¾Ð²Ð°ÑĤÐµÐ»ÑĮ
ĠÑĤÐµÐ» ÐµÐ¼
ĠÐ¾ÑģÐ¾Ð± ÐµÐ½Ð½Ð¾ÑģÑĤÐ¸
ĠÐ¾ÑĤÐ½Ð¾Ñģ Ð¸ÑĤÑģÑı
ĠÐ°Ð²ÑĤÐ¾Ð¼Ð°ÑĤÐ¸Ð· Ð¸ÑĢÐ¾Ð²Ð°Ð½Ð½ÑĭÑħ
ĠÐ·Ð´ÑĢÐ°Ð²Ð¾Ð¾ÑħÑĢÐ°Ð½ ÐµÐ½Ð¸Ðµ
Ð¸ÑģÐ¿ Ð¾Ð»ÑĮÐ·
ĠÐ¾Ð±ÑĢÐ°Ð±Ð°ÑĤÑĭÐ² Ð°ÑİÑĤÑģÑı
Ð²Ð¾ ÐµÐ½Ð¸Ðµ
ĠÐºÐ» Ð¸Ð¼
Ð°Ð½Ð°Ð»Ð¸ÑĤ Ð¸ÑĩÐµÑģÐºÐ¾Ð³Ð¾
ĠÐ¿ÑĢÐµÐ´ÑģÑĤÐ°Ð²Ð»Ñı ÐµÑĤÑģÑı
ĠÐ¿ÑĢÐµÐ´ÑģÑĤÐ°Ð²Ð»Ñı ÐµÐ¼ÑĭÐµ
ĠÐ³ÑĢÐ°Ð½ÑĤÐ¾Ð² ÑĥÑİ
ĠÑģÐ¾Ð·Ð´Ð°Ð² Ð°ÑĤÑĮ
ĠÑģÐ¾ÑģÑĤÐ°Ð²Ð»Ñı ÑİÑīÐ¸Ðµ
ÑĢÐµÐ³ Ð¸Ð¾Ð½
ĠÐ¸Ð½ÑģÑĤÑĢÑĥÐ¼ ÐµÐ½ÑĤÐ°
ĠÐ¿ÑĢÐµÐºÑĢÐ°Ñī ÐµÐ½Ð¸Ðµ
ĠÐ¿ÑĢÐµÐºÑĢÐ°Ñī ÐµÐ½Ð¸Ñİ
ĠÑģÐ²ÑıÐ·Ð°Ð½ Ð°
ĠÑģÐ²ÑıÐ·Ð°Ð½ Ñĭ
ĠÑĥÐ»ÑĥÑĩ ÑĪÐµÐ½Ð¸Ðµ
Ð²Ð°Ð» Ð¸Ð´
Ð¾ÑĤÐ½Ð¾ ÑĪÐµÐ½Ð¸Ðµ
ĠÐĵÐ¾ÑģÑĥÐ´Ð°ÑĢ ÑģÑĤÐ²
ĠÐĵÐ¾ÑģÑĥÐ´Ð°ÑĢ ÑģÑĤÐ²ÐµÐ½Ð½ÑĭÐµ
ĠI TU
Ð°Ð²Ð¸Ñģ Ð¸Ð¼ÑĭÑħ
ĠÑĨÐµÐ½ Ð½Ð¾ÑģÑĤÑıÐ¼
ĠÑĢÐµÐ°Ð»Ð¸Ð·Ñĥ ÑİÑĤÑģÑı
98 18
ĠÐ¾ÑĢ Ð±
ĠÐ¿Ð¾ÑĢÑĥÑĩ Ð¸ÑĤÐµÐ»ÐµÐ¼
ĠÐºÐ°Ñģ Ð°ÑİÑīÐµÐ¹ÑģÑı
ĠÑĥÑģ Ð¸Ð»Ð¸
Ð¤ÐµÐ´ÐµÑĢ Ð°Ð»ÑĮÐ½ÑĭÐ¹
ĠÐ°Ð²Ð¸ Ð°Ðº
ĠÑĥÐºÑĢÐµÐ¿ Ð»ÐµÐ½Ð¸Ñı
ĠÐ¿ÑĢÐ¸ÑģÐ¾ÐµÐ´Ð¸Ð½ ÐµÐ½Ð¸Ð¸
ĠÐ¡ÑĤÑĢÐ°ÑĤÐµÐ³ Ð¸ÐµÐ¹
ĠÐ¿ÑĥÐ±Ð»Ð¸Ðº Ð°ÑĨÐ¸Ð¸
ĠÐ¿ÑĢÐ¾ÑĤÐ¾ÐºÐ¾Ð» Ð¾Ð¼
ĠÑģÐµÐºÑĤ Ð¾ÑĢÐ°
Ð½Ð¾Ð¿ ÑĢÐ¾ÑĦ
ĠÐ´Ð¸Ð°Ð¿Ð°Ð· Ð¾Ð½Ð°
ĠÑĦÐ°Ðº ÑĤÐ¾Ð²
ĠÐ½ÐµÐ¹ÑĢÐ¾Ð½ Ð½Ð°Ñı
ÑİÑīÐµÐ³Ð¾ ÑģÑı
ĠÐ½ÐµÐ¸ÑģÐ¿Ð¾Ð»Ð½ ÐµÐ½Ð½Ð¾Ð¹
ĠÑģÑĤÐµÐ½Ð´ Ð¾Ð²Ð¾Ð¹
ĠÑħÐ¸Ð¼ Ð¸ÑĩÐµÑģÐºÐ¸Ñħ
ĠÑģÐ¾Ð²ÐµÑĢ ÑĪÐµÐ½Ð¸Ñı
ĠÐ°Ð´Ð°Ð¿ÑĤ Ð°ÑĨÐ¸Ð¸
