{"<s>":0,"<pad>":1,"</s>":2,"<unk>":3,"<mask>":4,"!":5,"\"":6,"#":7,"$":8,"%":9,"&":10,"'":11,"(":12,")":13,"*":14,"+":15,",":16,"-":17,".":18,"/":19,"0":20,"1":21,"2":22,"3":23,"4":24,"5":25,"6":26,"7":27,"8":28,"9":29,":":30,";":31,"<":32,"=":33,">":34,"?":35,"@":36,"A":37,"B":38,"C":39,"D":40,"E":41,"F":42,"G":43,"H":44,"I":45,"J":46,"K":47,"L":48,"M":49,"N":50,"O":51,"P":52,"Q":53,"R":54,"S":55,"T":56,"U":57,"V":58,"W":59,"X":60,"Y":61,"Z":62,"[":63,"\\":64,"]":65,"^":66,"_":67,"`":68,"a":69,"b":70,"c":71,"d":72,"e":73,"f":74,"g":75,"h":76,"i":77,"j":78,"k":79,"l":80,"m":81,"n":82,"o":83,"p":84,"q":85,"r":86,"s":87,"t":88,"u":89,"v":90,"w":91,"x":92,"y":93,"z":94,"{":95,"|":96,"}":97,"~":98,"¡":99,"¢":100,"£":101,"¤":102,"¥":103,"¦":104,"§":105,"¨":106,"©":107,"ª":108,"«":109,"¬":110,"®":111,"¯":112,"°":113,"±":114,"²":115,"³":116,"´":117,"µ":118,"¶":119,"·":120,"¸":121,"¹":122,"º":123,"»":124,"¼":125,"½":126,"¾":127,"¿":128,"À":129,"Á":130,"Â":131,"Ã":132,"Ä":133,"Å":134,"Æ":135,"Ç":136,"È":137,"É":138,"Ê":139,"Ë":140,"Ì":141,"Í":142,"Î":143,"Ï":144,"Ð":145,"Ñ":146,"Ò":147,"Ó":148,"Ô":149,"Õ":150,"Ö":151,"×":152,"Ø":153,"Ù":154,"Ú":155,"Û":156,"Ü":157,"Ý":158,"Þ":159,"ß":160,"à":161,"á":162,"â":163,"ã":164,"ä":165,"å":166,"æ":167,"ç":168,"è":169,"é":170,"ê":171,"ë":172,"ì":173,"í":174,"î":175,"ï":176,"ð":177,"ñ":178,"ò":179,"ó":180,"ô":181,"õ":182,"ö":183,"÷":184,"ø":185,"ù":186,"ú":187,"û":188,"ü":189,"ý":190,"þ":191,"ÿ":192,"Ā":193,"ā":194,"Ă":195,"ă":196,"Ą":197,"ą":198,"Ć":199,"ć":200,"Ĉ":201,"ĉ":202,"Ċ":203,"ċ":204,"Č":205,"č":206,"Ď":207,"ď":208,"Đ":209,"đ":210,"Ē":211,"ē":212,"Ĕ":213,"ĕ":214,"Ė":215,"ė":216,"Ę":217,"ę":218,"Ě":219,"ě":220,"Ĝ":221,"ĝ":222,"Ğ":223,"ğ":224,"Ġ":225,"ġ":226,"Ģ":227,"ģ":228,"Ĥ":229,"ĥ":230,"Ħ":231,"ħ":232,"Ĩ":233,"ĩ":234,"Ī":235,"ī":236,"Ĭ":237,"ĭ":238,"Į":239,"į":240,"İ":241,"ı":242,"Ĳ":243,"ĳ":244,"Ĵ":245,"ĵ":246,"Ķ":247,"ķ":248,"ĸ":249,"Ĺ":250,"ĺ":251,"Ļ":252,"ļ":253,"Ľ":254,"ľ":255,"Ŀ":256,"ŀ":257,"Ł":258,"ł":259,"Ń":260,"Ð¾":261,"Ð¸":262,"Ðµ":263,"Ð½":264,"Ð°":265,"ÑĤ":266,"Ñģ":267,"Ð¾Ð":268,"ĠÐ":269,"ÑĢ":270,"ÐµÐ":271,"Ð°Ð":272,"Ñĥ":273,"Ð¸Ð":274,"ÑģÑĤ":275,"Ñı":276,"Ñĭ":277,"ÐµÐ½":278,"Ð»":279,"ĠÐ¿":280,"Ñħ":281,"Ðº":282,"Ð²":283,"Ð¾Ð²":284,"ĠÐ¸":285,"ÑĮ":286,"Ð°Ð½":287,"Ñĩ":288,"ÑĨ":289,"ĠÑģ":290,"ÐµÑĢ":291,"Ð½Ð¾Ð":292,"Ð½Ñĭ":293,"ĠÐ²":294,"ÐµÐ´":295,"ÑĢÐ°Ð":296,"Ð¼":297,"Ð¸Ñı":298,"Ð¾ÑĢ":299,"čĊ":300,"»ÑĮ":301,"³Ð¾":302,"ÑĨÐ¸":303,"ÑģÑĤÐ²":304,"ĠÐ¿ÑĢ":305,"Ð¿":306,"ĠÐ½":307,"ÑģÐº":308,"Ð¾ÑĤ":309,"Ñİ":310,"Ð´":311,"Ð½ÑĭÑħ":312,"ÑĤÐµÐ":313,"Ð¸Ð¹":314,"ÑĦ":315,"ĠÐ¾Ð":316,"ĠÐ´":317,"Ð°ÑĨÐ¸":318,"Ð¾Ð´":319,"Ð¾ÑģÑĤ":320,"ÐµÑĤ":321,"Ð¾Ð½":322,"Ð¾Ñģ":323,"Ñī":324,"ĠÑĢ":325,"Ð¾Ð¼":326,"ÐµÐº":327,"ĠÐº":328,"ÐµÐ½Ð¸Ñı":329,"ĠÑĤ":330,"Ð¸Ðµ":331,"ĠÐ¾Ð±":332,"Ð°Ð»ÑĮ":333,"Ð°ÑĤ":334,"Ð½Ð¾Ð³Ð¾":335,"Ð¾Ð¹":336,"Ð¾Ð»":337,"Ð°ÑĨÐ¸Ð¸":338,"Ð¸Ð·":339,"ĠÑĥ":340,"ĠÐ½Ð°":341,"ÐµÐ¼":342,"ÐµÐ´ÐµÑĢ":343,"ĠÐ¸Ð½":344,"Ð¾Ð³":345,"ĠÐ¼":346,"ĠÐ·":347,"ÐµÐºÑĤ":348,"Ð³":349,"Ð°Ðº":350,"Ð¸Ð¸":351,"ÑģÐ¿":352,"Ð¾Ð²Ð°Ð½":353,"Ð¸ÑĤ":354,"Ð¸Ð¼":355,"Ð¸Ñĩ":356,"ĠÑĢÐ°Ð":357,"Ð½Ð¾Ð¹":358,"ÑĤÐµÐ»ÑĮ":359,"ÑģÐºÐ¾Ð¹":360,"ÑĪ":361,"Ð¸Ð½":362,"ĠÐ¤":363,"Ð±":364,"Ð¶":365,"ÑĢÐ°Ð²":366,"ĠÐ¤ÐµÐ´ÐµÑĢ":367,"ÐµÐ¹":368,"Ð°Ð»":369,"ĠÐ¾ÑĤ":370,"Ð»Ñı":371,"Ð¾ÑģÑģ":372,"ÑĤÐµÐ»":373,"ÑģÑĤÐ²ÐµÐ½":374,"ĠÐł":375,"ĠÑĦ":376,"Ñį":377,"Ð¸Ñħ":378,"Ð¾ÑģÑģÐ¸Ð¹":379,"ÐµÐ½Ð¸Ðµ":380,"Ð°ÑģÑĤ":381,"ĠÐŁ":382,"Ð·":383,"20":384,"Ð¾ÑĢÐ¼":385,"ĠÐ³":386,"Ġ(":387,"Ð¸ÑĩÐµ":388,"Ð¸Ðº":389,"Ð½Ð¾ÑģÑĤ":390,"Ð°Ð²":391,"Ð¾ÑģÑģÐ¸Ð¹ÑģÐºÐ¾Ð¹":392,"Ð°ÑĢ":393,"ĠÑį":394,"ĠÑĢÐ°Ð·":395,"ÐµÐ½ÑĤ":396,"Ð½Ð¾Ð¼":397,"ĠÐ¤ÐµÐ´ÐµÑĢÐ°ÑĨÐ¸Ð¸":398,"Ð°Ð·":399,"ĠÐłÐ¾ÑģÑģÐ¸Ð¹ÑģÐºÐ¾Ð¹":400,"ÐµÑħ":401,"ÐµÐ»":402,"Ð½Ð¾":403,"Ð¸Ð»":404,"ĠÐ¿ÑĢÐµÐ´":405,"ĠÐ±":406,"Ð¾Ðº":407,"Ġ1":408,"ÑģÑı":409,"Ð¾ÑĢÐ³":410,"ÑģÐ»":411,"Ð¸ÑĢ":412,"Ð¸Ð²":413,"ĠÐ¿ÑĢÐ¾":414,"Ð°Ð¼":415,"Ð¾ÑĢÐ³Ð°Ð½":416,"ÑĥÑĩ":417,"ÑİÑī":418,"Ð¸ÑĩÐµÑģÐº":419,"Ð½ÑĭÐ¼":420,"ĠÐ¾ÑĢÐ³Ð°Ð½":421,"Ð¾Ð³Ð¾":422,"Ð»ÐµÐºÑĤ":423,"ÑĥÐ½":424,"Ð¸Ð´":425,"Ð¸ÑĤÐµÐ»ÑĮ":426,"ÑĦÐ¾ÑĢÐ¼":427,"ÑĥÑģ":428,"ĠÐ¿Ð¾":429,"Ð¾Ð±":430,"Ð¸ÑģÑĤ":431,"ĠÑĩ":432,"ÑĥÐ±":433,"ĠÑĢÐµ":434,"Ð½ÑĭÐµ":435,"Ð¾Ð·":436,"ĠÑģÑĤ":437,"Ð¾Ð¿":438,"Ð»ÐµÐ½":439,"ĠÐ¸Ð½ÑĦÐ¾ÑĢÐ¼":440,"Ð°Ñģ":441,"Ð°ÑģÑĤÐ¸":442,"Ð°ÑĨÐ¸Ð¾Ð½":443,"ÑĢÐ°Ð½":444,"Ð½Ð¾Ð»":445,"ĠÑĤÐµÑħ":446,"ÑĭÑħ":447,"±Ð¾ÑĤ":448,"ĠÐ¿ÐµÑĢ":449,"ÑĥÐ´":450,"ÐµÐ·":451,"Ð½Ð¾Ð»Ð¾Ð³":452,"ÐµÑĩ":453,"Ð½Ð¾ÑģÑĤÐ¸":454,"ÑģÑĤÐ²Ð°":455,"Ð°Ñı":456,"Ġ-":457,"Ð¾Ð²Ð°Ð½Ð¸Ñı":458,"Ð»ÐµÐ½Ð¸Ñı":459,"ÑĢÐµÐ´":460,"ĠÑģÐ¾":461,"Ð¹":462,"ÑĢÐ°Ð¼":463,"ĠÐ¸ÑģÐº":464,"ĠÑģÑĥÐ±":465,"ĠÑĤÐµÑħÐ½Ð¾Ð»Ð¾Ð³":466,"ĠÐ¾Ñģ":467,"Ð°Ð»ÑĮÐ½ÑĭÑħ":468,"ĠÐ·Ð°Ðº":469,"ÑĤÐµÐ»Ð»ÐµÐºÑĤ":470,"ĠÐ¸Ð½ÑĤÐµÐ»Ð»ÐµÐºÑĤ":471,"ÑģÑĤÐ²ÐµÐ½Ð½Ð¾Ð³Ð¾":472,"Ð°Ð½Ð½ÑĭÑħ":473,"Ġ\"":474,"ÐºÐ¸":475,"Ġ2":476,"Ð°ÑĨ":477,"ĠÐ´Ð»Ñı":478,"ÐºÑĤ":479,"Ð»Ð°ÑģÑĤÐ¸":480,"ĠÐ¾":481,"ĠÐ¿Ð¾Ð»":482,"Ð°Ð¿":483,"ĠÐ¸ÑģÐ¿":484,"ÑĢÐ°Ð¼Ð¼":485,"Ð¾Ð³ÑĢÐ°Ð¼Ð¼":486,"ĠÐ½Ðµ":487,"Ð¾Ñı":488,"Ð°Ð»ÑĮÐ½Ð¾Ð³Ð¾":489,"ĠÐ¸ÑģÐºÑĥÑģ":490,"Ð¾ÑģÑĤÐ°Ð²":491,"ĠÑįÐº":492,"Ġ20":493,"Ð°Ð´":494,"Ð¾Ð»ÑĮ":495,"ĠÐ¿Ð¾Ð´":496,"ÑĥÑĢ":497,"ÑĢÐ°Ð±Ð¾ÑĤ":498,"ĠÐ¾Ð¿":499,"Ð°Ñĩ":500,"Ð¾Ð¶":501,"ÑīÐµ":502,"ĠÐ¸Ð½ÑĤÐµÐ»Ð»ÐµÐºÑĤÐ°":503,"ĠÐ¸ÑģÐºÑĥÑģÑģÑĤÐ²ÐµÐ½Ð½Ð¾Ð³Ð¾":504,"ĠÐ²Ñĭ":505,"Ð¸Ð»Ð¸":506,"ĠÐ»":507,"Ð°Ð½Ð¾Ð²":508,"ÐµÐ³Ð¾":509,"Ð°ÑĤÑĮ":510,"ÑĢÐ°":511,"ĠÐŁÑĢÐ°Ð²":512,"Ð¸Ð·Ð°ÑĨÐ¸Ð¸":513,"ÑĥÐ»":514,"Ð¾Ð»Ð½":515,"ÑĢÑĥ":516,"ÐµÐ¶":517,"Ð¸Ñİ":518,"Ð²Ð¸ÑĤ":519,"ÑĬ":520,"ĠÐ³Ð¾Ð´":521,"âĦ":522,"âĦĸ":523,"ĠâĦĸ":524,"Ð¾Ñĩ":525,"ĠÐ´Ð°Ð½Ð½ÑĭÑħ":526,"ĠÑĨ":527,"Ð½ÑĭÐ¹":528,"ÑĥÐ´Ð°ÑĢ":529,"Ð»Ñİ":530,"Ð°ÑĤÐµÐ»ÑĮ":531,"ĠÑĦÐµÐ´ÐµÑĢ":532,"³Ð¾Ñģ":533,"Ð°ÑĤÐµÐ»":534,"ÑıÐ·":535,"ĠÐºÐ¾Ð¼":536,"ĠÑĢÐ°Ð·Ð²Ð¸ÑĤ":537,"ÐµÑĢÐ¶":538,"Ð²ÐµÑĤ":539,"Ð¾ÑıÑī":540,"Ð¸ÑģÑĤÐµÐ¼":541,"ÐµÑģÐ¿":542,"Ð¾Ð½Ð¾Ð¼":543,"³Ð¾ÑģÑĥÐ´Ð°ÑĢ":544,"ĠÐ½Ð°ÑģÑĤ":545,"Ð°Ð¼Ð¸":546,"ĠÐ³Ð¾ÑģÑĥÐ´Ð°ÑĢ":547,"ÐµÑģÐ¿ÐµÑĩ":548,"ÑĢÐ¾Ð²":549,"ÑģÐ¾Ð²":550,"ÐºÐ°":551,"ĠÐ½Ð°ÑģÑĤÐ¾ÑıÑī":552,"ĠÑģÐ¸ÑģÑĤÐµÐ¼":553,"ÑģÐ¸Ð´":554,"ĠÑĤÐµÑħÐ½Ð¾Ð»Ð¾Ð³Ð¸Ð¹":555,"ĠÐºÐ¾Ð½":556,"Ð¸ÐµÐ¼":557,"ÑħÐ¾Ð´":558,"Ð¸ÑĨ":559,"ĠÑĤÐ°Ðº":560,"ĠÑģÑĥÐ±ÑģÐ¸Ð´":561,"ÑİÑĤ":562,"ĠÐŁÑĢ":563,"ÑĨÐ¸Ð¸":564,"ĠÐ¸Ð½ÑĦÐ¾ÑĢÐ¼Ð°ÑĨÐ¸Ð¾Ð½":565,"ĠÐ¿Ð¾Ð»ÑĥÑĩ":566,"Ð¸ÑģÐ»":567,"ĠÑģÐ²":568,"ÐºÐ°Ð·":569,"Ð»ÑİÑĩ":570,"ÑĥÐ½ÐºÑĤ":571,"ÐµÑĤÑģÑı":572,"ĠÐ¿ÑĢÐ¾ÐµÐºÑĤ":573,"ĠÐ¾Ð±Ð»Ð°ÑģÑĤÐ¸":574,"Ð´Ð°Ð½":575,"ÑģÐ¾Ð½":576,"ĠÐ¿ÑĢÐµÐ´Ð¾ÑģÑĤÐ°Ð²":577,"Ð¾ÑĤÐ²ÐµÑĤ":578,"ÑīÐµÑģÑĤÐ²":579,"ĠÐ¿ÐµÑĢÑģÐ¾Ð½":580,"Ð¾Ð»ÑĮÐ·":581,"ĠÐ¾Ð±ÐµÑģÐ¿ÐµÑĩ":582,"ÐµÐ²":583,"Ðĺ":584,"ÑĥÑİÑī":585,"ĠÐ·Ð°":586,"ĠÑģÐ»":587,"Ð¾ÑĤÐ²ÐµÑĤÑģÑĤÐ²":588,"ÐµÑģ":589,"ĠÑĢÐµÐ°Ð»":590,"ÐµÐµ":591,"ĠÑģÑĥÐ±ÑģÐ¸Ð´Ð¸Ð¸":592,"ĠÑģÐ¾Ð¾ÑĤÐ²ÐµÑĤÑģÑĤÐ²":593,"ĠÐ¸Ð·":594,"ĠÐ´Ð¾ÑģÑĤ":595,"ÑĥÐ¿":596,"ÑĥÑīÐµÑģÑĤÐ²":597,"Ð¾ÑĤÐ¾ÑĢ":598,"ÐµÐ³":599,"ÐµÐ±":600,"ÐµÐ½Ð¸Ð¹":601,"Ð½Ð¸Ðº":602,"ĠÐ¿ÐµÑĢÑģÐ¾Ð½Ð°Ð»ÑĮÐ½ÑĭÑħ":603,"ĠÐŁÑĢÐ°Ð²Ð¸ÑĤÐµÐ»ÑĮ":604,"ĠÐ¿ÑĢÐ°Ð²":605,"ÑĢÐ°Ð·":606,"ĠÐ¸Ð»Ð¸":607,"ĠÐºÐ¾ÑĤÐ¾ÑĢ":608,"ĠÑĥÑģÑĤ":609,"ÑĥÐ»ÑĮ":610,"Ð¸ÑĢÐ¾Ð²Ð°Ð½":611,"ÑĤÐµÑĢ":612,"ÑİÐ´":613,"ĠÑĢÐ°Ð·Ð²Ð¸ÑĤÐ¸Ñı":614,"Ð½Ð¾ÑģÑĤÑĮ":615,"ÑĥÐ»ÑĮÑĤ":616,"Ð½ÑĭÐ¼Ð¸":617,"ĠÐ°":618,"ÑĬÐµÐºÑĤ":619,"ĠÐ¿ÑĢÐ¸":620,"ĠÑģÑĢÐµÐ´":621,"Ð¶ÐµÑĤ":622,"ÑİÐ´Ð¶ÐµÑĤ":623,"ĠÐ¸ÑģÐ¿Ð¾Ð»ÑĮÐ·":624,"Ð¾ÑĤÑĢ":625,"ĠÑĩÐ¸ÑģÐ»":626,"ĠÐ¾ÑģÑĥÑīÐµÑģÑĤÐ²":627,"ĠÑĥÑĩ":628,"ĠÐ³Ð¾ÑģÑĥÐ´Ð°ÑĢÑģÑĤÐ²ÐµÐ½":629,"ĠÐ¾ÑĢÐ³Ð°Ð½Ð¸Ð·":630,"Ġ3":631,"Ð°Ñħ":632,"Ð¾Ð³ÑĢÐ°Ð¼Ð¼Ñĭ":633,"Ð¡":634,"ĠÑĥÐºÐ°Ð·":635,"ĠÑĤÑĢ":636,"ĠÐ¿ÑĥÐ½ÐºÑĤ":637,"ĠÐºÐ¾Ð¼Ð¿":638,"ÐµÐ½Ð½ÑĭÑħ":639,"Ð°ÑİÑī":640,"Ð½Ð¾Ð²":641,"ÐĴ":642,"ĠÐ¡":643,"ÐµÑģÑĤ":644,"Ð¸Ñģ":645,"ĠÐ·Ð°ÐºÐ¾Ð½":646,"Ð¸ÑĩÐµÑģÐºÐ¸Ñħ":647,"ĠÑĨÐµÐ»":648,"Ðŀ":649,"ĠĠ":650,"ĠÑĤÐ¾Ð¼":651,"Ð¤":652,"ÐµÐ½Ð¸Ð¸":653,"ĠÑĩÐ¸ÑģÐ»Ðµ":654,"Ð°ÑĨÐ¸Ñı":655,"ĠÑĢÐµÐ·":656,"ÑıÐ´":657,"ÑĥÐ»ÑĮÑĤÐ°ÑĤ":658,"Ð¾Ð²Ñĭ":659,"Ð¾Ð·Ð´Ð°Ð½":660,"Ð¼Ð¸":661,"Ð¸ÑĩÐµÑģÐºÐ¾Ð³Ð¾":662,"Ð¶Ðµ":663,"ĠÑĢÐµÐ°Ð»Ð¸Ð·Ð°ÑĨÐ¸Ð¸":664,"ĠÐ¸Ð½ÑĦÐ¾ÑĢÐ¼Ð°ÑĨÐ¸Ð¸":665,"Ð¸ÑĤÑĮ":666,"Ð¸Ð½Ð³":667,"Ð°ÑĤÐ¾ÑĢ":668,"ĠÑĢÐµÐ·ÑĥÐ»ÑĮÑĤÐ°ÑĤ":669,"Ð°Ð½Ð¾Ð²Ð»ÐµÐ½":670,"ĠÐľ":671,"ĠÑįÐºÑģÐ¿":672,"ĠÑįÐºÐ¾Ð½Ð¾Ð¼":673,"Ð°Ð¿ÑĢÐ°Ð²":674,"ĠÐ±ÑİÐ´Ð¶ÐµÑĤ":675,"ÑİÑĤÑģÑı":676,"ÑĪÐµÐ½Ð¸Ñı":677,"ÑĤÐ¾Ð²":678,"Ð¿ÑĢ":679,"ÑģÑĤÐ²Ð¾":680,"ĠÑĦÐ¾ÑĢÐ¼":681,"ĠÐļ":682,"ĠÑĤÐ°ÐºÐ¶Ðµ":683,"Ð½Ð¾Ðµ":684,"ÑĥÑİ":685,"ĠÐ¿ÑĢÐ¾Ð²":686,"Ð°ÑĨÐ¸Ð¹":687,"ÑĤÑĢ":688,"ĠÐŁÑĢÐ°Ð²Ð¸ÑĤÐµÐ»ÑĮÑģÑĤÐ²Ð°":689,"ĠÐ¾ÑģÑĥÑīÐµÑģÑĤÐ²Ð»Ñı":690,"Ð»ÐµÐ½Ð¸Ðµ":691,"ĠÐ»Ð¸ÑĨ":692,"Ð¸ÑĢÐ¾Ð²Ð°Ð½Ð¸Ñı":693,"ÑĥÐ¼":694,"ÑıÐ²":695,"Ð»ÐµÐºÑĤÑĢ":696,"Ð°Ð»ÑĮÐ½Ð¾Ð¹":697,"ÐµÐ½Ð¸Ñİ":698,"Ð¾Ð»Ð½Ð¸ÑĤÐµÐ»ÑĮ":699,"ĠÐ¿ÑĢÐ¾ÑĨ":700,"Ð¸ÑĨÐ¸":701,"Ð¾Ð¿ÑĢ":702,"Ð¸Ð·Ð²":703,"ĠÑĢÐ°Ð·ÑĢÐ°Ð±Ð¾ÑĤ":704,"Ð¼Ð¾ÑĤÑĢ":705,"Ð½Ð°Ñĩ":706,"ÑĦÐµÑĢ":707,"Ð¾ÑĢÑıÐ´":708,"ĠÐŁÑĢÐ¾Ð³ÑĢÐ°Ð¼Ð¼Ñĭ":709,"__":710,"ÐµÐ½ÑĤÐ¾Ð²":711,"ÑĭÑĤ":712,"ĠÑģÑĥÐ±ÑĬÐµÐºÑĤ":713,"ÑģÑĤÐ²Ð¾Ð¼":714,"ĠÑģÑĢÐµÐ´ÑģÑĤÐ²":715,"ĠÑĥÑģÐ»":716,"Ð¸Ð¶":717,"ĠÐ½Ð°Ð¿ÑĢÐ°Ð²":718,"Ġ201":719,"ÑĤÐµÐ³":720,"ÑĤÐ°":721,"Ð¾Ð³Ð»":722,"ÐĹ":723,"ĠÐ¿ÑĢÐµÐ´Ð¾ÑģÑĤÐ°Ð²Ð»ÐµÐ½Ð¸Ñı":724,"201":725,"Ð¾Ðµ":726,"ĠÐ¿ÑĢÐµÐ´ÑĥÑģ":727,"ĠÑģÑĤÐ°ÑĤÑĮ":728,"ÑĩÐµÑĤ":729,"ĠÑĢÐµÐ³":730,"ÐŁ":731,"Ð½Ð°Ñı":732,"ĠÑĥÐºÐ°Ð·Ð°Ð½":733,"ĠÐ¾Ð±ÑĢÐ°Ð·":734,"202":735,"ĠÑģÐ¾Ð¾ÑĤÐ²ÐµÑĤÑģÑĤÐ²Ð¸Ð¸":736,"ĠÐ²Ð½":737,"ĠÐ¼ÐµÑĢ":738,"Ð´ÐµÑĢÐ¶":739,"ÐºÐµ":740,"ĠÐ¿ÑĢÐ¾Ð³ÑĢÐ°Ð¼Ð¼":741,"Ð¼ÐµÑĢ":742,"ĠÐ¿Ð¾Ð»ÑĥÑĩÐ°ÑĤÐµÐ»":743,"ĠÐ¾Ð¿ÐµÑĢ":744,"ĠÑĢÐµÐ´":745,"Ð°Ð±":746,"ĠÐ¿ÑĢÐ¾Ð¸Ð·Ð²":747,"Ð»ÐµÐºÑĤÑĢÐ¾Ð½":748,"ĠÑģÐ¿":749,"ĠÑĢÐ°Ñģ":750,"Ð»ÐµÐº":751,"ÑĢÐµÐ´ÐµÐ»":752,"ĠÑĥÐ¿":753,"ĠÑģÐ²ÑıÐ·":754,"ĠÐ´Ðµ":755,"Ð¸ÐºÐ¸":756,"Ðł":757,"Ð¾Ð²Ð¾Ð³Ð¾":758,"ĠÑģÐµÑĤ":759,"ĠÑģÑĦÐµÑĢ":760,"Ð°ÑģÐ¿":761,"ÐµÐ½Ð¸ÐµÐ¼":762,"ĠÑįÐºÑģÐ¿ÐµÑĢ":763,"Ð¾Ð²ÑĭÑħ":764,"Ð¸Ð½Ð°Ð½":765,"Ð¤ÐĹ":766,"ĠÐĴ":767,"ĠÐ¿Ð¾Ð´Ð´ÐµÑĢÐ¶":768,"ĠÑģÐ¾Ð³Ð»":769,"ÑıÑĤ":770,"ĠÐ²Ð»Ð°ÑģÑĤÐ¸":771,"ĠÑĢÐ°Ð±Ð¾ÑĤ":772,"Ð¸ÑıÑĤ":773,"ĠÐ´Ð¾":774,"Ð°ÐºÑĤ":775,"ĠÑĤÑĢÐµÐ±":776,"ĠÑģÐ¾Ð·Ð´Ð°Ð½":777,"12":778,"ÐµÐ¹ÑģÑĤÐ²":779,"ĠÐ¿ÑĢÐµÐ´ÑĥÑģÐ¼Ð¾ÑĤÑĢ":780,"ĠÑįÑĤ":781,"\",":782,"ÐºÐ»ÑİÑĩ":783,"ĠÑħ":784,"ĠÐ±ÐµÐ·":785,"Ð¸ÑĤÐ¾ÑĢ":786,"Ð¸Ð²Ð°":787,"ĠÐ¿Ð¾ÑĢÑıÐ´":788,"ÑĥÑĤ":789,"ĠÐ¾Ð±ÑıÐ·":790,"ĠÐ²Ð¾Ð·":791,"ĠÑĦÐµÐ´ÐµÑĢÐ°Ð»ÑĮ":792,"ĠÑĦÐµÐ´ÐµÑĢÐ°Ð»ÑĮÐ½Ð¾Ð³Ð¾":793,"ÐµÐ½ÑĤÐ°":794,"Ġ0":795,"ÑıÑĤÐµÐ»ÑĮ":796,"ĠÐ¾Ð±ÑĢÐ°Ð±Ð¾ÑĤ":797,"ÑĭÐµ":798,"ĠÑĦÐ¸Ð½Ð°Ð½":799,"),":800,"ÐµÐ»ÑĮ":801,"Ð¾ÑģÑĤÑĢÐ°Ð½":802,"ĠÐ¿ÑĢÐ¾Ð´":803,"ĠN":804,"Ð¸Ð¾Ð½":805,"Ġ5":806,"Ð¸Ð½Ð¸ÑģÑĤ":807,"ÐµÐ¿":808,"ÐºÑĨÐ¸Ð¸":809,"ĠÐ¸Ñħ":810,"Ð°ÐºÑĨÐ¸Ð¸":811,"ĠÐ¸ÑģÐ¿Ð¾Ð»Ð½Ð¸ÑĤÐµÐ»ÑĮ":812,"ÑĢÐ°Ð´":813,"Ð°ÑĨÐ¸Ñİ":814,"ĠÐ´Ð¾ÑģÑĤÑĥÐ¿":815,"ĠÑĥÑģÑĤÐ°Ð½Ð¾Ð²Ð»ÐµÐ½":816,"ĠÑĢÐµÐ´Ð°ÐºÑĨÐ¸Ð¸":817,"ĠÐ¿Ð¾Ðº":818,"ĠÐ¿ÑĢÐ¾Ð¸Ð·Ð²Ð¾Ð´":819,"ĠÐºÐ¾Ð¼Ð¿Ð»ÐµÐº":820,"ĠÐ´ÐµÑıÑĤÐµÐ»ÑĮ":821,"Ð°Ð½Ð¸Ñı":822,"ĠÐ½Ð°ÑģÑĤÐ¾ÑıÑīÐµÐ¹":823,"ĠÐ¾ÑģÐ½Ð¾Ð²":824,"ĠÐ¾Ð¿ÑĢÐµÐ´ÐµÐ»":825,"Ð¸Ð¿":826,"ÑıÐ²Ð»Ñı":827,"ĠÐŀ":828,"Ð¾ÑģÑĤÐ°Ð½Ð¾Ð²":829,"ĠÑģÐµÑĤÐ¸":830,"Ð±Ð¾ÑĢ":831,"ÑĥÑĢÑģ":832,"ĠÐ¿Ð»":833,"ĠÐ²ÑĭÑģ":834,"Ġ4":835,"Ð½Ð¾Ð¼Ñĥ":836,"ĠÑģÑĤÐ°ÑĤÑĮÐ¸":837,"ĠÑģÑĦÐµÑĢÐµ":838,"ÑĢÐ°Ð¶":839,"Ð¸Ð½Ð¸ÑģÑĤÐµÑĢ":840,"Ð²ÐµÐ´":841,"ĠÐ¾Ð¿ÐµÑĢÐ°ÑĤÐ¾ÑĢ":842,"ĠÐ¸Ð¼":843,"ĠÑıÐ²Ð»Ñı":844,"ÑĭÐ²":845,"ĠÑģÐ»ÑĥÑĩ":846,"ĠÐ¿ÑĢÐ¸Ð½":847,"ÑģÑĤÐ°Ð²":848,"ÑıÑħ":849,"ĠÐ¤ÐµÐ´ÐµÑĢÐ°Ð»ÑĮ":850,"ÑģÐºÐ¸Ñħ":851,"ĠÐ²ÐºÐ»ÑİÑĩ":852,"ĠÐ·Ð°Ð´":853,"ÑħÐ¾Ð´Ð¸Ð¼":854,"ĠÐŁÑĢÐ°Ð²Ð¸Ð»":855,"ĠÐ³Ð¾Ð´Ð°":856,"ĠÐ·Ð°ÐºÐ¾Ð½Ð°":857,"ÑĢÐ°ÑĤÐµÐ³":858,"Ð¾Ð±ÑħÐ¾Ð´Ð¸Ð¼":859,"ÐµÐ¶Ð´":860,"10":861,"Ð°Ð¹":862,"Ð¾Ð¿ÑĢÐ¸ÑıÑĤ":863,"Ð¸ÑĤÐµÐ»":864,"ĠÐ¤ÐµÐ´ÐµÑĢÐ°Ð»ÑĮÐ½Ð¾Ð³Ð¾":865,"ĠÐ³Ð¾Ð´Ñĥ":866,"ĠÐľÐ¸Ð½Ð¸ÑģÑĤÐµÑĢ":867,"Ð¸ÑĩÐµÑģÐºÐ¾Ð¹":868,"ĠÐºÐ¾Ð½Ðº":869,"ÐµÐºÑĤÐ¸Ð²":870,"ĠÑĦÑĥÐ½":871,"ĠÐ½ÐµÐ¾Ð±ÑħÐ¾Ð´Ð¸Ð¼":872,"ĠÐ¿Ð¾Ð´Ð´ÐµÑĢÐ¶ÐºÐ¸":873,"Ð°ÑĤÐ¸Ð²":874,"ĠÐ½Ð°ÑĥÑĩ":875,"Ð½Ñı":876,"Ð¼ÐµÐ½":877,"Ð¼ÑĥÐ½":878,"Ð¸Ð½Ð³ÑĢÐ°Ð´":879,"ÐµÐºÐ¾Ð¼":880,"Ð¸Ð½Ð¸Ð½Ð³ÑĢÐ°Ð´":881,"Ð°Ð»Ð¸Ð½Ð¸Ð½Ð³ÑĢÐ°Ð´":882,"Ð»Ð°Ð´":883,"ÑĭÑĪ":884,"ÑĤÐ²":885,"ĠÑģÐ¾Ð²":886,"ÑĪÐµÐ½Ð¸Ðµ":887,"ĠÑĩÐ°ÑģÑĤÐ¸":888,"ÐĺÐ½":889,"ĠÐŁÐ¾ÑģÑĤÐ°Ð½Ð¾Ð²":890,"ĠÑĥÑģÐ»Ð¾Ð²":891,"ĠÐ´Ð¾Ðº":892,"ĠÐļÐ°Ð»Ð¸Ð½Ð¸Ð½Ð³ÑĢÐ°Ð´":893,"Ð¸ÑĦ":894,"ĠÐ¿ÑĢÐ¾Ð²ÐµÐ´":895,"ĠÐ¸Ð½ÑĦÐ¾ÑĢÐ¼Ð°ÑĨÐ¸Ð¾Ð½Ð½ÑĭÑħ":896,"ĠÐ¸ÑģÐ¿Ð¾Ð»ÑĮÐ·Ð¾Ð²Ð°Ð½":897,"ĠÑĢÐ°ÑģÐ¿":898,"ĠÑįÐ»ÐµÐºÑĤÑĢÐ¾Ð½":899,"Ġ10":900,"ÑĤÐµÑĢÐ½":901,"Ð½ÑĥÑİ":902,"ĠÐ¸ÑģÐ¿Ð¾Ð»Ð½Ð¸ÑĤÐµÐ»ÑĮÐ½Ð¾Ð¹":903,"ĠÐºÐ¾Ð½ÑĤÑĢ":904,"Ð¸Ð¼Ð°":905,"ĠÑģÐ¸ÑģÑĤÐµÐ¼Ñĭ":906,"ÑĤÐµÑĢÐ½ÐµÑĤ":907,"ĠÐ¼Ð°Ñģ":908,"ĠÐ¾Ð±ÐµÑģÐ¿ÐµÑĩÐµÐ½Ð¸Ñı":909,"Ð³Ð¾":910,"ĠÐ·Ð½Ð°Ñĩ":911,"ĠÐ¿ÑĢÐ¾Ð´Ñĥ":912,"ÐĿ":913,"ĠÑĨÐµÐ½ÑĤ":914,"Ð°Ð³":915,"Ð¸Ð¼Ð¸":916,"Ð¾Ð¿Ð°Ñģ":917,"ĠÐ¾ÑĢÐ³Ð°Ð½Ð¸Ð·Ð°ÑĨÐ¸Ð¸":918,"ĠÐ¿ÑĢÐµÐ´ÑģÑĤÐ°Ð²":919,"Ġ15":920,"ÐĲ":921,"ĠÑĤÐµÑĢ":922,"ĠÐ¼ÐµÑĢÐ¾Ð¿ÑĢÐ¸ÑıÑĤ":923,"Ð¸Ð¼ÐµÐ½":924,"ĠÑģÐ²ÑıÐ·Ð¸":925,"Ð¾Ð²Ð°Ð½Ð¸Ð¹":926,"ÐµÑī":927,"ÐµÑĢÐ¶Ð´":928,"ĠÐ´Ð¾ÐºÑĥÐ¼":929,"ĠÐ¾Ð±ÑĬ":930,"11":931,"ÑĥÐ±Ð»":932,"Ð¾ÑĢÑĤ":933,"Ð¼ÑĥÐ½Ð¸Ðº":934,"ĠÐ°Ð²":935,"ĠÐ±ÐµÐ·Ð¾Ð¿Ð°Ñģ":936,"ÐµÐ·Ð¸Ð´":937,"Ð¾ÑģÐ¾Ð±":938,"ÑĤÐ²ÐµÑĢÐ¶Ð´":939,"ĠÐ´ÐµÑıÑĤÐµÐ»ÑĮÐ½Ð¾ÑģÑĤÐ¸":940,"ĠÐ´Ð¾ÑģÑĤÐ¸Ð¶":941,"ÐĺÐ½ÑĤÐµÑĢÐ½ÐµÑĤ":942,"ÐĶ":943,"ĠĠĠĠ":944,"ÐºÑĥ":945,"ĠÑģÐ¾ÑģÑĤÐ°Ð²":946,"ĠÑĢÐµÐ¶":947,"Ð°Ð·Ð°ÑĤÐµÐ»":948,"Ð°ÐµÐ¼":949,"ĠÐ£":950,"ÑģÐ»ÐµÐ´":951,"ĠÑĥÑĩÐ°ÑģÑĤ":952,"ĠÑįÐºÑģÐ¿ÐµÑĢÐ¸Ð¼":953,"ĠÑĦÐ¸Ð½Ð°Ð½ÑģÐ¾Ð²":954,"Ð½Ð¾Ð´":955,"ĠÐ±Ð°Ð·":956,"ÐµÐ´ÑĥÑİÑī":957,"Ð½Ð¾Ð¼Ð¾Ñĩ":958,"ĠÑģÐ»ÑĥÑĩÐ°":959,"Ð¾Ð²Ð°ÑĤÐµÐ»ÑĮ":960,"Ð°ÑıÐ²":961,"ĠÐ¼Ð°ÑģÑģÐ¾Ð²":962,");":963,"ĠÑįÐºÑģÐ¿ÐµÑĢÐ¸Ð¼ÐµÐ½ÑĤ":964,"ĠÐ´Ð¾Ð»":965,"Ġ12":966,"ĠÐ¿ÑĢÐ¾ÐµÐºÑĤÐ°":967,"ĠÐ·Ð°ÑıÐ²":968,"ĠÐ¿ÑĢÐ¾ÐµÐºÑĤÐ¾Ð²":969,"ĠÐ¿Ð¾ÐºÐ°Ð·Ð°ÑĤÐµÐ»":970,"ĠÐ²ÑĭÐ¿":971,"ÑĢÑĥÐºÑĤ":972,"ĠÐļÐ°Ð»Ð¸Ð½Ð¸Ð½Ð³ÑĢÐ°Ð´ÑģÐºÐ¾Ð¹":973,"Ð¸Ð±":974,"ĠÐ·Ð°ÐºÐ¾":975,"Ð½Ð¸ÐºÐ¾Ð²":976,"ĠÐºÐ¾Ð¼Ð¿Ð»ÐµÐºÑģ":977,"ÑĦÑĦ":978,"ĠÐ¸Ñģ":979,"ĠÐ·Ð°Ð´Ð°Ñĩ":980,"ÑĥÐ¶":981,"ĠÑģÐ¾ÑĨÐ¸":982,"ĠÐ¾ÑĢÐ³Ð°Ð½Ð¸Ð·Ð°ÑĨÐ¸Ð¹":983,"Ð½Ð¾Ð´Ð°ÑĤÐµÐ»ÑĮ":984,"ĠÑĥÑĢÐ¾Ð²":985,"ĠÐ³ÑĢÐ°Ð½":986,"Ð½ÐµÐ¹":987,"ÑĤÐµÑħ":988,"±Ð¾Ñĩ":989,"ÑģÐ»Ð¸":990,"ĠÐ¾Ðº":991,"ĠÐ¾ÑĤÑĩÐµÑĤ":992,"ĠÐ½Ð°ÑģÑĤÐ¾ÑıÑīÐ¸Ñħ":993,"ÑĢÐ°Ð½Ð¸Ñĩ":994,"ĠÐ·Ð°ÐºÐ¾Ð½Ð¾Ð´Ð°ÑĤÐµÐ»ÑĮ":995,"Ðķ":996,"ÑĢÐµÐ¼":997,"ĠÐµÐ³Ð¾":998,"Ð¾Ð¶ÐµÐ½Ð¸Ñı":999,"ÑĢÐ°Ð¶Ð´Ð°Ð½":1000,"ĠÑĢÐ°Ð±Ð¾Ñĩ":1001,"ĠÐºÐ¾Ð½ÑĤÑĢÐ¾Ð»":1002,"ĠÑĤÐµÑĢÑĢ":1003,"ĠÐ´Ð¾Ð¿":1004,"ĠÐ¿ÑĢÐµÐ´ÑĥÑģÐ¼Ð¾ÑĤÑĢÐµÐ½":1005,"ĠÐ¿ÑĥÐ½ÐºÑĤÐ¾Ð¼":1006,"ÑĢÐ¾":1007,"ĠÑģÐ»ÐµÐ´ÑĥÑİÑī":1008,"ĠÐ³ÑĢÐ°Ð¶Ð´Ð°Ð½":1009,"ĠÑĢÐµÑģ":1010,"ÐºÐ°Ñħ":1011,"ÑĭÑĪÐ»ÐµÐ½":1012,"ĠÐ¾ÑĤÐ±Ð¾ÑĢ":1013,"ĠÐ±ÐµÐ·Ð¾Ð¿Ð°ÑģÐ½Ð¾ÑģÑĤÐ¸":1014,"ÑĢÐ¾Ðº":1015,"Ð°ÑİÑīÐ¸Ñħ":1016,"ĠÐ¿ÑĢÐ¸Ð¼ÐµÐ½":1017,"ĠÑĤÑĢÐµÐ±Ð¾Ð²Ð°Ð½Ð¸Ñı":1018,"ĠÑĢÐ¾ÑģÑģÐ¸Ð¹":1019,"Ġ202":1020,"ÐµÑģÑģ":1021,"Ð¾Ð¼ÑĭÑĪÐ»ÐµÐ½":1022,"ÑĪÐµÐ½Ð¸Ð¹":1023,"ĠÐ¸ÑģÐ¿Ð¾Ð»ÑĮÐ·Ð¾Ð²Ð°Ð½Ð¸Ñı":1024,"ĠÐ¿Ð¾Ñģ":1025,"ĠÑģÐ¾Ð´":1026,"ĠÐ¾ÑĢÐ³Ð°Ð½Ð¸Ð·Ð°ÑĨÐ¸Ñı":1027,"Ð¾ÑĢÐ¸ÑĤ":1028,").":1029,"Ð¾ÑĢÐ¾Ð²":1030,"ĠÐ²ÑĭÑģÐ¾Ðº":1031,"Ð½ÐµÑĢ":1032,"ĠÐ¼Ð¾Ð´":1033,"ĠÐ¼ÐµÐ¶Ð´":1034,"Ð¸ÑĢÐ¾Ð²Ð°Ð½Ð¸Ðµ":1035,"ĠÑĨÐµÐ»ÑıÑħ":1036,"Ð´ÐµÐ»":1037,"Ð¢":1038,"ĠÑģÐ»ÑĥÑĩÐ°Ðµ":1039,"ĠÑĢÐ°Ð·Ð¼ÐµÑĢ":1040,"ĠÑĢÐµÐ°Ð»Ð¸Ð·":1041,"ÐµÐ¹ÑģÑĤÐ²Ð¸Ñı":1042,"ĠÐ¾ÑģÐ½Ð¾Ð²Ðµ":1043,"ĠÐ°Ð²ÑĤ":1044,"ĠÐ¿Ð¾Ð·":1045,"ĠÑĩÐ°ÑģÑĤ":1046,"ÑĨÐµÐ½":1047,"ĠÑģÐ¾Ð³Ð»Ð°":1048,"ĠÐ·Ð°Ñī":1049,"Ð°ÐµÑĤ":1050,"ÑĢÑĥÐ³":1051,"Ð¾Ð²Ð°Ð½Ð¸Ðµ":1052,"ĠÐ³Ð¾ÑģÑĥÐ´Ð°ÑĢÑģÑĤÐ²ÐµÐ½Ð½Ð¾Ð¹":1053,"Ð¸Ð·Ð½":1054,"Ð°ÑĢÑĤ":1055,"____":1056,"Ð¸ÑĢÑĥ":1057,"ĠÑĢÐ°ÑģÑħÐ¾Ð´":1058,"ĠÑģÐ¾Ð±":1059,"Ð°ÑĤÑĢ":1060,"ĠÐ°ÐºÑĤ":1061,"ĠÐ±ÑİÐ´Ð¶ÐµÑĤÐ°":1062,"ĠÐ´Ð°Ð½":1063,"Ð·Ð°":1064,"Ð¸Ð¾Ð´":1065,"ĠÐ¿ÑĢÐ¾ÑĨÐµÐ½ÑĤÐ¾Ð²":1066,"ĠÑĤÐµÑĢÑĢÐ¸ÑĤÐ¾ÑĢ":1067,"ĠÐ¾Ð³":1068,"ĠÐ¿ÑĢÐ¾Ð¼ÑĭÑĪÐ»ÐµÐ½":1069,"ĠÑģÐ¾Ð¾ÑĤÐ²ÐµÑĤÑģÑĤÐ²ÑĥÑİÑī":1070,"Ð¾Ð»Ð½Ð¾Ð¼Ð¾Ñĩ":1071,"Ð°Ð½Ð°Ð»":1072,"ĠÐ¿ÑĢÐ°Ð²Ð¾Ð²Ð¾Ð³Ð¾":1073,"ĠÑĢÐµÐ¶Ð¸Ð¼Ð°":1074,"ĠÐ¾Ð³ÑĢÐ°Ð½Ð¸Ñĩ":1075,"ĠÐ¶":1076,"ĠÐ¿Ð¾Ð²Ñĭ":1077,"ĠÐ·Ð°Ð¿":1078,"Ð»ÐµÐ½Ð¸Ð¸":1079,"Ġ23":1080,"ÑĢÑĥÐºÑĤÑĥÑĢ":1081,"ÑĦÑĦÐµÐºÑĤÐ¸Ð²":1082,"ÑĢÐ¾ÑģÑĤÑĢÐ°Ð½":1083,"ÐµÐ½Ð½Ð¾Ð¹":1084,"Ð°Ñī":1085,"ĠÑįÐºÑģÐ¿ÐµÑĢÐ¸Ð¼ÐµÐ½ÑĤÐ°Ð»ÑĮÐ½Ð¾Ð³Ð¾":1086,"Ð¸ÑģÐº":1087,"ĠÑĥÑĤÐ²ÐµÑĢÐ¶Ð´":1088,"ĠÐ·Ð°ÑīÐ¸ÑĤ":1089,"Ð³Ð¾ÑĤÐ¾Ð²":1090,"ĠÐ¸ÑģÑģÐ»ÐµÐ´":1091,"ĠÐ½Ð°ÑĨÐ¸Ð¾Ð½":1092,"Ðľ":1093,"ĠÐ·Ð°ÐºÐ¾Ð½Ð¾Ð¼":1094,"ĠÑģÐ¾Ð´ÐµÑĢÐ¶":1095,"Ð¸Ð³":1096,"Ð»ÑıÐµÑĤ":1097,"ÑģÑĤÐ²ÐµÐ½Ð½ÑĭÑħ":1098,"ĠÑģÑĢÐ¾Ðº":1099,"ĠÐ¾Ð±ÑıÐ·Ð°ÑĤÐµÐ»ÑĮ":1100,"ĠÑĢÐ°ÑģÐ¿ÑĢÐ¾ÑģÑĤÑĢÐ°Ð½":1101,"ÑĢÐ°Ðº":1102,"Ð¾Ð»ÐµÐµ":1103,"Ð¼ÐµÑī":1104,"ĠÑĤÑĢÐ°Ð½":1105,"ĠÑĥÑĩÐµÑĤ":1106,"30":1107,"ÐµÐ´ÑĢ":1108,"ÑĢÐ°Ð²Ð»ÐµÐ½Ð¸Ñı":1109,"Ð¾Ð»Ð½Ð¾Ð¼Ð¾ÑĩÐµÐ½":1110,"ÑĢÐ°ÑĤÐµÐ³Ð¸Ð¸":1111,"ĠÐ¿ÐµÑĢÐ¸Ð¾Ð´":1112,"Ð°ÑĩÐµ":1113,"ĠÐ¾Ð±ÑĬÐµÐ¼":1114,"ÑĮÑİ":1115,"ĠÐ¸Ð·Ð¼ÐµÐ½":1116,"ĠÑįÐºÐ¾Ð½Ð¾Ð¼Ð¸ÑĩÐµÑģÐºÐ¾Ð³Ð¾":1117,"ĠÐ²ÑĭÐ¿Ð¾Ð»Ð½":1118,"07":1119,"ÐµÐ½Ð´":1120,"Ð°ÑĤÐµÑĢ":1121,"ĠÐ¿Ð¾Ð´Ð¿":1122,"ĠÐ¡ÑĤ":1123,"ĠÑģÐ¾Ð³Ð»Ð°Ñģ":1124,"Ġ7":1125,"ÑħÑĢÐ°Ð½":1126,"ÑĨÐ¸Ð¾Ð½":1127,"ĠÐ¾ÑĤÐ±Ð¾ÑĢÐ°":1128,"ĠÐ¾ÑĢÐ³Ð°Ð½Ð¾Ð²":1129,"ĠÐŁÑĢÐµÐ·Ð¸Ð´":1130,"ĠÐ¿Ð¾Ð»ÑĥÑĩÐµÐ½Ð¸Ñı":1131,"ĠÑĢÐµÐ³ÑĥÐ»":1132,"ĠÐºÐ¾ÑĤÐ¾ÑĢÑĭÑħ":1133,"ÑĥÐ³":1134,"ÐµÑĩÐµÐ½Ð¸Ðµ":1135,"ĠÐ¾ÑģÐ½":1136,"ĠÐ¾ÑĤÐ½Ð¾":1137,"Ð°Ð½Ð´":1138,"ĠÐ¾Ð±ÑĬÐµÐºÑĤ":1139,"Ð°ÑĢÐ¾Ð´":1140,"ĠÐ½Ð°Ð¿ÑĢÐ°Ð²Ð»ÐµÐ½":1141,"ĠÐ´ÑĢÑĥÐ³":1142,"Ð¾ÑģÑĤÐ¸":1143,"Ð¾ÑģÐ¿":1144,"ÑĥÐ½Ð°ÑĢÐ¾Ð´":1145,"Ð°ÑĢÐ°ÑĤ":1146,"ĠÐ¾ÑģÑĥÑīÐµÑģÑĤÐ²Ð»ÑıÑİÑī":1147,"2024":1148,"ĠÐ´Ð¾ÑģÑĤÐ¸Ð¶ÐµÐ½Ð¸Ñı":1149,"Ðļ":1150,"Ð¼Ð¾Ð¶":1151,"Ġ6":1152,"ĠÐ¾Ð±ÑĢÐ°Ð·Ð¾Ð²Ð°Ð½Ð¸Ñı":1153,"ĠÐ¿Ð¾Ð»ÑĥÑĩÐ°ÑĤÐµÐ»Ñı":1154,"ĠÑģÐ¿Ðµ":1155,"ĠÐ¼Ð°ÑĤÐµÑĢ":1156,"19":1157,"ĠÐµ":1158,"ĠÐ¾Ð±ÑıÐ·Ð°Ð½":1159,"ĠÐ´Ð¾ÑģÑĤÑĥÐ¿Ð°":1160,"ĠÑĢÐµÑģÑĥÑĢÑģ":1161,"Ð¾ÑĢÐ¸ÑĤÐµÑĤ":1162,"ĠÐłÐ¾ÑģÑģ":1163,"ĠÐ¾Ð±ÐµÑģÐ¿ÐµÑĩÐµÐ½Ð¸Ðµ":1164,"ĠÐĺ":1165,"ĠÐĿ":1166,"ÐµÐ»Ð¾Ð²":1167,"ĠÐ¾ÑĨÐµÐ½":1168,"ĠÐ³Ð¾ÑģÑĥÐ´Ð°ÑĢÑģÑĤÐ²ÐµÐ½Ð½ÑĭÑħ":1169,"ĠÐ²Ð½ÐµÐ´ÑĢ":1170,"ĠÐ¿ÑĢÐ¾Ð¸Ð·Ð²Ð¾Ð´ÑģÑĤÐ²Ð°":1171,"ĠÐ¿ÑĢÐ¾Ð´ÑĥÐºÑĨÐ¸Ð¸":1172,"ĠÐ¿Ð¾ÑģÑĤ":1173,"ÐºÐ¾Ð²":1174,"ÑĨÐ¸ÑĦ":1175,"ĠÑģÑĥÐ±ÑĬÐµÐºÑĤÐ°":1176,"ĠÐ¼ÐµÑĢÐ¾Ð¿ÑĢÐ¸ÑıÑĤÐ¸Ð¹":1177,"ĠÐ¾Ð±Ñī":1178,"ÑĢÐ°Ð±Ð¾ÑĤÐºÐ°":1179,"ĠÐ½Ð°ÑģÑĤÐ¾ÑıÑīÐµÐ³Ð¾":1180,"Ð°Ð¶":1181,"Ð´Ð°Ð»":1182,"Ð°ÑĨÐ¸ÐµÐ¹":1183,"ĠÐºÐ°ÑĩÐµ":1184,"ĠÑįÑĦÑĦÐµÐºÑĤÐ¸Ð²":1185,"ÑĢÑĥÐ¿":1186,"ĠÐ¿Ð»Ð°Ð½":1187,"ÑĭÐ¹":1188,"Ð°Ð»ÑĮÐ½ÑĭÐµ":1189,"ĠÐ¾ÑĤÑĢÐ°":1190,"ĠÐŁÐ¾ÑģÑĤÐ°Ð½Ð¾Ð²Ð»ÐµÐ½Ð¸Ñı":1191,"ĠÑİ":1192,"Ð¾Ñī":1193,"ĠÑģÐµÑĢ":1194,"02":1195,"ĠÑĢÐ°Ð¼":1196,"ĠÑģÑĥÐ±ÑĬÐµÐºÑĤÐ¾Ð²":1197,"ĠÐ½Ð°Ð»":1198,"ĠÑĢÐ°Ð·Ð¼ÐµÑī":1199,"ĠÐ½Ð¾ÑĢÐ¼":1200,"ĠÐ¾Ð±ÑĥÑĩ":1201,"ĠÑĥÐ¿Ð¾Ð»Ð½Ð¾Ð¼Ð¾ÑĩÐµÐ½":1202,"ĠÑĢÐ°Ð¼ÐºÐ°Ñħ":1203,"ĠÐ°Ðº":1204,"ĠÐ¾Ð±ÑĢÐ°Ð±Ð¾ÑĤÐºÐ¸":1205,"ĠÐ¼ÐµÐ¶Ð´ÑĥÐ½Ð°ÑĢÐ¾Ð´":1206,"ĠÐ¼Ð°ÑĤÐµÑĢÐ¸":1207,"ÑĨÐ¸Ð¹":1208,"ĠÐ¿ÑĢÐ¸Ð¾ÑĢÐ¸ÑĤÐµÑĤ":1209,"ĠÑĢÐµÐ·ÑĥÐ»ÑĮÑĤÐ°ÑĤÐ¾Ð²":1210,"ĠÑĢÐµÐ³Ð¸Ð¾Ð½":1211,"ĠÑģÐ¾Ð·Ð´Ð°Ð½Ð¸Ðµ":1212,"ÐºÑĢ":1213,"ÐµÐ´Ð¸ÑĨÐ¸":1214,"Ð°ÐµÑĤÑģÑı":1215,"ÑĭÐ¼":1216,"ÑĨÐ¸ÑĦÑĢÐ¾Ð²":1217,"ÑĢÐ¸Ð´":1218,"ĠÐŁÑĢÐµÐ·Ð¸Ð´ÐµÐ½ÑĤÐ°":1219,"ĠÑĤÐµÑħÐ½Ð¾Ð»Ð¾Ð³Ð¸Ð¸":1220,"ĠÑĦÐµÐ´ÐµÑĢÐ°Ð»ÑĮÐ½ÑĭÑħ":1221,"ĠÑģÐ¿ÐµÑĨÐ¸":1222,"ĠÐ³ÑĢÐ°Ð½ÑĤÐ°":1223,"ĠÐ¿ÑĢÐ¸Ð²":1224,"ĠÐ´Ð¾Ð»Ð¶":1225,"Ð·Ð°Ð¸Ð¼":1226,"ÑģÐºÐ¾Ð³Ð¾":1227,"ĠÐ¾Ð±Ð¾ÑĢ":1228,"ĠÐłÐ¾ÑģÑģÐ¸Ð¸":1229,"Ð¿ÑĢÐ°Ð²":1230,"ĠÐ¿ÑĥÐ½ÐºÑĤÐµ":1231,"ĠÐ¾Ð±ÑīÐµ":1232,"Ð¸Ð½Ð³Ð°":1233,"ĠÐ¿ÑĢÐ¸Ð½ÑıÑĤ":1234,"ĠÐ²Ð·Ð°Ð¸Ð¼":1235,"ĠÑĢÐµÑĪÐµÐ½Ð¸Ð¹":1236,"ĠÑģÐ²ÐµÐ´":1237,"ÐµÐ¼ÑĭÑħ":1238,"ĠÑģÑĤÑĢÐ°Ð½":1239,"Ð¸ÑĨÐ¸Ð¿":1240,"ĠÑĥÑģÐ»ÑĥÐ³":1241,"ÑĤÐµÐ¼":1242,"Ð¾Ð»Ð¾Ð³":1243,"ÐµÐ½ÑĮ":1244,"ĠÑĤÐµÑĩÐµÐ½Ð¸Ðµ":1245,"ĠÐ½Ð°ÑĥÑĩÐ½Ð¾":1246,"ĠÑĪ":1247,"ĠÐ·Ð°ÐºÐ»ÑİÑĩ":1248,"Ð½Ð¸ÐºÐ¸":1249,"ĠÐ¿Ð¾ÑģÐ»":1250,"ÐµÐ´Ð¸ÑĨÐ¸Ð½":1251,"ĠÑĨÐ¸ÑĦÑĢÐ¾Ð²":1252,"Ð¾Ð²Ð¾Ð¹":1253,"ĠÐ½Ð¾Ð²ÑĭÑħ":1254,"ĠÐ¤ÐµÐ´ÐµÑĢÐ°Ð»ÑĮÐ½ÑĭÐ¼":1255,"Ð¾Ñį":1256,"ĠÐ¿Ð¾ÑĢÑıÐ´ÐºÐµ":1257,"ĠÐ¸ÑģÑĤ":1258,"ĠÐ¼ÐµÑĤ":1259,"ĠÐ±Ð¾Ð»ÐµÐµ":1260,"ÑĤÐµÑĢÐµÑģ":1261,"ĠÑįÐºÐ¾Ð½Ð¾Ð¼Ð¸ÐºÐ¸":1262,"ĠÐ´Ð¾ÐºÑĥÐ¼ÐµÐ½ÑĤ":1263,"ĠÑģÐ°Ð¹":1264,"ĠÐ¾Ð´":1265,"ĠÐ¸Ð½ÑĦÐ¾ÑĢÐ¼Ð°ÑĨÐ¸Ð¾Ð½Ð½Ð¾Ð¹":1266,"ĠÑģÐ¸Ð»":1267,"ĠÐ½Ð°Ñĥ":1268,"ĠÐ²Ð¾Ð·Ð¼Ð¾Ð¶":1269,"ĠÑİÑĢÐ¸Ð´":1270,"ĠÐ±ÑĭÑĤ":1271,"Ð¸ÑĩÐµÑģÐºÐ¾Ðµ":1272,"ĠÑĩÐµÐ»Ð¾Ð²":1273,"ĠÐ¸Ð½ÑĦÐ¾ÑĢÐ¼Ð°ÑĨÐ¸Ð¾Ð½Ð½Ð¾":1274,"ĠÐ¾ÑģÑĥÑīÐµÑģÑĤÐ²Ð»ÑıÐµÑĤÑģÑı":1275,"Ð²ÐµÐ´Ð¾Ð¼":1276,"ĠÐ¿ÐµÑĢÐµÐ´":1277,"ĠÐ±ÑĭÑĤÑĮ":1278,"ĠÐ¼ÑĥÐ½":1279,"ĠÑĢÐ°ÑģÑģ":1280,"ĠÐ¼ÑĥÐ½Ð¸ÑĨÐ¸Ð¿":1281,"Ġ9":1282,"ÑĪÐµÐ½Ð¸Ð¸":1283,"ĠÐ¤ÐµÐ´ÐµÑĢÐ°Ð»ÑĮÐ½ÑĭÐ¹":1284,"14":1285,"ÑĩÐ¸ÑģÐ»":1286,"ĠÐ¿ÑĢÐ¾Ð³ÑĢÐ°Ð¼Ð¼Ñĭ":1287,"ÑĢÐ°Ñī":1288,"ĠÑĦÑĥÐ½ÐºÑĨÐ¸Ð¸":1289,"ĠÐºÑĢ":1290,"ĠÐ¼Ð¾Ð¶":1291,"Ð¾Ð·Ð´Ð°Ð½Ð¸Ðµ":1292,"ÐµÐ½Ð½Ð¾Ð³Ð¾":1293,"Ð»Ð¸Ñĩ":1294,"Ð¾Ð¼Ñĥ":1295,"ĠÐ¿ÑĢÐµÐ´Ð¿ÑĢ":1296,"ÑĢÐ°ÑģÑĤ":1297,"Ð»ÐµÐ¼":1298,"Ð²Ð¾Ð»":1299,"Ð°Ð·Ð½Ð°Ñĩ":1300,"ĠÑĢÐµÐ·ÑĥÐ»ÑĮÑĤÐ°ÑĤÐ°":1301,"Ð¼ÑĥÐ½Ð¸ÐºÐ°ÑĨÐ¸Ð¾Ð½":1302,"17":1303,"ĠÐ¼ÐµÑģÑĤ":1304,"ĠÑģÐ¾Ð·Ð´Ð°Ð½Ð¸Ñı":1305,"ĠÐ¿ÑĢÐ¸Ð»":1306,"ĠÐ¼ÐµÐ´Ð¸ÑĨÐ¸Ð½":1307,"ĠÐ¼Ð°ÑĤÐµÑĢÐ¸Ð°Ð»":1308,"ĠÐĵ":1309,"ĠÐ½Ð°Ð´":1310,"ĠÑĢÑĭ":1311,"Ð¾Ð»Ð¸ÑĩÐµ":1312,"ÑĤÐµÐ»ÐµÐºÐ¾Ð¼":1313,"ĠÐ¿ÑĢÐµÐ´ÑĥÑģÐ¼Ð¾ÑĤÑĢÐµÐ½Ð½ÑĭÑħ":1314,"Ġ8":1315,"ĠÑģÑĩÐµÑĤ":1316,"ĠÐ´Ð½ÐµÐ¹":1317,"ĠÐºÐ¾Ð½ÐºÑĥÑĢ":1318,"ĠÐ£ÐºÐ°Ð·":1319,"ĠÐ°Ð¿":1320,"ĠÐ¼Ð¸ÑĢ":1321,"Ġ30":1322,"ĠÐ¡ÑĤÑĢÐ°ÑĤÐµÐ³Ð¸Ð¸":1323,"ÑģÑĤÑĢÑĥ":1324,"ĠÐ¸ÑģÐºÐ»ÑİÑĩ":1325,"ĠÐ½Ð°Ð¿ÑĢÐ°Ð²Ð»ÐµÐ½Ð¸Ñı":1326,"ĠÐ¾Ð¿ÑĢÐµÐ´ÐµÐ»Ñı":1327,"Ð¾ÑģÐ¿Ð¾ÑģÐ¾Ð±":1328,"ĠÐ¼Ð¾Ð¶ÐµÑĤ":1329,"Ð£":1330,"Ð¿Ð°ÑĢÐ°ÑĤ":1331,"Ð¾ÑģÑĤÐ¾Ñı":1332,"ĠÑĥÑģÐ»Ð¾Ð²Ð¸Ð¹":1333,"ĠÐ¸Ð½ÑĦ":1334,"ĠÐ¼Ð»":1335,"ĠÑıÐ²Ð»ÑıÐµÑĤÑģÑı":1336,"ĠÑĤÐµÑĢÑĢÐ¸ÑĤÐ¾ÑĢÐ¸Ð¸":1337,"ÑģÐµÐ»":1338,"Ð´Ð°Ð»ÐµÐµ":1339,"ĠÐ½Ð¾ÑĢÐ¼Ð°ÑĤÐ¸Ð²":1340,"Ð°ÑĪ":1341,"Ð»Ð°ÑĤ":1342,"ĠÐ¿Ð¾Ð´Ð³Ð¾ÑĤÐ¾Ð²":1343,"Ð¾Ð²ÐµÑĢ":1344,"ĠÐºÐ¾Ð½ÐºÑĥÑĢÑģ":1345,"ĠÐ·Ð°ÐºÐ¾Ð½Ð¾Ð´Ð°ÑĤÐµÐ»ÑĮÑģÑĤÐ²Ð¾Ð¼":1346,"ĠÐ¸Ð½ÑĭÑħ":1347,"Ð·Ð°ÑĨ":1348,"61":1349,"Ð°Ð½Ð¸Ð¹":1350,"Ð·Ð¾ÑĢ":1351,"ĠÑĥÐºÐ°Ð·Ð°Ð½Ð½ÑĭÑħ":1352,"ĠÐľÐ¸Ð½Ð¸ÑģÑĤÐµÑĢÑģÑĤÐ²Ð¾Ð¼":1353,"ĠÑĤÑĢÐ°Ð½ÑģÐ¿":1354,"Ð¾Ð²Ð°ÑĤÑĮ":1355,"ĠÐ²Ð¸Ð´":1356,"Ġ200":1357,"Ð»Ð¸":1358,"ĠÑĢÑĥÐ±Ð»":1359,"ĠÐ¸Ð½Ð¾ÑģÑĤÑĢÐ°Ð½":1360,"ĠÐ¿ÑĥÐ½ÐºÑĤÐ°":1361,"Ð¸ÑģÑģ":1362,"ĠÑĥÐºÐ°Ð·Ð°Ð½Ð½Ð¾Ð³Ð¾":1363,"ĠÐ¿Ð¾Ð·Ð²Ð¾Ð»":1364,"ĠÐ¾ÑĢÐ³Ð°Ð½Ð°":1365,"ĠÑĢÐµÑĪÐµÐ½Ð¸Ñı":1366,"Ð¾Ð¿Ð¾Ð»Ð½":1367,"ĠÐµÑģÐ»Ð¸":1368,"\".":1369,"ÑĥÑī":1370,"ÑĩÐµ":1371,"ÑģÑĤÐ²Ðµ":1372,"ĠÐºÐ¾ÑĤÐ¾ÑĢÑĭÐµ":1373,"ĠÑįÐºÑģÐ¿ÐµÑĢÑĤ":1374,"ĠÑĢÐ°Ð·Ð²Ð¸ÑĤÐ¸Ðµ":1375,"ÑĢÑĥÐ¿Ð¿":1376,"ĠÑĢÑĥÐ±Ð»ÐµÐ¹":1377,"ÐłÐ°Ð·":1378,"ÑĤÐµÐ»ÐµÐºÐ¾Ð¼Ð¼ÑĥÐ½Ð¸ÐºÐ°ÑĨÐ¸Ð¾Ð½":1379,"ĠÑĥÐ²ÐµÐ´Ð¾Ð¼":1380,"Ð¾Ð·Ð´":1381,"ĠÑĢÐ°Ð±Ð¾ÑĩÐ¸Ñħ":1382,"ĠÐ½Ð°ÑĢÑĥ":1383,"ÑĪÐ¸Ñħ":1384,"ĠÐ¸ÑģÐ¿Ð¾Ð»ÑĮÐ·Ð¾Ð²Ð°Ð½Ð¸ÐµÐ¼":1385,"ĠÐ´Ð½Ñı":1386,"Ð¸ÑĤÐµÐ»ÑĮÐ½ÑĭÑħ":1387,"ĠÑĥÐ¿ÑĢÐ°Ð²Ð»ÐµÐ½Ð¸Ñı":1388,"ĠÐŁÐ¾ÑģÑĤÐ°Ð½Ð¾Ð²Ð»ÐµÐ½Ð¸Ðµ":1389,"ĠÑĢÐ°Ð·ÑĢÐ°Ð±Ð¾ÑĤÐºÐ¸":1390,"ÑĢÐ¾Ñģ":1391,"ĠÐ²Ñģ":1392,"Ġ14":1393,"Ð¸ÑĦÐ¸Ðº":1394,"ĠÐ²Ð·Ð°Ð¸Ð¼Ð¾Ð´":1395,"ĠÑģÐ¸Ð»Ñĥ":1396,"ÑĩÐ¸Ðº":1397,"ĠÑģÑĤÐ°Ð½Ð´":1398,"ĠÐ²ÐºÐ»ÑİÑĩÐ°Ñı":1399,"Ð°Ð»ÑĮÐ½Ð¾":1400,"ĠÐ¾ÑģÐ½Ð¾Ð²Ð°Ð½":1401,"):":1402,"ÑĥÑģÑĤ":1403,"Ð¸ÑıÑħ":1404,"ĠÑĤÐµÑħÐ½":1405,"ÑĥÑİÑīÐ¸Ñħ":1406,"ĠÐ¼Ð°ÑģÑģÐ¾Ð²Ð¾Ð¹":1407,"Ð°ÑĪÐ¸Ð½":1408,"ĠÐ¼ÐµÐ½":1409,"ĠÐ¾Ð±ÑĢÐ°Ð·Ð¾Ð²Ð°ÑĤÐµÐ»ÑĮ":1410,"Ð¼ÑĥÐ½Ð¸ÐºÐ°ÑĨÐ¸Ð¹":1411,"ĠÐºÐ°Ðº":1412,"ĠÐ¿ÑĢÐ¾ÑĦ":1413,"Ð»ÑİÐ´":1414,"ÐµÐ²ÑĭÑħ":1415,"ĠÐ¿Ð¾Ð»ÑĥÑĩÐ°ÑĤÐµÐ»ÐµÐ¼":1416,"ĠÑĩÐµÐ»Ð¾Ð²ÐµÐº":1417,"ÐµÐ½Ð°":1418,"Ð°Ð²Ð»":1419,"ĠÑĤÑĢÐ°Ð½ÑģÐ¿Ð¾ÑĢÑĤ":1420,"16":1421,"ĠÑĦÑĥÐ½Ðº":1422,"ĠÑĥÑĩÐµÑĤÐ¾Ð¼":1423,"ĠÐºÐ¾Ð½ÐºÑĥÑĢÐµÐ½ÑĤ":1424,"ĠÐµÐµ":1425,"Ð°ÑĢÐ°Ðº":1426,"ÑĢÐ°ÑģÑĤÑĢÑĥÐºÑĤÑĥÑĢ":1427,"00":1428,"Ð°Ð½Ð¸Ðµ":1429,"ĠÐ½ÐµÐ´":1430,"Ġ25":1431,"ÑĤÐµÑħÐ½Ð¾Ð»Ð¾Ð³":1432,"ÑĭÑģ":1433,"ĠÐ¾ÑĢÐ³Ð°Ð½Ð¾Ð¼":1434,"ĠÐ¾Ð¿ÐµÑĢÐ°ÑĤÐ¾ÑĢÐ°":1435,"ĠÐ¸Ñİ":1436,"ĠĠĠĠĠĠĠĠ":1437,"ĠÑģÐ¾Ð³Ð»Ð°ÑĪÐµÐ½Ð¸Ñı":1438,"Ð°ÑĢÐ°ÐºÑĤÐµÑĢ":1439,"ĠÑĨÐµÐ»ÐµÐ¹":1440,"ĠÑıÐ²Ð»ÑıÑİÑĤÑģÑı":1441,"ĠÐ¿ÑĢÐ¾Ð¼ÑĭÑĪÐ»ÐµÐ½Ð½Ð¾ÑģÑĤÐ¸":1442,"Ð°ÑİÑĤÑģÑı":1443,"ĠÐ¿ÑĢÐ¾ÑĤ":1444,"Ð¾Ð½Ð¸ÑĤÐ¾ÑĢ":1445,"ĠÐ³ÑĢÑĥÐ¿Ð¿":1446,"ÑİÑīÐ¸Ñħ":1447,"Ġ2020":1448,"Ð¸Ð²Ð°ÐµÑĤ":1449,"Ð¾Ð½Ð´":1450,"Ð¡ÑĤ":1451,"ĠÑģÐ¾ÑĨÐ¸Ð°Ð»ÑĮÐ½Ð¾Ð¹":1452,"ĠÐ¼Ð¾Ð´ÐµÐ»":1453,"ĠÐ¸ÑģÑĤÐ¾Ñĩ":1454,"ĠÐ¼ÐµÐ½ÐµÐµ":1455,"ĠÐ°Ð´":1456,"ĠÐĶ":1457,"ÑĢÑı":1458,"ÑĢÐ°ÑĤ":1459,"Ð»Ð¾Ð¶":1460,"ÑįÐº":1461,"ĠÐ¸Ð½ÑĦÑĢÐ°ÑģÑĤÑĢÑĥÐºÑĤÑĥÑĢ":1462,"2022":1463,"ĠÐ¼Ð°ÑģÑģÐ¾Ð²ÑĭÑħ":1464,"ĠÐ¾Ð±ÑĬÐµÐºÑĤÐ¾Ð²":1465,"13":1466,"ÑĪÐµÐ³Ð¾":1467,"Ð°ÑĤÐµÐ»ÐµÐ¹":1468,"ĠÐ¿Ð¾Ð´Ð¿ÑĥÐ½ÐºÑĤ":1469,"66":1470,"ĠÑĢÐ°Ð´":1471,"ĠÑģÐ¿Ð¾ÑģÐ¾Ð±":1472,"ĠÑįÐ»ÐµÐºÑĤÑĢÐ¾Ð½Ð½Ð¾Ð¹":1473,"ĠÐ°Ð½Ð°Ð»":1474,"Ð²ÐµÑģÑĤ":1475,"ĠÐ¼Ð°ÑĪÐ¸Ð½":1476,"Ð°Ð»Ð¸Ð·":1477,"ÐĶÐ¾Ð¿Ð¾Ð»Ð½":1478,"ĠÐ¿Ð¾ÐºÐ°Ð·Ð°ÑĤÐµÐ»ÐµÐ¹":1479,"ĠÑĢÑĭÐ½":1480,"Ð¾Ð³Ð¾Ð²":1481,"Ð¸ÐºÐ°":1482,"ĠÐºÐ¾Ð¼Ð¼ÑĥÐ½Ð¸ÐºÐ°ÑĨÐ¸Ð¹":1483,"ĠÐ¿ÑĢÐµÐ´Ð¾ÑģÑĤÐ°Ð²Ð»ÐµÐ½Ð¸Ð¸":1484,"ĠÑĢÐ°ÑģÑħÐ¾Ð´Ð¾Ð²":1485,"ĠÐºÐ¾Ð½ÐºÑĥÑĢÐµÐ½ÑĤÐ¾ÑģÐ¿Ð¾ÑģÐ¾Ð±":1486,"ÐµÑģÑı":1487,"Ð¸Ð»ÑĮ":1488,"Ð»ÐµÐ¶":1489,"Ð¸ÑĩÐµÑģÐºÐ¸Ðµ":1490,"ĠÑĤÐ°ÐºÐ¸Ñħ":1491,"ĠÐ´Ð¾Ð¿Ð¾Ð»Ð½Ð¸ÑĤÐµÐ»ÑĮ":1492,"ĠÐ°Ð²ÑĤÐ¾Ð¼":1493,"Ð°Ð½Ð°Ð²Ð»":1494,"ĠÑģÐ¾Ð·Ð´":1495,"ĠÐ¿Ð¾ÐºÐ°Ð·Ð°ÑĤÐµÐ»Ñı":1496,"ĠÑĩÐ°ÑģÑĤÑĮÑİ":1497,"ĠÐĳ":1498,"ĠÐ²Ð»Ð°Ð´":1499,"ĠÐ²ÑĭÑĩÐ¸ÑģÐ»":1500,"ĠÐ¾Ð±Ð¾ÑĢÑĥÐ´":1501,"Ð°Ð»ÑĮÐ½ÑĭÐ¹":1502,"ĠÐ¾ÑĢÐ³Ð°Ð½Ñĭ":1503,"ĠÑħÐ°ÑĢÐ°ÐºÑĤÐµÑĢ":1504,"ÑĤÐµÑħÐ½":1505,"ÐµÐ´Ð¸Ð½":1506,"Ġ18":1507,"Ð½ÐµÑĢÐ³":1508,"ĠÐ¼ÐµÑĤÐ¾Ð´":1509,"ĠÑĢÐ¾ÑģÑģÐ¸Ð¹ÑģÐºÐ¾Ð¹":1510,"ĠÑĥÑģÑĤÐ°Ð½Ð°Ð²Ð»":1511,"ÑıÑī":1512,"ĠÐ²Ð²ÐµÐ´":1513,"ĠÑĤÑĢÑĥÐ´":1514,"ĠÑĨÐµÐ½ÑĤÑĢÐ¾Ð²":1515,"ÑĥÑģÐº":1516,"Ð¼Ð°ÑĤÑĢ":1517,"ĠÐºÐ¾Ð½ÑĤÑĢÐ¾Ð»Ñİ":1518,"ĠÐ½Ð°Ð»Ð¸Ñĩ":1519,"Ð½Ðµ":1520,"ÑĢÐµÑĤ":1521,"ÑģÑĤÐ²Ñĥ":1522,"ĠÐ¼Ð¾Ð½Ð¸ÑĤÐ¾ÑĢ":1523,"Ð½Ð¾ÑģÑĤÐµÐ¹":1524,"ĠÐ¸Ð½ÑĤÐµÐ»Ð»ÐµÐºÑĤÑĥ":1525,"ĠÑģÐ¸ÑģÑĤÐµÐ¼Ðµ":1526,"ĠÐ¿Ð¾ÑĢÑıÐ´Ð¾Ðº":1527,"ÑĢÐ¾Ð¸ÑĤÐµÐ»ÑĮ":1528,"Ð¸ÑģÑģÐ¸Ð¸":1529,"ĠÐ²Ð¾":1530,"ÑĤÐµÐº":1531,"ÑģÐ¿ÐµÐºÑĤÐ¸Ð²":1532,"ĠÐ¿ÑĢÐ¾Ð´ÑĥÐºÑĤ":1533,"ÑĢÐ°Ñģ":1534,"ĠÐ¿Ð¾Ð»ÑĮÐ·":1535,"ĠÑĥÑĢÐ¾Ð²Ð½Ñı":1536,"ĠÐ½Ð°Ð´Ð·Ð¾ÑĢ":1537,"ĠÑĢÐ°Ð´Ð¸":1538,"\";":1539,"Ð½Ð°":1540,"ĠÐ½ÐµÐ¿":1541,"Ð¾Ð¶Ð´":1542,"23":1543,"ĠÑģÐ°Ð¼":1544,"ĠÐ¼Ð°ÑĤÐµÑĢÐ¸Ð°Ð»Ð¾Ð²":1545,"Ð¾ÑģÑĤÐ¾ÑıÐ½":1546,"ÑĤÐ¾":1547,"Ð²Ð°ÑĢ":1548,"ĠÑĦÐ¾ÑĢÐ¼Ðµ":1549,"Ð¾Ð²Ð°Ð½Ð½ÑĭÑħ":1550,"ĠÐ¸Ð½ÑĦÐ¾ÑĢÐ¼Ð°ÑĨÐ¸Ñİ":1551,"ĠÐ¾Ð±ÐµÑģÐ¿ÐµÑĩÐ¸Ð²":1552,"Ġ31":1553,"Ð¸ÑĦÐ¸ÑĨÐ¸":1554,"Ð°ÐµÐ¼ÑĭÑħ":1555,"ĠÐ¶Ð¸Ð·Ð½":1556,"ĠÑĦÐ¸Ð½Ð°Ð½Ñģ":1557,"ĠÐ°Ð¿Ð¿Ð°ÑĢÐ°ÑĤ":1558,"Ð°ÑĤÑĭÐ²":1559,"ĠÐ¾Ð¿ÐµÑĢÐ°ÑĤÐ¾ÑĢÐ¾Ð¼":1560,"ĠÐ¾ÐºÐ°Ð·":1561,"Ð°Ð»Ð»":1562,"ĠÑĩÐµÐ¼":1563,"ĠÑĢÐ¾ÑģÑģÐ¸Ð¹ÑģÐº":1564,"Ð¾ÑĢÑĤÐ°":1565,"ĠÐ¿ÐµÑĢÐµÑĩ":1566,"ĠÐ½Ð°ÑĥÑĩÐ½ÑĭÑħ":1567,"ĠÐ´Ð¾ÐºÑĥÐ¼ÐµÐ½ÑĤÐ¾Ð²":1568,"ĠÑįÑĦÑĦÐµÐºÑĤÐ¸Ð²Ð½Ð¾ÑģÑĤÐ¸":1569,"Ð¾Ð»Ð¸ÑĩÐµÑģÑĤÐ²Ð¾":1570,"ÑıÐ¼":1571,"ÑĢÐ°ÑĦ":1572,"ĠÐºÐ¾Ð¼Ð¿Ð»ÐµÐºÑģÐ½Ð¾Ð³Ð¾":1573,"ĠÐ¾ÑģÐ½Ð¾Ð²Ð°Ð½Ð¸Ð¸":1574,"ĠÐ½Ð°Ð´Ð·Ð¾ÑĢÑĥ":1575,"ĠÐ½Ð¾Ð¼":1576,"ÑĢÐµ":1577,"ĠÐ¸Ð½Ð²ÐµÑģÑĤ":1578,"ĠÑĢÐµÐµÑģÑĤ":1579,"Ð°Ð±Ð·Ð°ÑĨ":1580,"ĠÐ·Ð°ÑīÐ¸ÑĤÐµ":1581,"ĠÐ²ÑĭÐ¿Ð¾Ð»Ð½ÐµÐ½Ð¸Ñı":1582,"ĠÐ½Ð°ÑĥÐºÐ¸":1583,"ĠÐ¼ÑĥÐ½Ð¸ÑĨÐ¸Ð¿Ð°Ð»ÑĮÐ½ÑĭÑħ":1584,"ĠÐºÐ¾ÑĢ":1585,"ĠÐ·Ð´":1586,"ĠÐ¿ÐµÑĢÑģÐ¿ÐµÐºÑĤÐ¸Ð²":1587,"ĠÐ¿ÑĢÐ¾ÑĨÐµÐ½ÑĤÐ°":1588,"ĠÑĢÐ¾ÑģÑģÐ¸Ð¹ÑģÐºÐ¸Ñħ":1589,"Ð¦":1590,"ĠÐ²ÐµÐ´":1591,"ÑĢÐ°Ð±":1592,"ĠÐ¾ÑĤÐ²ÐµÑĤ":1593,"ÑģÑĤÐ²ÐµÐ½Ð½ÑĭÐ¹":1594,"Ġ19":1595,"ĠÐºÐ¾Ð¼Ð¿Ð»ÐµÐºÑģÐ¾Ð²":1596,"ĠÑģÐµÑĢÐ²":1597,"ÑĥÐºÐ¾Ð²":1598,"Ð»Ð°ÑģÑĤ":1599,"ĠÑĢÐ°Ð·Ð»Ð¸Ñĩ":1600,"ÐŀÐ±":1601,"ĠÐ¼Ð»Ð½":1602,"ÑįÐºÐ¾Ð½Ð¾Ð¼":1603,"ÐµÐ½Ð½ÑĭÐµ":1604,"Ð¶ÐµÐ½":1605,"ÐĺÑģÐº":1606,"ĠÐ¸ÑģÐ¿Ð¾Ð»ÑĮÐ·Ñĥ":1607,"ĠÑĦÐµÐ´ÐµÑĢÐ°Ð»ÑĮÐ½ÑĭÐ¹":1608,"ĠÐ¸ÑģÑģÐ»ÐµÐ´Ð¾Ð²Ð°Ð½Ð¸Ð¹":1609,"ĠÐºÐ°ÑĩÐµÑģÑĤÐ²Ð°":1610,"24":1611,"ÑĤÑĮ":1612,"ĠÐ»Ð¸ÑĨÐ°":1613,"ĠÐ·Ð°ÑıÐ²Ð¾Ðº":1614,"ĠÐ¸Ð½Ð´":1615,"ĠÐ¿ÑĢÐ¾ÑĨÐµÑģÑģ":1616,"ĠÐºÑĢÐ¸ÑĤ":1617,"ĠÐ¸ÑİÐ»Ñı":1618,"ÐµÐ½Ñĭ":1619,"ĠÑģÐ¾ÑģÑĤÐ¾ÑıÐ½":1620,"Ð¸Ð½ÑĤÐµÑĢÐµÑģ":1621,"ÑģÑĤÐ²ÐµÐ½Ð½Ð¾":1622,"ÑĥÑĢÑĭ":1623,"ĠÑĦÐµÐ´ÐµÑĢÐ°Ð»ÑĮÐ½ÑĭÐ¼":1624,"ĠÐ·Ð°Ð´Ð°ÑĩÐ¸":1625,"ÐłÐ°Ð·ÑĢÐ°Ð±Ð¾ÑĤÐºÐ°":1626,"ĠÑĢÐ°Ð±Ð¾ÑĤÑĭ":1627,"ĠÐĲ":1628,"ĠÐ¿Ð°ÑģÐ¿":1629,"ÑĤÐµÐ¹":1630,"Ð¸Ð½Ð¸Ð¼":1631,"ÐµÐ»Ð¸Ñĩ":1632,"ĠÐ¿ÑĢÐ¾Ð²ÐµÐ´ÐµÐ½Ð¸Ñı":1633,"15":1634,"Ð¸Ð·Ð¼":1635,"Ð¾ÑĤÑĢÐµÐ±":1636,"Ġ2016":1637,"Ð¼ÐµÑĢÑĩÐµ":1638,"Ð¸Ð²Ð°ÐµÑĤÑģÑı":1639,"ĠÐ¿ÑĢÐ¾Ð²ÐµÐ´ÐµÐ½Ð¸Ðµ":1640,"ĠÐ²Ð·Ð°Ð¸Ð¼Ð¾Ð´ÐµÐ¹ÑģÑĤÐ²Ð¸Ñı":1641,"ÐµÐ½ÑĨÐ¸":1642,"ÐµÑħÐ½Ð¾Ð»Ð¾Ð³":1643,"ĠÐ¾Ð¿ÑĤ":1644,"Ð°ÑĤÑĮÑı":1645,"ĠÐ·Ð°Ð¸Ð½ÑĤÐµÑĢÐµÑģ":1646,"ĠÐŀÐ±":1647,"Ġ124":1648,"ÐµÑģÑģÐ¸Ð¾Ð½":1649,"ĠÑģÐ¾Ð´ÐµÑĢÐ¶Ð°Ñī":1650,"ĠÐ¾ÑĤÑĢÐ°ÑģÐ»":1651,"ÑĢÐ°Ð±Ð°ÑĤÑĭÐ²":1652,"ÑĥÐºÐ¾Ð²Ð¾Ð´":1653,"ĠÐ²ÑĢÐµÐ¼":1654,"Ð´ÐµÐ»ÑĮ":1655,"ĠÑĦÐ¾Ð½Ð´":1656,"ĠÐ¾ÑĢÐ³Ð°Ð½Ð°Ð¼Ð¸":1657,"ĠÐ±Ð°Ð·Ñĭ":1658,"ĠÑĤÑĢÐµÐ±Ð¾Ð²Ð°Ð½Ð¸ÑıÐ¼":1659,"ĠÐĹ":1660,"ÑıÐ¼Ð¸":1661,"ĠÐ½Ð°ÑģÐµÐ»":1662,"ĠÑĩÑĤÐ¾":1663,"ĠÑģÐ²Ð¾":1664,"ĠÐºÐ¾Ð½ÑĤÑĢÐ¾Ð»Ñı":1665,"ĠÐ¿Ð¾ÑģÑĤÐ°Ð½Ð¾Ð²Ð»ÐµÐ½":1666,"ÑģÐ¾Ð·Ð´Ð°Ð½Ð¸Ðµ":1667,"ĠÐ¢":1668,"Ð°ÑģÑģ":1669,"2023":1670,"ĠÐ½Ð°ÑĨÐ¸Ð¾Ð½Ð°Ð»ÑĮÐ½Ð¾Ð¹":1671,"ĠÑĢÐµÐ³ÑĥÐ»Ð¸ÑĢÐ¾Ð²Ð°Ð½Ð¸Ñı":1672,"Ð¸ÑĥÐ¼":1673,"ĠÑĦÐ°ÐºÑĤ":1674,"Ð¸ÑĩÐµÑģÐºÐ¸Ð¼":1675,"ĠÐ³Ð¾ÑģÑĥÐ´Ð°ÑĢÑģÑĤÐ²ÐµÐ½Ð½Ð¾Ð³Ð¾":1676,"ÐµÐ²Ð¾Ð¹":1677,"ĠÐ²ÑĭÑģÑĪÐµÐ³Ð¾":1678,"ĠÑĦÐ¸Ð½Ð°Ð½ÑģÐ¾Ð²Ð¾Ð³Ð¾":1679,"Ð¾Ð²Ð°Ð½Ð¸Ñİ":1680,"Ð¾Ð²ÑĭÐµ":1681,"Ð¸ÑĤÐµÐ»ÐµÐ¹":1682,"ĠÑĥÑĩÐ°ÑģÑĤÐ½Ð¸Ðº":1683,"ĠÐ´Ð°Ð½Ð½ÑĭÐµ":1684,"ÐµÑĢÑĪ":1685,"ĠÐ²Ð¾Ð»":1686,"Ð¾ÑģÑĤÑĮ":1687,"Ð¾Ð³ÑĥÑĤ":1688,"ĠÐ¿Ð¾Ð»Ð¸ÑĤ":1689,"ĠÐŁÑĢÐ°Ð²Ð¸ÑĤÐµÐ»ÑĮÑģÑĤÐ²Ð¾Ð¼":1690,"2019":1691,"ĠÐ¿Ð¾Ð»ÑĥÑĩÐ°ÑĤÐµÐ»ÐµÐ¹":1692,"ĠÐ¼ÐµÑĢÐ¾Ð¿ÑĢÐ¸ÑıÑĤÐ¸Ñı":1693,"ÐĽ":1694,"ĠÑģÐµ":1695,"Ð¾Ð¿ÑĢÐ¾Ð²":1696,"Ð¾ÑĢÑĥÐ¶":1697,"ĠÐ¿ÑĢÐµÐ²":1698,"ĠÐ¼Ð¾Ð³ÑĥÑĤ":1699,"ĠÐ¿ÑĢÐ¾Ð²ÐµÑĢ":1700,"ĠÐľÐ¸Ð½Ð¸ÑģÑĤÐµÑĢÑģÑĤÐ²Ð¾":1701,"________":1702,"ÐºÐ¾":1703,"ÐµÐ´Ð¸":1704,"ĠÐ¼ÐµÑģÑı":1705,"2020":1706,"ĠÐ¿Ð¾Ð²ÑĭÑĪÐµÐ½Ð¸Ðµ":1707,"Ð¸Ð³Ð½":1708,"Ð¡ÑĤÐ°ÑĤÑĮÑı":1709,"ÐĶÐ¾Ð¿Ð¾Ð»Ð½ÐµÐ½Ð¸Ðµ":1710,"26":1711,"Ð²ÐµÐ»Ð¸Ñĩ":1712,"ĠÐ¸ÑĤ":1713,"ĠÐ¸ÑģÐ¿Ð¾Ð»Ð½":1714,"Ð½Ð¾ÑģÑĤÑĮÑİ":1715,"ĠÑģÐ¾Ð±Ð»ÑİÐ´":1716,"ĠÐ¾ÑĨÐµÐ½ÐºÐ¸":1717,"ĠÐ¸ÑģÐºÐ»ÑİÑĩÐµÐ½Ð¸ÐµÐ¼":1718,"ÐºÐ¾Ð¹":1719,"ĠÐ¸Ð½ÑĤÐµÐ³":1720,"ÑĪÐµÐ½Ð¸Ñİ":1721,"ĠÑĦÐ¸Ð·":1722,"ĠÑģÐ»Ð¾Ð²":1723,"Ð¸ÑĢÐ¾Ð²Ð°Ð½Ð½ÑĭÑħ":1724,"ĠÑĢÑĥÐºÐ¾Ð²Ð¾Ð´":1725,"ĠÐºÐ²":1726,"ĠÐ¸Ð½Ð½Ð¾Ð²":1727,"ĠÑģÐ¾Ð¾Ð±":1728,"ĠÐ¿ÑĢÐ°Ð²Ð¾":1729,"2018":1730,"ĠÐ¾ÑĤÐ½Ð¾ÑĪÐµÐ½Ð¸Ð¸":1731,"ĠÐ¿ÑĢÐ¾ÑĦÐµÑģÑģÐ¸Ð¾Ð½":1732,"ĠÐ¸Ð½ÑĦÑĢÐ°ÑģÑĤÑĢÑĥÐºÑĤÑĥÑĢÑĭ":1733,"ĠÐ¿ÑĥÐ±Ð»":1734,"ÐµÑĢÐ¾Ð²":1735,"ÑĪÐµÐ½Ð¸ÐµÐ¼":1736,"ĠÐ±Ð¾Ð»ÑĮ":1737,"Ð¸ÑĩÐµÑģÐºÐ¸Ð¹":1738,"Ġ24":1739,"ĠÐ¿Ð¾Ð´Ð»ÐµÐ¶":1740,"ĠÐºÐ¾ÑĤÐ¾ÑĢÐ¾Ð¼":1741,"ÐµÐ·Ð¸Ð´Ð¸ÑĥÐ¼":1742,"ÐºÑĢÑĭÑĤ":1743,"ĠÐ¼ÐµÑģÑıÑĨ":1744,"Ð¾ÑģÐº":1745,"Ð½ÐµÐ¼":1746,"Ð°ÑĨÐ¸Ð¾Ð½Ð½ÑĭÑħ":1747,"ÐŁÑĢ":1748,"ÐµÐ»ÑĮÑĨ":1749,"ĠÐ¿ÑĢÐ¸Ð¼ÐµÐ½ÐµÐ½Ð¸Ñı":1750,"ĠÐ¾Ð±Ð¾ÑĢÑĥÐ´Ð¾Ð²Ð°Ð½Ð¸Ñı":1751,"ĠÐ¿Ð¾Ð»ÑĮÐ·Ð¾Ð²":1752,"Ð½Ð¾Ñģ":1753,"ÑĢÐ°Ð»ÑĮ":1754,"ĠÐŁÐ¾Ð»":1755,"ĠÑģÑĤÑĢÐ¾Ð¸ÑĤÐµÐ»ÑĮ":1756,"ÐµÐ³Ð¾Ð´":1757,"ĠÑĤÑĢÐµÐ±Ð¾Ð²Ð°Ð½Ð¸Ð¹":1758,"ĠÑģÐ²ÐµÐ´ÐµÐ½Ð¸Ñı":1759,"ĠÐ½Ð¾Ð¼ÐµÑĢ":1760,"ĠÐ¸ÑĤÐ¾Ð³":1761,"95":1762,"ĠÑı":1763,"Ð¸ÑıÐ¼":1764,"ĠÐ½ÐµÑģ":1765,"ĠÑĢÐµÐ°Ð»Ð¸Ð·Ð°ÑĨÐ¸Ñİ":1766,"ĠÐ°Ð²ÑĤÐ¾Ð¼Ð°ÑĤ":1767,"ÐµÐ¼Ð¾Ð¹":1768,"ÑģÑĤÐ²ÐµÐ½Ð½Ð¾Ð¹":1769,"Ġ16":1770,"Ð¸ÑĩÐµÑģÐºÐ¸":1771,"ÐµÑĩÐµ":1772,"ĠÐ¿ÑĢÐµÐ´Ð¾ÑģÑĤÐ°Ð²Ð»Ñı":1773,"ĠÐ¾Ð±ÑĢÐ°Ð·Ð¾Ð²Ð°ÑĤÐµÐ»ÑĮÐ½ÑĭÑħ":1774,"ĠÑĦÑĥÐ½ÐºÑĨÐ¸Ð¾Ð½":1775,"18":1776,"Ðĵ":1777,"ÑĥÐ°ÑĤ":1778,"Ð»ÑĥÐ°ÑĤ":1779,"ĠÐ¿ÑĢÐµÐ·Ð¸Ð´Ð¸ÑĥÐ¼":1780,"ĠÑįÐ»ÐµÐºÑĤÑĢÐ¾Ð½Ð½ÑĭÑħ":1781,"ĠÐ²Ð»Ð°Ð´ÐµÐ»ÑĮÑĨ":1782,"ĠÑģÑĥÐ´":1783,"ÑĢÐ°Ñħ":1784,"ĠÑĦÐ¾ÑĢÐ¼Ð¸ÑĢÐ¾Ð²Ð°Ð½Ð¸Ñı":1785,"ĠÑĢÐ°ÑģÑħÐ¾Ð´Ñĭ":1786,"in":1787,"ĠÐ¿Ð¾ÑĤÑĢÐµÐ±":1788,"ĠÑĥÐ½":1789,"ĠÑĥÐ³":1790,"ĠÐ·Ð°ÐºÐ¾Ð½Ð¾Ð´Ð°ÑĤÐµÐ»ÑĮÑģÑĤÐ²Ð°":1791,"ĠÑĢÐ°Ð·Ð¼ÐµÑĢÐµ":1792,"ĠÐ²Ð½ÐµÐ´ÑĢÐµÐ½Ð¸Ñı":1793,"Ðĳ":1794,"Ð¿ÐµÑĢ":1795,"ĠÐ¾ÑĤÐºÑĢÑĭÑĤ":1796,"ĠÑģÑĤÑĢÐ°ÑĤÐµÐ³":1797,"ĠÑįÐºÑģÐ¿Ð»ÑĥÐ°ÑĤ":1798,"ĠÐ¾Ð±ÑĢÐ°Ð±Ð¾ÑĤÐºÑĥ":1799,"Ð¸Ð±Ð¾":1800,"ĠÐ¾Ð±ÑĥÑĩÐµÐ½Ð¸Ñı":1801,"ĠÐ¿Ð¾Ð·Ð²Ð¾Ð»Ñı":1802,"ĠÑĩÐµÐ»Ð¾Ð²ÐµÐºÐ°":1803,"Ġ17":1804,"Ð¾Ð²ÑĭÐ¹":1805,"Ð°ÑĤÑĢÐ°ÑĤ":1806,"ĠÐ½Ð°ÑģÐµÐ»ÐµÐ½Ð¸Ñı":1807,"ÑĢÐ¾Ð¹":1808,"ĠÑģÐ½":1809,"ĠÐľÐ¸Ð½Ð¸ÑģÑĤÐµÑĢÑģÑĤÐ²Ð°":1810,"ĠÐ·Ð°ÑīÐ¸ÑĤÑĭ":1811,"03":1812,"Ð¾ÑħÑĢÐ°Ð½":1813,"ĠÐ½Ð°Ð±":1814,"ĠÐ´Ð²":1815,"Ð°Ð»Ð°":1816,"ĠÑįÐ½ÐµÑĢÐ³":1817,"ĠÐ¿ÑĢÐµÐ´Ð¾ÑģÑĤÐ°Ð²Ð»ÐµÐ½":1818,"ĠÐ·Ð½Ð°ÑĩÐµÐ½Ð¸Ñı":1819,"ĠÐ¾ÑĢÐ³Ð°Ð½Ð¸Ð·Ð°ÑĨÐ¸ÑıÐ¼Ð¸":1820,"ĠÐ¿ÐµÑĢÐµÐ´Ð°Ñĩ":1821,"ĠÐ¦":1822,"ÑĥÑĤÑĢ":1823,"ĠÐ´ÐµÐ¹ÑģÑĤÐ²Ð¸Ñı":1824,"ĠÐ´Ð¾Ð³Ð¾Ð²":1825,"ĠÑĥÐ²ÐµÐ»Ð¸Ñĩ":1826,"Ð¸Ð¼Ð¾ÑģÑĤÐ¸":1827,"ĠÑĤÐµÑħÐ½Ð¾Ð»Ð¾Ð³Ð¸ÑĩÐµÑģÐºÐ¸Ñħ":1828,"ĠÑĥÑģÑĤÐ°Ð½Ð¾Ð²":1829,"ĠÐ²Ð½ÐµÑģ":1830,"ĠÐŀÑģ":1831,"ÐµÐºÐ¾Ð¼ÐµÐ½Ð´":1832,"ĠÑĤÑĢÑĥÐ´Ð°":1833,"ĠÑĤÑĭÑģ":1834,"Ð¸ÑĩÐµÑģÐºÐ¸Ð¼Ð¸":1835,"ĠÐ±ÑİÐ´Ð¶ÐµÑĤÐ½ÑĭÑħ":1836,"Ð¾Ð¿ÑĢÐ¾Ñģ":1837,"2017":1838,"ĠÑĢÐ°Ð±Ð¾ÑĤÐ½Ð¸ÐºÐ¾Ð²":1839,"ĠÑĨÐµÐ½ÑĤÑĢÐ°":1840,"ĠÐ¸Ð·Ð¼ÐµÐ½ÐµÐ½Ð¸Ð¹":1841,"ĠÐ¾ÑĤÑĢÐ°ÑģÐ»Ð¸":1842,"ĠÐ¿ÑĢÐµÐ´Ð¿ÑĢÐ¸ÑıÑĤ":1843,"ĠÑģÑĤÐ°Ð½Ð´Ð°ÑĢÑĤ":1844,"ĠÑģÐµÑĢÐ²Ð¸Ñģ":1845,"06":1846,"ÑıÐ¹":1847,"ÑĭÐ¼Ð¸":1848,"Ð¾Ð·ÑıÐ¹":1849,"ĠÐºÐ¾Ð¼Ð¿ÐµÑĤ":1850,"ĠÑįÑĤÐ¾Ð¼":1851,"ĠÐ½ÐµÐ¾Ð±ÑħÐ¾Ð´Ð¸Ð¼ÑĭÑħ":1852,"ĠÐ¿ÑĢÐµÐ´ÑģÑĤÐ°Ð²Ð»ÐµÐ½":1853,"ĠÐ¼Ð¾Ð½Ð¸ÑĤÐ¾ÑĢÐ¸Ð½Ð³Ð°":1854,"ĠÐ¿Ñĥ":1855,"ĠÐ²Ð¾Ð¿ÑĢÐ¾Ñģ":1856,"ĠÐ½ÐµÐ·":1857,"ĠÐ·Ð°Ð²":1858,"ĠÐłÐ¤":1859,"ĠÑĦÐ¾ÑĤ":1860,"Ġ219":1861,"ĠÐ¸Ð¼Ðµ":1862,"ĠÐ¾Ð±ÑīÐµÐ³Ð¾":1863,"09":1864,"ÐµÐ½Ð½Ð¾ÑģÑĤÐ¸":1865,"Ð»ÐµÑĩ":1866,"ÑĨÐ¸Ð¿":1867,"ĠÐ³Ð»":1868,"ĠÑģÐ¾Ð¾ÑĤÐ²ÐµÑĤÑģÑĤÐ²ÑĥÑİÑīÐ¸Ñħ":1869,"ĠÑĢÐ°ÑģÐ¿ÑĢÐ¾ÑģÑĤÑĢÐ°Ð½ÐµÐ½Ð¸Ñı":1870,"ĠÑģÐ°Ð¹ÑĤ":1871,"ĠÑĤÐµÐº":1872,"ĠÐ¿Ð¾ÑĤ":1873,"ĠÑģÑĤÑĢÐ°Ñħ":1874,"ÑĥÑĢÑģÐ¾Ð²":1875,"ĠÐ¾Ð¿ÑĭÑĤ":1876,"ÐµÐ±ÑİÐ´Ð¶ÐµÑĤ":1877,"Ð¸ÑĤÐµÐ»Ñı":1878,"ĠÐºÐ¾Ð¼Ð¿ÐµÑĤÐµÐ½":1879,"ÐµÐ½Ð¸":1880,"ĠÐ´Ð°ÑĤ":1881,"ÐµÑĤÐ°":1882,"ĠÐ°ÑĥÐ´":1883,"ĠÑģÐ¾ÑģÑĤÐ°Ð²Ð»ÑıÐµÑĤ":1884,"Ð°ÑĢÑĤÐ½ÐµÑĢ":1885,"ĠÐ·Ð°Ð¿ÑĢÐ¾Ñģ":1886,"ĠÑģÐ²ÐµÐ´ÐµÐ½Ð¸Ð¹":1887,"Ð¾ÑįÐ»ÐµÐºÑĤÑĢÐ¾Ð½":1888,"ĠÑĢÐ°ÑģÑģÐ¼Ð¾ÑĤÑĢ":1889,"ĠÐ½Ð°Ð»Ð¸ÑĩÐ¸Ð¸":1890,"Ð¾ÑĢÐ¾Ð´":1891,"ĠÐ´Ð¸":1892,"ĠÐ³Ð°Ð·":1893,"Ð°Ð¼ÐµÐ½ÑĤ":1894,"ĠÐ¸ÑģÐ¿ÑĭÑĤ":1895,"Ð°ÑİÑīÐ¸Ðµ":1896,"Ġ08":1897,"ĠÐ¿ÑĥÑĤÐµÐ¼":1898,"ĠÐµÐ´Ð¸":1899,"ĠÐ´ÐµÐ¹ÑģÑĤÐ²":1900,"ĠÑĤÐ¸Ð¿":1901,"Ð¾Ð±ÑĢÐ°Ð·":1902,"Ð¸ÑģÑĤÑĢ":1903,"ĠÑĤÐµÑħÐ½Ð¸ÐºÐ¸":1904,"Ð°Ð¿Ð¸ÑĤ":1905,"ĠÑĨÐµÐ»Ð¸":1906,"Ġ2018":1907,"ĠÐ¿ÑĢÐ¸Ð»Ð¾Ð¶ÐµÐ½Ð¸Ñı":1908,"ĠÐµÐ¶":1909,"ÑģÑĥÑĤ":1910,"ÑĢÐ¾Ñĩ":1911,"Ð°Ð½ÑĤ":1912,"ĠÑĢÐµÐº":1913,"Ð¸ÑĤÑĥ":1914,"ĠÑįÐ»ÐµÐ¼":1915,"ÐµÑħÐ°Ð½":1916,"Ġ27":1917,"ĠÐ³Ð¾ÑģÑĥÐ´Ð°ÑĢÑģÑĤÐ²Ð°":1918,"Ð¸ÑĨÐ¸Ð¾Ð½":1919,"ĠÑįÑĤÐ°Ð¿":1920,"ĠÐ°Ð²ÑĤÐ¾Ð½Ð¾Ð¼":1921,"ĠÐ¿Ð¾ÑģÐ»Ðµ":1922,"ÐµÑĢÑĪÐµÐ½":1923,"22":1924,"ĠÐ½Ð¾Ð²Ð¾Ð³Ð¾":1925,"ĠÐ¾ÑĦ":1926,"Ð¸ÑĨÐ¸Ð¹":1927,"Ð¸Ð¶ÐµÐ½Ð¸Ðµ":1928,"Ð¸ÑĦÐ¸ÑĨÐ¸ÑĢ":1929,"ĠÐ¶Ð¸Ð·Ð½Ð¸":1930,"on":1931,"ÐŃ":1932,"ÑĢÐµÐ¶Ð´":1933,"ÐµÑĢÐ½ÑĭÑħ":1934,"ĠÐ½ÐµÐºÐ¾Ð¼":1935,"ĠÐ¾Ð±Ð»Ð°ÑģÑĤ":1936,"ĠÐ¸Ð½Ð¸ÑĨÐ¸":1937,"ĠÐ»Ð¸Ð±Ð¾":1938,"ĠÐ²Ð½ÑĥÑĤÑĢ":1939,"ĠÑĥÑģÑĤÐ°Ð½Ð¾Ð²Ð»ÐµÐ½Ð½Ð¾Ð¼":1940,"ĠÑĢÐ°Ð·Ð¼ÐµÑĢÐ°":1941,"ĠÐ¿Ð¾Ð´Ð¿Ð¸Ñģ":1942,"ĠÑĦÐ¸Ð½Ð°Ð½ÑģÐ¸ÑĢÐ¾Ð²Ð°Ð½Ð¸Ñı":1943,"ĠÑıÐ½":1944,"ĠÐ½ÐµÐºÐ¾Ð¼Ð¼ÐµÑĢÑĩÐµ":1945,"Ð°ÑİÑĤ":1946,"ĠÑĢÐµÐºÐ¾Ð¼ÐµÐ½Ð´":1947,"ĠÐ·Ð°ÑĤÑĢÐ°ÑĤ":1948,"ĠÐ¾ÑĤÐ´ÐµÐ»ÑĮ":1949,"Ð¸ÐºÐµ":1950,"Ð¾ÑĤÑĢÑĥÐ´":1951,"Ð¿ÑĢÐ¾":1952,"ÐķÐĿ":1953,"ĠÐ¸Ð´":1954,"ÑĢÐµÑģ":1955,"ĠÐ¿Ð¾Ð¼":1956,"ĠÑģÐ¾ÑĤÑĢÑĥÐ´":1957,"Ð¾Ð±ÐµÑģÐ¿ÐµÑĩ":1958,"Ġ2030":1959,"ĠÐ»ÐµÐº":1960,"Ð²Ð¸ÑĤÐ¸Ðµ":1961,"ĠÐ¿ÑĢÐ¾Ð¸Ð·Ð²ÐµÐ´":1962,"ÑģÑĤÑĢÑĥÐº":1963,"ĠÐķ":1964,"ĠÐ¸Ð½ÑĤÐµÑĢ":1965,"ĠÐ¼Ð¸Ðº":1966,"ĠÐ¼Ð¾Ñī":1967,"ĠÑģÑĢÐµÐ´ÑģÑĤÐ²Ð°":1968,"Ġ09":1969,"ĠÑģÑĢÐ¾ÐºÐ¸":1970,"ĠÐ½ÐµÐ´Ð¾ÑģÑĤ":1971,"Ð²Ð°ÑĢÑı":1972,"ĠÑıÐ½Ð²Ð°ÑĢÑı":1973,"ÑĥÑħ":1974,"ÐºÐ¾Ð¼":1975,"Ð²ÐµÑĢ":1976,"ĠÐºÑĥÐ»ÑĮÑĤ":1977,"Ð°Ð»ÑĮÐ½Ð¾Ð¼":1978,"Ð¸ÑĤÑģÑı":1979,"Ð±ÑĢÑı":1980,"Ð°Ð»Ð¸Ð·Ð°ÑĨÐ¸Ð¸":1981,"ÑıÐ·Ñĭ":1982,"ĠÐ¿Ð¾ÐºÐ¾Ð»":1983,"ĠÑĥÑĩÐ°ÑģÑĤÐ½Ð¸ÐºÐ¾Ð²":1984,"Ġ2022":1985,"Ð¸ÑĦÐ¸ÐºÐ°ÑĨÐ¸Ð¸":1986,"ĠÑıÐ·Ñĭ":1987,"ĠÑĢÐ¸ÑģÐº":1988,"Ġ13":1989,"ĠÑįÐºÐ¾Ð»Ð¾Ð³":1990,"ĠÐ¾Ð¿Ð»Ð°ÑĤ":1991,"ĠÐ³Ð¾ÑģÑĥÐ´Ð°ÑĢÑģÑĤÐ²ÐµÐ½Ð½ÑĭÐµ":1992,"ÐŀÐ¡":1993,"Ð°Ð¹Ð´":1994,"ĠÐ·Ð½Ð°ÑĩÐµÐ½Ð¸Ðµ":1995,"ĠÐ´ÑĢÑĥÐ³Ð¸Ñħ":1996,"ĠÑģÐ°Ð¹ÑĤÐ°":1997,"ĠÑģÐ±Ð¾ÑĢ":1998,"ĠÐ²Ð¾Ñģ":1999,"Ð¾ÑģÑĤÐ¸Ð½Ð³Ð°":2000,"ĠÐ»Ð¸ÑĨÐ¾Ð¼":2001,"ĠÑħÐ¾ÑģÑĤÐ¸Ð½Ð³Ð°":2002,"ĠÑĦÐµÐ´ÐµÑĢÐ°Ð»ÑĮÐ½ÑĭÐ¼Ð¸":2003,"Ð¸ÑĢÑĥÐµÑĤÑģÑı":2004,"25":2005,"Ð¸ÑĩÐ½Ð¾Ð¹":2006,"ĠÐ¾ÑħÑĢÐ°Ð½":2007,"Ð»ÑİÑĩÐµÐ½":2008,"Ð¿ÑĢÐ¾Ð³ÑĢÐ°Ð¼Ð¼":2009,"27":2010,"86":2011,"Ð¾Ð½Ñĭ":2012,"ÐºÐ¾Ð½":2013,"ĠÐ²Ð»":2014,"ĠÐ¿ÐµÑĢÐ²":2015,"ĠÐ¿Ð¾Ð´ÑĤÐ²ÐµÑĢÐ¶Ð´":2016,"ĠÑĢÐ°Ð·Ð²Ð¸ÑĤÐ¸Ñİ":2017,"ĠÐ¾Ð±ÐµÑģÐ¿ÐµÑĩÐ¸ÑĤÑĮ":2018,"Ġ2021":2019,"ĠÐ¿ÐµÑĢÐµÑĩÐµÐ½ÑĮ":2020,"ĠÐ²Ð¾Ð»Ð½Ñĭ":2021,"ÐµÑĢÐ½":2022,"Ð½Ð¾Ð·":2023,"Ð°Ð»Ð¸ÑģÑĤ":2024,"ĠÑĢÐµÑĪÐµÐ½Ð¸Ðµ":2025,"ĠÐ¸Ð½ÑĦÐ¾ÑĢÐ¼Ð°ÑĨÐ¸Ð¾Ð½Ð½Ð¾Ð³Ð¾":2026,"ĠÑįÑĤÐ¾Ð³Ð¾":2027,"ÐĺÑģÐºÐ»ÑİÑĩÐµÐ½":2028,"ĠÐ¿ÑĢÐµÐ²ÑĭÑĪ":2029,"04":2030,"ÑĥÑīÐµ":2031,"Ð¾ÑĤÐµÑħÐ½Ð¾Ð»Ð¾Ð³":2032,"ĠÑĤÐ¾ÑĢÐ³":2033,"ÑĪÐµ":2034,"ĠÑĢÐ°Ð·Ð°":2035,"ĠÐ±Ð»":2036,"Ð¸ÑĤÐµÐ»ÑĮÐ½Ð¾":2037,"ĠÐ»Ð°Ð·":2038,"ĠÐ¾ÑĢÐ³Ð°Ð½Ð¸Ð·Ð°ÑĨÐ¸ÐµÐ¹":2039,"ĠÐ¾Ð±ÑĢÐ°Ð±Ð¾ÑĤÐºÐ°":2040,"ĠÑģÐ¾Ð²ÑĢÐµÐ¼":2041,"ĠÑĢÐ°Ð±Ð¾ÑĩÐµÐ¹":2042,"ĠÐ°ÐºÑĤÑĥ":2043,"ĠÐ¾ÑģÑĥÑīÐµÑģÑĤÐ²Ð»ÑıÑİÑīÐ¸Ð¹":2044,"ĠÑĥÐ¿Ð¾Ð»Ð½Ð¾Ð¼Ð¾ÑĩÐµÐ½Ð½ÑĭÐ¼":2045,"ĠÐ¿ÑĢÐ¸Ð½ÑıÑĤÐ¸Ñı":2046,"ĠÐ¿ÑĢÐµÐ´Ð¿ÑĢÐ¸Ð½Ð¸Ð¼":2047,"ĠÐ¿Ð¾Ð´Ð³Ð¾ÑĤÐ¾Ð²ÐºÐ¸":2048,"ĠÐ³ÑĢÑĥÐ¿Ð¿Ñĭ":2049,"ĠÐ²ÑĭÑĩÐ¸ÑģÐ»Ð¸ÑĤÐµÐ»ÑĮÐ½ÑĭÑħ":2050,"ĠÐ¿Ð¾ÐºÐ¾Ð»ÐµÐ½Ð¸Ñı":2051,"21":2052,"43":2053,"ĠÐ°Ð³":2054,"Ð°Ð½Ð½ÑĭÐµ":2055,"ÑģÐºÐ¾Ð¼":2056,"ÑģÐºÐ°Ñı":2057,"Ð°Ð»ÑĮÐ½ÑĭÐ¼":2058,"Ð°ÑĢÐ¾Ð²":2059,"ĠÑĤÐ°ÐºÐ¾Ð³Ð¾":2060,"ĠÐºÐ¾Ð¼Ð¿Ð¾Ð½":2061,"ĠÑĢÐ°Ð·ÑĢÐ°Ð±Ð¾ÑĤÐºÐµ":2062,"ĠÑģÐ»ÐµÐ´ÑĥÑİÑīÐµÐ³Ð¾":2063,"ÑĩÐ¸ÐºÐ¾Ð²":2064,"ĠÐ°Ð½Ð°Ð»Ð¸Ð·":2065,"ĠÑģÐµÑĤÐµÐ¹":2066,"ĠÐ½Ð°Ð·Ð½Ð°Ñĩ":2067,"ĠÑĢÐ°Ð·Ð´ÐµÐ»":2068,"ĠÐ³Ð¾Ð´Ñĭ":2069,"ĠÐºÐ¾ÑĤÐ¾ÑĢÐ¾Ð³Ð¾":2070,"ĠÐ¿ÑĢÐ¾Ð²Ð°Ð¹Ð´":2071,"ĠÐ¿Ð¾ÑĢÑıÐ´ÐºÐ°":2072,"ĠÐ²Ð¾Ð·Ð²":2073,"ĠÑģÑĤÑĢÐ°Ð½Ñĭ":2074,"ĠÐ°Ð´ÑĢÐµÑģ":2075,"ÑģÑĤÑĥÐ¿":2076,"ĠÐ¿ÑĢÐ¸Ð·Ð½":2077,"ĠÐºÐ°Ð¿Ð¸ÑĤ":2078,"ĠÐ½Ð°ÑģÑĤÐ¾ÑıÑīÐ¸Ð¼":2079,"Ð°ÑİÑīÐµÐ¹":2080,"ÑĤÑĢÐ°ÑĤ":2081,"ĠÐ´ÐµÑıÑĤÐµÐ»ÑĮÐ½Ð¾ÑģÑĤÑĮ":2082,"ĠÐ´Ð¾Ð¿Ð¾Ð»Ð½":2083,"ĠÐºÐ¾ÑĢÐ¿":2084,"ĠÐ·Ð°Ð¸Ð½ÑĤÐµÑĢÐµÑģÐ¾Ð²Ð°Ð½":2085,"ĠÐ¿Ð°ÑĢÑĤÐ½ÐµÑĢ":2086,"ÑĩÐ°ÑģÑĤ":2087,"ĠÐ¿ÑĢÐµÐ¿":2088,"Ð°Ð»ÑĮÐ½ÑĭÐ¼Ð¸":2089,"ĠÐ¾ÑĤÐµÑĩÐµ":2090,"ĠÐ¾ÑĤÑģÑĥÑĤ":2091,"Ġ11":2092,"ĠÑģÑĤÑĢÑĥÐºÑĤÑĥÑĢ":2093,"ÐĺÐ¡":2094,"ĠÐļÐ¾Ð¼":2095,"ĠÐ¿ÑĢÐµÐ´ÑĥÑģÐ¼Ð°ÑĤÑĢ":2096,"ĠÐ¾ÑĤÐ²ÐµÑĤÑģÑĤÐ²ÐµÐ½":2097,"85":2098,"ĠÐ°Ð±Ð·Ð°ÑĨ":2099,"ÑĨÐ¸Ñı":2100,"Ð¾ÑģÐ¼":2101,"ĠÐ·Ð°Ð¼":2102,"ĠÐ³Ð¾ÑģÑĥÐ´Ð°ÑĢÑģÑĤÐ²":2103,"Ð¸ÑĢÐ¾Ð²Ð°Ð½Ð¸Ñİ":2104,"Ð¾Ð²ÑĭÐ¼":2105,"2015":2106,"Ð¸ÑĤÐµÐ»ÐµÐ¼":2107,"Ġ1261":2108,"ĠÐ¿ÑĢÐ¾ÑĤÐ¸Ð²":2109,"ĠÐºÑĢÐ¸ÑĤÐµÑĢ":2110,"39":2111,"ÑģÐºÐ¸Ð¹":2112,"ĠÐ´Ð¾Ð²ÐµÑĢ":2113,"ĠÐºÐ°Ð´":2114,"ÐµÐ¼ÑĭÐµ":2115,"Ð¾Ð±Ð»ÐµÐ¼":2116,"ÑĢÐµÐ´ÑģÑĤÐ²Ð¾Ð¼":2117,"ĠÐľÐ¾ÑģÐº":2118,"ĠÑĢÐµÐ¶Ð¸Ð¼":2119,"ĠÐ¿Ð¾Ð²ÑĭÑĪÐµÐ½Ð¸Ñı":2120,"Ð°Ð¶Ð´":2121,"ĠÐµÐ¶ÐµÐ³Ð¾Ð´":2122,"ĠÐ²Ð½ÑĥÑĤÑĢÐµÐ½":2123,"29":2124,"ĠÐ¸Ð½ÑĭÐµ":2125,"Ð¼ÐµÑĤ":2126,"ÑģÑĤÐ²ÑĥÑİÑī":2127,"ÑģÐºÐ¸Ðµ":2128,"Ð¸Ð·Ñĥ":2129,"ĠÐºÐ¾Ð¼Ð¸ÑģÑģÐ¸Ð¸":2130,"ĠÐºÐ¾ÑĤÐ¾ÑĢÑĭÐ¼":2131,"Ð¿ÑĢÐ¸":2132,"ÑıÑĤÑĮ":2133,"ĠÐ¿Ð»Ð°Ð½Ð¾Ð²":2134,"ĠÐ¼ÐµÑģÑĤÐ½Ð¾Ð³Ð¾":2135,"35":2136,"Ð°Ð½Ð¸Ð¸":2137,"ĠÑģÐ¾Ð¿ÑĢÐ¾Ð²":2138,"ĠÐ´ÐµÐ»":2139,"ĠÑĥÐ»":2140,"ÐµÐ¼Ñĥ":2141,"ĠÐ¼ÐµÑħÐ°Ð½":2142,"ĠÐ±Ñĭ":2143,"ĠÐ±ÑĥÐ´":2144,"ĠÑĥÑĩÑĢÐµÐ¶Ð´":2145,"ĠÑĥÐºÐ°Ð·Ð°Ð½Ð½ÑĭÐµ":2146,"ĠÐ¿ÑĢÐ¸Ð½Ð¸Ð¼Ð°":2147,"ĠÑģÐ¿ÐµÑĨÐ¸Ð°Ð»Ð¸ÑģÑĤ":2148,"ĠÐ½Ð¾ÑĢÐ¼Ð°ÑĤÐ¸Ð²Ð½Ð¾":2149,"ĠÑĥÐ²ÐµÐ´Ð¾Ð¼Ð»ÐµÐ½Ð¸Ñı":2150,"ĠÑĤÐµÐ¼":2151,"Ð½Ð¾Ð³":2152,"ĠÐ¿ÑĢÐ¸Ð±":2153,"ĠÑĢÐ¾ÑģÑĤ":2154,"ĠÐ¸Ð½ÑĦÐ¾ÑĢÐ¼Ð°ÑĨÐ¸Ñı":2155,"ĠÐ¸Ð·Ð´ÐµÐ»":2156,"ĠÑĥÐ¿ÑĢÐ°Ð²":2157,"ĠÑĢÐµÑģÑĥÑĢÑģÐ¾Ð²":2158,"ĠÐ¾Ð±ÑĬÐµÐ¼Ð°":2159,"ĠÐ¸Ð½ÑĤÐµÐ³ÑĢ":2160,"ĠÐ¸Ð´ÐµÐ½ÑĤ":2161,"Ð½Ð°Ð¿ÑĢÐ°Ð²":2162,"Ð¸Ð¼ÑĭÑħ":2163,"Ð¸ÑĢÑĥÑİÑī":2164,"ĠÑĢÐµÐ·ÑĥÐ»ÑĮÑĤÐ°ÑĤÐµ":2165,"ĠÐ»Ð¸ÑĨÐ¾":2166,"ĠÐ¿ÑĢÐ¸Ð½ÑĨÐ¸Ð¿":2167,"ĠÐºÐ¾Ð¼Ð¿Ð»ÐµÐºÑģÐ°":2168,"ĠÑĢÐ°ÑģÐ¿ÑĢÐ¾ÑģÑĤÑĢÐ°Ð½Ñı":2169,"ĠÐ¸Ð·Ð¼ÐµÐ½ÐµÐ½Ð¸Ñı":2170,"ĠÐºÐ¾Ð½ÐºÑĥÑĢÐµÐ½ÑĤÐ¾ÑģÐ¿Ð¾ÑģÐ¾Ð±Ð½ÑĭÑħ":2171,"ĠÑģÐ°Ð¼Ð¾":2172,"ĠÑĢÐ°Ð·Ð»Ð¸ÑĩÐ½ÑĭÑħ":2173,"31":2174,"ÐµÑĪ":2175,"ÑĢÐ¾Ð·":2176,"ĠÐ²Ð¾Ð´":2177,"Ð°Ð»ÑĮÐ½Ð¾Ðµ":2178,"Ð°ÑĤÐ°":2179,"ĠÐ¸Ð½ÑĤÐµÑĢÐµÑģ":2180,"ĠÐ¾Ñĩ":2181,"ĠÑĦÐ¾ÑĢÐ¼Ð¸ÑĢÐ¾Ð²Ð°Ð½Ð¸Ðµ":2182,"ÑıÐ²Ð»ÐµÐ½":2183,"ĠÐ¿ÑĢÐ¾Ð³ÑĢÐ°Ð¼Ð¼Ð½Ð¾Ð³Ð¾":2184,"ĠÑģÐ²ÑıÐ·Ð°Ð½Ð½ÑĭÑħ":2185,"ĠÑģÑĦÐµÑĢÑĭ":2186,"ĠÑĢÐµÑģÑĥÑĢÑģÐ°":2187,"ÐµÑĢÑĪÐµÐ½ÑģÑĤÐ²":2188,"ĠÑģÐ¾Ð¿ÑĢÐ¾Ð²Ð¾Ð¶Ð´":2189,"ÐµÐºÑģ":2190,"ĠÑĥÑģÑĤÑĢÐ¾Ð¹":2191,"ĠÐ½Ð°Ð¿ÑĢÐ°Ð²Ð»ÑıÐµÑĤ":2192,"ÑıÑīÐ¸Ñħ":2193,"ÑĤÑĢÐ°ÑĤÐ¸Ð»":2194,"ti":2195,"Ð¾Ð¾ÑħÑĢÐ°Ð½":2196,"ĠÐ¿Ð¾ÑĢ":2197,"ĠÐ²Ð°Ð»":2198,"Ð¾Ð³Ð½Ð¾Ð·":2199,"ĠÐ·Ð°ÐºÐ°Ð·":2200,"ĠÑĢÐ°Ð·ÑĢÐ°Ð±Ð¾ÑĤÐ¾Ðº":2201,"ÐłÐĲ":2202,"ĠÑĥÑģÐ»Ð¾Ð²Ð¸Ñı":2203,"ĠÐ·Ð½Ð°ÑĩÐµÐ½Ð¸Ð¹":2204,"ĠÐ¿Ð¾ÑģÑĢÐµÐ´ÑģÑĤÐ²Ð¾Ð¼":2205,"ĠÐ²ÑģÐµÑħ":2206,"ĠÐ¸ÑĤÐ¾Ð³Ð°Ð¼":2207,"Ġ2192":2208,"II":2209,"ÐµÐ½Ð¾":2210,"ĠÐ¿ÑĢÐ¸Ñĩ":2211,"Ð´Ð½":2212,"ĠÐ¾ÑĤÑĢÐ°Ñģ":2213,"ÑĢÐ°Ð¼Ð¸":2214,"ĠÑģÐ¾ÑĨÐ¸Ð°Ð»ÑĮÐ½Ð¾":2215,"ĠÐ¾ÑĤÑĢÐ°ÑģÐ»Ñı":2216,"Ð¼ÐµÑģÑĤ":2217,"Ð¸Ð»Ð¾ÑĤ":2218,"Ġ28":2219,"ĠÐ¿Ð¾Ð»Ð½Ð¾Ð¼Ð¾Ñĩ":2220,"ĠÑĥÑģÑĤÐ°Ð½Ð¾Ð²Ð»ÐµÐ½Ð½ÑĭÑħ":2221,"ĠÑĢÐ°Ð·Ð¼ÐµÑīÐµÐ½Ð¸Ñı":2222,"ĠÐ²Ð¾Ð·Ð¼Ð¾Ð¶Ð½Ð¾ÑģÑĤÐ¸":2223,"ĠÐ¦ÐµÐ½ÑĤ":2224,"ĠÐºÐ¾Ð¼Ð¿ÐµÑĤÐµÐ½ÑĨÐ¸Ð¹":2225,"ĠÐºÐ¾ÑĢÐ¿Ð¾ÑĢ":2226,"Ð¾Ð½Ð¾Ð²":2227,"Ð¸Ð·Ð°ÑĨÐ¸Ñı":2228,"ĠÐ½Ð°ÑħÐ¾Ð´":2229,"ĠÑįÐ»ÐµÐºÑĤÑĢ":2230,"ĠÐŁÑĢÐ°Ð²Ð¸ÑĤÐµÐ»ÑĮÑģÑĤÐ²Ð¾":2231,"Ð¸Ð²Ð°ÑİÑĤÑģÑı":2232,"ĠÐ½ÐµÐ¾Ð±ÑħÐ¾Ð´Ð¸Ð¼Ð¾ÑģÑĤÐ¸":2233,"ĠÐºÐ¾Ð½ÑĤÑĢÐ¾Ð»ÑĮ":2234,"ĠÐ¿ÑĢÐ¸Ð¼ÐµÐ½Ñı":2235,"ĠÐ°ÐºÑĤÐ¸Ð²":2236,"Ð°ÑīÐ¸Ñħ":2237,"ĠÐ¾Ð±ÑıÐ·Ð°ÑĤÐµÐ»ÑĮÑģÑĤÐ²":2238,"ĠÐ²Ð¸Ð´Ðµ":2239,"ĠÐ¼Ð¾Ð´ÐµÐ»Ð¸":2240,"ĠÑįÐ½ÐµÑĢÐ³ÐµÑĤ":2241,"ĠÐ¿ÑĢÐ¾Ð²Ð°Ð¹Ð´ÐµÑĢ":2242,"ĠÐ½ÐµÐ¹":2243,"ÐµÑĤÑĮ":2244,"Ð°ÑĨÐ¸Ð¾Ð½Ð½Ð¾Ð¹":2245,"ĠÐ¸ÑģÐºÑĥÑģÑģÑĤÐ²ÐµÐ½":2246,"Ð¸ÑĢÐ¾Ð²Ð°Ð½Ð½Ð¾Ð³Ð¾":2247,"ĠÐ¿ÑĢÐµÐ´ÑģÑĤÐ°Ð²Ð»ÐµÐ½Ð¸Ñı":2248,"ĠÐ¼ÐµÐ¶Ð´Ñĥ":2249,"ĠÐ¿ÑĢÐ¸Ð²Ð»ÐµÑĩ":2250,"ĠÐ¿Ð¾ÑģÐ»ÐµÐ´":2251,"ĠÐ¾ÐºÐ°Ð·ÑĭÐ²":2252,"ĠÐ²Ð¾Ð·Ð²ÑĢÐ°ÑĤ":2253,"ÐµÐ½Ð½ÑĭÐ¼":2254,"ĠÐºÐ¾":2255,"ÑĪÐ¸Ð¼":2256,"ÑİÑīÐ¸Ðµ":2257,"ĠÐ¿Ð¾Ð»Ð¾Ð¶":2258,"ĠÐ¿ÑĢÐ¾ÐµÐºÑĤÑĭ":2259,"ĠÐ¿ÑĢÐ¾ÐµÐºÑĤÐ¸ÑĢÐ¾Ð²Ð°Ð½Ð¸Ñı":2260,"ÑĥÐ¿ÑĢÐ°Ð²Ð»ÐµÐ½Ð¸Ñı":2261,"Ð¸Ð·Ð²Ð¾Ð´":2262,"Ġ2011":2263,"ĠÑĥÐºÐ°Ð·Ð°Ð½Ð½Ð¾Ð¹":2264,"ĠÑģÐ»ÑĥÑĩÐ°Ñı":2265,"ĠÐ¿ÑĢÐ¸Ð¾ÑĢÐ¸ÑĤÐµÑĤÐ½ÑĭÑħ":2266,"Ð§":2267,"ĠÐ°Ð»":2268,"ÐµÐ½Ð½Ð°Ñı":2269,"ÐµÑĤÑĢ":2270,"Ð¸ÑĢÐ¾Ð²Ð°ÑĤÑĮ":2271,"ĠÐ¾ÑģÑĥÑīÐµÑģÑĤÐ²Ð»ÐµÐ½Ð¸Ñı":2272,"ĠÐ·Ð°ÐºÐ¾Ð½Ð°Ð¼Ð¸":2273,"ĠÑįÐºÐ¾Ð½Ð¾Ð¼Ð¸ÑĩÐµÑģÐºÐ¾Ð¹":2274,"ĠÑħÐ¾Ð·ÑıÐ¹":2275,"ĠÑĦÐµÐ´ÐµÑĢÐ°Ð»ÑĮÐ½ÑĭÐµ":2276,"ĠÑģÐ¾Ð²ÐµÑĢÑĪÐµÐ½ÑģÑĤÐ²":2277,"ĠÐ¼ÐµÐ´Ð¸ÑĨÐ¸Ð½ÑģÐºÐ¾Ð¹":2278,"ĠÑħÐ°ÑĢÐ°ÐºÑĤÐµÑĢÐ¸ÑģÑĤ":2279,"ĠÐ´Ð¾Ð³Ð¾Ð²Ð¾ÑĢ":2280,"ĠÐ¿Ð¾ÑĤÐµÐ½ÑĨÐ¸":2281,"ĠÐ¼ÐµÑħÐ°Ð½Ð¸Ð·Ð¼":2282,"ÐµÑģÐ¾Ð²":2283,"Ð²Ð¾Ð´":2284,"ĠÑģÐµÐ±":2285,"ÐµÑĢÐ°ÑĨÐ¸Ð¸":2286,"ĠÐºÐ¾Ð»Ð¸ÑĩÐµÑģÑĤÐ²Ð¾":2287,"ÑĢÐ°Ð²Ð¾Ð¾ÑħÑĢÐ°Ð½":2288,"ĠÐ¿ÑĢÐ°Ð²Ð°":2289,"ĠÑĢÐµÐ·ÑĥÐ»ÑĮÑĤÐ°ÑĤÑĭ":2290,"ĠÑĢÐ°Ð·ÑĢÐ°Ð±Ð¾ÑĤÐºÐ°":2291,"ĠÐ¼ÐµÑĢÑĭ":2292,"ĠÐ±Ð°Ð·Ð¾Ð²ÑĭÑħ":2293,"ĠÑĥÑĩÐµÑĤÐ°":2294,"ÑĤÐµÐ»ÐµÐºÐ¾Ð¼Ð¼ÑĥÐ½Ð¸ÐºÐ°ÑĨÐ¸Ð¾Ð½Ð½ÑĭÑħ":2295,"ĠÑĤÐ¾ÑĢÐ³Ð¾Ð²":2296,"ĠÑĤÐµÐ»":2297,"Ð½Ð¸ÑĩÐµ":2298,"ÑıÐ±ÑĢÑı":2299,"ĠÐ¿ÑĢÐµÐº":2300,"ĠÐ½Ð¸Ñħ":2301,"ĠÐºÐ»ÑİÑĩ":2302,"ÑĪÐ¸Ðµ":2303,"ĠÐ¿ÑĢÐµÐ´Ð¿":2304,"ĠÐ¿ÑĢÐµÐ´Ð»Ð¾Ð¶":2305,"Ð¸Ð²Ð°Ð½Ð¸Ñı":2306,"ĠÐ¾ÑģÐ¾Ð±":2307,"ĠÐ¿Ð¾Ð»Ð¾Ð¶ÐµÐ½Ð¸Ñı":2308,"ĠÐ²ÑĭÐ´ÐµÐ»":2309,"ÐµÐ¶Ð½ÑĭÑħ":2310,"ĠÑģÑĥÐ±ÑģÐ¸Ð´Ð¸Ð¹":2311,"ĠÑĢÐ°Ð·ÑĢÐ°Ð±Ð¾ÑĤÐºÑĥ":2312,"ĠÐ¾Ð±ÑĢÐ°Ð·Ð¾Ð²Ð°Ð½Ð¸Ð¹":2313,"ĠÐ¸ÑģÐ¿Ð¾Ð»ÑĮÐ·Ð¾Ð²Ð°Ð½Ð¸Ðµ":2314,"ÑĤÐµÐ»ÐµÐºÐ¾Ð¼Ð¼ÑĥÐ½Ð¸ÐºÐ°ÑĨÐ¸Ð¾Ð½Ð½Ð¾Ð¹":2315,"ĠÑģÑĤÐ°Ð½Ð´Ð°ÑĢ":2316,"ĠÐ¿Ð¾Ð»ÑĮÐ·Ð¾Ð²Ð°ÑĤÐµÐ»ÐµÐ¹":2317,"ĠÐ²Ð¾Ð¿ÑĢÐ¾ÑģÐ°Ð¼":2318,"ĠÐ¿Ð¾Ð¼Ð¾Ñī":2319,"ĠÐ¿ÑĢÐµÐ´Ð¿ÑĢÐ¸Ð½Ð¸Ð¼Ð°ÑĤÐµÐ»ÑĮ":2320,"ĠÑģÐ°Ð¼Ð¾ÑĥÐ¿ÑĢÐ°Ð²Ð»ÐµÐ½Ð¸Ñı":2321,"ĠÐ¾ÑĤÑĢÐ°ÑģÐ»ÑıÑħ":2322,"Ð¸ÑĪ":2323,"ÐµÑĨ":2324,"ĠÐ²ÑģÑĤÑĥÐ¿":2325,"ĠÐ¾ÑĤÐ½Ð¾Ñģ":2326,"Ð°ÑĤÐµÐ»Ñı":2327,"ĠÑģÐ»ÑĥÐ¶":2328,"ĠÐ¿ÑĢÐ¾Ð²Ð¾Ð´":2329,"Ð¸ÑĦÑĢÐ¾Ð²":2330,"ĠÑģÐ¾Ð±ÑģÑĤÐ²ÐµÐ½":2331,"ĠÑģÐ¾Ð´ÐµÑĢÐ¶Ð°Ð½Ð¸Ñı":2332,"ĠÐ¿ÑĢÐ¸Ð»Ð¾Ð¶":2333,"ĠÑģÐ¾ÑģÑĤÐ¾ÑıÐ½Ð¸Ñİ":2334,"ĠÐ¿Ð¾Ð»Ð¸ÑĤÐ¸ÐºÐ¸":2335,"ĠÐºÐ°Ð´ÑĢÐ¾Ð²":2336,"64":2337,"Ð½ÐµÐ³Ð¾":2338,"ÐºÐ¾Ð²ÑĭÐ¹":2339,"ÑĩÐ¸ÑĤ":2340,"ĠÑģÐ¼":2341,"ĠÐºÐ°Ð¶Ð´":2342,"Ð³Ð¾ÑĢÐ¸ÑĤ":2343,"Ð°ÑĢÐ½ÑĭÑħ":2344,"ĠÐ¿Ð¾Ð¸ÑģÐº":2345,"Ġ1014":2346,"ÑĥÐ¶Ð´":2347,"ĠÐ´ÑĢÑĥÐ³Ð¸Ðµ":2348,"ĠÐ¿ÐµÑĢÑģÐ¿ÐµÐºÑĤÐ¸Ð²Ð½ÑĭÑħ":2349,"Ð¦Ð¸ÑĦÑĢÐ¾Ð²":2350,"ĠÐ¿Ð°ÑģÐ¿Ð¾ÑĢÑĤÐ°":2351,"ĠÐ°Ð²ÑĤÐ¾Ð¼Ð°ÑĤÐ¸Ð·":2352,"ĠÐ²Ð¾ÑģÑģÑĤ":2353,"ĠÐ¿ÑĢÐ¸ÑĩÐ¸Ð½":2354,"Ð³Ð¾ÑĢÐ¸ÑĤÐ¼":2355,"ÐµÐ½Ñģ":2356,"ĠÐ¿Ð¸Ð»Ð¾ÑĤ":2357,"Ð¾ÑĢÐ¾Ð¶":2358,"Ð´Ð¸Ð½":2359,"ĠÐ·Ð°Ð½":2360,"ĠÐ¾ÑĤÐºÐ°Ð·":2361,"ĠÐ³Ð¾ÑĢÐ¾Ð´":2362,"Ð¸ÑĩÐµÑģÐºÐ°Ñı":2363,"ĠÐºÐ¾ÑĤÐ¾ÑĢÐ¾Ð¹":2364,"Ð°ÑİÑīÐµÐ³Ð¾":2365,"ĠÐ¾ÑģÑĥÑīÐµÑģÑĤÐ²Ð»ÑıÑĤÑĮ":2366,"Ġ2012":2367,"ĠÐ¾ÑĤÑĩÐµÑĤÐ½Ð¾Ð¼":2368,"ĠÐ²Ð¾Ð·Ð¼Ð¾Ð¶Ð½Ð¾ÑģÑĤÑĮ":2369,"ĠÐ·Ð´ÑĢÐ°Ð²Ð¾Ð¾ÑħÑĢÐ°Ð½":2370,"ĠÑģÐ¾Ð¾Ð±Ñī":2371,"ĠÐ½ÐµÐºÐ¾Ð¼Ð¼ÐµÑĢÑĩÐµÑģÐºÐ¾Ð¹":2372,"91":2373,"Ð¸ÑģÐ¿":2374,"ĠÐŃ":2375,"ÑĩÐ¸Ð²":2376,"ĠÐ¿ÑĢÐ¸ÑĢ":2377,"ĠÐ¾Ð±ÑĢÐ°Ñī":2378,"Ð°Ð»ÑĮÐ½Ð°Ñı":2379,"ĠÐŁÑĢÐ¸":2380,"ĠÐ¿ÑĢÐ°Ð²Ð¸Ð»":2381,"Ð¡Ð¾Ð·Ð´Ð°Ð½Ð¸Ðµ":2382,"Ð¾Ð²ÑĭÐ¼Ð¸":2383,"ĠÑįÐºÐ¾Ð½Ð¾Ð¼Ð¸ÐºÐ°":2384,"2014":2385,"Ġ05":2386,"ĠÑģÐ»ÐµÐ´ÑĥÑİÑīÐ¸Ñħ":2387,"ĠÐ¼ÐµÐ¶Ð´ÑĥÐ½Ð°ÑĢÐ¾Ð´Ð½ÑĭÑħ":2388,"ĠÐ½Ð°Ð¿ÑĢÐ°Ð²Ð»ÐµÐ½Ð¸ÑıÐ¼":2389,"Ð¸ÑĦÐ¸ÑĨÐ¸ÑĢÐ¾Ð²Ð°Ð½Ð½ÑĭÑħ":2390,"ĠÑģÐ¾ÑĤÑĢÑĥÐ´Ð½Ð¸ÑĩÐµ":2391,"ĠÑģÐ¿ÐµÑĨÐ¸Ð°Ð»Ð¸ÑģÑĤÐ¾Ð²":2392,"05":2393,"45":2394,"ĠÐ²Ð¿ÑĢÐ°Ð²":2395,"ĠÐ¿ÑĢÐ¸Ðº":2396,"ĠÐ¾Ð±ÑĢÐ°Ð±Ð°ÑĤÑĭÐ²":2397,"ĠÐ¼ÐµÐ¶":2398,"Ð°ÐºÐ°ÑĤ":2399,"Ð¸ÑĩÐ½ÑĭÑħ":2400,"Ġ29":2401,"ĠÐ»ÐµÑĤ":2402,"ĠÑģÑĥÐ±ÑĬÐµÐºÑĤÐ¾Ð¼":2403,"ÐµÐ¹ÑģÑĤÐ²Ð¸Ðµ":2404,"ĠÐ¾Ð¿ÑĢÐµÐ´ÐµÐ»ÐµÐ½Ð¸Ñı":2405,"ĠÐ·Ð°ÑıÐ²ÐºÐ¸":2406,"ĠÐ¿Ð¾Ð·Ð´Ð½":2407,"ĠÐ¸Ð½Ð¾ÑģÑĤÑĢÐ°Ð½Ð½ÑĭÑħ":2408,"ĠÑĤÑĢÐ°Ð½ÑģÐ¿Ð¾ÑĢÑĤÐ½Ð¾Ð¹":2409,"ĠÐ¸Ð½Ð²ÐµÑģÑĤÐ¸ÑĨÐ¸Ð¹":2410,"ĠÐ·Ð´Ð¾ÑĢÐ¾Ð²":2411,"ĠÐ¸Ð·Ð´ÐµÐ»Ð¸Ð¹":2412,"Ð¦Ð¸ÑĦÑĢÐ¾Ð²Ð°Ñı":2413,"ĠÐ²Ð¿ÑĢÐ°Ð²Ðµ":2414,"ĠÐ¿Ð¾Ð·Ð´Ð½ÐµÐµ":2415,"ĠÐ¸Ð½ÑĭÐ¼Ð¸":2416,"ĠÐ¿ÑĢÐ¾Ð±Ð»ÐµÐ¼":2417,"ĠÐ¿ÑĢÐ¾Ð³Ð½Ð¾Ð·":2418,"Ð´Ðµ":2419,"Ð¾ÑģÑĥÐ´Ð°ÑĢ":2420,"ĠÑĤÐµÑħÐ½Ð¾Ð»Ð¾Ð³Ð¸ÑĩÐµÑģÐºÐ¾Ð¹":2421,"ÑĢÑĥÐ¶":2422,"ĠÐ¿ÑĢÐµÐ´Ð¾ÑģÑĤÐ°Ð²Ð»ÐµÐ½Ð¸Ðµ":2423,"Ð°ÑİÑīÐ¸Ð¹":2424,"Ð°ÑĤÐ¾ÑĢÐ¾Ð²":2425,"Ġ2019":2426,"Ġ07":2427,"Ð¾Ð²Ð°ÑĤÐµÐ»ÑĮÑģÐºÐ¸Ñħ":2428,"ĠÑĨÐ¸ÑĦÑĢÐ¾Ð²ÑĭÑħ":2429,"ĠÐ¸ÑģÐ¿ÑĭÑĤÐ°Ð½Ð¸Ð¹":2430,"ĠÐ°ÑģÑģ":2431,"Ð½Ð¸Ñħ":2432,"ÑĮÑı":2433,"ĠÐ²ÑĢÐµÐ´":2434,"ĠÐ¸Ð½Ð¾Ðµ":2435,"ĠÐ¼Ð°Ð»":2436,"Ð¸ÑĤÐµÐ»ÑĮÐ½Ð¾Ð³Ð¾":2437,"ÑĥÑģÑģÑĤÐ²ÐµÐ½Ð½ÑĭÐ¹":2438,"Ð¸ÑĢÐ¾Ð²Ð°Ð½Ð½Ð¾Ð¹":2439,"ĠÑĨÐµÐ»ÐµÐ²Ð¾Ð¹":2440,"ĠÑĥÑģÑĤÐ°Ð½Ð¾Ð²Ð»ÐµÐ½Ð½ÑĭÐµ":2441,"Ġ1511":2442,"ĠÐ±Ð°Ð·Ðµ":2443,"ĠÐ¾ÑĢÐ³Ð°Ð½Ð¸Ð·Ð°ÑĨÐ¸ÑıÑħ":2444,"ÑĢÐ°ÐºÑĤ":2445,"ĠÑĤÑĢÐ°Ð½Ñģ":2446,"ĠÐ²Ð½ÐµÐ´ÑĢÐµÐ½Ð¸Ðµ":2447,"ĠÐ¿ÑĢÐ¸Ð¾ÑĢÐ¸ÑĤÐµÑĤÐ½Ð¾Ð¹":2448,"ĠÑģÑĤÑĢÐ°Ð½Ð¸ÑĨ":2449,"ĠÐ·Ð°ÐºÐ»ÑİÑĩÐµÐ½Ð¸Ñı":2450,"ĠÐ´Ð¾ÐºÑĥÐ¼ÐµÐ½ÑĤÐ°ÑĨÐ¸Ð¸":2451,"ĠÐ¸ÑģÑĤÐ¾ÑĩÐ½Ð¸ÐºÐ¸":2452,"Ð°Ð»Ð¸Ð·Ð°ÑĨÐ¸Ñı":2453,"ĠÐ¿Ð¾ÑģÑĤÐ°Ð½Ð¾Ð²Ð»ÐµÐ½Ð¸Ð¹":2454,"ĠÐ¿ÑĢÐ¾Ð²ÐµÑĢÐºÐ¸":2455,"ĠÐŀÑģÐ½Ð¾Ð²":2456,"ĠÐ¿ÑĢÐµÐ´Ð¿ÑĢÐ¸ÑıÑĤÐ¸Ð¹":2457,"ĠÐ²Ð»Ð¸Ñı":2458,"ĠÐ½Ð°Ð·Ð½Ð°ÑĩÐµÐ½Ð¸Ñı":2459,"88":2460,"Ð²Ð¾":2461,"Ð²ÑıÐ·":2462,"Ð¾ÑĢÑģÐºÐ¸Ñħ":2463,"ĠÐºÐ»":2464,"Ð¾Ð±Ð¾Ð´":2465,"ĠÐ²ÑĭÑĢ":2466,"Ð°ÑĤÑĮÑģÑı":2467,"ĠÑģÐ¸ÑģÑĤÐµÐ¼Ð°Ñħ":2468,"ĠÑĦÐ¾ÑĢÐ¼Ð°ÑĤ":2469,"ĠÑģÑĤÐ°ÑĤÑĮÐµÐ¹":2470,"ĠÐ¿ÑĢÐ¾Ð³ÑĢÐ°Ð¼Ð¼Ð½Ð¾":2471,"ĠÐ¿ÑĢÐ¾Ð²ÐµÐ´ÐµÐ½Ð¸Ð¸":2472,"Ð°Ð½Ð°Ð»Ð¸ÑĤ":2473,"ĠÐ¾Ð±ÑıÐ·Ð°ÑĤÐµÐ»ÑĮÐ½Ð¾Ðµ":2474,"ĠÐ´Ð¾Ð»Ð¶Ð½Ñĭ":2475,"ĠÑĪÐº":2476,"ĠÑģÐµÐ±Ñı":2477,"Ð¾ÑĢÑı":2478,"Ð¾Ð¹ÑĩÐ¸Ð²":2479,"ĠÐ½Ð°Ñĩ":2480,"ĠÐ¼Ð¾Ð¼":2481,"ĠÐ¿ÑĢÐµÐ´ÑĪÐµ":2482,"Ð¾ÐºÑĥÐ¿":2483,"Ð¸ÑĢÐ¾Ðº":2484,"Ġ26":2485,"ÑıÐ²Ð»ÐµÐ½Ð¸Ñı":2486,"ĠÑħÐ°ÐºÐ°ÑĤ":2487,"ĠÐ¿ÑĢÐµÐ´ÑģÑĤÐ°Ð²Ð»Ñı":2488,"ĠÑĥÑĩÐ°ÑģÑĤÐ¸Ðµ":2489,"ĠÐ²ÑĭÐ¿ÑĥÑģÐº":2490,"ĠÐ³ÑĢÐ°Ð½ÑĤÐ¾Ð²":2491,"ĠÐ½Ð°ÑĨÐ¸Ð¾Ð½Ð°Ð»ÑĮÐ½ÑĭÑħ":2492,"ĠÐ°ÐºÑĤÐ¾Ð²":2493,"ĠÐºÐ¾Ð½ÐºÑĥÑĢÑģÐ°":2494,"ĠÐ¿Ð¾Ð·Ð²Ð¾Ð»Ð¸ÑĤ":2495,"ĠÑģÐ¾Ð·Ð´Ð°Ð²":2496,"ĠÐ²Ð²ÐµÐ´ÐµÐ½":2497,"ĠÐ²ÑĢÐµÐ¼Ñı":2498,"ĠÑĢÐ°ÑģÑģÐ¼Ð¾ÑĤÑĢÐµÐ½Ð¸Ñı":2499,"ĠÑĢÐµÐºÐ¾Ð½":2500,"ĠÐļÐ¾Ð¼Ð¸ÑģÑģÐ¸Ð¸":2501,"34":2502,"al":2503,"ÐµÐ½Ð½ÑĭÐ¼Ð¸":2504,"ĠÑģÐº":2505,"ĠÐºÐ°Ð·Ð½Ð°Ñĩ":2506,"ĠÑĤÐ¾Ð²":2507,"Ð±ÑİÐ´Ð¶ÐµÑĤ":2508,"ÑĢÐ°Ð²Ð½":2509,"ĠÐ¿ÑĢÐµÐ´Ð»":2510,"ĠÐ¿Ð¾Ð»ÑĥÑĩÐµÐ½Ð½ÑĭÑħ":2511,"ĠÑģÐ²Ð¾Ð±Ð¾Ð´":2512,"ÐµÐ²Ð¾Ð³Ð¾":2513,"ĠÐ¿ÑĢÐ¸Ñģ":2514,"Ġ2015":2515,"Ð°Ð¹Ð½":2516,"Ġ2023":2517,"ĠÐ½Ð°Ð¿ÑĢÐ°Ð²Ð»ÐµÐ½Ð¸Ñİ":2518,"ĠÑĢÐ°ÑģÑģÐ¼Ð°ÑĤÑĢ":2519,"ĠÑģÑĤÑĢÐ°ÑħÐ¾Ð²Ð°Ð½Ð¸Ðµ":2520,"ĠÑįÐ»ÐµÐ¼ÐµÐ½ÑĤÐ¾Ð²":2521,"ĠÐ°Ð²ÑĤÐ¾Ð½Ð¾Ð¼Ð½Ð¾Ð¹":2522,"ĠÐºÐ°Ð·Ð½Ð°ÑĩÐµÐ¹":2523,"Ð°ÑĢÐ°Ð¼":2524,"ÑĥÐµÑĤ":2525,"ĠÐ·Ð°ÑĢ":2526,"ĠÐłÐ°Ð·":2527,"ĠÐŁÐ¾ÑĢÑıÐ´":2528,"Ġ21":2529,"Ð¾Ð»ÑĮÐºÐ¾":2530,"ĠÑĦÐµÐ´ÐµÑĢÐ°Ð»ÑĮÐ½Ð¾Ð¹":2531,"ĠÐ¿ÑĢÐ°Ð²Ð¾Ð²ÑĭÑħ":2532,"Ð°ÑİÑīÐ°Ñı":2533,"ĠÐ¸Ð¼Ð¿":2534,"ĠÑĥÑģÐ»Ð¾Ð²Ð¸ÑıÑħ":2535,"ĠÑĨÐµÐ½ÑĤÑĢ":2536,"ĠÐ´Ð¾Ð¿ÑĥÑģÐº":2537,"ĠÐ²ÑĭÑģÐ¾ÐºÐ¾ÑĤÐµÑħÐ½Ð¾Ð»Ð¾Ð³":2538,"ĠÐĺÐ½":2539,"ĠÑİÑĢÐ¸Ð´Ð¸ÑĩÐµÑģÐºÐ¾Ð³Ð¾":2540,"ĠÐ½Ð°ÑĢÑĥÑĪÐµÐ½Ð¸Ñı":2541,"ĠÐ¾Ð±ÐµÑģÐ¿ÐµÑĩÐ¸Ð²Ð°ÑİÑīÐ¸Ñħ":2542,"54":2543,"Ð³Ð¾Ñģ":2544,"ĠÐ¾Ð½":2545,"ÑģÑĤÑĢÑĥÐºÑĤ":2546,"ÐºÐ¾Ð»Ð¸ÑĩÐµÑģÑĤÐ²Ð¾":2547,"ĠÑĤÐ¾Ñĩ":2548,"Ð¾Ð»Ð¾Ð²":2549,"Ð¸Ð¼Ð¾ÑģÑĤÑĮ":2550,"ĠÑĤÐ°ÐºÐ¾Ð¹":2551,"ĠÐ¸Ð½ÑĦÐ¾ÑĢÐ¼Ð°ÑĨÐ¸Ð¾Ð½Ð½ÑĭÐ¼":2552,"ĠÐ¼Ð¾Ð´ÐµÑĢÐ½":2553,"ĠÐ¿Ð»Ð°Ð½Ð¸ÑĢÑĥÐµÑĤÑģÑı":2554,"ĠÐ°Ð¿Ð¿Ð°ÑĢÐ°ÑĤÐ½Ð¾":2555,"ĠÐ¿Ð¾ÑģÑĤÐ°Ð½Ð¾Ð²Ð»ÐµÐ½Ð¸ÐµÐ¼":2556,"ĠÐºÐ²Ð°Ð»":2557,"ĠÑĥÐ³ÑĢÐ¾Ð·":2558,"ĠÐ´Ð¾Ð¿Ð¾Ð»Ð½Ð¸ÑĤÑĮ":2559,"38":2560,"ĠÐ¿Ð¾Ð½":2561,"Ð²ÐºÐ»ÑİÑĩ":2562,"ĠÐºÐ°Ð»":2563,"ĠÐºÐ¾Ð»Ð¸ÑĩÐµ":2564,"Ð¸ÑĤÐµÐ»ÑĮÐ½Ð¾Ð¹":2565,"Ð¾Ð±ÑĢÐµÑĤ":2566,"ĠÐ¿ÐµÑĢÐµÐ²":2567,"ĠÐºÐ¾Ð½ÑĦ":2568,"ĠÐ¾ÑģÑĥÑīÐµÑģÑĤÐ²Ð»ÑıÐµÑĤ":2569,"ĠÐ»Ð¸ÑĨÐ°Ð¼Ð¸":2570,"ĠÑĦÐ¸Ð½Ð°Ð½ÑģÐ¾Ð²Ð¾Ðµ":2571,"ĠÑĢÐµÐ°Ð»Ð¸Ð·Ð°ÑĨÐ¸ÐµÐ¹":2572,"ĠÐĺÐĺ":2573,"ĠÐ¾Ð¿ÑĢÐµÐ´ÐµÐ»ÑıÐµÑĤÑģÑı":2574,"ĠÐ¸Ð½Ð´Ð¸Ðº":2575,"ĠÑģÑĤÑĢÐ¾Ð¸ÑĤÐµÐ»ÑĮÑģÑĤÐ²Ð°":2576,"ĠÐ¸Ð½Ð¸ÑĨÐ¸Ð°ÑĤÐ¸Ð²":2577,"ĠÐ¸ÑģÐºÑĥÑģÑģÑĤÐ²ÐµÐ½Ð½Ð¾Ð¼Ñĥ":2578,"37":2579,"Ð½Ð°Ð»":2580,"ÑĢÐ´":2581,"ÑĢÑĭÑĤ":2582,"Ð²Ð½":2583,"Ð¾ÑĢÐ´Ð¸Ð½":2584,"Ð¸Ð¼ÑĥÐ»":2585,"ÐµÐ»Ð¸":2586,"ĠÑĩÐ»ÐµÐ½":2587,"ĠÐ¿ÐµÑĢÑģÐ¾Ð½Ð°Ð»ÑĮÐ½ÑĭÐµ":2588,"ÐµÑģÑģÐ¾Ð²":2589,"ĠÑĥÐºÐ°Ð·Ð°Ð½Ð½ÑĭÐ¼":2590,"ĠÑģÐ¾Ð²Ð¾ÐºÑĥÐ¿":2591,"ĠÐ´Ð¾ÑģÑĤÐ¸Ð¶ÐµÐ½Ð¸Ðµ":2592,"ÐºÑĢÐµÐ¿":2593,"ĠÐ¾Ð±ÑīÐµÑģÑĤÐ²Ð°":2594,"ĠÑĪÐ¸ÑĢÐ¾Ðº":2595,"ĠÐ£ÐºÐ°Ð·Ð¾Ð¼":2596,"ĠÐ¼Ð»ÑĢÐ´":2597,"ĠÑĢÐµÐµÑģÑĤÑĢ":2598,"ĠÑģÐµÑĢÐ²Ð¸ÑģÐ°":2599,"ĠÑĥÑģÑĤÑĢÐ¾Ð¹ÑģÑĤÐ²":2600,"ĠÐºÐ°Ð»ÐµÐ½Ð´":2601,"ÐĻ":2602,"ĠÑģÑĢÐ°Ð²Ð½":2603,"ĠÐ²ÑħÐ¾Ð´":2604,"ÑĢÐ°Ð»":2605,"Ð´Ð°Ð¼ÐµÐ½ÑĤ":2606,"ĠÐ¿ÑĢÐµÐ´ÐµÐ»":2607,"ĠÑģÑĤÑĢÐ°ÑĤÐµÐ³Ð¸Ð¸":2608,"ĠÑģÐ¾ÑħÑĢÐ°Ð½":2609,"ĠÑģÑĢÐµÐ´Ñĭ":2610,"ĠÐ³Ð¾ÑģÑĥÐ´Ð°ÑĢÑģÑĤÐ²ÐµÐ½Ð½ÑĭÐ¼Ð¸":2611,"ĠÐ½Ð°Ð¿ÑĢÐ°Ð²Ð»Ñı":2612,"ĠÑĢÐµÐ³Ð¸ÑģÑĤÑĢ":2613,"ĠÑĥÑģÑĤÐ°Ð½Ð¾Ð²Ð»ÐµÐ½Ð½ÑĭÐ¼":2614,"ĠÑģÐ¾ÑģÑĤÐ°Ð²Ð»Ñı":2615,"ĠÑĥÑĢÐ¾Ð²Ð½":2616,"ĠÐ¾Ð³ÑĢÐ°Ð½Ð¸ÑĩÐµÐ½":2617,"ĠÑģÐ¾Ð³Ð»Ð°ÑģÐ¾Ð²Ð°Ð½Ð¸Ñİ":2618,"ĠÐ¾ÑĤÐ½Ð¾ÑĪÐµÐ½Ð¸Ð¹":2619,"ÑģÑĤÑĢÑĥÐ¼":2620,"Ġ2006":2621,"ĠÐ¾Ð¿Ð»Ð°ÑĤÑĥ":2622,"ĠÐ°Ð»Ð³Ð¾ÑĢÐ¸ÑĤÐ¼":2623,"ĠÐ¿ÑĢÐµÐ´ÑĪÐµÑģÑĤÐ²ÑĥÑİÑī":2624,"ĠÐŁÐ¾ÑĢÑıÐ´Ð¾Ðº":2625,"44":2626,"ÑĤÐ¾ÑĢ":2627,"ÑģÐµÐ´":2628,"ÑĢÐµÐ³":2629,"ĠÐ¿ÑĢÐµ":2630,"ÑĦÐµÐ´ÐµÑĢ":2631,"ĠÐ¼Ð°ÑĢ":2632,"ĠÐ·Ð°Ð±":2633,"Ð¾Ð±ÑĢÐ°Ð½":2634,"ĠÐ³Ð¾ÑģÑĥÐ´Ð°ÑĢÑģÑĤÐ²ÐµÐ½Ð½ÑĭÐ¼":2635,"ĠÑĦÑĥÐ½Ð´Ð°Ð¼ÐµÐ½ÑĤ":2636,"Ð¸Ð·Ð½ÐµÑģ":2637,"ĠÑģÐ¾Ð³Ð»Ð°ÑģÐ¸Ñı":2638,"ĠÑĤÐµÑħÐ½Ð¸ÑĩÐµÑģÐºÐ¸Ñħ":2639,"ĠĠĠĠĠĠĠĠĠĠĠĠĠĠĠĠ":2640,"ĠÐ¿ÑĢÐ¾Ð´ÑĥÐºÑĤÐ¾Ð²":2641,"ĠÑĤÐµÐºÑĥÑī":2642,"ĠÐ°ÑĥÐ´Ð¸":2643,"ĠÑģÑĤÐ°Ð½Ð´Ð°ÑĢÑĤÐ¾Ð²":2644,"ĠÐ¿ÑĢÐ¸ÑĢÐ¾Ð´":2645,"ĠÐ¼Ð¾Ð¼ÐµÐ½ÑĤÐ°":2646,"Ð²ÐºÐ»ÑİÑĩÐ°Ñı":2647,"ĠÐ¸Ð½Ð¾Ð¹":2648,"Ð¿Ð¾ÑĢÑıÐ´":2649,"Ð¾Ð»Ð¾Ð´":2650,"ÐµÐ½ÑĤÐ½Ð¾Ð¹":2651,"Ð¸ÑĢÐ¾Ð²":2652,"Ġ266":2653,"ĠÑĨÐµÐ»ÑĮ":2654,"ĠÐŁÑĢÐ¾Ð³ÑĢÐ°Ð¼Ð¼":2655,"ĠÐ¸Ð·Ð»Ð¾Ð¶":2656,"ÑĢÐ°Ð·ÑĢÐ°Ð±Ð¾ÑĤÐºÐ°":2657,"ĠÑĥÑĩÐ°ÑģÑĤÐ¸":2658,"Ð¸ÑģÑģÐ»ÐµÐ´":2659,"ĠÑĢÐ°Ð·ÑĢÐ°Ð±Ð¾ÑĤÑĩÐ¸ÐºÐ¾Ð²":2660,"ĠÐ´Ð¾ÑħÐ¾Ð´":2661,"ĠÑįÑĤÐ¸Ñħ":2662,"ĠÑħÑĢÐ°Ð½":2663,"ĠÐ²Ð¾Ð·Ð´":2664,"ĠÐŀÑĤ":2665,"ĠÐ½ÐµÐ¾Ð±ÑħÐ¾Ð´Ð¸Ð¼Ð¾Ð³Ð¾":2666,"ÐĿÐ°":2667,"ÑĥÐ±Ð»Ð¸Ðº":2668,"ĠÑĥÑĩÐ°ÑģÑĤÐ¸Ñı":2669,"ĠÑĢÐ°ÑģÐ¿ÑĢÐ¾ÑģÑĤÑĢÐ°Ð½ÐµÐ½Ð¸Ðµ":2670,"ĠÐ¾Ð±ÑĥÑĩÐµÐ½Ð¸Ðµ":2671,"ĠÐ¾Ð´Ð½Ð¾Ð³Ð¾":2672,"ÑįÐºÐ¾Ð½Ð¾Ð¼Ð¸ÑĩÐµÑģÐºÐ¾Ð³Ð¾":2673,"ÐķÐĿÐĺ":2674,"ĠÐ²Ð¾ÑģÑģÑĤÐ°Ð½Ð¾Ð²Ð»ÐµÐ½":2675,"ĠÐ·Ð´ÑĢÐ°Ð²Ð¾Ð¾ÑħÑĢÐ°Ð½ÐµÐ½Ð¸Ñı":2676,"ĠÐ°ÑĢ":2677,"ÑĢÐ¾Ð½":2678,"Ð»Ð°":2679,"ĠÐ¿Ð°ÑĢÐ°Ð¼":2680,"Ð¸ÑıÐ¼Ð¸":2681,"Ð¾ÑģÐ½":2682,"Ð¾ÑģÑĢÐµÐ´":2683,"ĠÐ¸Ð½ÑģÑĤÑĢÑĥÐ¼":2684,"Ð°ÑģÑĤÐ¾ÑıÑī":2685,"ĠÐ±Ð¸Ð·Ð½ÐµÑģ":2686,"Ð¾Ð±ÑĢÐ°Ð¶":2687,"Ð°ÑĨÐ¸Ð¾Ð½Ð½Ð¾":2688,"Ð¾ÑĩÐ½ÑĭÑħ":2689,"ĠÑĩÐ¸ÑģÐ»Ð¾":2690,"ÐŁÑĥÐ½ÐºÑĤ":2691,"ĠÐ²Ð½ÐµÐ±ÑİÐ´Ð¶ÐµÑĤ":2692,"Ð¸Ð²Ð°ÑİÑĤ":2693,"ĠÐ²Ð¾Ð·Ð½Ð¸Ðº":2694,"Ġ595":2695,"ĠÐŀÐ¿ÐµÑĢ":2696,"ĠÐ¿ÑĢÐµÐ´ÑĥÑģÐ¼Ð¾ÑĤÑĢÐµÐ½Ð½ÑĭÐµ":2697,"Ð¸ÑĢÑĥÐµÐ¼ÑĭÑħ":2698,"ĠÐ°ÐºÑĤÑĭ":2699,"ĠÐºÐ°ÑĩÐµÑģÑĤÐ²Ðµ":2700,"ĠÑĥÐ¿Ð¾Ð»Ð½Ð¾Ð¼Ð¾ÑĩÐµÐ½Ð½Ð¾Ð³Ð¾":2701,"ĠÑĨÐ¸ÑĦÑĢÐ¾Ð²Ð¾Ð³Ð¾":2702,"ĠÐºÐ¾Ð½ÐºÑĥÑĢÑģÐ½Ð¾Ð¹":2703,"ÑĤÐµÑħÐ½Ð¾Ð»Ð¾Ð³Ð¸ÑĩÐµÑģÐºÐ¾Ð³Ð¾":2704,"ĠÐ²Ð»Ð°Ð´ÐµÐ»ÑĮÑĨÐ°":2705,"ing":2706,"ĠÐ¸Ð½ÑĤÐµÑĢÐµÑģÐ¾Ð²":2707,"ĠÐ¿ÑĢÐµÐºÑĢÐ°Ñī":2708,"28":2709,"50":2710,"Ð½Ð¸Ðµ":2711,"Ð»Ðµ":2712,"Ð²Ñĭ":2713,"Ð¾Ð²Ð»":2714,"ÑĮÑİÑĤ":2715,"ĠÐ²Ð°Ð¶":2716,"Ð¾ÑĢÐ¾Ð½":2717,"ĠÐ´ÐµÐº":2718,"ĠÐ¾Ð±ÐµÐ·":2719,"ĠÐ¸Ð½Ð¶ÐµÐ½":2720,"ĠÐ³ÐµÐ½":2721,"Ð¸ÑģÑĤÐ°Ð»Ð»":2722,"Ð¾Ð·Ð½":2723,"ĠÑģÑĤÐ°ÑĤ":2724,"ĠÑģÐ¸ÑģÑĤÐµÐ¼Ñĥ":2725,"ÐłÐ¾ÑģÑģÐ¸Ð¹ÑģÐºÐ¾Ð¹":2726,"ĠÑģÐ»ÐµÐ´ÑĥÑİÑīÐ¸Ðµ":2727,"ĠÐ¾ÑĢÐ³Ð°Ð½Ð¸Ð·Ð°ÑĨÐ¸ÑıÐ¼":2728,"ĠÐ¿Ð¾ÑģÑĤÑĥÐ¿":2729,"ĠÑģÐµÑĢÑĤ":2730,"ĠÐ¿ÑĢÐ¸Ð²Ð»ÐµÐº":2731,"ĠÐ´Ð¾Ð»Ð¶Ð½Ð¾":2732,"ĠÑĢÐ¾ÑģÑģÐ¸Ð¹ÑģÐºÐ¸Ð¼":2733,"ĠÐ¿ÑĢÐ¸ÐºÐ»Ð°Ð´":2734,"Ðĸ":2735,"ĠÑħÐ¾Ð´":2736,"ÐµÐ°Ð»Ð¸Ð·Ð°ÑĨÐ¸Ñı":2737,"Ð½Ð°Ð·Ð½Ð°Ñĩ":2738,"ÑĤÐ¸":2739,"Ð¾Ð²Ð¸Ð·Ñĥ":2740,"ĠÐ½Ð¸ÑĪ":2741,"Ð´Ð¾Ðº":2742,"ĠÐ´Ð¾Ð¼":2743,"Ð¾Ð³ÑĢÐ°ÑĦ":2744,"Ð±Ð·Ð°ÑĨ":2745,"ÐµÑħÐ¾Ð´":2746,"Ð°ÑģÐµÐ´":2747,"Ð°Ð¿Ð°Ð·":2748,"ĠÐ¸Ð·Ð³Ð¾ÑĤÐ¾Ð²":2749,"ĠÐºÐ¾ÑĤÐ¾ÑĢÑĭÐ¹":2750,"Ð¸ÑĢÐ¾Ð²Ð°Ð½Ð¸Ð¸":2751,"ĠÑģÐ²ÑıÐ·Ð°Ð½":2752,"ĠÐ¾Ð±ÑĢÐ°Ð±Ð¾ÑĤÐºÐµ":2753,"ĠÐ¾Ð¿ÑĢÐµÐ´ÐµÐ»ÐµÐ½Ð½ÑĭÑħ":2754,"ĠÐ¾ÑĤÑĩÐµÑĤÐ½Ð¾ÑģÑĤÐ¸":2755,"ĠÐ°ÐºÑĤÐ°":2756,"ĠÐ¸ÑģÐ¿Ð¾Ð»ÑĮÐ·ÑĥÑİÑĤÑģÑı":2757,"ĠÐ²Ð½ÐµÑģÐµÐ½Ð¸Ð¸":2758,"ĠÐ¾ÑĦÐ¸ÑĨÐ¸":2759,"Ð¿ÑĢÐ¾Ð³ÑĢÐ°Ð¼Ð¼Ð½ÑĭÑħ":2760,"ĠÑĤÐ¾ÑĢÐ³Ð¾Ð²Ð»Ð¸":2761,"ĠÐ°ÑĥÐ´Ð¸Ð¾Ð²Ð¸Ð·Ñĥ":2762,"74":2763,"Ð»Ð°Ð½":2764,"Ð¿Ð¾Ð´":2765,"ĠÐ½Ð¾Ð²":2766,"ĠÑĤÐ¾Ð¿":2767,"Ð¸Ð½Ð°Ð¼":2768,"ÑģÑĤÐ²ÐµÐ½Ð½ÑĭÐµ":2769,"ĠÐ¿ÑĢÐµÐ´Ð½Ð°Ð·Ð½Ð°Ñĩ":2770,"Ð¸ÑĢÑĥÑİÑīÐ¸Ñħ":2771,"ĠÑģÑĤÐ¸Ð¼ÑĥÐ»":2772,"ĠÐ¾Ð±ÐµÑģÐ¿ÐµÑĩÐµÐ½Ð¸Ñİ":2773,"Ð¸ÑģÑĮ":2774,"ĠÐ¿Ð¾Ð»ÑĥÑĩÐ°ÑĤÐµÐ»Ñİ":2775,"ĠÐ¿Ð¾Ð´Ð´ÐµÑĢÐ¶ÐºÐ°":2776,"ĠÑģÐ¾Ð²Ð¼ÐµÑģÑĤ":2777,"ĠÐ¸ÑģÐ¿Ð¾Ð»ÑĮÐ·Ð¾Ð²Ð°Ð½Ð½ÑĭÑħ":2778,"Ð°ÐµÐ¼ÑĭÐµ":2779,"ĠÐ¿Ð¾Ð´Ð¿ÑĥÐ½ÐºÑĤÐ¾Ð¼":2780,"ĠÐ¸ÑģÐ¿Ð¾Ð»Ð½ÐµÐ½Ð¸Ñı":2781,"ĠÑĢÑĥÐºÐ¾Ð²Ð¾Ð´Ð¸ÑĤÐµÐ»ÐµÐ¼":2782,"ĠÑĥÐ»ÑĥÑĩ":2783,"42":2784,"97":2785,"Ð¸ÐµÐ¹":2786,"ÑĢÐ¾Ð´":2787,"ÑĢÐ¾Ð¿":2788,"ÑģÑĤÐ¸ÑĤÑĥ":2789,"ĠÐ¿Ð¾ÑģÑĤÐ°Ð²":2790,"Ð²Ð°Ð»":2791,"ĠÑģÑĥÑīÐµ":2792,"ÐµÐ´Ð»":2793,"ÑģÐºÐ¾Ðµ":2794,"Ð¾ÑĤÐ½Ð¾":2795,"Ð¾ÑģÑĤÐ°Ð½Ð¾Ð²Ð»ÐµÐ½":2796,"ĠÐºÐ¼":2797,"ĠÐ¤ÐµÐ´ÐµÑĢÐ°Ð»ÑĮÐ½Ð¾Ð¹":2798,"ĠÐ±Ð¸":2799,"ĠÐ¾ÑĢÐ³Ð°Ð½Ð°Ñħ":2800,"ĠÑģÑĤÐ¾":2801,"Ð°ÑĩÐ¸":2802,"ÑĬÐµÐ¼":2803,"ĠÑģÐ¸ÑģÑĤÐµÐ¼Ð°":2804,"ĠÑģÐ²ÐµÑĢ":2805,"ĠÑĤÑĢÐµÑĤÑĮ":2806,"ĠÑĢÐµÐ·ÑĥÐ»ÑĮÑĤÐ°ÑĤÐ°Ð¼":2807,"ĠÑģÐ»ÐµÐ´ÑĥÑİÑīÐµÐ¹":2808,"ĠÐ´Ð°Ð½Ð½ÑĭÐ¼":2809,"ÐľÐ¸Ð½":2810,"ĠÐ¾Ð±ÑĬÐµÐ¼Ðµ":2811,"ĠÑĢÐµÑģÑĥÑĢÑģÑĥ":2812,"ĠÐ½Ð°Ð»Ð¾Ð³":2813,"ĠÐĵÐ¾ÑģÑĥÐ´Ð°ÑĢ":2814,"ĠÐ°Ð¿ÑĢ":2815,"ĠÐ¼Ð¾Ð´ÐµÐ»ÐµÐ¹":2816,"ĠÐ¿ÐµÑĢÐµÐ´Ð°ÑĩÐ¸":2817,"ĠÐ³Ð»Ð°Ð²":2818,"ĠÐ·Ð°Ð¸Ð½ÑĤÐµÑĢÐµÑģÐ¾Ð²Ð°Ð½Ð½ÑĭÐµ":2819,"ĠÐ·Ð°ÐºÐ°Ð·ÑĩÐ¸Ðº":2820,"ĠÐŀÐ¿ÐµÑĢÐ°ÑĤÐ¾ÑĢ":2821,"ĠÐ¾Ð±ÐµÐ·Ð»Ð¸Ñĩ":2822,"ar":2823,"Ð½Ð°Ð´":2824,"ÐºÐ¸Ñħ":2825,"ĠÑģÐ¾Ðº":2826,"ĠÐ½Ð°Ðº":2827,"ĠÐ´ÐµÐ½":2828,"Ð¾Ð½Ðµ":2829,"Ð¸Ð·Ð°ÑĨÐ¸Ñİ":2830,"Ð³Ð°Ð½":2831,"Ð¸ÐºÑĥ":2832,"Ð»ÐµÐ½Ð¸ÐµÐ¼":2833,"ĠÑģÐ»Ð¾Ð¶":2834,"ĠÑĥÑģÑĤÐ¾Ð¹ÑĩÐ¸Ð²":2835,"ĠÐ¾ÑģÑĥÑīÐµÑģÑĤÐ²Ð»ÐµÐ½Ð¸Ð¸":2836,"ĠÐ¡Ð¾Ð²":2837,"ĠÐ¿ÑĢÐ¾ÑĨÐµÑģÑģÐ¾Ð²":2838,"Ð°Ð±ÑĢÑı":2839,"ĠÐ¿Ð»Ð°ÑĤ":2840,"ĠÑĢÐ°ÑģÐ¿ÑĢÐµÐ´ÐµÐ»":2841,"ĠÐ¿ÑĢÐµÐ´ÑĥÑģÐ¼Ð¾ÑĤÑĢÐµÐ½Ð½Ð¾Ð¼":2842,"ĠÑĥÐ¿Ð¾Ð»Ð½Ð¾Ð¼Ð¾ÑĩÐµÐ½Ð½ÑĭÐ¹":2843,"ĠÐ²Ð²ÐµÐ´ÐµÐ½Ð°":2844,"ĠÐ¼ÐµÑģÑıÑĨÐ°":2845,"Ð¾Ð±ÐµÑģÐ¿ÐµÑĩÐµÐ½Ð¸Ðµ":2846,"ĠÐ¿ÑĢÐµÐ¿Ð°ÑĢÐ°ÑĤ":2847,"ĠÐ¾ÑĤÑģÑĥÑĤÑģÑĤÐ²":2848,"ĠÐ¿ÑĢÐµÐ´ÐµÐ»Ð°Ñħ":2849,"ĠÐ²Ð¾ÑģÑģÑĤÐ°Ð½Ð¾Ð²Ð»ÐµÐ½Ð½ÑĭÑħ":2850,"ĠÐ´ÐµÐºÐ°Ð±ÑĢÑı":2851,"48":2852,"56":2853,"96":2854,"te":2855,"âĢ":2856,"ĠI":2857,"Ð¸ÐµÐ½ÑĤ":2858,"Ð¸ÑĨÐ¸Ð¸":2859,"ÑĢÐ³Ð°Ð½":2860,"ĠÐ¿Ð¾Ð²":2861,"ĠÐ¿Ð¾ÑģÑĤÐ°Ð½Ð¾Ð²":2862,"ĠÐ¿ÑĢÐ¸ÐµÐ¼":2863,"ÑģÐºÐ¾":2864,"ÑģÐºÐ¸Ð¼":2865,"ĠÐ¾Ð±ÑīÐµÑģÑĤÐ²":2866,"ĠÑĥÑĤ":2867,"Ð°Ð²Ð¸Ñģ":2868,"ĠÑĨÐµÐ½":2869,"ĠÐ¿Ð¾Ð»ÑĥÑĩÐ°ÑĤÐµÐ»ÑĮ":2870,"ĠÑĦÐ¾ÑĢÐ¼ÑĥÐ»":2871,"ĠÑģÐ¿ÑĢÐ°Ð²":2872,"ĠÑĥÑĤÐ²ÐµÑĢÐ¶Ð´ÐµÐ½Ð¸Ð¸":2873,"ĠÐ¸ÑģÑĤÐ¾ÑĩÐ½Ð¸ÐºÐ¾Ð²":2874,"ĠÐĶÐ»Ñı":2875,"ĠÑĥÑģÑĤÐ°Ð½Ð°Ð²Ð»Ð¸Ð²Ð°ÑİÑĤÑģÑı":2876,"ĠÑģÐ¾Ð±Ð»ÑİÐ´ÐµÐ½Ð¸Ñı":2877,"ĠÑģÐ»Ð¾Ð²Ð°Ð¼Ð¸":2878,"ĠÐ¿ÑĢÐ¾ÑĦÐµÑģÑģÐ¸Ð¾Ð½Ð°Ð»ÑĮÐ½Ð¾Ð³Ð¾":2879,"ĠÐ¿ÑĢÐµÐ·Ð¸Ð´Ð¸ÑĥÐ¼Ð°":2880,"ĠÑģÐ°Ð¹ÑĤÐµ":2881,"ĠÐ¾Ð¿ÑĭÑĤÐ½Ð¾":2882,"ĠÐ¾ÑĤÐ´ÐµÐ»ÑĮÐ½ÑĭÑħ":2883,"ĠÐ¾ÑĤÐµÑĩÐµÑģÑĤÐ²ÐµÐ½Ð½ÑĭÑħ":2884,"ĠÑģÐ»ÑĥÑĩÐ°ÑıÑħ":2885,"ĠÐ¿ÑĢÐµÐ´Ð»Ð¾Ð¶ÐµÐ½Ð¸Ñı":2886,"Ð¿Ð¾ÑĢÑıÐ´ÐºÐ¾Ð²ÑĭÐ¹":2887,"08":2888,"36":2889,"ÑģÐµÐ³Ð¾":2890,"ĠÐ³Ð¾":2891,"ÑĢÐ¸":2892,"ĠÑģÑĥÑĤ":2893,"ĠÑģÐµÐ»ÑĮ":2894,"ÐµÑĢÐµÐ´":2895,"ĠÐ²ÐµÑģ":2896,"ĠÐ´Ð¾Ð²":2897,"ĠÐºÐ°":2898,"ĠÐ·Ð°ÑģÐµÐ´":2899,"Ð¾ÐºÐ¾Ð»":2900,"Ð¾Ð±Ð¸Ð»ÑĮ":2901,"Ġ22":2902,"Ġ261":2903,"ĠÐ³Ð¾Ð´Ð°Ñħ":2904,"ĠÐ¸Ð½ÑĦÐ¾ÑĢÐ¼Ð°ÑĨÐ¸Ð¾Ð½Ð½Ð¾Ð¼Ñĥ":2905,"ÐµÐ²ÑĭÐµ":2906,"Ð¸Ð¶ÐµÐ½Ð¸Ñı":2907,"ÑıÑĤÑģÑı":2908,"ĠÐ²ÐºÐ»ÑİÑĩÐ°ÐµÑĤ":2909,"ÐĲÐ±Ð·Ð°ÑĨ":2910,"ĠÐ¸ÑģÑħÐ¾Ð´":2911,"ĠÑĥÑĢÐ¾Ð²ÐµÐ½ÑĮ":2912,"ĠÑĢÐµÐ°Ð»Ð¸Ð·Ñĥ":2913,"ĠÐ¾Ð³ÑĢÐ°Ð½Ð¸ÑĩÐµÐ½Ð¸Ñı":2914,"ĠÐ¸ÑģÑĤÐ¾ÑĩÐ½Ð¸Ðº":2915,"ĠÐ¼Ð°ÑĪÐ¸Ð½Ð½Ð¾Ð³Ð¾":2916,"ÑĤÐµÑħÐ½Ð¸ÑĩÐµÑģÐºÐ¾Ð¹":2917,"ĠÐ¸Ð½ÑĤÐµÐ»Ð»ÐµÐºÑĤÑĥÐ°Ð»ÑĮÐ½Ð¾Ð¹":2918,"ĠÑĢÐµÐµÑģÑĤÑĢÐ°":2919,"ĠÐ¿ÑĥÐ±Ð»Ð¸ÑĩÐ½Ð¾Ð¹":2920,"ĠÐŁÐ¾Ð»Ð¾Ð¶ÐµÐ½Ð¸Ñı":2921,"ĠÐ¿Ð¾Ð¼Ð¾ÑīÐ¸":2922,"ĠÑģÐ¾ÑĤÑĢÑĥÐ´Ð½Ð¸ÑĩÐµÑģÑĤÐ²Ð°":2923,"ĠÑĦÐ¾ÑĢÐ¼Ð°ÑĤÐµ":2924,"ĠÑĦÐ¾ÑĢÐ¼ÑĥÐ»Ðµ":2925,"57":2926,"92":2927,"98":2928,"or":2929,"ĠÐ¾ÑĢ":2930,"ÑĤÑĢÐ°ÑĦ":2931,"ÑĥÐ»Ñı":2932,"ÐµÑĤÑĢÐ¾Ð²":2933,"ĠÐ¾Ð±Ð¼ÐµÐ½":2934,"ĠÐ·Ð½":2935,"Ð¸ÑĩÐ½Ð¾Ð³Ð¾":2936,"ÑģÑĤÐ²ÐµÐ½Ð½ÑĭÐ¼Ð¸":2937,"ĠÑĢÐ°Ð·ÑĢÐµ":2938,"Ð°ÑĨÐ¸Ð¾Ð½Ð½ÑĭÐµ":2939,"ÑīÐµÐµ":2940,"ĠÐŁÑĢÐ°Ð²Ð¸ÑĤÐµÐ»ÑĮÑģÑĤÐ²Ðµ":2941,"ĠÑĥÐ¿Ð»Ð°ÑĤ":2942,"ÐłÐĺ":2943,"Ð¢ÐĴ":2944,"ĠÐ¼ÐµÐ¶Ð´ÑĥÐ½Ð°ÑĢÐ¾Ð´Ð½Ð¾Ð³Ð¾":2945,"ĠÑĥÑģÐ»ÑĥÐ³Ð¸":2946,"ĠÐ¼ÐµÐ´Ð¸ÑĨÐ¸Ð½ÑģÐºÐ¸Ñħ":2947,"ĠÐ¿Ð¾Ð´Ð¿ÑĥÐ½ÐºÑĤÐµ":2948,"ĠÐ´Ð¾Ð¿Ð¾Ð»Ð½Ð¸ÑĤÐµÐ»ÑĮÐ½Ð¾Ð³Ð¾":2949,"ĠÐ½ÐµÐ¿Ð¾ÑģÑĢÐµÐ´":2950,"ĠÐºÑĥÐ»ÑĮÑĤÑĥÑĢÑĭ":2951,"ĠÐ¿Ð¾ÑĢÑĥÑĩ":2952,"ÐķÐĿÐĺÐķ":2953,"ÐµÐ½Ð½Ð¾":2954,"Ð»Ð¾Ðº":2955,"ĠÐ¿ÑĢÐ°ÐºÑĤ":2956,"ĠÐ¸Ð½ÑĭÐ¼":2957,"Ð¿Ð¾":2958,"Ð¾Ð»Ð°Ð³":2959,"ĠÐ¼Ð°Ð³":2960,"Ð¸ÑĤÐ¾Ð²":2961,"Ð°Ð»Ðµ":2962,"ÑįÐ»ÐµÐºÑĤÑĢÐ¾Ð½":2963,"Ð¸Ð²Ð½ÑĭÑħ":2964,"Ð¾ÑĢÐ³Ð°Ð½Ð¸Ð·Ð°ÑĨÐ¸Ð¸":2965,"ĠÑĤÐµÑħÐ½Ð¾Ð»Ð¾Ð³Ð¸ÑĩÐµÑģÐºÐ¾Ð³Ð¾":2966,"ĠÐ»Ð¸Ð´":2967,"Ð°ÑĤÐµÐ»ÑĮÐ½ÑĭÑħ":2968,"ÑĢÐ¾Ð²Ð¾Ð´":2969,"ĠÐ´Ð¾ÑģÑĤÐ¾Ð²ÐµÑĢ":2970,"Ð¡Ð¼":2971,"ÑĥÐ¼Ð¼":2972,"ÑĤÐµÐ³Ð¾ÑĢ":2973,"ĠÑģÐ¾Ð²ÐµÑĤ":2974,"ĠÐ¿ÑĢÐ¸Ð¼ÐµÐ½ÐµÐ½Ð¸ÐµÐ¼":2975,"ĠÐ¾ÑģÑĥÑīÐµÑģÑĤÐ²Ð»ÑıÑİÑīÐ¸Ð¼":2976,"ĠÑĢÐµÐ³Ð¸Ð¾Ð½Ð°Ð»ÑĮÐ½ÑĭÑħ":2977,"ĠÐ´Ð¾Ð»Ð¶Ð½Ð°":2978,"Ð¾ÑģÑĤÐ¾ÑıÑĤÐµÐ»ÑĮ":2979,"ĠÑĥÐ²ÐµÐ´Ð¾Ð¼Ð»ÐµÐ½Ð¸Ðµ":2980,"ĠÐ¸Ð½Ð²ÐµÑģÑĤÐ¸ÑĨÐ¸Ð¾Ð½":2981,"ĠÐ»ÐµÐºÐ°ÑĢ":2982,"ĠÐ°Ð±Ð·Ð°ÑĨÐµÐ¼":2983,"ĠÐ¿ÑĢÐ¸Ð±Ð¾ÑĢÐ¾Ð²":2984,"ÑıÑīÐ¸ÑħÑģÑı":2985,"ĠÑĥÑĢÐ¾Ð²Ð½Ñİ":2986,"ĠÐ¸Ð·Ð»Ð¾Ð¶Ð¸ÑĤÑĮ":2987,"51":2988,"ÑĢÐ¾Ð¼":2989,"Ð°Ð½Ð¸Ñİ":2990,"Ð°Ð½ÐµÐµ":2991,"ÐµÑĢÑģ":2992,"ĠÐ½Ð¾":2993,"Ð¾ÑĤÐµÐº":2994,"ĠÐ´Ð°Ð»ÑĮ":2995,"ĠÐºÐ°Ñģ":2996,"ÐµÐ½Ð¸ÑıÐ¼Ð¸":2997,"ĠÐ¾ÑģÐ²Ð¾":2998,"Ð°Ð¿Ð¿Ð°ÑĢÐ°ÑĤ":2999,"Ð¾Ð²ÑĭÑĪÐµÐ½Ð¸Ðµ":3000,"ĠÐļÐ¾Ð½":3001,"ĠÑĦÐµÐ´ÐµÑĢÐ°Ð»ÑĮÐ½Ð¾Ð¼":3002,"ĠÑģÐ¾ÑģÑĤÐ°Ð²Ð¸Ð»":3003,"ĠÐ¿ÑĢÐµÐ´ÑĥÑģÐ¼Ð¾ÑĤÑĢÐµÐ½Ð½Ð¾Ð³Ð¾":3004,"ĠÑĤÐµÑĢÑĢÐ¸ÑĤÐ¾ÑĢÐ¸":3005,"ĠÐ¾ÑģÑĥÑīÐµÑģÑĤÐ²Ð»ÑıÑİÑīÐ¸Ñħ":3006,"ĠÐ·Ð°ÐºÐ»ÑİÑĩÐµÐ½Ð¸Ðµ":3007,"ĠÑįÐºÑģÐ¿ÐµÑĢÑĤÐ½Ð¾Ð³Ð¾":3008,"ĠÑģÐ½Ð¸Ð¶ÐµÐ½Ð¸Ðµ":3009,"ÐµÐ±ÑİÐ´Ð¶ÐµÑĤÐ½ÑĭÐµ":3010,"Ð¾Ð±ÑĢÐ°Ð·Ð¾Ð²Ð°ÑĤÐµÐ»ÑĮ":3011,"ÐŀÐ¡Ð¢":3012,"ÐºÐ¾Ð½ÑģÑĤÑĢÑĥÐºÑĤ":3013,"tion":3014,"ĠÐ²Ð¾Ð·Ð²ÑĢÐ°ÑĤÑĥ":3015,"ĠÑħÐ°ÑĢÐ°ÐºÑĤÐµÑĢÐ¸ÑģÑĤÐ¸Ðº":3016,"ĠÐ°ÑģÑģÐ¸Ð³Ð½":3017,"en":3018,"ÐºÐ¼":3019,"Ð°Ð½Ñģ":3020,"Ð¾Ð½Ð°":3021,"Ð¾ÑģÑĢÐ¾Ñĩ":3022,"Ð¸Ð½ÑĦÐ¾ÑĢÐ¼":3023,"ÐµÐ¹ÑģÑı":3024,"ÑģÑĤÐ²ÐµÐ½Ð½Ð°Ñı":3025,"ÐµÐ»ÐµÑĨ":3026,"Ð¸ÑĤÐµÐ»ÑĮÐ½Ð¾ÑģÑĤÐ¸":3027,"ÐĺÐĺ":3028,"Ð¿ÑĢÐ¾Ð¼":3029,"ĠÐ²Ð½ÐµÑĪ":3030,"Ġ50":3031,"ĠÑģÐ»ÑĥÑĩÐ°ÐµÐ²":3032,"Ð¸Ð±Ð»Ð¸":3033,"ĠÐ¾ÐºÑĢÑĥÐ¶":3034,"ĠÐ³ÑĢÐ°Ð¶Ð´Ð°Ð½Ð¸Ð½":3035,"Ð¸ÑĢÑĥÐµÑĤ":3036,"ĠÐ°ÐºÑĤÐ°Ð¼Ð¸":3037,"ĠÐ¸ÑģÑģÐ»ÐµÐ´Ð¾Ð²Ð°Ð½Ð¸Ñı":3038,"ĠÐ¿Ð»Ð°Ð½Ð°":3039,"ĠÑĨÐ¸ÑĦÑĢÐ¾Ð²Ð¾Ð¹":3040,"ĠÐ´Ð¾ÐºÑĥÐ¼ÐµÐ½ÑĤÑĭ":3041,"ĠÑĢÐ°Ð´Ð¸Ð¾ÑįÐ»ÐµÐºÑĤÑĢÐ¾Ð½":3042,"ĠÐ¾ÑĤÑĢÐ°ÑģÐ»ÐµÐ¹":3043,"ĠÑĤÐµÐºÑģÑĤ":3044,"ĠÐºÐ¾ÑĢÐ¿Ð¾ÑĢÐ°ÑĨÐ¸Ð¸":3045,"ĠÑĤÐ¾Ð²Ð°ÑĢÐ¾Ð²":3046,"ÑĦÐµÐ´ÐµÑĢÐ°Ð»ÑĮÐ½ÑĭÐ¹":3047,"ĠÑģÐ²ÐµÑĢÑħ":3048,"40":3049,"46":3050,"ĠÐ¾ÑģÑĤ":3051,"ÑĤÐ¾ÑĢÐ³":3052,"ÑģÐ¸Ð¼":3053,"ÐµÐ½Ð½ÑĭÐ¹":3054,"Ð²Ð¾ÑĢ":3055,"ĠÑģÐ¸ÑĤÑĥ":3056,"ÐµÑĢÐ½Ð¾Ð¹":3057,"Ð¾ÑĢÑĤÐ¾Ð²":3058,"Ð¿ÑĢÐµÐ´":3059,"ĠÐ´Ð¾Ð±":3060,"ĠÐ´Ð¸ÑģÐº":3061,"Ð¾Ð»Ñı":3062,"ÐµÐ¼Ð¾Ð³Ð¾":3063,"Ð³Ð´Ðµ":3064,"2030":3065,"ĠÐ±Ð¸Ð±Ð»Ð¸":3066,"Ð¸Ð²ÐµÑĢÑģ":3067,"ĠÐ¿ÐµÑĢÐµÑħÐ¾Ð´":3068,"ĠÐ³Ð¾ÑģÑĥÐ´Ð°ÑĢÑģÑĤÐ²ÐµÐ½Ð½ÑĥÑİ":3069,"Ġ2017":3070,"ĠÐ¸Ð¼Ð¸":3071,"Ġ2024":3072,"ĠÑĢÐµÐ³ÑĥÐ»Ð¸ÑĢÑĥÑİÑī":3073,"ĠÑĢÐµÑģÑĥÑĢÑģÐ°Ð¼":3074,"ĠÑĢÑĭÐ½ÐºÐµ":3075,"ĠÐ¿ÑĢÐ¾Ð´ÑĥÐºÑĤÐ°":3076,"ĠÑįÐºÑģÐ¿Ð»ÑĥÐ°ÑĤÐ°ÑĨÐ¸Ð¸":3077,"ĠÐ´ÐµÐ¹ÑģÑĤÐ²Ð¸Ð¹":3078,"ĠÐ¾Ð±Ð»Ð°ÑģÑĤÑıÑħ":3079,"ĠÐ¿Ð¸Ð»Ð¾ÑĤÐ½ÑĭÑħ":3080,"Ð²Ð½ÐµÐ±ÑİÐ´Ð¶ÐµÑĤÐ½ÑĭÐµ":3081,"ĠÐºÐ°ÑĤÐµÐ³Ð¾ÑĢ":3082,"Ð¿ÑĢÐ¾Ð¼ÑĤÐ¾ÑĢÐ³":3083,"33":3084,"ÑĤÑıÐ±ÑĢÑı":3085,"ĠÐ½Ð°Ð½":3086,"ĠÐ¾Ð±Ð»Ð°Ð´":3087,"ĠÑĥÑģ":3088,"ĠÑĥÐ´":3089,"ĠÐ·Ð¾Ð½Ñĭ":3090,"Ð¸ÑĩÑĤ":3091,"ÑĢÐ°ÑĪ":3092,"ĠÑĢÐ°Ð·Ð²Ð¸ÑĤÐ¸Ð¸":3093,"ĠÐºÐ¾ÑĤÐ¾ÑĢÐ°Ñı":3094,"Ð¤ÐµÐ´ÐµÑĢ":3095,"ĠÐ·Ð°Ð¿ÑĢÐ°ÑĪ":3096,"ĠÐ¸Ð·Ð¼ÐµÐ½ÐµÐ½Ð¸Ðµ":3097,"ĠÐĿÐ°ÑĨÐ¸Ð¾Ð½":3098,"Ð¿ÑĢÐ°Ð²Ð¾Ð²Ð¾Ð³Ð¾":3099,"ĠÑİÑĢÐ¸Ð´Ð¸ÑĩÐµÑģÐºÐ¸Ð¼":3100,"ĠÐĳÐ°Ð½":3101,"ĠÐ¼Ð¾Ð½Ð¸ÑĤÐ¾ÑĢÐ¸Ð½Ð³":3102,"ÐĺÑģÐºÑĥÑģÑģÑĤÐ²ÐµÐ½Ð½ÑĭÐ¹":3103,"ĠÐŁÐ¾Ð»Ð¾Ð¶":3104,"ĠÑĥÐ½Ð¸ÑĩÑĤ":3105,"ĠÐķÐ²":3106,"ĠÐºÑĥÐ»ÑĮÑĤÑĥÑĢ":3107,"ÑĩÐ°ÑģÑĤÑĮ":3108,"ĠÑģÐ»ÑĥÐ¶Ð±":3109,"Ð¾Ð±ÑĢÐ°Ð½Ð¸Ðµ":3110,"ĠÐ½Ð¸ÑĪÐµÐ²ÑĭÑħ":3111,"ĠÐ±Ð¸Ð±Ð»Ð¸Ð¾ÑĤÐµÐº":3112,"55":3113,"Ð¯":3114,"Ð¾ÐµÐ´Ð¸Ð½":3115,"Ð¸Ñī":3116,"ÑĢÐ¸Ð¼":3117,"Ð»Ð°Ð¼ÐµÐ½ÑĤ":3118,"ĠÐºÐ¾Ð»":3119,"Ð°ÑĤÐ¾Ñĩ":3120,"Ð¾Ð»ÐµÐ²":3121,"ĠÑįÐ½ÐµÑĢ":3122,"Ð°Ð¼ÐµÐ´Ð»":3123,"ĠÐ¾ÑĢÐ³Ð°Ð½Ð°Ð¼":3124,"ĠÐ»Ð¸Ð¼":3125,"ÑĥÐ»ÐµÐ¹":3126,"ĠÐ¾Ð±ÐµÑģÐ¿ÐµÑĩÐ¸Ð²Ð°ÐµÑĤ":3127,"Ð°ÑİÑīÐµÐµ":3128,"Ð¾Ð¿ÑĢÐ¾":3129,"ĠÑģÐ¿ÐµÐºÑĤ":3130,"Ð¼ÐµÐ½ÑĮ":3131,"ĠÐ¿ÑĢÐ¾Ð²ÐµÐ´ÐµÐ½Ð¸Ñİ":3132,"Ġ1566":3133,"ĠÐ°Ð²Ð¸":3134,"ĠÐ´Ð¾Ð»Ð³Ð¾Ñģ":3135,"ĠÐ¾ÐºÑĤÑıÐ±ÑĢÑı":3136,"ĠÐ¿ÑĢÐµÐ´ÑĥÑģÐ¼Ð¾ÑĤÑĢÐµÐ½Ð½Ð¾Ð¼Ñĥ":3137,"ĠÐ¾Ð³ÑĢÐ°Ð½Ð¸ÑĩÐµÐ½Ð¸Ñİ":3138,"Ð¾ÑīÐ°Ð´":3139,"ĠÐ¾Ð¿ÑĢÐµÐ´ÐµÐ»ÑıÐµÑĤ":3140,"ĠÑįÐºÑģÐ¿ÐµÑĢÑĤÐ¸Ð·":3141,"ÑģÑĤÐ²ÑĥÐµÑĤ":3142,"ĠÐºÐ¾Ð¾ÑĢÐ´Ð¸Ð½":3143,"ĠÑĪÐºÐ¾Ð»ÑĮ":3144,"ĠÑħÐ°ÐºÐ°ÑĤÐ¾Ð½Ð¾Ð²":3145,"ĠÑģÑĢÐ°Ð²Ð½ÐµÐ½Ð¸Ñİ":3146,"Ð´Ð¾ÐºÐ»Ð°Ð´":3147,"ĠÑĤÐ¾Ð¿Ð»":3148,"ÐľÐ¸Ð½Ð¿ÑĢÐ¾Ð¼ÑĤÐ¾ÑĢÐ³":3149,"âĢ¢":3150,"ĠÐ´Ð¾Ð»Ð³Ð¾ÑģÑĢÐ¾Ñĩ":3151,"ĠÐ¿Ð°ÑĢ":3152,"ĠÐ´ÑĢ":3153,"ĠÑĤÐ¾Ð»ÑĮÐºÐ¾":3154,"ĠÑĥÐ¼ÐµÐ½ÑĮ":3155,"ÑĪÐ¸ÑĢ":3156,"ĠÑĢÐ°Ð·ÑĢÐ°Ð±Ð°ÑĤÑĭÐ²":3157,"Ð¸ÑĩÐµÑģÐºÐ¾Ð¼":3158,"Ð¸ÑĩÐµÑģÐºÐ¾Ð¼Ñĥ":3159,"Ð¾Ð±ÐµÐ´":3160,"ĠÑĢÐµÐ¾ÑĢÐ³Ð°Ð½Ð¸Ð·Ð°ÑĨÐ¸Ð¸":3161,"ĠÐ·Ð°ÐºÑĥÐ¿":3162,"Ġ2002":3163,"ĠÐ¸Ð·Ð¼ÐµÑĢ":3164,"ĠÐ¿ÑĢÐ¸Ð¾Ð±ÑĢÐµÑĤ":3165,"ĠÑĤÑĢÐµÑħ":3166,"2021":3167,"ĠÐŀÑĢÐ³Ð°Ð½":3168,"ĠÐ£Ð¿":3169,"ĠÑĥÑĢÐ¾Ð²Ð½Ðµ":3170,"ĠÐ½Ð°Ð¿ÑĢÐ°Ð²Ð»ÐµÐ½Ð½ÑĭÐµ":3171,"ĠÐ¼Ð¸ÑĢÐ°":3172,"ĠÐ½Ð°ÑĢÑĥÑĪÐµÐ½Ð¸ÐµÐ¼":3173,"ĠÑģÐ°Ð¼Ð¾ÑģÑĤÐ¾ÑıÑĤÐµÐ»ÑĮ":3174,"ĠÐ·Ð°Ð¸Ð½ÑĤÐµÑĢÐµÑģÐ¾Ð²Ð°Ð½Ð½ÑĭÑħ":3175,"ĠÐ±Ð¾Ð»ÑĮÑĪÐ¸Ñħ":3176,"ĠÐ¿Ð¾Ð´Ð»ÐµÐ¶Ð°ÑĤ":3177,"ĠÐ°ÑĥÐ´Ð¸ÑĤÐ¾ÑĢ":3178,"ĠÐ±ÑĥÐ´ÐµÑĤ":3179,"Ð½Ð°Ð¿ÑĢÐ°Ð²Ð»ÐµÐ½Ð¸Ðµ":3180,"ĠÑģÐ¼ÐµÐ¶Ð½ÑĭÑħ":3181,"ĠÐŀÑģÐ½Ð¾Ð²Ð½ÑĭÐ¼Ð¸":3182,"Ð¾ÑĢÑıÐ¶":3183,"ĠÐ¿ÑĢÐµÐ´ÑĪÐµÑģÑĤÐ²ÑĥÑİÑīÐµÐ³Ð¾":3184,"ĠÐ²Ð½ÐµÐ±ÑİÐ´Ð¶ÐµÑĤÐ½ÑĭÑħ":3185,"ĠÑħÐ¾Ð´Ðµ":3186,"ĠÑģÑĥÑĤÐ¾Ðº":3187,"76":3188,"90":3189,"Ð½Ð¸ÑĤ":3190,"ĠÑģÑĥÐ¼Ð¼":3191,"ÐµÑĢÐµÐ·":3192,"ÐµÑĤÐµÑĢ":3193,"Ð°Ð»ÑĮÐ½ÑĥÑİ":3194,"Ð¾Ð»Ð¾":3195,"ÑĪÑĤ":3196,"ĠÐ±Ð°Ð½":3197,"ĠÐ½ÐµÑģÐº":3198,"ĠÐºÐ¾Ð½ÑģÑĤÑĢÑĥÐº":3199,"ÑĥÐ¿ÑĢÐ¾Ð²Ð¾Ð´":3200,"ĠÐ¾ÑģÑĥÑīÐµÑģÑĤÐ²Ð»ÑıÑİÑĤÑģÑı":3201,"ĠÐ¿ÑĢÐ¾Ð³ÑĢÐ°Ð¼Ð¼Ð°":3202,"ĠÐ¾Ð¿ÐµÑĢÐ°ÑĨÐ¸Ð¹":3203,"Ð°Ð±Ð¸Ð»ÑĮ":3204,"Ġ02":3205,"ĠÐºÐ¾Ð½ÐºÑĢÐµÑĤ":3206,"Ð¸Ð±Ð¾Ð»ÐµÐµ":3207,"ĠÐ¾ÑĤÐ±Ð¾ÑĢÐµ":3208,"ĠÑģÐ¾Ð³Ð»Ð°ÑĪÐµÐ½Ð¸ÐµÐ¼":3209,"ĠÑģÑĢÐ¾ÐºÐ°":3210,"ĠÐ¾Ð±ÑıÐ·Ð°ÑĤÐµÐ»ÑĮÑģÑĤÐ²Ð¾":3211,"ĠÐ¿Ð»Ð°Ð½Ð¸ÑĢÐ¾Ð²Ð°Ð½Ð¸Ñı":3212,"ĠÑĪÑĤÑĢÐ°ÑĦ":3213,"ĠÑİÑĢÐ¸Ð´Ð¸ÑĩÐµÑģÐºÐ¸Ñħ":3214,"ÐłÐ°Ð·Ð²Ð¸ÑĤÐ¸Ðµ":3215,"ÑİÑīÐ¸ÑħÑģÑı":3216,"ĠÐ°Ð½Ð°Ð»Ð¾Ð³":3217,"ĠÑĢÑĭÐ½ÐºÐ°":3218,"ĠÐ¿ÑĢÐ¾ÑĨÐµÑģÑģÐµ":3219,"ÑĢÐ°Ð»ÑĮÐ½ÑĭÑħ":3220,"ĠÐ»ÐµÐºÑĨÐ¸Ð¹":3221,"ĠÐ¿ÑĢÐ¾Ð¸Ð·Ð²ÐµÐ´ÐµÐ½Ð½ÑĭÑħ":3222,"ĠÐ¾ÑħÑĢÐ°Ð½Ñĭ":3223,"ÐµÐºÑģÐ°":3224,"ĠÐ²ÑĢÐµÐ´Ð°":3225,"Ð±ÑİÐ´Ð¶ÐµÑĤÑĭ":3226,"ĠÐ¸Ð·Ð³Ð¾ÑĤÐ¾Ð²Ð»ÐµÐ½Ð¸Ñı":3227,"Ð°Ð¼ÐµÐ´Ð»Ð¸ÑĤÐµÐ»ÑĮÐ½Ð¾":3228,"32":3229,"77":3230,"Ð¨":3231,"Ġ+":3232,"ÑħÐµÐ¼":3233,"ÐµÑĢÑĭ":3234,"Ð¾ÑĢÐ°":3235,"ÑĤÐµÐ¿":3236,"ĠÑĥÐºÑĢÐµÐ¿":3237,"ĠÐ¼Ð°Ñı":3238,"ĠÑĢÐ°Ð²":3239,"ĠÐłÐ¾ÑģÑģÐ¸Ð¹":3240,"ĠÐŁÐ¾":3241,"ĠÐ±Ð°Ð»Ð»":3242,"ÑģÐ»ÑĥÐ¶":3243,"ĠÑģÑĤÐµÐ¿":3244,"Ð¸ÑģÑĤÐµÐ¼Ð°":3245,"ĠÐ¸Ð·Ð¾Ð±ÑĢÐ°Ð¶":3246,"ÑĢÐ°Ð·Ð´ÐµÐ»":3247,"Ð°ÑĤÐ¾ÑĢÐ°":3248,"ĠÐ»Ð¸ÑĨÑĥ":3249,"2011":3250,"ĠÐ¿ÑĢÐ¾Ð³ÑĢÐ°Ð¼Ð¼Ðµ":3251,"ÑĥÑĤÐ±":3252,"ĠÐ¿ÑĢÐ¾Ð¸Ð·Ð²Ð¾Ð´ÑģÑĤÐ²Ð¾":3253,"Ð¸ÑĤÐµÐ»Ð¸":3254,"ĠÑĥÑģÐ»Ð¾Ð²Ð¸Ð¸":3255,"Ð¸Ð¼ÐµÐ½Ð¾Ð²Ð°Ð½Ð¸Ðµ":3256,"ĠÑĢÐ¾ÑģÑģÐ¸Ð¹ÑģÐºÐ¾Ð³Ð¾":3257,"ĠÑģÐ¾Ð¾ÑĤÐ²ÐµÑĤÑģÑĤÐ²ÑĥÑİÑīÐµÐ³Ð¾":3258,"ĠÐ¸ÑģÑģÐ»ÐµÐ´Ð¾Ð²Ð°ÑĤÐµÐ»ÑĮÑģÐºÐ¸Ñħ":3259,"ÑģÐµÐ»ÐµÑĢÐ°ÑĨÐ¸Ð¸":3260,"ÑĤÐµÑħÐ½Ð¾Ð»Ð¾Ð³Ð¸Ð¸":3261,"ÑĢÐ°ÑĤÐ¸ÑĤÑĮ":3262,"Ð¸ÑĦÐ¸ÑĨÐ¸ÑĢÐ¾Ð²":3263,"ÑıÐ²Ð»ÐµÐ½Ð¸Ð¹":3264,"ĠÐ·Ð´Ð¾ÑĢÐ¾Ð²ÑĮÑı":3265,"ĠÐ¿ÑĢÐ¸ÑģÐ¾ÐµÐ´Ð¸Ð½":3266,"ĠÐ¸Ð¼Ð¿Ð¾ÑĢÑĤ":3267,"ĠÐºÐ°Ð»ÐµÐ½Ð´Ð°ÑĢÐ½ÑĭÑħ":3268,"ĠÐ·Ð°Ð±Ð¾Ð»ÐµÐ²":3269,"ĠÐ½ÐµÐ¿Ð¾ÑģÑĢÐµÐ´ÑģÑĤÐ²ÐµÐ½Ð½Ð¾":3270,"ĠÐ°ÑģÑģÐ¸Ð³Ð½Ð¾Ð²Ð°Ð½Ð¸Ð¹":3271,"ĠÑįÐºÑģÐ¿ÐµÑĢÑĤÐ¸Ð·Ñĭ":3272,".\".":3273,"ĠÐ°ÑĤ":3274,"ĠÐµÑģÑĤ":3275,"ÑĥÑĪ":3276,"ÑĥÑİÑĤ":3277,"ÐºÐ°Ð¼":3278,"Ð²Ð°":3279,"ÐµÑĢÐ´":3280,"ÐµÐ´Ð¾ÑģÑĤ":3281,"Ð¾ÑĢÑĭ":3282,"ÑĦÐ¸Ð½Ð°Ð½":3283,"ĠÑĢÑıÐ´":3284,"ĠÐ¾Ð±ÑģÐ»ÑĥÐ¶":3285,"Ð°Ð»Ð¾Ð²":3286,"ĠÑĦÑĥÑĤÐ±":3287,"ĠÑĢÐµÑĪÐµÐ½Ð¸Ñİ":3288,"ĠÑĥÑģÑĤÑĢÐ°Ð½":3289,"ĠÐ¾ÑģÑĥÑīÐµÑģÑĤÐ²Ð»ÐµÐ½Ð¸Ðµ":3290,"Ð¡Ð¾Ð±ÑĢÐ°Ð½Ð¸Ðµ":3291,"ĠÐ¿Ð¾Ð´Ð´ÐµÑĢÐ¶ÐºÑĥ":3292,"Ġ100":3293,"ĠÐ¿ÐµÑĢÐ¸Ð¾Ð´Ðµ":3294,"ĠÐ¡ÑĤÑĢÐ°ÑĤÐµÐ³":3295,"ĠÐ½Ð°ÑĥÐºÐ¾":3296,"ĠÐºÑĢÐ¸ÑģÑĤÐ°Ð»Ð»":3297,"ĠÐ¸Ð½Ð¾ÑģÑĤÑĢÐ°Ð½Ð½ÑĭÐ¼Ð¸":3298,"ĠÑĦÑĥÐ½ÐºÑĨÐ¸Ð¹":3299,"ĠÐ²ÐµÐ´ÐµÐ½Ð¸Ñı":3300,"Ð¾Ð¿ÑĢÐ¾Ð²Ð¾Ð´":3301,"ĠÐ¿ÑĥÐ±Ð»Ð¸Ðº":3302,"ĠÐ¿Ð¾Ð´Ð»ÐµÐ¶Ð°ÑīÐ¸Ñħ":3303,"ĠÑĦÑĥÐ½ÐºÑĨÐ¸Ð¾Ð½Ð¸ÑĢÐ¾Ð²Ð°Ð½Ð¸Ñı":3304,"ĠÑįÐºÑģÐ¿Ð»ÑĥÐ°ÑĤÐ°ÑĨÐ¸Ñİ":3305,"ĠÐ·Ð°Ð²Ð¸Ñģ":3306,"ĠÑĢÐ¸ÑģÐºÐ¾Ð²":3307,"ĠÐºÐ¾Ð¼Ð¿Ð¾Ð½ÐµÐ½ÑĤÐ¾Ð²":3308,"ĠÐµÐ¶ÐµÐ³Ð¾Ð´Ð½Ð¾":3309,"ĠÐ¿Ð¾Ð»Ð¾Ð¶ÐµÐ½Ð¸Ð¹":3310,"ĠÑĢÐ°ÑģÑģÐ¼Ð°ÑĤÑĢÐ¸Ð²Ð°ÐµÑĤ":3311,"ĠÑĨÐµÐ»ÑĮÑİ":3312,"Ð¾Ð·Ð½Ð°Ð²":3313,"ĠÐ³Ð¾ÑĤÐ¾Ð²":3314,"ĠÑĥÐ¿Ð»Ð°ÑĤÐµ":3315,"Ð¸ÑĦÐ¸ÑĨÐ¸ÑĢÐ¾Ð²Ð°ÑĤÑĮ":3316,"ĠÐ½Ð°ÑĥÐºÐ¾ÐµÐ¼":3317,"ne":3318,"ĠÐµÐ´Ð¸Ð½":3319,"ÑĢÐµÐ±":3320,"ÑĭÑĢ":3321,"ĠÑģÑĦÐ¾ÑĢÐ¼":3322,"Ð¾ÑĤÐµÑħ":3323,"ĠÑĢÐ°Ð½ÐµÐµ":3324,"Ð°ÑĤÐ¾":3325,"ĠÐ¼Ð¸Ð½Ð¸Ð¼":3326,"ÐµÐ¹ÑĤ":3327,"ĠÐ¾ÑĤÑĢÐ°Ð¶":3328,"ĠÐ¿ÑĢÐµÐ´Ð²Ð°ÑĢ":3329,"ÐµÐ³Ð¸ÑģÑĤÑĢ":3330,"ĠÐ¡Ð¨":3331,"ĠÐ¸Ð¼ÐµÐ½Ð¸":3332,"ĠÐ¿ÑĢÐ¾ÑĤÐ¾ÐºÐ¾Ð»":3333,"ĠÐ°Ð¿Ð¿Ð°ÑĢÐ°ÑĤÑĥÑĢÑĭ":3334,"ĠÐ²ÑĢÐµÐ¼ÐµÐ½Ð¸":3335,"ĠÑĥÑģÑĤÐ°Ð½Ð¾Ð²Ð»ÐµÐ½Ð¸Ñı":3336,"ĠÐ¸Ð´ÐµÐ½ÑĤÐ¸ÑĦÐ¸ÑĨÐ¸ÑĢÐ¾Ð²Ð°ÑĤÑĮ":3337,"ĠÐ·Ð°Ð½ÑıÑĤ":3338,"ĠÐ´ÐµÐ½ÐµÐ¶":3339,"ĠÐ¡Ð¾Ð²ÐµÑĤÐ°":3340,"ĠÐ´Ð¾Ð²ÐµÐ´":3341,"ĠÐ¡Ð¨ÐĲ":3342,"47":3343,"ta":3344,"ĠR":3345,"Ð½Ð°ÑĢ":3346,"ÐµÐ½Ð½Ð¾Ð¼":3347,"Ð»Ð¸Ð½":3348,"Ð²Ð¾Ð·":3349,"ÑĨÐµÐ¿":3350,"ĠÐ½ÐµÐ²":3351,"ÑĤÐµÐ²":3352,"ĠÐºÐ¾ÑģÐ¼":3353,"ĠÑĥÐ´Ð°Ð»":3354,"ĠÑĥÑĤÑĢÐ°ÑĤÐ¸Ð»":3355,"ĠÐ¼Ð¾Ð»Ð¾Ð´":3356,"Ð³Ð°Ð»":3357,"Ð¸ÐºÐ¾":3358,"ĠÐ±ÑĥÑħ":3359,"Ð¸Ð´ÐµÐ½ÑĨÐ¸":3360,"ĠÐ»Ð¸Ð½":3361,"ĠÐ¿Ð¾Ð»ÑĥÑĩÐµÐ½Ð¸Ðµ":3362,"ĠÑĢÐµÐ·ÑĥÐ»ÑĮÑĤÐ°ÑĤÐ°Ñħ":3363,"ĠÐ±ÑİÐ´Ð¶ÐµÑĤÐ½ÑĭÐ¼":3364,"ĠÑĢÐ°Ð·ÑĢÐ°Ð±Ð¾ÑĤÐ°Ð½Ð½ÑĭÑħ":3365,"Ġ2014":3366,"ĠÑĥÐºÐ°Ð·Ð°Ð½Ð¸ÐµÐ¼":3367,"ĠÐ´Ð¾ÑģÑĤÑĥÐ¿Ð½Ð¾ÑģÑĤÐ¸":3368,"ĠÑĥÑģÑĤÐ°Ð½Ð¾Ð²Ð»ÐµÐ½Ð½Ð¾Ð¹":3369,"ÑĤÐ²ÐµÑĢÐ´":3370,"ĠÑģÐ¾Ð²ÐµÑĤÐ°":3371,"ĠÐ¾ÐºÐ¾Ð»Ð¾":3372,"ĠÐ¼Ð¾Ð´ÑĥÐ»ÐµÐ¹":3373,"ĠÐ½Ð°Ð¿ÑĢÐ°Ð²Ð»ÐµÐ½Ð½ÑĭÑħ":3374,"ĠÑĢÐ°Ð·Ð¼ÐµÑīÐµÐ½Ð¸Ðµ":3375,"ĠÑĢÐµÐ³Ð¸Ð¾Ð½Ð°Ð»ÑĮÐ½Ð¾Ð³Ð¾":3376,"ĠÐ¾Ð±ÑīÐµÑģÑĤÐ²ÐµÐ½Ð½ÑĭÑħ":3377,"ĠÐ¿Ð¾ÑģÐ»ÐµÐ´ÑĥÑİÑī":3378,"ĠÑĢÐ°ÑģÑģÑĩÐ¸ÑĤ":3379,"ĠÑģÐ»Ð¾Ð²Ð°":3380,"ĠÐ±Ð¾Ð»ÑĮÑĪ":3381,"ĠÐ¾ÑĤÐºÑĢÑĭÑĤÑĭÑħ":3382,"ĠÐ½ÐµÐ·Ð°Ð²Ð¸Ñģ":3383,"ĠÑģÐ¾Ð¿ÑĢÐ¾Ð²Ð¾Ð¶Ð´ÐµÐ½Ð¸Ðµ":3384,"ĠÑįÐ½ÐµÑĢÐ³ÐµÑĤÐ¸ÐºÐ¸":3385,"ĠÑģÐ¾Ð²ÐµÑĢÑĪÐµÐ½ÑģÑĤÐ²Ð¾Ð²Ð°Ð½Ð¸Ðµ":3386,"Ð¸ÑģÐ¿Ð¾Ð»Ð½":3387,"ĠÐ²ÑĭÑĢÑĥÑĩ":3388,"ĠÐºÐ¾Ð»Ð¸ÑĩÐµÑģÑĤÐ²Ð°":3389,"ĠÑĥÑĩÐ°ÑģÑĤÐ¸ÐµÐ¼":3390,"ĠÐ¾ÑĢÐ¸ÐµÐ½ÑĤ":3391,"ĠÐ´Ð°Ð»ÑĮÐ½ÐµÐ¹":3392,"Ð³Ð°Ð»ÑĤÐµÑĢ":3393,"ĠÐ±ÑĥÑħÐ³Ð°Ð»ÑĤÐµÑĢ":3394,"58":3395,"Ġ=":3396,"Ð¾Ð¾ÑĢÑĥÐ¶":3397,"Ð½Ð¸Ð¹":3398,"ÑĤÑĭ":3399,"ÑıÐ¶ÐµÐ½":3400,"ÐµÐ½Ð½Ð¾ÑģÑĤÑĮ":3401,"ĠÐ¿Ð¾ÑĢÑĤ":3402,"Ð²Ð¸Ð´":3403,"ÑĨÐµÐ»":3404,"ĠÑģÐµÐºÑĤ":3405,"ĠÑģÑĥÑīÐµÑģÑĤÐ²":3406,"Ð½Ð¾Ð¿":3407,"ĠÐ²Ð·":3408,"ĠÐ½Ð°Ð²":3409,"Ð´Ð»Ñı":3410,"ĠÑĢÐ°ÑģÑĤ":3411,"ĠÐ¼Ð°Ðº":3412,"Ð°Ð»ÑĤ":3413,"Ð¸Ð»Ð°ÐºÑĤ":3414,"Ð¸Ð²Ð°ÑĤÑĮ":3415,"Ð°Ð¿ÑĤ":3416,"Ð¾ÑıÑīÐµÐµ":3417,"Ð°Ð´Ð»ÐµÐ¶":3418,"ĠÐ²ÑĭÐ·":3419,"ĠÐ¸Ð½ÑĦÐ¾ÑĢÐ¼Ð°ÑĨÐ¸Ð¾Ð½Ð½ÑĭÐµ":3420,"ĠÐ¿ÑĢÐ¾ÐµÐºÑĤÐ½Ð¾Ð¹":3421,"ĠÑģÐ¾Ð¾ÑĤÐ²ÐµÑĤÑģÑĤÐ²Ð¸Ðµ":3422,"ĠÐ¿ÑĢÐ°Ð²Ð¾Ð²ÑĭÐ¼Ð¸":3423,"ĠÐºÐ¾Ð¼Ð¿Ð°Ð½Ð¸Ð¹":3424,"ÐµÑģÑĤÐ¸":3425,"ĠÑģÐ¾Ð·Ð´Ð°Ð½Ð¸Ñİ":3426,"ĠÐ¿ÑĢÐ¾Ð´Ð²":3427,"ĠÐ½ÐµÐ¾Ð±ÑħÐ¾Ð´Ð¸Ð¼Ð¾Ð¹":3428,"Ð°ÑĤÐ¸Ð²Ð½ÑĭÑħ":3429,"ĠÑįÐ»ÐµÐºÑĤÑĢÐ¾Ð½Ð¸ÐºÐ¸":3430,"ĠÐ¿ÑĢÐµÐ´ÑģÑĤÐ°Ð²Ð»ÑıÐµÑĤ":3431,"ĠÐ±ÐµÐ·Ð¾Ð¿Ð°ÑģÐ½Ð¾ÑģÑĤÑĮ":3432,"ĠÑĤÐµÑĢÑĢÐ¾ÑĢ":3433,"ĠÑģÐ¾Ð³Ð»Ð°ÑģÐ¸Ðµ":3434,"ĠÐ²Ð½ÐµÐ´ÑĢÐµÐ½Ð¸Ñİ":3435,"ĠÐ¿ÑĢÐ¸Ð²ÐµÐ´":3436,"ĠÐĵÐĶ":3437,"ĠÐ²ÐµÐ´ÑĥÑī":3438,"ĠÐ¿Ð°ÑģÐ¿Ð¾ÑĢÑĤÐ¾Ð²":3439,"ĠÑĥÑĩÐ°ÑģÑĤÐ½Ð¸ÐºÐ°Ð¼Ð¸":3440,"ĠÐ¿ÑĢÐµÐ´ÑģÑĤÐ°Ð²Ð»ÐµÐ½Ð½ÑĭÑħ":3441,"ĠÐ´Ð¸Ð°Ð¿Ð°Ð·":3442,"ĠÐ¿ÑĢÐµÐ²ÑĭÑĪÐ°ÑĤÑĮ":3443,"ĠÑģÐ¾Ð²ÑĢÐµÐ¼ÐµÐ½Ð½ÑĭÑħ":3444,"ĠÐ°Ð½Ð°Ð»Ð¸Ð·Ð°":3445,"ĠÐ¿ÑĢÐ¾ÑĤÐ¸Ð²Ð¾Ð´":3446,"ĠÐ¿ÑĢÐ¸Ð½Ð¸Ð¼Ð°ÐµÑĤ":3447,"ĠÐ¾ÑĩÐµÑĢÐµÐ´":3448,"ĠÐ¿Ð¾Ð»Ð½Ð¾Ð¼Ð¾ÑĩÐ¸Ð¹":3449,"ĠÐ¿Ð¾ÑģÐ»ÐµÐ´ÑģÑĤÐ²":3450,"ĠÐ»Ð¸Ð¼Ð¸ÑĤÐ¾Ð²":3451,"ma":3452,"Ġi":3453,"Ð¸ÑģÐ¾Ð²":3454,"Ð¾Ð²Ð¾Ð¼Ñĥ":3455,"ÑĨÐ°ÑĤ":3456,"Ð¼Ð¸Ð½":3457,"ĠÐ½Ð°Ð·":3458,"ĠÐºÐ¾Ð´":3459,"ĠÐ½Ð°Ð¸Ð±Ð¾Ð»ÐµÐµ":3460,"ĠÐ¼ÐºÐ¼":3461,"Ð¸ÑĤÐµÑĤ":3462,"ÐµÐ½ÑĤÐ°Ð¼Ð¸":3463,"ĠÑĩÐ¸ÑģÑĤ":3464,"Ð¾Ð·Ð¼Ð¾Ð¶":3465,"ĠÐ¿Ð¾Ð»ÑĥÐ¿ÑĢÐ¾Ð²Ð¾Ð´":3466,"ĠÐ¾Ð¿Ð¸Ñģ":3467,"ĠÐ²ÑĭÐ²Ð¾Ð´":3468,"ĠÐºÐ¾Ð¼Ð°Ð½Ð´":3469,"ĠÐºÐ¾Ð½Ñģ":3470,"ÑħÐ¾Ð´Ð¾Ð²":3471,"ĠÑĤÐ°ÐºÐ¸Ðµ":3472,"ÐĴÐ§":3473,"ĠÐ¡ÐĴÐ§":3474,"ÐŁÑĢÐµÐ´":3475,"ĠÑĢÐ°ÑģÑĪÐ¸ÑĢ":3476,"ÐłÐµÐ°Ð»Ð¸Ð·Ð°ÑĨÐ¸Ñı":3477,"ĠÑįÑĤÐ¸ÑĩÐµÑģÐºÐ¸Ñħ":3478,"ĠÐ¾Ð±ÑĬÐµÐ´Ð¸Ð½":3479,"ĠÑĢÐ°Ð±Ð¾ÑĩÐµÐ³Ð¾":3480,"Ð°ÑİÑīÐ¸ÑħÑģÑı":3481,"ĠÐĿÐ°ÑģÑĤÐ¾ÑıÑī":3482,"ĠÐ´Ð¾Ð»Ð¶ÐµÐ½":3483,"ÑģÑĤÑĢÑĥÐºÑĨÐ¸Ð¸":3484,"ĠÐ¿Ð¾Ð·Ð²Ð¾Ð»ÑıÑİÑīÐ¸Ñħ":3485,"ĠÑĥÐ²ÐµÐ»Ð¸ÑĩÐµÐ½Ð¸Ðµ":3486,"ĠÑĥÑģÑĤÐ°Ð½Ð¾Ð²Ð¾Ðº":3487,"ĠÐ½ÐµÐ·Ð°Ð¼ÐµÐ´Ð»Ð¸ÑĤÐµÐ»ÑĮÐ½Ð¾":3488,"Ð¿ÑĢÐ¾Ð¸Ð·Ð²Ð¾Ð´":3489,"ĠÐ¿ÑĢÐ¾Ð¸Ð·Ð²ÐµÐ´ÐµÐ½Ð¸Ð¹":3490,"ĠÐ¼Ð¸ÐºÑĢÐ¾":3491,"ĠÐ´ÐµÐ»Ð°Ð¼Ð¸":3492,"Ð½Ð°Ð¿ÑĢÐ°Ð²Ð»ÐµÐ½Ð¸Ñı":3493,"ĠÐ¿ÑĢÐ¸Ð¼ÐµÐ½ÑıÑİÑĤÑģÑı":3494,"ĠÑħÐ¾Ð·ÑıÐ¹ÑģÑĤÐ²Ð°":3495,"ĠÑģÐ¾Ð±ÑģÑĤÐ²ÐµÐ½Ð½Ð¾ÑģÑĤÐ¸":3496,"ĠÐºÐ¾Ð½ÑĦÐ¸Ð´ÐµÐ½ÑĨÐ¸":3497,"Ð½Ð°Ð»Ð¸ÑĤ":3498,"ĠÐ½Ð¾Ð²Ð¾ÑģÑĤ":3499,"Ð²Ð°Ð»Ð¸ÑĦÐ¸ÑĨÐ¸ÑĢÐ¾Ð²Ð°Ð½Ð½ÑĭÑħ":3500,"ĠÐ°ÑĥÐ´Ð¸ÑĤÐ¾ÑĢÐ¸Ð¸":3501,"ĠÐ·Ð°Ð±Ð¾Ð»ÐµÐ²Ð°Ð½Ð¸Ð¹":3502,"59":3503,"63":3504,"ÑĭÐ´":3505,"Ð»Ð°Ð²":3506,"ÑĨÐµÐ½ÑĤ":3507,"ÑĨÐµÑģÑģ":3508,"Ð¼ÐµÐ½ÑĤ":3509,"ĠÐ¿ÑĢÐ¾ÑģÑĢÐ¾Ñĩ":3510,"Ð³ÑĢÐ°Ð½Ð¸Ñĩ":3511,"ĠÑĦÐ°Ðº":3512,"ÐµÐ»Ñı":3513,"ĠÐ¿ÑĢÐµÐ´ÑĭÐ´":3514,"ĠÐ¿Ð¾Ñĩ":3515,"ÑīÐµÑģÑĤÐ²Ð°":3516,"ĠÐ²ÑĭÑıÐ²Ð»ÐµÐ½":3517,"Ð½Ð¸ÐºÐ°":3518,"ĠÐ´ÐµÑģÑı":3519,"Ġ40":3520,"ĠÐŁÑĢÐ°Ð²Ð¸Ð»Ð°Ð¼Ð¸":3521,"ĠÐ¸ÑģÐ¿Ð¾Ð»ÑĮÐ·Ð¾Ð²Ð°Ð½Ð¸Ñİ":3522,"ĠÐ´Ð¾ÐºÑĥÐ¼ÐµÐ½ÑĤÐ°":3523,"ĠÐ¾Ð±ÑĬÑıÐ²Ð»ÐµÐ½Ð¸Ð¹":3524,"Ð°ÐµÐ¼ÑĭÐ¹":3525,"ĠÑģÐ»ÐµÐ´ÑĥÑİÑīÐ¸Ð¼":3526,"ĠÑĢÐµÐ°Ð»Ð¸Ð·Ð°ÑĨÐ¸Ñı":3527,"ĠÑģÐ¾Ð±ÑģÑĤÐ²ÐµÐ½Ð½ÑĭÑħ":3528,"ĠÐ¾ÑģÐ½Ð¾Ð²Ð°Ð½Ð¸Ñı":3529,"ĠÐ¾ÑĤÐ½Ð¾ÑĪÐµÐ½Ð¸Ñı":3530,"ĠÐ¾ÑĤÐ½Ð¾ÑĪÐµÐ½Ð¸Ñİ":3531,"ĠÐ¾Ð±ÑıÐ·Ð°Ð½Ñĭ":3532,"ĠÐ½Ð°Ð¿ÑĢÐ°Ð²Ð»ÐµÐ½Ð¸ÑıÐ¼Ð¸":3533,"Ð£ÑĤÑĢÐ°ÑĤÐ¸Ð»":3534,"ĠÐ½Ð¾ÑĢÐ¼Ð°ÑĤÐ¸Ð²Ð½ÑĭÑħ":3535,"ĠÐ¾Ð¿ÑĤÐ¸ÑĩÐµÑģÐºÐ¸Ñħ":3536,"ĠÐ¸Ð½Ð½Ð¾Ð²Ð°ÑĨÐ¸Ð¹":3537,"Ġ169":3538,"ĠÐ¿ÑĢÐµÐ´Ð¾ÑģÑĤÐ°Ð²Ð»ÐµÐ½Ð¸Ñİ":3539,"ĠÐ¾ÑĦÐ¸Ñģ":3540,"ĠÐºÐ¾Ð¼Ð¿Ð¾Ð½ÐµÐ½ÑĤÐ½Ð¾Ð¹":3541,"ĠÑĢÐ¾ÑģÑĤÐ°":3542,"ĠÐ½ÐµÐ¹ÑĢÐ¾Ð½":3543,"Ð¾Ð²Ð»ÐµÑĤ":3544,"ĠÑģÐµÑĢÑĤÐ¸ÑĦÐ¸Ðº":3545,"ĠÐ¿ÑĢÐ¸ÐºÐ»Ð°Ð´Ð½ÑĭÑħ":3546,"Ð¾ÑĤÐ½Ð¾ÑĪÐµÐ½Ð¸Ñı":3547,"ĠÐ¾Ð±ÐµÐ·Ð»Ð¸ÑĩÐ¸Ð²Ð°Ð½Ð¸Ñı":3548,"ĠÐ¸ÑģÑĤÐ¾ÑĩÐ½Ð¸ÐºÐ¾Ð¼":3549,"ĠÐ¿ÑĢÐµÐ´Ð²Ð°ÑĢÐ¸ÑĤÐµÐ»ÑĮÐ½Ð¾Ð³Ð¾":3550,"ĠÐ¿ÑĢÐµÐ´ÑĭÐ´ÑĥÑī":3551,"68":3552,"73":3553,"ic":3554,"ÑĢÐµÑī":3555,"Ð¾Ð²Ð¾Ð¼":3556,"Ð°Ð½Ð½ÑĭÐ¹":3557,"Ð¼Ð¾Ð´":3558,"ĠÐºÑĢÑĥÐ¿":3559,"ĠÐ¾Ð±Ð½Ð°ÑĢ":3560,"ĠÐ¼Ð½Ð¾Ð³Ð¾":3561,"Ð¸ÑĤÐ½ÑĭÑħ":3562,"ĠÐ³Ð°ÑĢ":3563,"ÑĭÑħÐ¾Ð´":3564,"ĠÑĢÐ°Ð·Ð²Ð¸ÑĤÐ¸ÐµÐ¼":3565,"ĠÐºÐ¾Ð½ÑĤ":3566,"ĠÐ´Ð¾ÑģÑĤÐ¸Ð³Ð½":3567,"ÑĢÐ°Ð·Ð²Ð¸ÑĤÐ¸Ðµ":3568,"ĠÐ¾ÑĢÐ³Ð°Ð½Ð¸Ð·Ð°ÑĨÐ¸Ñİ":3569,"ĠÑĦÐ¾ÑĢÐ¼Ñĭ":3570,"ĠÑģÑĥÐ±ÑĬÐµÐºÑĤÑĥ":3571,"ĠÑģÑĤÐ°ÑĤÑĮÐµ":3572,"ĠÑĥÐºÐ°Ð·Ð°Ð½Ð½Ð¾Ð¼Ñĥ":3573,"ĠÐ¿ÑĢÐ¾Ð³ÑĢÐ°Ð¼Ð¼Ð°Ð¼":3574,"Ġ01":3575,"ĠÐ¸ÑģÐ¿Ð¾Ð»Ð½Ð¸ÑĤÐµÐ»ÑĮÐ½Ð¾Ð³Ð¾":3576,"ĠÐ¿ÑĢÐ¾Ð¸Ð·Ð²Ð¾Ð´ÑģÑĤÐ²Ðµ":3577,"ÐĿÐ¾Ð²":3578,"Ð°ÐµÐ¼Ð¾Ð¹":3579,"ĠÐ¿ÑĢÐµÐ´ÑĥÑģÐ¼Ð¾ÑĤÑĢÐµÐ½Ð¾":3580,"ĠÑģÐ¾Ð¾ÑĤÐ²ÐµÑĤÑģÑĤÐ²ÑĥÑİÑīÐµÐ¹":3581,"ĠÐ·Ð°Ð¿ÑĢÐµÑĤ":3582,"ĠÑģÐ¿ÐµÑĨÐ¸Ð°Ð»ÑĮÐ½Ð¾Ð³Ð¾":3583,"ĠÐ¼Ð°ÑĤÐµÑĢÐ¸Ð°Ð»Ñĭ":3584,"ĠÑĤÑĢÐ°Ð½ÑģÐ¿Ð¾ÑĢÑĤÐ½ÑĭÑħ":3585,"Ġ253":3586,"ÐĶÐ¾Ð¿Ð¾Ð»Ð½ÐµÐ½":3587,"ÑĤÐµÑħÐ½Ð¸ÑĩÐµÑģÐºÐ¾Ð³Ð¾":3588,"ĠÑĥÑģÑĤÐ°Ð½Ð°Ð²Ð»Ð¸Ð²Ð°ÐµÑĤÑģÑı":3589,"ĠÑĩÐµÐ¼Ð¿":3590,"ÐĽÐŀ":3591,"ĠÑģÐµÑĤÐµÐ²":3592,"ĠÐ¼ÐµÑģÑıÑĨÑĥ":3593,"ÐĳÐĺÐ¡":3594,"ĠÐ·Ð°Ð²ÐµÑĢ":3595,"ĠÐ³Ð»Ð¾Ð±":3596,"ĠÐ´Ð°ÑĤÑĭ":3597,"ĠÑıÐ·ÑĭÐºÐ°Ñħ":3598,"ĠÐ»Ð°Ð·ÐµÑĢÐ½ÑĭÑħ":3599,"ĠÐ´Ð¾Ð²ÐµÑĢÐµÐ½Ð½ÑĭÑħ":3600,"ÐµÐ»Ð¸Ð¾ÑĢ":3601,"Ð½Ð°Ð´Ð·Ð¾ÑĢ":3602,"ĠÐµÑģÑĤÐµ":3603,"ĠÐ¾Ð±Ð½Ð°ÑĢÑĥÐ¶":3604,".,":3605,"49":3606,"80":3607,"ĠÐ°Ð½":3608,"Ð¾Ð¾ÑĤÐ²ÐµÑĤÑģÑĤÐ²":3609,"ÑĢÐµÐº":3610,"ÐºÐ»":3611,"Ð²Ð²ÐµÐ´":3612,"Ð²ÑģÐµÐ³Ð¾":3613,"ÑĩÐ¸":3614,"ÑģÐºÑĢÑĭÑĤ":3615,"ĠÐ´Ð¾ÑĢ":3616,"Ð¾Ð½Ð½":3617,"Ð¾Ð»Ð¶ÐµÐ½":3618,"Ð¸Ð·Ð¸Ð¾Ð½":3619,"ĠÑĥÐ½Ð¸Ðº":3620,"ĠÐ¼Ð¾ÑĢ":3621,"Ð°ÑĢÑĮ":3622,"ÑİÑīÐ¸Ð¼":3623,"ÑİÑīÐµÐ³Ð¾":3624,"Ð»ÐµÐ½Ð¸Ñİ":3625,"Ð°ÑĨÐ¸Ð¾Ð½Ð½Ð¾Ð³Ð¾":3626,"ĠÐ½ÐµÐ¸ÑģÐ¿Ð¾Ð»Ð½":3627,"Ð¾ÑĩÐ½":3628,"ÐµÑģÐ¿ÐµÑĩÐµÐ½Ð¸Ðµ":3629,"Ð½Ð¸ÐºÐ¾Ð²ÑĭÑħ":3630,"Ð¸ÑĢÐ¾Ð²Ð°Ð½Ð½ÑĭÐµ":3631,"ĠÐ³Ð¾ÑģÑĥÐ´Ð°ÑĢÑģÑĤÐ²ÐµÐ½Ð½Ð¾Ð¼":3632,"ĠÐºÐ¾Ð¼Ð¿ÑĮÑİÑĤ":3633,"Ð°ÑİÑīÐ¸Ð¼":3634,"ĠÐ±ÑİÐ´Ð¶ÐµÑĤÐ¾Ð²":3635,"ĠÐ¾Ð±ÑĢÐ°Ð·ÑĨ":3636,"ĠÐ¿ÑĢÐ¾Ð³ÑĢÐ°Ð¼Ð¼Ð½ÑĭÑħ":3637,"ĠÐ¿ÑĢÐ¾Ð¸Ð·Ð²Ð¾Ð´Ð¸ÑĤÐµÐ»ÑĮÐ½Ð¾ÑģÑĤÐ¸":3638,"ĠÐ¾ÑģÐ½Ð¾Ð²Ð½ÑĭÐµ":3639,"ĠÐ¿ÑĢÐ¸Ð½Ð°Ð´Ð»ÐµÐ¶":3640,"ĠÐ·Ð°Ð´Ð¾Ð»Ð¶ÐµÐ½":3641,"ĠÐ¸ÑģÐ¿Ð¾Ð»ÑĮÐ·Ð¾Ð²Ð°Ð½Ð¸Ð¸":3642,"ĠÐ´Ð¾ÑģÑĤÐ¸Ð¶ÐµÐ½Ð¸Ð¸":3643,"ĠÐ´Ð¾Ð»Ñı":3644,"ĠÐ¾ÑĤÑĩÐµÑĤÐ½Ð¾ÑģÑĤÑĮ":3645,"ĠÑģÐ¾Ð±Ð¾Ð¹":3646,"ĠÑģÐ¾Ð¾ÑĤÐ²ÐµÑĤÑģÑĤÐ²ÑĥÑİÑīÐ¸Ðµ":3647,"ĠÑģÐ¿ÐµÑĨÐ¸Ð°Ð»Ð¸Ð·":3648,"ĠÐ¿ÑĢÐ¸Ð½ÑıÑĤÐ¸Ð¸":3649,"ĠÐ¼Ð¸ÑĢÐµ":3650,"ĠÐ¸ÑİÐ½Ñı":3651,"ĠÐ¼ÐµÑĤÐ¾Ð´Ñĭ":3652,"ĠÑĦÐ¸Ð·Ð¸ÑĩÐµÑģÐºÐ¸Ñħ":3653,"ÐŁÑĢÐ¸Ð¼":3654,"ĠÑģÑĤÑĢÐ°ÑĤÐµÐ³Ð¸ÑĩÐµÑģÐºÐ¸Ñħ":3655,"ĠÐ½Ð°Ð±Ð¾ÑĢÐ¾Ð²":3656,"ĠÐµÐ´Ð¸Ð½Ð¾Ð¹":3657,"ĠÐ°Ð³ÐµÐ½ÑĤ":3658,"ĠÐ·Ð°Ð¼ÐµÐ½":3659,"ĠÐ¼ÐµÑħÐ°Ð½Ð¸Ð·Ð¼Ð¾Ð²":3660,"ĠÐ¿Ð°ÑĢÐ°Ð¼ÐµÑĤÑĢÐ¾Ð²":3661,"ĠÐ¾ÐºÑĢÑĥÐ¶Ð°ÑİÑīÐµÐ¹":3662,"..":3663,"ÑĢÑıÐ´":3664,"Ð°Ð±Ð¾ÑĤ":3665,"ÐµÐ½Ð½Ð¾Ðµ":3666,"ĠÑģÐµÐ¼":3667,"ÑİÐ±":3668,"ĠÐ´ÐµÑĤ":3669,"ĠÑĢÐµÐ¹ÑĤ":3670,"ĠÑĤÑĥÑĢ":3671,"Ð¾Ð»Ñĥ":3672,"Ð¾Ð»Ð¾Ñģ":3673,"ÐµÐ¼ÑĭÐ¼":3674,"Ð¾Ð²Ð°Ð½Ð¸Ð¸":3675,"ĠÑĢÐ°Ðº":3676,"ĠÐŁÑĥÐ½ÐºÑĤ":3677,"Ð¸ÑĩÐµÑģÐºÑĥÑİ":3678,"Ð¸ÑĤÐµÐ»ÑĮÑģÑĤÐ²Ð¾":3679,"ĠÑĩÐµÑĢÐµÐ·":3680,"ĠÑģÑĤÐµÐ½Ð´":3681,"Ð¾Ð¿ÑĢÐµÐ´ÐµÐ»":3682,"ÐµÐ·ÑĥÐ»ÑĮÑĤÐ°ÑĤ":3683,"ĠÐ¾Ð¿ÑĥÐ±Ð»Ð¸Ðº":3684,"ĠÐ²ÑĭÐ±Ð¾ÑĢ":3685,"ĠÐ½Ð°ÑģÑĤÐ¾ÑıÑīÐ¸Ð¼Ð¸":3686,"ĠÑģÐ¾Ð¾ÑĤÐ²ÐµÑĤÑģÑĤÐ²Ð¸Ñı":3687,"ĠÐºÐ¾Ð¼Ð¿Ð»ÐµÐºÑĤ":3688,"ÐĴÐĺ":3689,"ĠÑĨÐµÐ»ÐµÐ²ÑĭÑħ":3690,"ĠÑĢÐµÐ³Ð»Ð°Ð¼ÐµÐ½ÑĤ":3691,"ĠÑģÐµÑĤÑĮ":3692,"ĠÑħÐ¸Ð¼":3693,"ĠÐ¸Ð¼ÑĥÑīÐµÑģÑĤÐ²":3694,"ĠÑģÐ¾Ð²ÐµÑĢ":3695,"Ð³Ð¾ÑĤ":3696,"ÐĶÐķ":3697,"ÐķÐĶÐķ":3698,"ĠÐ¿ÑĢÐ¸Ð¼ÐµÐ½ÐµÐ½Ð¸Ðµ":3699,"ĠÐ´Ð°Ð½Ð½ÑĭÐ¼Ð¸":3700,"Ð¾ÑįÐ½ÐµÑĢÐ³":3701,"ĠÐ£ÐºÐ°Ð·Ð°":3702,"ĠÐ²Ð¾Ð¾ÑĢÑĥÐ¶":3703,"ĠÐ¾ÐºÐ°Ð·Ð°Ð½Ð¸Ñı":3704,"ĠÑĦÐ¾Ð½Ð´Ð°":3705,"ĠÑĦÐ¾Ð½Ð´Ð¾Ð¼":3706,"ĠÑģÐ²Ð¾ÐµÐ¹":3707,"ĠÑģÐ²Ð¾Ð¸Ñħ":3708,"ÑģÑĤÑĢÑĥÐºÑĨÐ¸Ñı":3709,"ĠÐľÐ¾ÑģÐºÐ¾Ð²":3710,"ĠÐ¾Ð±ÑĢÐ°ÑīÐµÐ½Ð¸Ñı":3711,"ĠÑģÐ¾Ð·Ð´Ð°Ð²Ð°ÐµÐ¼ÑĭÑħ":3712,"ĠÑĦÑĥÐ½Ð´Ð°Ð¼ÐµÐ½ÑĤÐ°Ð»ÑĮÐ½ÑĭÑħ":3713,"ĠÑģÑĤÐ°ÑĤÐ¸ÑģÑĤ":3714,"ĠÑģÐ¾Ð²Ð¼ÐµÑģÑĤÐ½Ð¾":3715,"ĠÐĿÐ°ÑĨÐ¸Ð¾Ð½Ð°Ð»ÑĮÐ½Ð¾Ð¹":3716,"52":3717,"82":3718,"le":3719,"ĠÑĤÐµÐ¿":3720,"Ð½Ð¸Ñı":3721,"ÑĥÑģÐ»":3722,"ĠÑģÐ¸Ð³Ð½":3723,"Ð½Ð¾Ðº":3724,"ĠÐ²ÑĭÑħÐ¾Ð´":3725,"ĠÐ½Ð¾Ð²ÑĭÐµ":3726,"ĠÐ´Ð¾ÑĢÐ¾Ð¶":3727,"ĠÐºÐ¾Ð¿":3728,"ĠÐºÐ°Ð½Ð°Ð»":3729,"Ð°Ð»ÑĮÐ½Ð¾Ð¼Ñĥ":3730,"ĠÐ½Ð°ÑĩÐ¸ÑģÐ»":3731,"ĠÑĢÐ°Ð¹":3732,"ĠÐŁÐ¾Ð´":3733,"ĠÑĢÐ°Ð·Ð²ÑıÐ·":3734,"Ð¾Ð±Ð»Ð°Ð´":3735,"ĠÐºÐ¾Ð¼Ð¼ÐµÑĢÑĩÐµ":3736,"ĠÑģÑĥÐ±ÑģÐ¸Ð´Ð¸Ñı":3737,"ĠÐ¿ÑĢÐ¸Ð¾ÑģÑĤÐ°Ð½Ð¾Ð²Ð»ÐµÐ½":3738,"ĠÑģÑĢÐµÐ´Ð½ÐµÐ¼":3739,"ĠÐ¡ÐĳÐĺÐ¡":3740,"Ð¾Ð¿ÑĢÐ¸ÐµÐ¼":3741,"Ð¾Ð³Ð»Ð°Ñģ":3742,"ĠÐ²Ð½Ð¾Ñģ":3743,"Ð¼ÐµÑĢÑĨÐ¸":3744,"ĠÐ¾Ð¿ÐµÑĢÐ°ÑĤÐ¾":3745,"ĠÑģÐ²ÑıÐ·Ð°Ð½Ð½ÑĭÐµ":3746,"ĠÑģÐµÑĤÑıÑħ":3747,"ÑıÑĤÐ¸Ñı":3748,"Ð¸Ð½Ð¸ÑģÑĤÑĢ":3749,"ĠÐ¿Ð»Ð¾ÑīÐ°Ð´":3750,"Ð¸ÑĤÐµÐ»Ðµ":3751,"ĠÑĢÐ°ÑģÐ¿Ð¾ÑĢÑıÐ¶":3752,"ĠÑĦÐ¸Ð½Ð°Ð½ÑģÐ¾Ð²Ð¾Ð¼":3753,"ĠÐ¾ÑĤÑĩÐµÑĤÐ°":3754,"ĠÐ¾ÑĤÑĩÐµÑĤÐ½Ð¾Ð³Ð¾":3755,"ĠÑĤÑĢÐµÐ±Ð¾Ð²Ð°Ð½Ð¸ÑıÐ¼Ð¸":3756,"ĠÐ²ÑĭÐ¿Ð¾Ð»Ð½ÐµÐ½Ð¸Ðµ":3757,"ĠÑįÑĦÑĦÐµÐºÑĤÐ¸Ð²Ð½Ð¾ÑģÑĤÑĮ":3758,"ĠÐ¼Ð¸ÑĢÐ¾Ð²Ð¾Ð³Ð¾":3759,"ĠÐ¾Ð¿ÑĢÐµÐ´ÐµÐ»ÑıÑİÑĤÑģÑı":3760,"ĠÐ²Ð¸Ð´Ð¾Ð²":3761,"ĠÐ°Ð´Ð°Ð¿ÑĤ":3762,"ĠÐ°Ð²ÑĤÐ¾Ð¼Ð¾Ð±Ð¸Ð»ÑĮ":3763,"ĠÑĢÐ°Ð´Ð¸Ð¾":3764,"ĠÑģÐ¾Ð´ÐµÑĢÐ¶Ð°ÑīÐ¸Ñħ":3765,"ĠÐ¾ÑĤÑĢÐ°ÑģÐ»ÐµÐ²ÑĭÑħ":3766,"ĠÐĹÐ°Ðº":3767,"ĠÐ¿ÑĢÐ¾Ð²ÐµÑĢÐ¾Ðº":3768,"________________":3769,"ĠÐ¸Ð½Ð½Ð¾Ð²Ð°ÑĨÐ¸Ð¾Ð½Ð½Ð¾Ð¹":3770,"ĠÐ¿ÑĢÐµÐ´Ð¾ÑģÑĤÐ°Ð²Ð»ÑıÐµÑĤÑģÑı":3771,"ĠÐ²Ð»Ð°Ð´ÐµÐ»ÑĮÑĨÐµÐ¼":3772,"ĠÐ¿ÑĢÐµÐ´Ð¾ÑģÑĤÐ°Ð²Ð»ÐµÐ½Ð½Ð¾Ð¹":3773,"ĠÐ½ÐµÐ´Ð¾ÑģÑĤÐ¾Ð²ÐµÑĢ":3774,"ĠÑĥÐ¿ÑĢÐ°Ð²Ð»ÐµÐ½Ð¸Ðµ":3775,"ĠÐ¿Ð¾ÑĤÐµÐ½ÑĨÐ¸Ð°Ð»Ð°":3776,"ĠÐ¿ÑĢÐµÐ´Ð¿Ð¾Ð»Ð°Ð³":3777,"ĠÑĥÑĤÐ¾ÑĩÐ½":3778,"ĠÐ¾Ð±Ð¼ÐµÐ½Ð°":3779,"ĠÐ»ÐµÐºÐ°ÑĢÑģÑĤÐ²ÐµÐ½Ð½ÑĭÑħ":3780,"ÑĦÐ¸Ð½Ð°Ð½Ñģ":3781,"ĠÑĦÑĥÑĤÐ±Ð¾Ð»Ñĥ":3782,"Ð°Ð»ÑĤÐ¸Ð¹":3783,"ĠÐ´Ð¾ÑģÑĤÐ¸Ð³Ð½ÑĥÑĤ":3784,"ĠÑĩÐµÐ¼Ð¿Ð¸Ð¾Ð½":3785,"ĠÑĢÐ°ÐºÐµÑĤ":3786,"ĠÑĢÐ°Ð·Ð²ÑıÐ·ÐºÐ¸":3787,"67":3788,"81":3789,"Ð¬":3790,"ĠÑıÐ´":3791,"Ð½ÐµÑģ":3792,"ÑĢÐµÐºÑĤ":3793,"ÑħÐ¾Ð·ÑıÐ¹":3794,"ĠÐºÑĢÑĥÐ³":3795,"ÐµÐ½Ð¸ÑıÑħ":3796,"ĠÐłÐµ":3797,"ĠÑĦÐµÐ²":3798,"Ð¸ÐºÐ²Ð¸Ð´":3799,"Ð¸Ð²ÑĪÐ¸Ñħ":3800,"ĠÐ¿ÑĢÐ¾ÑĪ":3801,"ÑĥÐ±ÐµÐ¶":3802,"ÑĥÐ±ÑģÐ¸Ð´":3803,"ĠÐ½ÐµÑĦ":3804,"Ð¾ÑıÐ½":3805,"ĠÐ¿Ð¾Ð´Ð°ÑĩÐ¸":3806,"ĠÑģÐ²Ð¾Ð´":3807,"ĠÐ±ÑİÐ´Ð¶ÐµÑĤÐµ":3808,"ĠÐ¿ÑĢÐ¾ÑĨÐµÐ´":3809,"ĠÐ¿ÑĢÐ¾Ð³ÑĢÐ°Ð¼Ð¼Ð¾Ð¹":3810,"ĠÑģÐµÑĤÑıÐ¼":3811,"ĠÑįÑĤÐ¾Ð¹":3812,"ĠÑĥÑģÑĤÐ°Ð½Ð¾Ð²Ð»ÐµÐ½Ñĭ":3813,"ĠÐ¿ÑĢÐ¾Ð¸Ð·Ð²Ð¾Ð´ÑģÑĤÐ²":3814,"ĠÐ¾ÑģÐ½Ð¾Ð²Ð½ÑĭÑħ":3815,"ĠÐ¾Ð¿ÐµÑĢÐ°ÑĤÐ¾ÑĢÐ¾Ð²":3816,"ĠÑıÐ²Ð»ÑıÑİÑīÐ¸ÑħÑģÑı":3817,"ÑĭÐ²Ð°ÐµÑĤÑģÑı":3818,"ĠÐŁÑĢÐ°Ð²Ð¸Ð»Ð°":3819,"ĠÐ·Ð½Ð°ÑĩÐ¸Ð¼ÑĭÑħ":3820,"ĠÑģÐ¾ÑģÑĤÐ°Ð²Ð¾Ð²":3821,"ĠÑģÐ¾ÑĨÐ¸Ð°Ð»ÑĮÐ½ÑĭÑħ":3822,"Ð¢Ðķ":3823,"ĠÑĥÑĤÐ²ÐµÑĢÐ¶Ð´Ð°ÐµÑĤ":3824,"ĠÐ´ÑĢÑĥÐ³Ð¸Ð¼Ð¸":3825,"ĠÐ¾ÑģÑĥÑīÐµÑģÑĤÐ²Ð»ÑıÑİÑīÐµÐ³Ð¾":3826,"Ġ60":3827,"ĠÐ¼ÐµÐ¶Ð´ÑĥÐ½Ð°ÑĢÐ¾Ð´Ð½Ð¾Ð¹":3828,"Ð¾ÑįÑĦÑĦ":3829,"ĠÐ¿ÑĢÐ¸Ð»Ð°Ð³":3830,"ĠÐ¿Ð¾Ð´Ð³Ð¾ÑĤÐ¾Ð²ÐºÑĥ":3831,"ĠÑĤÐµÑħÐ½Ð¸ÑĩÐµÑģÐºÐ¾Ð¹":3832,"ĠÐ¼ÐµÑĤÐ¾Ð´Ð¾Ð²":3833,"ĠÑĢÐ¾ÑģÑģÐ¸Ð¹ÑģÐºÐ¸Ð¼Ð¸":3834,"ĠÐ¿Ð¾Ð»ÑĮÐ·Ð¾Ð²Ð°ÑĤÐµÐ»":3835,"ĠÐ´Ð²Ð¸Ð³":3836,"ĠÐ·Ð°Ð¿ÑĢÐ¾ÑģÐ°":3837,"ĠÐ´Ð¸Ð°Ð³":3838,"Ð²ÐµÑĢÐ´":3839,"ĠÑįÐºÐ¾Ð»Ð¾Ð³Ð¸ÑĩÐµÑģÐºÐ¸":3840,"ĠÐ¾Ð¿Ð»Ð°ÑĤÑĭ":3841,"ĠÐ¾ÑħÑĢÐ°Ð½Ñı":3842,"ĠÐ±Ð»Ð°Ð³":3843,"ĠÑĢÐ°Ð·Ð´ÐµÐ»Ð°":3844,"ĠÐ¿ÑĢÐµÐ´Ð»Ð¾Ð¶ÐµÐ½Ð¸Ðµ":3845,"ĠÐ²ÑĭÐ´ÐµÐ»ÐµÐ½Ð½Ð¾Ð³Ð¾":3846,"ĠÐ¾ÑĤÐºÐ°Ð·Ð°":3847,"ĠÐ¼Ð¾Ð´ÐµÑĢÐ½Ð¸Ð·Ð°ÑĨÐ¸Ð¸":3848,"ÑĢÐ°Ð»Ñı":3849,"ĠÐ¼Ð°ÑĢÑĤÐ°":3850,"ĠÑħÑĢÐ°Ð½ÐµÐ½Ð¸Ñı":3851,"ĠÑģÑĤÐ¾Ð¸Ð¼Ð¾ÑģÑĤÐ¸":3852,"ĠÐ³ÑĢÐ°Ð¶Ð´Ð°Ð½Ð¸Ð½Ð°":3853,"ĠÑĥÑģÐ¸Ð»":3854,"ÑĪÑĤÐ°Ð±":3855,"ĠÐ¸Ð¼ÑĥÑīÐµÑģÑĤÐ²Ñĥ":3856,"ÐķÐĶÐķÐłÐĲ":3857,"ĠÑĦÐµÐ²ÑĢÐ°Ð»Ñı":3858,"62":3859,"69":3860,"ĠÐ¿Ð¾Ð±ÐµÐ´":3861,"ĠÑģÐ¸Ð½":3862,"ĠÐ²Ðµ":3863,"Ð¼Ð¸Ð½Ð¸ÑģÑĤÑĢ":3864,"ĠÐ¿ÑĢÐ¾ÑģÑĤÑĢÐ°Ð½":3865,"Ð¾Ð½Ñĩ":3866,"ĠÑĢÐµÐ¿":3867,"ĠÑĤÐ¾":3868,"Ð°ÑĤÑĥÑĢ":3869,"ĠÐ¼ÑĥÐ»ÑĮÑĤ":3870,"Ð³Ð¾Ð´":3871,"Ð¾Ð²Ð°Ð½Ð¸ÐµÐ¼":3872,"ÑĥÑĩÐ½Ð¾":3873,"ĠÑģÑĤÐ°Ð±Ð¸Ð»ÑĮ":3874,"Ð°ÑĨÐ¸Ð¾Ð½Ð½ÑĭÐ¹":3875,"ĠÑĤÐµÑħÐ½Ð¾Ð»Ð¾Ð³Ð¸ÑıÐ¼":3876,"ĠÐ¿Ð¾Ð´ÑĢÐ°Ð·Ð´ÐµÐ»":3877,"ĠÐ»ÑİÐ±":3878,"ĠÐ»Ð¸ÐºÐ²Ð¸Ð´":3879,"ĠÐŁÑĢÐ¾":3880,"ĠÐ¾ÑĢÐ³Ð°Ð½Ð¸Ð·Ð°ÑĨÐ¸Ð¾Ð½Ð½Ð¾":3881,"Ġ32":3882,"Ð¡Ðĺ":3883,"Ð¡Ðļ":3884,"Ġ2013":3885,"ĠÐ£Ð¿ÑĢÐ°Ð²":3886,"ĠÑĢÐµÐ³ÑĥÐ»Ð¸ÑĢÐ¾Ð²Ð°Ð½Ð¸Ðµ":3887,"ĠÐ½Ð°Ð¿ÑĢÐ°Ð²Ð»ÐµÐ½Ð¸Ð¹":3888,"ĠÐ¿Ð¾ÑģÑĤÐ¾ÑıÐ½":3889,"ĠÐ°ÐºÑĨÐ¸Ð¾Ð½":3890,"ĠÐ¾Ð´Ð½Ð¾Ð¹":3891,"Ġ2003":3892,"ĠÐ²ÑģÐµÐ³Ð¾":3893,"ĠÐ²Ð»Ð°Ð´ÐµÐ»ÐµÑĨ":3894,"ÑıÑīÐ¸Ðµ":3895,"ÑģÑĤÐ²ÑĥÑİÑĤ":3896,"ĠÑģÐµÑĢÐ²Ð¸ÑģÐ¾Ð²":3897,"ĠÑģÐ¾ÑģÑĤÐ¾ÑıÐ½Ð¸Ñı":3898,"ÐµÑħÐ½Ð¾Ð»Ð¾Ð³Ð¸Ð¸":3899,"ĠÐ¸Ð½ÑĤÐµÐ³ÑĢÐ°Ð»ÑĮÐ½ÑĭÑħ":3900,"ĠÑģÑĤÑĢÐ¾Ð¸ÑĤÐµÐ»ÑĮÑģÑĤÐ²Ð¾":3901,"ĠÐ¿ÐµÑĢÐµÐ´Ð°ÑĩÐ°":3902,"ĠÑģÐ°Ð¹ÑĤÑĥ":3903,"ĠÐ¿Ð¾Ð»Ð½Ð¾Ð¼Ð¾ÑĩÐ¸Ñı":3904,"ĠÑĤÐµÐ»ÐµÐ²":3905,"ĠÐ¸Ð½Ð´Ð¸ÐºÐ°ÑĤÐ¾ÑĢÐ¾Ð²":3906,"ÑģÐµÐ´Ð°ÑĤÐµÐ»ÑĮ":3907,"ĠÐ°ÑĢÑħ":3908,"ĠÐ¸Ð½ÑģÑĤÑĢÑĥÐ¼ÐµÐ½ÑĤÐ¾Ð²":3909,"ĠÑĥÐ»ÑĥÑĩÑĪÐµÐ½Ð¸Ñı":3910,"ĠÐ°Ð¿ÑĢÐµÐ»Ñı":3911,"ÐµÐ´Ð¾ÑģÑĤÑĥÐ¿":3912,"ĠÐ½Ð°ÑĥÐºÐ¾ÐµÐ¼ÐºÐ¾Ð¹":3913,"ĠÑĤÐµÐ¿Ð»":3914,"Ð¾ÑįÑĦÑĦÐ¸ÑĨÐ¸":3915,"53":3916,"ch":3917,"Ð¾ÑĨÐ¸":3918,"Ð°ÑĤÐµÐ¼":3919,"ÑħÐ¾Ð¶Ð´":3920,"Ð¾Ð²Ð°Ñı":3921,"ĠÑģÐ°Ð½":3922,"ĠÑģÑħÐµÐ¼":3923,"ÐµÑĢÐ½Ð¾Ð³Ð¾":3924,"ÑĨÐ¸Ñİ":3925,"ĠÐ½ÐµÐº":3926,"ĠÐ½Ð¾Ð²Ð¾Ð¹":3927,"ÑĦÐ¸Ð·":3928,"ĠÑĤÐ¾Ð³Ð¾":3929,"ÑģÑĤÐ²ÐµÐ½Ð½Ð¾Ðµ":3930,"ĠÐŁÐ¾Ñģ":3931,"ĠÐ¿ÐµÑĢÐµÑĢ":3932,"ĠÐºÐ¾Ð¼Ð¼ÐµÑĢÑĨÐ¸":3933,"ĠÑģÐ¸ÑģÑĤÐµÐ¼Ð°Ð¼":3934,"ĠÑģÐ²Ð¾Ð¹":3935,"ÐŁÐ¾Ð´":3936,"ĠÑĤÑĢÐµÐ±Ð¾Ð²Ð°Ð½Ð¸Ðµ":3937,"ÑĢÐ°Ð´Ð¸ÑĨÐ¸Ð¾Ð½":3938,"ÐĿÐŀ":3939,"ĠÐ¿Ð¾ÐºÐ°Ð·Ð°ÑĤÐµÐ»Ð¸":3940,"ÐķÐł":3941,"ĠÐ·Ð°Ð¿ÑĢÐµÑī":3942,"ĠÑĥÑĤÐ²ÐµÑĢÐ¶Ð´ÐµÐ½Ð½Ð¾Ð¹":3943,"ĠÐĿÐ°":3944,"ĠÐ¾Ð´Ð½":3945,"ĠÐ¿ÑĢÐ¾ÑĦÐ¸Ð»Ð°ÐºÑĤ":3946,"ĠÐ°Ð´Ð¼Ð¸Ð½Ð¸ÑģÑĤÑĢ":3947,"ĠÐ²ÑĭÑĩÐ¸ÑģÐ»Ð¸ÑĤÐµÐ»ÑĮÐ½Ð¾Ð¹":3948,"ĠÐ½Ð°Ð»Ð¸ÑĩÐ¸Ðµ":3949,"Ġ1943":3950,"ĠÐ¿ÑĢÐ°Ð²Ð¾Ð¾ÑĤÐ½Ð¾ÑĪÐµÐ½Ð¸Ñı":3951,"ĠÐ¿Ð¾Ð´Ð»ÐµÐ¶Ð¸ÑĤ":3952,"ĠÑĥÐ½Ð¸Ð²ÐµÑĢÑģ":3953,"Ð¸ÑĦÐ¸ÑĨÐ¸ÑĢÐ¾Ð²Ð°Ð½":3954,"ĠÐ¾Ð±Ð»Ð°ÑģÑĤÑĮ":3955,"ĠÑĢÐµÐºÐ¾Ð¼ÐµÐ½Ð´Ð°ÑĨÐ¸Ð¹":3956,"ĠÐ±Ð»Ð¾Ðº":3957,"ĠÐ°Ð³ÑĢÐµÐ³":3958,"ĠÐ¾ÑĤÐ²ÐµÑĤÑģÑĤÐ²ÐµÐ½Ð½Ð¾ÑģÑĤÑĮ":3959,"ĠÐ½Ð°ÑħÐ¾Ð´ÑıÑīÐ¸ÑħÑģÑı":3960,"ĠÐ¾ÑģÑĥÑīÐµÑģÑĤÐ²Ð»ÑıÑĤÑĮÑģÑı":3961,"ÐĸÐķÐĿÐĺÐķ":3962,"ĠÑģÐ¾ÐºÑĢÐ°Ñī":3963,"ĠÐ¿ÑĢÐµÐ¿Ð°ÑĢÐ°ÑĤÐ¾Ð²":3964,"ÑĥÐ»ÑıÑĢ":3965,"ĠÐ¼Ð°Ð³Ð¸ÑģÑĤ":3966,"Ð°Ð¿Ð¿Ð°ÑĢÐ°ÑĤÐ½ÑĭÑħ":3967,"ĠÑĥÐ´Ð¾Ð²Ð»ÐµÑĤ":3968,"ĠÐķÐ²ÑĢÐ¾Ð¿":3969,"ĠÐ£Ð¿Ð¾Ð»Ð½Ð¾Ð¼Ð¾ÑĩÐµÐ½":3970,"ĠÐ¼Ð¾Ð»Ð¾Ð´ÐµÐ¶":3971,"ĠÐ¿Ð¾Ð»ÑĥÐ¿ÑĢÐ¾Ð²Ð¾Ð´Ð½Ð¸ÐºÐ¾Ð²ÑĭÑħ":3972,"ÐŁÑĢÐ¸Ð¼ÐµÑĩ":3973,"Ð°ÑĤÐµÐ¼Ð°ÑĤ":3974,"65":3975,"78":3976,"99":3977,"ur":3978,"Ġ[":3979,"Ð¸Ð½Ñĭ":3980,"ĠÐ§":3981,"ĠÐĽ":3982,"ÐµÐ½ÑĨÐ¸Ð¸":3983,"Ð»ÐµÑĩÐµÐ½Ð¸Ðµ":3984,"ÐºÑĨÐ¸Ð¾Ð½":3985,"ĠÐ¸Ð½Ð¾Ð³Ð¾":3986,"ÐµÑĢÐ±":3987,"ÑĨÐ¸ÐµÐ¹":3988,"ÑģÑĤÐ²ÑĥÑİÑīÐ¸Ñħ":3989,"ĠÐ¿ÑĢÑıÐ¼":3990,"Ð¿Ð¾Ð²ÑĭÑĪÐµÐ½Ð¸Ðµ":3991,"ĠÐ½Ð¸Ð·":3992,"ĠÐ½ÑĥÐ¶Ð´":3993,"ĠÑĤÐ°Ð¹Ð½":3994,"ĠÐ¼Ð½Ð¾Ð³":3995,"Ð¸ÑĤÐ°Ð½Ð¸Ñı":3996,"ĠÐŁÐµÑĢ":3997,"ÑİÑīÐ¸Ð¹":3998,"ĠÑģÐ¾ÑĦÐ¸Ð½Ð°Ð½Ñģ":3999,"ĠÐ¸ÑģÐºÑĥÑģÑģÑĤÐ²ÐµÐ½Ð½ÑĭÐ¹":4000,"ĠÐ²ÑĭÑıÐ²Ð»ÐµÐ½Ð¸Ñı":4001,"ĠÐ»ÑĥÑĩ":4002,"ĠÑģÐ¾Ð¾ÑĤÐ²ÐµÑĤÑģÑĤÐ²ÑĥÑİÑĤ":4003,"Ð½Ð¸ÐºÐ°Ð¼Ð¸":4004,"ĠÐ°ÑģÐ¿":4005,"Ġ35":4006,"ĠÑĦÐ¾ÑĢÐ¼Ð¸ÑĢÐ¾Ð²Ð°Ð½Ð¸Ñİ":4007,"ÐŁÑĢÐ°Ð²":4008,"Ð»ÐµÐºÑģ":4009,"Ð°ÐºÑĤÐ¸Ð²":4010,"Ð²ÐµÐ´ÐµÐ½Ð¸Ñı":4011,"ĠÐ¸Ð¼Ñı":4012,"ĠÑĥÑģÐ»Ð¾Ð²Ð¸ÑıÐ¼":4013,"ĠÐ¿ÑĢÐ¾Ð²ÐµÐ´ÐµÐ½Ð½ÑĭÑħ":4014,"ÐĿÐ°ÑĨÐ¸Ð¾Ð½":4015,"ĠÐ¿ÑĢÐµÐ´ÑģÑĤÐ°Ð²Ð¸ÑĤÐµÐ»ÐµÐ¹":4016,"ĠÐ¿ÑĢÐµÐ´ÑģÑĤÐ°Ð²Ð¸ÑĤÐµÐ»Ñı":4017,"ĠÑģÐ¾ÑĨÐ¸Ð°Ð»ÑĮÐ½Ð¾Ðµ":4018,"ĠÐ²ÑĭÑģÐ¾ÐºÐ¾Ñį":4019,"ĠÐ°Ð²ÑĤÐ¾ÑĢÑģÐºÐ¸Ñħ":4020,"ĠÐ¶ÐµÐ»":4021,"ĠÐ¾Ð±ÑıÐ·Ð°Ð½Ð½Ð¾ÑģÑĤÐ¸":4022,"ĠÐ¾Ð±ÑıÐ·Ð°Ð½Ð½Ð¾ÑģÑĤÐµÐ¹":4023,"ĠÐĿÐµ":4024,"ĠÐ¾ÑĨÐµÐ½ÐºÐµ":4025,"ĠÐ¾ÑĨÐµÐ½ÐºÑĥ":4026,"ĠÐ²Ð¾Ð·Ð¼Ð¾Ð¶Ð½Ð¾ÑģÑĤÐµÐ¹":4027,"Ġ90":4028,"ĠÐ¿Ð¾Ð´Ð³Ð¾ÑĤÐ¾Ð²Ð»ÐµÐ½":4029,"ĠÐ¸Ð½Ð¾ÑģÑĤÑĢÐ°Ð½Ð½ÑĭÐ¼":4030,"Ð»ÑİÐ´ÐµÐ½Ð¸Ñı":4031,"ĠÐ¿Ð¾Ð´Ð¿ÑĥÐ½ÐºÑĤÐ°Ñħ":4032,"ĠÐĳÐµÐ·":4033,"ĠÐ½ÐµÐ¿ÑĢ":4034,"Ð¸Ð·Ð¼Ð°":4035,"ĠÑģÐ¾Ð¾Ð±ÑīÐµÑģÑĤÐ²Ð°":4036,"ĠÐ¿Ð¾ÑĤÑĢÐµÐ±Ð½Ð¾ÑģÑĤÐ¸":4037,"ĠÑĦÐ¾ÑĤÐ¾Ð¿ÑĢÐ¸ÐµÐ¼":4038,"ĠÐ°ÐºÑĤÑĥÐ°Ð»Ð¸Ð·Ð°ÑĨÐ¸Ð¸":4039,"ĠÐ²Ð½ÑĥÑĤÑĢÐµÐ½Ð½ÐµÐ³Ð¾":4040,"ĠÐ°Ð²ÑĤÐ¾Ð¼Ð°ÑĤÐ¸Ð·Ð¸ÑĢÐ¾Ð²Ð°Ð½Ð½Ð¾Ð³Ð¾":4041,"ĠÐºÐ»Ð°ÑģÑģ":4042,"ĠÑĢÐµÐºÐ¾Ð½ÑģÑĤÑĢÑĥÐºÑĨÐ¸Ð¸":4043,"ĠÐ´Ð¾Ð¿ÑĥÑģÐºÐ°ÐµÑĤÑģÑı":4044,"ĠÐĺÐ½ÑĦÐ¾ÑĢÐ¼":4045,"ĠÑĤÑĢÐµÑĤÑĮÐ¸Ð¼":4046,"ĠÐ¿Ð»Ð°ÑĤÑĦÐ¾ÑĢÐ¼":4047,"ĠÑįÐ½ÐµÑĢÐ³Ð¾":4048,"ĠÐłÐ¾ÑģÑģÐ¸Ð¹ÑģÐºÐ°Ñı":4049,"ĠÐ´Ð¾Ð²ÐµÐ´ÐµÐ½Ð½ÑĭÑħ":4050,"ÐĽÐŀÐĸÐķÐĿÐĺÐķ":4051,"ĠÐ¾Ð±Ð½Ð°ÑĢÑĥÐ¶ÐµÐ½Ð¸Ñı":4052,"ĠÐ¾Ð±ÑĢÐ°Ð·ÑĨÐ¾Ð²":4053,"ĠÑĤÐ°Ð¹Ð½Ñĥ":4054,".\";":4055,"ÑĢÑĭÐ²":4056,"Ð»ÑĥÑĩ":4057,"ÐºÐ¾ÑģÑĤÐ¸":4058,"ĠÑģÐµÐ½ÑĤ":4059,"ÐµÑĢÑĤ":4060,"ÑģÐºÐ¾ÑĢ":4061,"ĠÐ¾Ð·":4062,"Ð¾Ð»Ð¶":4063,"Ð¾Ð»Ð¾Ð¶":4064,"ĠÑĥÑĤÑĢ":4065,"ÑĪÐ¸Ð¼Ð¸":4066,"ĠÐŁÑĢÐµÐ´":4067,"ĠÐ³Ð¸Ð´":4068,"ÐµÐ½ÑĤÑĭ":4069,"Ð¸Ð²Ð°Ð½Ð¸Ðµ":4070,"Ð¸ÑĤÐµÐ»ÑĮÐ½ÑĭÐµ":4071,"ĠÐ¾Ñħ":4072,"Ð¾ÑĤÐ²ÐµÑĤÑģÑĤÐ²ÐµÐ½Ð½Ð¾":4073,"Ð¸ÑĢÐ¾Ð²Ð°Ð½Ñĭ":4074,"ĠÑĥÑĩÐµÐ½":4075,"ĠÑĥÐºÐ°Ð·Ð°Ð½Ð½ÑĭÐ¹":4076,"ĠÑĥÐºÐ°Ð·Ð°Ð½Ð½Ð¾Ðµ":4077,"Ġ46":4078,"ĠÐ¿ÑĢÐ¸Ð½Ð¸Ð¼":4079,"ĠÐ·Ð°Ð´Ð°Ð½":4080,"ĠÑĦÐ¸Ð½Ð°Ð½ÑģÐ¾Ð²ÑĭÑħ":4081,"ĠÑģÐ¾Ð±ÑĭÑĤ":4082,"ĠÐ¿ÑĢÐ¾Ð¼ÑĭÑĪÐ»ÐµÐ½Ð½Ð¾Ð³Ð¾":4083,"ĠÐ¿Ð¾Ð²ÑĭÑģ":4084,"ĠÐ¿Ð¾Ð²ÑĭÑĪ":4085,"ĠÐ´ÑĢÑĥÐ³Ð¾Ð³Ð¾":4086,"ĠÐ¼ÑĥÐ½Ð¸ÑĨÐ¸Ð¿Ð°Ð»ÑĮÐ½Ð¾Ð³Ð¾":4087,"ÑĢÐ¾ÑģÐ¾Ð²":4088,"ÑĤÐµÑħÐ½Ð¾Ð»Ð¾Ð³Ð¸Ð¹":4089,"ÑĭÑģÐ¾Ðº":4090,"ĠÐ´Ð¾Ð¿Ð¾Ð»Ð½Ð¸ÑĤÐµÐ»ÑĮÐ½ÑĭÑħ":4091,"ÑĤÐµÑħÐ½Ð¸ÑĩÐµÑģÐºÐ¸Ñħ":4092,"ĠÑģÑĥÐ´ÐµÐ±":4093,"ĠÐ¼Ð¸ÐºÑĢ":4094,"ĠÐ¸Ð½ÑĤÐµÐ³ÑĢÐ¸ÑĢÐ¾Ð²Ð°Ð½Ð½Ð¾Ð¹":4095,"ĠÐ¸Ð½ÑĤÐµÑĢÐµÑģÑĭ":4096,"ĠÐ²Ð°Ð»ÑİÑĤ":4097,"ÐłÐĲÐĴÐĺ":4098,"ĠÑįÐ»ÐµÐºÑĤÑĢÐ¾ÑįÐ½ÐµÑĢÐ³":4099,"ĠÐŁÑĢÐ¾Ð³ÑĢÐ°Ð¼Ð¼Ðµ":4100,"ĠÐ³ÐµÐ½ÐµÑĢ":4101,"ĠÑģÐ¿ÑĢÐ°Ð²ÐºÐ°":4102,"ĠÐ½ÐµÐ²Ð¾Ð·Ð¼Ð¾Ð¶":4103,"ÑĤÐ²ÐµÑĢÐ´Ð¸ÑĤÑĮ":4104,"ĠÐ³Ð°ÑĢÐ°Ð½ÑĤ":4105,"ĠÐ´Ð¾ÑĢÐ¾Ð³":4106,"ĠÐ·Ð°Ð¼ÐµÐ½Ð¸ÑĤÑĮ":4107,"ĠÐ´Ð¸Ð°Ð³Ð½Ð¾ÑģÑĤ":4108,"ĠÐ²ÑĭÑģÐ¾ÐºÐ¾ÑįÑĦÑĦÐµÐºÑĤÐ¸Ð²":4109,"41":4110,"ce":4111,"li":4112,"Ð³Ð¾ÑģÑĥÐ´Ð°ÑĢ":4113,"ĠÐ°Ð±":4114,"ĠÐ¾ÑĢÑĥÐ¶":4115,"ÑģÑĤÐ°Ð½Ð¾Ð²":4116,"Ð°Ð½Ð½Ð°Ñı":4117,"ĠÑģÑĭÑĢ":4118,"ÑģÐºÐ¸Ð¼Ð¸":4119,"Ð¾ÑĤÐ¸Ð²":4120,"Ð¾Ð½Ð½Ð¾":4121,"ĠÑĤÐ¾Ð½Ð½":4122,"ĠÑĤÐ²ÐµÑĢÐ´":4123,"Ð¾Ð»ÑĥÑĩ":4124,"Ð¶ÐµÐ½Ð¸Ñı":4125,"Ð¸ÑĢÐ¸":4126,"Ð¾Ð±Ð½Ð¾Ð²":4127,"ÐµÐ·Ð´":4128,"ÑĥÑĢÐ°":4129,"ÑĢÐ°Ð±Ð¾ÑĤÐºÐ¸":4130,"ĠÐ²ÑĭÐ´":4131,"ĠÐºÐ¾Ð¼Ð¸ÑģÑģ":4132,"ĠÐ¸Ð½ÑĦÐ¾ÑĢÐ¼Ð°ÑĨÐ¸Ð¾Ð½Ð½ÑĥÑİ":4133,"ĠÐ¾Ð±ÐµÑģÐ¿ÐµÑĩÐ¸Ð²Ð°ÐµÑĤÑģÑı":4134,"ĠÑģÐ¾Ð¾ÑĤÐ²ÐµÑĤÑģÑĤÐ²Ð¾Ð²Ð°ÑĤÑĮ":4135,"ĠÑĩÐ¸ÑģÐ»ÐµÐ½Ð½Ð¾ÑģÑĤÐ¸":4136,"ĠÑĥÑĩÐ°":4137,"ÐŀÑģ":4138,"ĠÑĦÐ¾ÑĢÐ¼Ð¸ÑĢÐ¾Ð²Ð°Ð½Ð¸Ð¸":4139,"ĠÑģÑĢÐµÐ´ÑģÑĤÐ²Ð°Ð¼Ð¸":4140,"ÐµÐ»ÑĮÐ½ÑĭÑħ":4141,"ĠÑĥÑģÑĤÐ°Ð½Ð¾Ð²Ð»ÐµÐ½Ð½ÑĭÐ¼Ð¸":4142,"ĠÐ½Ð°ÑĥÑĩÐ½Ð¾Ð¹":4143,"ĠÐļÐ°Ð»Ð¸Ð½Ð¸Ð½Ð³ÑĢÐ°Ð´Ð°":4144,"ĠÐ±Ð°Ð·Ð°":4145,"ĠÐ¾ÐºÐ¾Ð½Ñĩ":4146,"ĠÐ¾ÑĤÑĩÐµÑĤÑĭ":4147,"ĠÐ¿ÑĢÐµÐ´ÑĥÑģÐ¼Ð¾ÑĤÑĢÐµÐ½Ð½ÑĭÐ¼":4148,"ĠÐ³ÑĢÐ°Ð¶Ð´Ð°Ð½Ð°Ð¼Ð¸":4149,"ĠÑģÐ¾Ð³Ð»Ð°ÑĪÐµÐ½Ð¸Ð¸":4150,"Ð¸ÑĢÑĥÑİÑĤÑģÑı":4151,"ÑĨÐ¸Ð¾Ð½Ð½ÑĭÑħ":4152,"ĠÐ¾ÑĨÐµÐ½ÐºÐ°":4153,"ĠÐ¾Ð±ÑīÐµÐ¹":4154,"Ġ926":4155,"ĠÐ½Ð¾ÑĢÐ¼Ð°ÑĤÐ¸Ð²Ð½ÑĭÐ¼Ð¸":4156,"Ġ2004":4157,"ĠÐ½Ð°ÑĢÑĥÑĪ":4158,"ĠÐ²ÑģÐµ":4159,"ĠÐ²Ð·Ð°Ð¸Ð¼Ð¾Ð´ÐµÐ¹ÑģÑĤÐ²Ð¸Ðµ":4160,"ĠÑĢÑĭÐ½ÐºÐ¸":4161,"ĠÐºÐ¾Ð½ÐºÑĥÑĢÐµÐ½ÑĤÐ¾ÑģÐ¿Ð¾ÑģÐ¾Ð±Ð½Ð¾ÑģÑĤÐ¸":4162,"ĠÐĳÐ°Ð»ÑĤÐ¸Ð¹":4163,"ĠÑħÐ°ÑĢÐ°ÐºÑĤÐµÑĢÐ°":4164,"ÐĽÐ¬":4165,"ĠÐ¿ÑĢÐ¾ÑĦÐµÑģÑģÐ¸Ð¾Ð½Ð°Ð»ÑĮÐ½ÑĭÑħ":4166,"ÑĢÐ°Ð»ÑĮÐ½Ð¾Ð³Ð¾":4167,"ĠÐ½ÐµÑģÐ¾Ð¾ÑĤÐ²ÐµÑĤÑģÑĤÐ²":4168,"ĠÑĢÐ°ÑģÑģÐ¼Ð¾ÑĤÑĢÐµÐ½Ð¸Ðµ":4169,"ĠÐµÐ´Ð¸Ð½Ð¾Ð¼":4170,"ÐºÐ¾Ð¼Ð¿":4171,"ĠÑıÐ·ÑĭÐºÐ°":4172,"ĠÑģÐ±Ð¾ÑĢÐ°":4173,"ĠÐ¿ÑĢÐµÐ´ÑĥÑģÐ¼Ð°ÑĤÑĢÐ¸Ð²Ð°ÐµÑĤÑģÑı":4174,"ĠÐ¾ÑĤÐ²ÐµÑĤÑģÑĤÐ²ÐµÐ½Ð½Ð¾ÑģÑĤÐ¸":4175,"ĠÐ½Ð°ÑħÐ¾Ð´Ð¸ÑĤÑģÑı":4176,"ĠÑģÐ¾Ð²ÐµÑĢÑĪÐµÐ½ÑģÑĤÐ²Ð¾Ð²Ð°Ð½Ð¸Ñı":4177,"ĠÐ´Ð¾Ð³Ð¾Ð²Ð¾ÑĢÐ°":4178,"ĠÐ³Ð¾ÑĢÐ¾Ð´Ð°":4179,"ĠÐ²ÑĭÐ¿ÑĥÑģÐºÐ°":4180,"ĠÑģÐºÐ¾ÑĢ":4181,"ĠÐ¿ÐµÑĢÐµÐ²Ð¾Ð¾ÑĢÑĥÐ¶":4182,"Ð¸ÑģÑģÐ»ÐµÐ´Ð¾Ð²Ð°ÑĤÐµÐ»ÑĮ":4183,"ĠÐ¾ÑĦÐ¸ÑĨÐ¸Ð°Ð»ÑĮÐ½Ð¾Ð¼":4184,"ĠÑĥÑģÑĤÐ¾Ð¹ÑĩÐ¸Ð²Ð¾Ð³Ð¾":4185,"Ð¾Ð¿ÑĢÐ¾Ð¸Ð·Ð²Ð¾Ð´":4186,"ĠÑĤÐ¾Ð¿Ð»Ð¸Ð²":4187,"ĠÑģÐ°Ð¼Ð¾ÑģÑĤÐ¾ÑıÑĤÐµÐ»ÑĮÐ½Ð¾":4188,"ĠÐºÐ¾Ð½ÑģÑĤÑĢÑĥÐºÑĨÐ¸Ð¹":4189,"ĠÑĢÑıÐ´Ð°":4190,"ÑĨÐ°ÑĤÐ¸":4191,"ĠÑĩÐµÐ¼Ð¿Ð¸Ð¾Ð½Ð°ÑĤÐ°":4192,"ĠÐ²ÐµÑīÐµÑģÑĤÐ²":4193,"ĠÐºÐ¾Ð¼Ð¼ÐµÑĢÑĨÐ¸Ð°Ð»Ð¸Ð·Ð°ÑĨÐ¸Ð¸":4194,"ĠÐ¶ÐµÐ»ÐµÐ·":4195,"ĠÑģÐµÐ½ÑĤÑıÐ±ÑĢÑı":4196,"72":4197,"79":4198,"84":4199,"an":4200,"ro":4201,"Ð«":4202,"ĠP":4203,"ÑģÑĤÑĢÐµÐ¼":4204,"ĠÐ¿ÑıÑĤ":4205,"Ð²Ð¸Ð¶":4206,"ÑĨÐ¸ÑıÑħ":4207,"ĠÐ½Ð¾Ñı":4208,"ĠÐ´Ð¸Ð½Ð°Ð¼":4209,"Ð¾Ð½ÑĤ":4210,"Ð¾Ð¼ÐµÑĤÑĢ":4211,"ĠÐºÐ°ÑĤ":4212,"Ð°Ð»ÑĮÐ½Ð¾ÑģÑĤÑĮ":4213,"ÐµÐ¼ÑĭÐ¹":4214,"Ð¸Ð¼Ð¾Ð¹":4215,"ĠÐ¤ÐķÐĶÐķÐłÐĲ":4216,"Ð¶ÐµÐ½Ð¸Ð¸":4217,"ĠÐ¾ÑĤÐ²":4218,"ÑģÑĤÐ²ÐµÐ½Ð½ÑĭÐ¼":4219,"Ð°ÑĢÑı":4220,"ĠÐ¿ÑĢÐµÐ´Ð°Ðº":4221,"ÐµÑĩÐµÐ½Ð¸Ñı":4222,"ĠÑģÐ¾Ð¾ÑĤÐ²ÐµÑĤÑģÑĤÐ²ÐµÐ½Ð½Ð¾":4223,"Ð°Ð¿ÑĢÐ¸Ð¼":4224,"ĠÐ¿ÑĢÐ¾ÐµÐºÑĤÐ½Ð¾Ð³Ð¾":4225,"ĠÐ¿ÑĢÐ¾ÐµÐºÑĤÐ°Ð¼":4226,"Ð¡Ð¸ÑĢÐ¸":4227,"ÐĴÑĤ":4228,"ÑĦÐµÑĢÐµÐ½":4229,"ÐŁÐłÐĺ":4230,"ĠÐ¿Ð¾ÑĢÑıÐ´Ðº":4231,"ĠÐ¾Ð±ÑĢÐ°Ð±Ð¾ÑĤÐºÐ¾Ð¹":4232,"1000":4233,"ĠÐ½ÐµÐ¾Ð±ÑħÐ¾Ð´Ð¸Ð¼ÑĭÐµ":4234,"ÐĶÐķÐĿ":4235,"ĠÐ²ÑĭÑģÐ¾ÐºÐ¾Ð¹":4236,"ĠÐ¿Ð¾Ð·Ð¸ÑĨÐ¸Ð¹":4237,"ĠÐ´Ð°Ð½Ð½Ð¾Ð³Ð¾":4238,"ĠÐ¾Ð³ÑĢÐ°Ð½Ð¸ÑĩÐ¸ÑĤÑĮ":4239,"ĠÑģÑĢÐ¾ÐºÐ¾Ð²":4240,"ĠÐ¾Ð±ÑīÐµÐ´Ð¾ÑģÑĤÑĥÐ¿":4241,"ĠÑĢÐµÐ³Ð¸Ð¾Ð½Ð°":4242,"Ð¾ÑģÐ¿Ð¾ÑģÐ¾Ð±Ð½Ð¾ÑģÑĤÐ¸":4243,"ĠĠĠĠĠĠĠĠĠĠĠĠ":4244,"ĠÐ¾Ð±ÐµÑģÐ¿ÐµÑĩÐ¸Ð²Ð°ÑĤÑĮ":4245,"ĠÐ²ÐµÐ´ÐµÐ½Ð¸Ðµ":4246,"ĠÐ¾Ð¿ÑĤÐ¾ÑįÐ»ÐµÐºÑĤÑĢÐ¾Ð½":4247,"ĠÑĦÐ¾Ð½Ð´Ð¾Ð²":4248,"ĠÑĥÑĩÐ°ÑģÑĤÐ½Ð¸ÐºÐ°":4249,"ĠÐ¿ÑĢÐµÐ·Ð¸Ð´Ð¸ÑĥÐ¼Ð¾Ð¼":4250,"ĠÑģÑĤÑĢÐ°ÑĤÐµÐ³Ð¸ÑĩÐµÑģÐºÐ¾Ð³Ð¾":4251,"ĠÐŀÑģÐ¾Ð±":4252,"ĠÐ¸Ð¼ÐµÐµÑĤ":4253,"ĠÑĤÐ¸Ð¿Ð¾Ð²Ð¾Ð¹":4254,"ÐŃÐ»ÐµÐºÑĤÑĢÐ¾Ð½":4255,"ÐŀÐ¡Ð¡Ðĺ":4256,"ĠÐ¿Ð¾Ð´ÑĤÐ²ÐµÑĢÐ¶Ð´Ð°ÑİÑīÐ°Ñı":4257,"ĠÐ±ÑĥÐ´ÑĥÑĤ":4258,"ĠÐ¿ÑĢÐ¸Ð²Ð»ÐµÑĩÐµÐ½Ð¸Ñı":4259,"ĠÐ²Ð»Ð¸ÑıÐ½Ð¸Ðµ":4260,"ĠÐ²ÑĭÑĢÐ°ÑģÑĤÐ¸":4261,"ĠÐºÐ²Ð°Ð»Ð¸ÑĦÐ¸ÐºÐ°ÑĨÐ¸Ð¸":4262,"ĠÑģÐ¾Ð²Ð¾ÐºÑĥÐ¿Ð½Ð¾ÑģÑĤÑĮ":4263,"ÐĻÐ¡Ðļ":4264,"ĠÑĢÐµÐ³Ð¸ÑģÑĤÑĢÐ°ÑĨÐ¸Ð¸":4265,"ĠĠĠĠĠĠĠĠĠĠĠĠĠĠĠĠĠĠĠĠĠĠĠĠĠĠĠĠ":4266,"ĠÐ¿Ð¾ÑģÑĤÑĥÐ¿Ð»ÐµÐ½Ð¸Ñı":4267,"ĠÐ·Ð°Ð²Ð¸ÑģÐ¸Ð¼Ð¾ÑģÑĤÐ¸":4268,"ĠÐ²ÑĭÑĢÑĥÑĩÐºÐ¸":4269,"Ð½Ð°Ð»Ð¸ÑĤÐ¸ÑĩÐµÑģÐºÐ¸Ð¹":4270,"ĠÐ¤ÐķÐĶÐķÐłÐĲÐ¦":4271,"Ð°Ð¿ÑĢÐ¸Ð¼ÐµÑĢ":4272,"Ð¡Ð¸ÑĢÐ¸ÑĥÑģ":4273,"ÐŀÐ¡Ð¡ÐĺÐĻÐ¡Ðļ":4274,"--":4275,"83":4276,"],":4277,"ĠÐ°Ð½ÑĤ":4278,"Ġne":4279,"ÑģÐ¸ÑģÑĤÐµÐ¼Ð°":4280,"ÑĥÐ²":4281,"ĠÑģÐ±":4282,"ĠÐ¿ÑĢÐµÑģÑĤ":4283,"ĠÐ½Ð¾Ñģ":4284,"ÑĤÐµÐ·":4285,"ĠÑĢÐ°":4286,"ĠÐ½Ð°ÑĢÐ¾Ð´":4287,"ĠÐ·ÑĢ":4288,"Ð¸ÑĤÐ°ÑĢ":4289,"ĠÐ³Ð¾Ð»Ð¾Ñģ":4290,"Ð¸ÐºÐ¾Ð²":4291,"ĠÑĢÐµÑĪ":4292,"ĠÐ¸Ð½ÑĦÐ¾ÑĢÐ¼Ð°ÑĨÐ¸ÐµÐ¹":4293,"ĠÐ»Ð¾Ðº":4294,"ÑĢÑĥÐ·":4295,"ĠÐ³Ð¾Ð´Ð¾Ð¼":4296,"Ð¾ÑĩÐ½Ð¾Ð¹":4297,"Ð°ÑĤÐµÐ»ÐµÐ¼":4298,"ĠÑĤÐ°ÐºÐ¸Ð¼":4299,"ĠÐ·Ð°ÑĢÐ°Ð±Ð¾ÑĤ":4300,"ĠÐ¿ÑĢÐ°Ð²Ð¾Ð²ÑĭÐµ":4301,"ÑĢÐ°Ð·Ð²Ð¸ÑĤ":4302,"ĠÐ¸ÑģÐ¿Ð¾Ð»ÑĮÐ·Ð¾Ð²Ð°ÑĤÑĮ":4303,"ĠÐ»Ð¸ÑĨÐ°Ð¼":4304,"ĠÑĢÐ°Ð·ÑĢÐ°Ð±Ð¾ÑĤÐ°Ð½":4305,"2016":4306,"ÐŁÐłÐĲÐĴÐĺ":4307,"ĠÐ´ÐµÑĤÐµÐ¹":4308,"ĠÐ¿ÑĢÐ¾Ð´Ð¾Ð»Ð¶":4309,"ĠÐ¿ÑĢÐ¾Ð¸Ð·Ð²Ð¾Ð´ÑģÑĤÐ²ÐµÐ½Ð½ÑĭÑħ":4310,"ÑĭÐ²Ð°ÑİÑĤÑģÑı":4311,"ĠÑįÐºÑģÐ¿ÐµÑĢÐ¸Ð¼ÐµÐ½ÑĤÐ°Ð»ÑĮÐ½ÑĭÑħ":4312,"Ġ126":4313,"ÑĦÑĦÐµÐºÑĤ":4314,"ĠÑģÐ¾Ð³Ð»Ð°ÑĪÐµÐ½Ð¸Ðµ":4315,"ĠÑĤÐµÑĢÑĢÐ¸ÑĤÐ¾ÑĢÐ¸Ð¹":4316,"ĠÐ¸ÑģÑģÐ»ÐµÐ´Ð¾Ð²Ð°ÑĤÐµÐ»ÑĮ":4317,"ĠÐ¾Ð±ÑıÐ·Ð°ÑĤÐµÐ»ÑĮÑģÑĤÐ²Ð°":4318,"ĠÐ¿ÐµÑĢÐ¸Ð¾Ð´Ð°":4319,"ĠÑĢÐµÐ³Ð¸Ð¾Ð½Ð°Ð»ÑĮÐ½Ð¾Ð¹":4320,"ĠÐ¼ÐµÑĤÐ°Ð»Ð»":4321,"ĠÐ½Ð°Ð´ÐµÐ¶":4322,"ÑģÐµÐ»ÐµÑĢ":4323,"Ð¾Ð¿Ð¾Ð»Ð½Ð¸ÑĤÑĮ":4324,"ĠÐ¿ÑĢÐ¾ÑĤÑıÐ¶ÐµÐ½":4325,"ĠÐºÐ¾Ð½ÐºÑĥÑĢÐµÐ½ÑĤÐ¾ÑģÐ¿Ð¾ÑģÐ¾Ð±Ð½Ð¾Ð¹":4326,"ĠÑĢÐ¾ÑģÑģÐ¸Ð¹ÑģÐºÐ°Ñı":4327,"ĠÐ¸Ð½Ð´ÑĥÑģÑĤ":4328,"ĠÑĦÐ°ÐºÑĤÐ¸ÑĩÐµÑģÐºÐ¸":4329,"ĠÐºÐ²Ð°ÑĢÑĤ":4330,"ĠÐ¿ÑĢÐ°Ð²Ð¾Ð¾Ð±Ð»Ð°Ð´":4331,"ĠÑĥÐ³Ð¾Ð»Ð¾Ð²":4332,"ĠÐ¿ÐµÑĢÐµÐ´Ð°ÑĩÑĥ":4333,"ĠÐ²Ð½ÐµÑģÐµÐ½Ð¸Ñı":4334,"ĠÑĦÐ¾ÑĤÐ¾Ð³ÑĢÐ°ÑĦ":4335,"Ġ2197":4336,"ĠÐ³Ð°Ð·Ð¾Ð¿ÑĢÐ¾Ð²Ð¾Ð´":4337,"ĠÐ¿ÑĢÐ¸Ð·Ð½Ð°Ðº":4338,"ĠÐ¿Ð°ÑĢÑĤÐ½ÐµÑĢÐ°Ð¼Ð¸":4339,"ĠÐ¿ÑĢÐµÐ´ÑĥÑģÐ¼Ð°ÑĤÑĢÐ¸Ð²":4340,"Ð¼ÐµÑĤÐ¾Ð´":4341,"ĠÐ±ÑĭÐ»":4342,"ĠÐ±ÑĭÐ»Ð¸":4343,"ĠÐ²Ð°Ð»Ð¾Ð²Ð¾Ð³Ð¾":4344,"ĠÐ¿Ð¾ÑĤÐµÐ½ÑĨÐ¸Ð°Ð»":4345,"ĠÐ¼ÐµÑħÐ°Ð½Ð¸Ð·Ð¼Ð°":4346,"ĠÐºÐ»ÑİÑĩÐµÐ²ÑĭÑħ":4347,"ĠÐ¿ÑĢÐµÐ´Ð¿ÑĢÐ¸Ð½Ð¸Ð¼Ð°ÑĤÐµÐ»ÑĮÑģÐºÐ¾Ð¹":4348,"ĠÐ¿ÑĢÐ¸Ð»Ð¾Ð¶ÐµÐ½Ð¸Ð¸":4349,"ĠÑģÐ¾Ð¾Ð±ÑīÐµÐ½Ð¸Ð¹":4350,"ĠÐ¼Ð°Ð»ÑĭÑħ":4351,"Ð¸ÑģÑģÐ»ÐµÐ´Ð¾Ð²Ð°ÑĤÐµÐ»ÑĮÑģÐºÐ¸Ñħ":4352,"ĠÐ¾ÑĤÑģÑĥÑĤÑģÑĤÐ²Ð¸Ðµ":4353,"ĠÐ¸ÑģÑħÐ¾Ð´Ñı":4354,"ĠÐ¾ÑģÐ²Ð¾ÐµÐ½Ð¸Ñı":4355,"Ð¾Ð±ÑĢÐ°Ð·Ð¾Ð²Ð°ÑĤÐµÐ»ÑĮÐ½ÑĭÑħ":4356,"ĠÐ´Ð¸ÑģÐºÐ²Ð°Ð»Ð¸ÑĦÐ¸ÑĨÐ¸ÑĢÐ¾Ð²Ð°Ð½Ð½ÑĭÑħ":4357,"ĠÑĪÐºÐ¾Ð»ÑĮÐ½Ð¸ÐºÐ¾Ð²":4358,"ĠÐºÑĢÐ¸ÑģÑĤÐ°Ð»Ð»Ðµ":4359,"ĠÐ¿ÑĢÐ¾Ð´Ð²Ð¸Ð¶ÐµÐ½Ð¸Ðµ":4360,"ĠÐ²ÐµÐ´ÑĥÑīÐ¸Ñħ":4361,"ĠÐ½Ð°Ð·ÐµÐ¼":4362,"ĠÑģÐµÑĢÑĤÐ¸ÑĦÐ¸ÐºÐ°ÑĤ":4363,"ÐºÐ»Ð¾Ð½":4364,"ĠÐ£Ð¿Ð¾Ð»Ð½Ð¾Ð¼Ð¾ÑĩÐµÐ½Ð½ÑĭÐ¹":4365,"ĠÑĥÑĤÑĢÐ°ÑĤÐ¸Ð²":4366,"ÐŁÐłÐĺÐĽÐŀÐĸÐķÐĿÐĺÐķ":4367,"60":4368,"70":4369,"da":4370,"er":4371,"Ð»Ð°ÑĢÐ¾Ð²":4372,"ÑħÐ¸Ð¼":4373,"ĠÑģÐ¾Ð¿":4374,"ĠÑģÑĨÐµÐ½":4375,"ĠÐ²ÐµÑī":4376,"Ð¿ÑĥÐ½ÐºÑĤ":4377,"Ð´Ð¸":4378,"ÑĦÑĥÐ½":4379,"Ð¾ÑģÐ²ÑıÐ·":4380,"ĠÐºÐ¾Ð³":4381,"ĠÐ¾Ð±Ð¾ÑģÐ½":4382,"Ð°Ð»ÑĮÐ½Ð¾ÑģÑĤÐ¸":4383,"ĠÐ¼Ð°ÑĤÐµÐ¼Ð°ÑĤ":4384,"Ð³ÑĥÑģÑĤ":4385,"Ð¸Ð¼Ð¾Ð³Ð¾":4386,"ÑĪÐ¸Ð¹":4387,"ÑģÑĤÐ²ÐµÐ½Ð½Ð¾ÑģÑĤÑĮ":4388,"ĠÐłÐµÐ·ÑĥÐ»ÑĮÑĤÐ°ÑĤ":4389,"Ð°Ð·Ð°ÑĤÐµÐ»ÑĮ":4390,"Ð¸Ð´Ñĥ":4391,"Ð¾Ð±Ð¾ÑĤ":4392,"ĠÑģÑĤÑĥÐ´":4393,"ĠÑģÑĤÐ¾ÑĢÐ¾Ð½":4394,"ĠÑģÐ¾Ð¾ÑĢÑĥÐ¶":4395,"ĠÑįÐºÑģÑĤÑĢÐµÐ¼":4396,"ĠÐ¿Ð¾Ð´ÑħÐ¾Ð´":4397,"ÑĥÑĢÐ³":4398,"ĠÑĨÐ¸Ðº":4399,"ÐµÐ²ÐµÑĢ":4400,"ÑĢÐ°Ð·ÑĢÐ°Ð±Ð¾ÑĤ":4401,"Ð¡Ð¢ÐĴ":4402,"ĠÑĨÐµÐ»ÐµÐ²":4403,"ÐŀÐĻ":4404,"ĠÐ±ÑİÐ´Ð¶ÐµÑĤÐ½Ð¾Ð¹":4405,"Ð¿ÑĢÐ¾Ñģ":4406,"ÑıÐ²Ð»ÐµÐ½Ð¸Ðµ":4407,"ĠÑĢÐ°ÑģÑĩÐµÑĤ":4408,"ĠÑįÑĤÐ¸ÐºÐ¸":4409,"ĠÑĦÐµÐ´ÐµÑĢÐ°Ð»ÑĮÐ½Ð¾Ð¼Ñĥ":4410,"ĠÑĢÐ°ÑģÐ¿Ð¾Ð·Ð½Ð°Ð²":4411,"ĠÑįÐ»ÐµÐºÑĤÑĢÐ¾Ð½Ð½Ð¾Ð¼":4412,"ĠÐ°Ð²Ð³ÑĥÑģÑĤ":4413,"ĠÐ´Ð¾Ð»Ð»Ð°ÑĢÐ¾Ð²":4414,"ĠÑĩÐ°ÑģÑĤÐ½Ð¾ÑģÑĤÐ¸":4415,"ĠÐ¿ÑĢÐ¾Ð¼ÑĭÑĪÐ»ÐµÐ½Ð½ÑĭÑħ":4416,"ĠÐ¾Ð±ÑĬÐµÐ¼Ð¾Ð²":4417,"ĠÑģÐ¿ÐµÑĨÐ¸Ð°Ð»ÑĮÐ½ÑĭÑħ":4418,"ĠÐ¾Ð±ÑīÐµÑģÑĤÐ²ÐµÐ½Ð½Ð¾":4419,"ĠÐ¿ÑĢÐ¸Ð½ÑıÑĤÑĮ":4420,"ÑĤÐµÐ»ÐµÐºÐ¾Ð¼Ð¼ÑĥÐ½Ð¸ÐºÐ°ÑĨÐ¸Ð¾Ð½Ð½ÑĭÐ¼":4421,"ĠÐ²Ð¾ÐµÐ½Ð½Ð¾Ð¹":4422,"ĠÐ½ÐµÐ¿ÑĢÐ°Ð²":4423,"ĠÑĢÐµÐµÑģÑĤÑĢÐµ":4424,"ĠÐºÑĢÐ¸ÑĤÐ¸ÑĩÐµÑģÐºÐ¸Ñħ":4425,"ĠÐ¿Ð°ÑģÐ¿Ð¾ÑĢÑĤ":4426,"ĠÑģÐ¾Ð´ÐµÑĢÐ¶Ð°ÑīÐµÐ¹ÑģÑı":4427,"ĠÐ¢ÑĢÐµÐ±":4428,"Ð¾Ð±ÐµÑģÐ¿ÐµÑĩÐ¸ÑĤÑĮ":4429,"ĠÐ²Ð»Ð¾Ð¶ÐµÐ½Ð¸Ñı":4430,"ĠÐ°ÐºÑĤÑĥÐ°Ð»Ð¸Ð·":4431,"ĠÐ³Ð¾ÑģÑĥÐ´Ð°ÑĢÑģÑĤÐ²Ð°Ð¼Ð¸":4432,"ĠÐ¾ÑĩÐ¸ÑģÑĤ":4433,"ĠÐºÐ¾Ð¾Ð¿":4434,"ĠÐ¿ÑĢÐµÐ´Ð¿ÑĢÐ¸Ð½Ð¸Ð¼Ð°ÑĤÐµÐ»ÑĮÑģÐºÐ¾Ð³Ð¾":4435,"ĠÐºÐ°Ð·Ð½Ð°ÑĩÐµÐ¹ÑģÑĤÐ²Ð°":4436,"ĠÐłÐ°Ð·Ð¼ÐµÑĢ":4437,"ĠÑģÑĤÐ¸Ð¼ÑĥÐ»Ð¸ÑĢÐ¾Ð²Ð°Ð½Ð¸Ðµ":4438,"ĠÐ³Ð»Ð°Ð²Ð½ÑĭÐ¼":4439,"ĠÐ·Ð°ÑģÐµÐ´Ð°Ð½Ð¸Ñı":4440,"ĠÐ·Ð½Ð°Ð½Ð¸Ð¹":4441,"ĠÐ·Ð°Ð¿ÑĢÐ°ÑĪÐ¸Ð²Ð°":4442,"ĠÐ¿Ð°ÑĢÐ¾Ð¼":4443,"ĠÐ½ÐµÑģÐºÐ¾Ð»ÑĮ":4444,"ÐµÐ³Ð¸ÑģÑĤÑĢÐ¸ÑĢÐ¾Ð²Ð°Ð½":4445,"ĠÐ¼Ð°ÐºÑģÐ¸Ð¼":4446,"Ð²Ð²ÐµÐ´ÐµÐ½Ð°":4447,"ĠÑĤÑĥÑĢÐ¸ÑģÑĤ":4448,"ĠÑģÐ¸Ð³Ð½Ð°Ð»Ð¾Ð²":4449,"ĠÐŁÐ¾ÑģÐ»Ðµ":4450,"ĠÐ¿ÐµÑĢÐµÑĢÐ°Ð±Ð¾ÑĤ":4451,"ĠÐ°ÑģÐ¿ÐµÐºÑĤ":4452,"ĠÐ¾ÐºÐ¾Ð½ÑĩÐ°Ð½Ð¸Ñı":4453,"ĠÐ¿Ð¾ÑĢÑıÐ´ÐºÐ¾Ð²ÑĭÐ¼":4454,"ĠÐ¤ÐķÐĶÐķÐłÐĲÐ¦ÐĺÐĺ":4455,"ÐŀÐ¡Ð¡ÐĺÐĻÐ¡ÐļÐŀÐĻ":4456,"ĠÐ¿ÑĢÐµÑģÑĤÑĥÐ¿":4457,"ÑĢÐ°Ð·Ð²Ð¸ÑĤÐ¸Ñı":4458,"ĠÐ°Ð²Ð³ÑĥÑģÑĤÐ°":4459,".)":4460,"Ð¸ÑĤÐµÐº":4461,"ÑĢÑĭ":4462,"ÐµÐ½Ð·":4463,"Ð»Ð°Ð¹Ð½":4464,"Ð²Ðµ":4465,"Ð²ÑĭÑģÐ¾Ðº":4466,"ĠÑģÐ¿ÑĢÐ¾Ñģ":4467,"ĠÐ½Ð¼":4468,"ĠÐ½Ð¸Ð¼":4469,"Ð¾ÑĤÑĩÐµÑĤ":4470,"ÑīÐµÑĢÐ±":4471,"ĠÑĢÑĥÑģ":4472,"ĠÐºÐ¾ÑįÑĦÑĦÐ¸ÑĨÐ¸":4473,"Ð¾Ð»Ð¸":4474,"Ð¾Ð»Ð¾Ðº":4475,"ĠÑĥÑģÐ¿":4476,"ĠÑĥÑīÐµÑĢÐ±":4477,"ĠÐ¼Ð¾ÑĤÐ¸Ð²":4478,"Ð³Ð»":4479,"Ð¸ÑĩÐ½Ð¾ÑģÑĤÐ¸":4480,"ĠÐ¤ÐµÐ´ÐµÑĢÐ°ÑĨÐ¸Ñı":4481,"ĠÐłÐŀÐ¡Ð¡ÐĺÐĻÐ¡ÐļÐŀÐĻ":4482,"ĠÑįÑĦÑĦÐµÐºÑĤ":4483,"ĠÑĢÐ°Ð·Ð²ÐµÐ´":4484,"ÐµÐ»ÐµÐ½":4485,"Ð¸Ð²Ð¸Ð´Ñĥ":4486,"ĠÑģÑĤÐ¾ÑĢ":4487,"ĠÐ¾ÑĦÐ¾ÑĢÐ¼":4488,"ĠÐ¾Ð¿Ð°Ñģ":4489,"ĠÐ»Ð¾Ð³":4490,"ĠÐ½Ð°ÑģÑĤÐ¾ÑıÑīÐµÐ¼":4491,"Ð¾ÑĤÐ¾ÑĢÑĭÐµ":4492,"ĠÐ³Ð¾ÑģÑĥÐ´Ð°ÑĢÑģÑĤÐ²ÐµÐ½Ð½Ð°Ñı":4493,"ĠÐ¿ÑĥÐ½ÐºÑĤÐ°Ñħ":4494,"Ð¸ÑģÐ°Ð½Ð¸Ñı":4495,"Ð¼Ð¸Ð½Ñĭ":4496,"Ð¾Ð³Ð»Ð°":4497,"ĠÐ²Ð¾Ð·Ð¼ÐµÑī":4498,"ĠÐ²Ð¾Ð·ÑĢÐ°ÑģÑĤ":4499,"ĠÐ²ÐºÐ»ÑİÑĩÐµÐ½Ð½ÑĭÑħ":4500,"ĠÐ½ÐµÐ¾Ð±ÑħÐ¾Ð´Ð¸Ð¼Ð¾":4501,"Ð°ÑĤÐ¸Ð²Ð½Ð¾":4502,"ÐĿÐĲ":4503,"Ð°ÐµÐ¼Ð¾Ð³Ð¾":4504,"ĠÑĦÐ¸Ð½Ð°Ð½ÑģÐ¾Ð²ÑĭÐ¹":4505,"ĠÐ·Ð°ÑıÐ²ÐºÐµ":4506,"ĠÑĥÑĢÐ¾Ð²Ð½ÐµÐ¼":4507,"ĠÐ³ÑĢÐ°Ð½ÑĤ":4508,"Ġ2025":4509,"ĠÑģÐ¾Ð³Ð»Ð°ÑĪÐµÐ½Ð¸Ñİ":4510,"ĠÑģÐ¾Ð³Ð»Ð°ÑģÐ¾Ð²Ð°Ð½Ð¸Ðµ":4511,"ĠÑģÐµÑĢÐ¸Ð¹":4512,"ĠÐ¿ÑĢÐ¸Ð¾ÑĢÐ¸ÑĤÐµÑĤÐ¾Ð²":4513,"Ð¾Ð»Ð¾Ð³Ð¸Ð¸":4514,"ĠÑĩÐµÐ»Ð¾Ð²ÐµÑĩÐµ":4515,"Ð£Ð¢ÐĴ":4516,"ĠÑĥÐ²ÐµÐ´Ð¾Ð¼Ð¸ÑĤÑĮ":4517,"ĠÑĤÐµÑħÐ½Ð¸ÑĩÐµÑģÐºÐ¾Ð³Ð¾":4518,"ÑĢÐ°ÑģÑħÐ¾Ð´":4519,"ĠÐ½ÐµÐ¿ÑĢÐµÐ´":4520,"ĠÐ¢Ð°Ðº":4521,"ĠÐ¿ÑĢÐ¾ÑĦÐµÑģÑģÐ¸Ð¾Ð½Ð°Ð»ÑĮÐ½Ð¾Ð¹":4522,"ĠÐ½Ð¾Ð¼ÐµÑĢÐ¾Ð¼":4523,"ĠÐ´Ð¾Ð³Ð¾Ð²Ð¾ÑĢÐ¾Ð²":4524,"ĠÐ´Ð°ÑĤÑĥ":4525,"ĠÐ¼Ð¾ÑīÐ½Ð¾ÑģÑĤÐ¸":4526,"ĠÐ»Ð°Ð·ÐµÑĢÐ¾Ð²":4527,"ĠÐ·Ð°Ð¸Ð½ÑĤÐµÑĢÐµÑģÐ¾Ð²Ð°Ð½Ð½ÑĭÐ¼Ð¸":4528,"ĠÑĤÐµÐ¼Ð¿":4529,"ĠÐ¾ÑģÐ¾Ð±ÐµÐ½":4530,"ĠÑĤÑĢÐ°Ð½ÑģÐ³ÑĢÐ°Ð½Ð¸Ñĩ":4531,"ĠÐ½Ð°ÑĩÐ°Ð»Ð°":4532,"ĠÐ¾Ð½Ð»Ð°Ð¹Ð½":4533,"ĠÐ²Ð¾Ð·Ð´ÐµÐ¹ÑģÑĤÐ²Ð¸Ñı":4534,"ÐĸÐĶÐķÐĿ":4535,"ĠÐ°ÑĥÐ´Ð¸Ð¾Ð²Ð¸Ð·ÑĥÐ°Ð»ÑĮÐ½Ð¾Ð³Ð¾":4536,"ĠÑĨÐµÐ½Ð°Ñħ":4537,"ÐºÐ¾Ð½ÑģÑĤÑĢÑĥÐºÑĤÐ¾ÑĢ":4538,"ÐºÐ¾Ð½ÑģÑĤÑĢÑĥÐºÑĤÐ¾ÑĢÑģÐºÐ¸Ñħ":4539,"ĠÑĢÐ°ÑģÑĤÐ¾ÑĢ":4540,"ĠÑĢÐ°ÑģÑĪÐ¸ÑĢÐµÐ½Ð¸Ðµ":4541,"ÑģÐºÑĢÑĭÑĤÐ¸Ñı":4542,"ĠÐ°Ð²ÑĤÐ¾Ð¼Ð¾Ð±Ð¸Ð»ÑĮÐ½ÑĭÑħ":4543,"ÐķÐłÐĸÐĶÐķÐĿ":4544,"ĠÐ½Ð¾ÑıÐ±ÑĢÑı":4545,"ĠÐ¾ÑĤÐ²ÐµÑĩ":4546,"ĠÐ½ÐµÐ¿ÑĢÐ°Ð²Ð¾Ð¼":4547,"Ð¸ÑĤÐµÐºÑĤ":4548,"Ð£Ð¢ÐĴÐķÐłÐĸÐĶÐķÐĿ":4549,"is":4550,"Ð¸Ð°Ð»ÑĮÐ½Ð¾":4551,"ÐµÑĦ":4552,"ÑģÐ½":4553,"Ð»Ð°Ñģ":4554,"ĠÐ¿Ð¾Ð¿":4555,"Ð¾Ð²Ð¾Ðµ":4556,"ÐµÑĢÐ¾Ð¿ÑĢÐ¸ÑıÑĤ":4557,"ĠÐ²ÑĤÐ¾ÑĢ":4558,"ÑģÑĤÐ²Ð¸Ðµ":4559,"ĠÐ¿ÑĢÐ¾ÑģÐ¿":4560,"Ð¿Ð»":4561,"ĠÐºÐ°ÑĢÑĤ":4562,"ĠÑĤÑĢÐ°Ð´Ð¸ÑĨÐ¸Ð¾Ð½":4563,"ÐµÐ¼ÑĥÑİ":4564,"ÑģÐ¿ÐµÑĢÑĤ":4565,"Ð±Ð¸Ð½":4566,"Ð½Ð¾ÑģÑĤÑıÐ¼":4567,"ĠÐ±Ð°ÑĢÑĮ":4568,"Ð¸Ð²Ð½Ð¾Ð¹":4569,"ĠÐ¾ÑĢÐ³Ð°Ð½Ðµ":4570,"ĠÑģÐ¾Ñİ":4571,"Ð°ÑĤÐ¾ÑĢÑĭ":4572,"ĠÑįÐºÑģÐ¿Ð¾ÑĢÑĤÐ°":4573,"ĠÑĢÐ°Ð·ÑĢÐ°Ð±Ð¾ÑĤÑĩÐ¸Ðº":4574,"2013":4575,"2025":4576,"ĠÑĥÐ¿Ð¾Ð»Ð½Ð¾Ð¼Ð¾Ñĩ":4577,"ĠÐ²Ð¾Ð·Ð¾Ð±Ð½Ð¾Ð²":4578,"Ġ45":4579,"ĠÐ¾Ð¿ÐµÑĢÐ°ÑĤÐ¾ÑĢÑĥ":4580,"Ð½Ð¾Ð´Ð¾ÑĢÐ¾Ð¶":4581,"ĠÐºÐ¾Ð¼Ð¿Ð»ÐµÐºÑģÐ½Ð¾Ð¹":4582,"ĠÐ¾ÑĤÑĩÐµÑĤÐ½ÑĭÐ¼":4583,"ĠÐ¿ÑĢÐµÐ´ÑĥÑģÐ¼Ð¾ÑĤÑĢÐµÐ½Ñĭ":4584,"ÑĨÐµÐ½ÐºÐ°":4585,"Ġ235":4586,"ÐľÐ¸Ð½Ð¸ÑģÑĤÐµÑĢ":4587,"ĠÑģÐ¾Ð³Ð»Ð°ÑģÐ¾Ð²Ð°Ð½":4588,"ĠÐŁÑĢÐµÐ·Ð¸Ð´ÐµÐ½ÑĤ":4589,"ĠÐ¾Ð±ÑıÐ·Ð°Ð½Ð½Ð¾ÑģÑĤÑĮ":4590,"ĠÐ¿ÑĢÐ¸Ð½ÑıÑĤÐ¸Ðµ":4591,"1785":4592,"Ð£ÐŁ":4593,"Ð¸Ð»ÑĮÐ½Ð¾Ð³Ð¾":4594,"ĠÑģÐ¾Ð·Ð´Ð°ÑĤÑĮ":4595,"ĠÐ¿ÐµÑĢÐµÑĩÐ½Ñı":4596,"ÐŀÐ±ÑĬÐµÐ¼":4597,"ĠÐ¸ÑģÐ¿Ð¾Ð»ÑĮÐ·ÑĥÐµÐ¼ÑĭÑħ":4598,"ĠÐ¸Ð½Ð´Ð¸Ð²Ð¸Ð´Ñĥ":4599,"ĠÐŀÐ±Ñī":4600,"ĠÐŀÐ±ÑĢÐ°Ð±Ð¾ÑĤÐºÐ°":4601,"ĠÑĥÑĩÐ°ÑģÑĤÐ½Ð¸ÐºÐ¾Ð¼":4602,"ĠÐ²Ð¾Ð»Ð¾Ðº":4603,"ĠÐ±Ð¾Ð»ÑĮÑĪÐ¸Ðµ":4604,"ĠÐ½ÐµÐ·Ð°Ðº":4605,"ĠÑģÑĤÑĢÐ°ÑħÐ¾Ð²ÑĭÑħ":4606,"ĠÐ´ÐµÐ¹ÑģÑĤÐ²ÑĥÑİÑī":4607,"Ð¿ÑĢÐ¾ÑĨ":4608,"ĠÐºÐ°Ð¿Ð¸ÑĤÐ°Ð»ÑĮÐ½Ð¾Ð³Ð¾":4609,"ĠÐ¸Ð½ÑĤÐµÑĢÐµÑģÐ°Ñħ":4610,"ĠÑģÐ¾Ð¿ÑĢÐ¾Ð²Ð¾Ð¶Ð´ÐµÐ½Ð¸Ñı":4611,"ĠÐ²ÑģÑĤÑĥÐ¿Ð¸Ð²":4612,"ĠÑģÐ¾Ð±ÑģÑĤÐ²ÐµÐ½Ð½Ð¾ÑģÑĤÑĮ":4613,"ĠÑĤÑĢÐ°Ð½ÑģÑĦÐ¾ÑĢÐ¼":4614,"ĠÐ²Ð»Ð¸ÑıÐ½Ð¸Ñı":4615,"ĠÐ²ÑĭÑģÐ¾ÐºÐ¾ÑĤÐµÑħÐ½Ð¾Ð»Ð¾Ð³Ð¸ÑĩÐ½Ð¾Ð³Ð¾":4616,"ĠÐ¿ÑĢÐµÐ´Ð½Ð°Ð·Ð½Ð°ÑĩÐµÐ½Ð½ÑĭÑħ":4617,"ĠÑģÐ»Ð¾Ð¶Ð½ÑĭÑħ":4618,"ÑģÐºÐ¾ÑħÐ¾Ð·ÑıÐ¹":4619,"ĠÑģÐµÐ»ÑĮÑģÐºÐ¾ÑħÐ¾Ð·ÑıÐ¹":4620,"4086":4621,"ĠÑĥÐ½Ð¸ÑĩÑĤÐ¾Ð¶ÐµÐ½Ð¸Ñı":4622,"ĠÐºÐ¾Ð»Ð»ÐµÐºÑĤ":4623,"ĠÐ¿ÑĢÐ¸Ð¾Ð±ÑĢÐµÑĤÐµÐ½Ð¸Ðµ":4624,"ĠÑĥÐºÑĢÐµÐ¿Ð»ÐµÐ½Ð¸Ðµ":4625,"ĠÐ´Ð°Ð»ÑĮÐ½ÐµÐ¹ÑĪ":4626,"ĠÐ¿Ð¾ÑĢÑĤÐ°Ð»Ðµ":4627,"ĠÐ´ÐµÑģÑıÑĤÐ¸":4628,"ĠÐ°Ð³ÐµÐ½ÑĤÑģÑĤÐ²Ð¾":4629,"ĠÑĥÑĩÐµÐ½ÑĭÑħ":4630,"ĠÐ¿ÑĢÐ¸Ð½Ð¸Ð¼Ð°ÑĤÑĮ":4631,"ĠÐ²ÑĭÑģÐ¾ÐºÐ¾ÑįÑĦÑĦÐµÐºÑĤÐ¸Ð²Ð½ÑĭÑħ":4632,"ĠÐ¾ÑĢÑĥÐ¶Ð¸Ñı":4633,"ĠÐ¶ÐµÐ»ÐµÐ·Ð½Ð¾Ð´Ð¾ÑĢÐ¾Ð¶":4634,"ĠÐ¿ÑĢÐµÐ´Ð°ÐºÑģÐµÐ»ÐµÑĢÐ°ÑĨÐ¸Ð¸":4635,"ning":4636,"Ġc":4637,"ÑģÑģÐ»ÐµÐ´":4638,"ÑĢÐµÐ¿":4639,"ÑĥÐº":4640,"ĠÐ¿Ð¸ÑģÑĮ":4641,"Ð¾Ð²Ð¾Ð»ÑĮ":4642,"Ð¾ÑĤÑĭ":4643,"Ð¾ÑĤÑĢÐ°":4644,"Ð¾Ð½Ð½Ð¾Ð¹":4645,"ĠÑĤÐµÑģÑĤ":4646,"ĠÐ¼Ð¾":4647,"ĠÐ¼Ð°ÑĤÑĢ":4648,"Ð°Ð»Ð¸":4649,"Ð°Ð»ÐµÐ¹":4650,"Ð°Ð»Ð°Ð½Ñģ":4651,"ĠÐ³Ð¾Ð»Ð¾Ð²":4652,"Ð¾ÐºÐ°Ð·Ð°ÑĤÐµÐ»":4653,"Ð¸ÑĤÐµÐ»ÑĮÐ½Ð¾Ðµ":4654,"ĠÑĩÐµÑĤ":4655,"ĠÑĢÐµÑĩÐ¸":4656,"Ð»ÐµÐ½Ð½ÑĭÑħ":4657,"Ð°ÑģÐ¾Ð²":4658,"ĠÑĤÐµÑħÐ½Ð¾Ð»Ð¾Ð³Ð¸ÑıÑħ":4659,"Ð¾ÑģÑĤÐ°Ð²Ð»ÐµÐ½Ð¸Ðµ":4660,"ÑĢÐ°ÑģÐ¿":4661,"Ð°ÑĤÐµÐ»ÑĮÐ½ÑĭÐµ":4662,"ĠÐºÐ¾Ð½ÑĦÐµÑĢÐµÐ½":4663,"ĠÑĤÐ°ÐºÑĥÑİ":4664,"ĠÐ¿ÑĢÐµÐ´Ð¾ÑģÑĤÐ°Ð²Ð¸ÑĤÑĮ":4665,"ĠÐŁÑĢÐ°Ð²Ð¸ÑĤÐµÐ»ÑĮÑģÑĤÐ²ÐµÐ½Ð½Ð¾Ð¹":4666,"ĠÐºÐ¾ÑĤÐ¾ÑĢÐ¾Ð¼Ñĥ":4667,"ĠÑĥÑĩÐµÐ±":4668,"ÐĴÐĲ":4669,"Ð°ÑĤÐ¾ÑĢÐ¾Ð¼":4670,"ĠÑįÐºÐ¾Ð½Ð¾Ð¼Ð¸ÑĩÐµÑģÐºÐ¸Ñħ":4671,"ĠÑĦÐ¾ÑĢÐ¼Ð¾Ð¹":4672,"ĠÑģÑĤÐ°ÑĤÑĮÑıÐ¼Ð¸":4673,"ĠÐ¾Ð±ÑĢÐ°Ð·Ð¾Ð¼":4674,"Ð°Ð±Ð¾ÑĢ":4675,"ĠÑĥÑģÑĤÐ°Ð½Ð¾Ð²Ð»ÐµÐ½Ð¸Ð¸":4676,"ĠÑįÐ»ÐµÐºÑĤÑĢÐ¾Ð½Ð½Ð¾Ð³Ð¾":4677,"Ġ1000":4678,"ĠÐ¼Ð°ÑģÑĪÑĤÐ°Ð±":4679,"ĠÑĤÐµÑĢÐ¼Ð¸Ð½":4680,"ÐĶÐ»Ñı":4681,"ĠÐ³ÑĢÐ°Ð¶Ð´Ð°Ð½ÑģÐºÐ¾Ð³Ð¾":4682,"ĠÑĩÐ°ÑģÑĤÑĮ":4683,"ĠÐ¾Ð±ÑīÐµÐ¼":4684,"ĠÐ½Ð°Ð»Ð¾Ð³Ð¾Ð²":4685,"ĠÐ°ÐºÑĥÑģÑĤ":4686,"ĠÐ¾Ð±ÑīÐµÑģÑĤÐ²ÐµÐ½Ð½ÑĭÐ¼Ð¸":4687,"ĠÑİÑĢÐ¸Ð´Ð¸ÑĩÐµÑģÐºÐ¾Ðµ":4688,"ĠÑįÐºÑģÐ¿ÐµÑĢÑĤÐ½ÑĭÐ¼":4689,"ĠÐ½Ð°ÑĢÑĥÑĪÐµÐ½Ð¸Ðµ":4690,"Ð¸ÑĦÐ¸ÐºÐ°ÑĨÐ¸Ñı":4691,"ĠÐ²Ð·Ð°Ð¸Ð¼Ð¾Ð´ÐµÐ¹ÑģÑĤÐ²":4692,"ĠÐ´Ð¾Ð¿Ð¾Ð»Ð½Ð¸ÑĤÐµÐ»ÑĮÐ½Ð¾Ð¹":4693,"ĠÐ´Ð¾Ð¿Ð¾Ð»Ð½Ð¸ÑĤÐµÐ»ÑĮÐ½ÑĭÐµ":4694,"ĠÑģÐ¾Ð·Ð´Ð°Ð½Ð½ÑĭÑħ":4695,"ĠÑħÐ°ÑĢÐ°ÐºÑĤÐµÑĢÐ¸Ð·":4696,"ĠÐºÐ¾ÑĢÑĢÐµÐºÑĤ":4697,"ĠÑĦÐ°ÐºÑĤÐ¸ÑĩÐµÑģÐºÐ¾Ðµ":4698,"ĠÑģÐ¾Ð¾Ð±ÑīÐµÑģÑĤÐ²":4699,"ĠÐ¼ÐµÑģÑıÑĨÐµÐ²":4700,"Ġ1612":4701,"ĠÐ¿ÑĢÐµÐ´Ð¾ÑģÑĤÐ°Ð²Ð»ÑıÐµÐ¼Ð¾Ð¹":4702,"ĠÐ´Ð²ÑĥÑħ":4703,"ĠÐºÐ¾Ð¼Ð¿ÐµÑĤÐµÐ½ÑĨÐ¸Ð¸":4704,"ĠÐķÑģÐ»Ð¸":4705,"ĠÐ¼Ð¾ÑīÐ½ÑĭÑħ":4706,"ĠÐ½ÐµÐ´Ð¾ÑģÑĤÐ¸Ð¶ÐµÐ½Ð¸Ñı":4707,"ĠÑĢÐ°Ð·Ð´ÐµÐ»Ðµ":4708,"ĠÐ¿ÑĢÐµÐ¿ÑıÑĤ":4709,"ĠÑĢÐµÐ¶Ð¸Ð¼Ðµ":4710,"ĠÑĥÑĩÑĢÐµÐ¶Ð´ÐµÐ½Ð¸Ð¹":4711,"ĠÑĤÐµÐ¼Ð°ÑĤ":4712,"ĠÐ¿ÑĢÐ¸Ð½ÑĨÐ¸Ð¿Ð¸Ð°Ð»ÑĮÐ½Ð¾":4713,"ĠÐ¦ÐµÐ½ÑĤÑĢ":4714,"ĠÐ²Ð¾Ð·Ð²ÑĢÐ°ÑĤÐ°":4715,"ĠÑħÐ°ÑĢÐ°ÐºÑĤÐµÑĢÐ¸ÑģÑĤÐ¸ÐºÐ¸":4716,"ĠÐ¿ÑĢÐµÐ´Ð»Ð¾Ð¶ÐµÐ½Ð¸Ð¹":4717,"ĠÑģÐ¾Ð¾Ð±ÑīÐµÐ½Ð¸ÑıÐ¼Ð¸":4718,"ĠÐ²ÑĭÑģÐ¾ÐºÐ¾ÑĤÐµÑħÐ½Ð¾Ð»Ð¾Ð³Ð¸ÑĩÐ½ÑĭÑħ":4719,"ÐĿÐ°ÑĥÑĩÐ½Ð¾":4720,"ĠÐ²Ð¾Ð·Ð½Ð¸ÐºÐ½Ð¾Ð²":4721,"ĠÐ²Ð°Ð¶Ð½ÐµÐ¹":4722,"ĠÐ°Ð¿ÑĢÐ¾Ð±":4723,"ĠÑĢÐ°Ð·ÑĢÐµÑĪ":4724,"ĠÐ¿Ð¾ÑĢÑĥÑĩÐµÐ½Ð¸Ñİ":4725,"ĠÑĢÐ°Ð´Ð¸Ð¾ÑįÐ»ÐµÐºÑĤÑĢÐ¾Ð½Ð½Ð¾Ð¹":4726,"ĠÐ¾ÑģÑĤÐ°ÑĤ":4727,"ĠÐ¿ÐµÑĢÐµÑħÐ¾Ð´Ð°":4728,"ĠÑĢÐµÐ³ÑĥÐ»Ð¸ÑĢÑĥÑİÑīÐµÐ³Ð¾":4729,"ĠÑĥÐ½Ð¸ÑĩÑĤÐ¾Ð¶":4730,"ĠÑģÐ»ÑĥÐ¶Ð±Ñĭ":4731,"ĠÑģÑĤÐµÐ¿ÐµÐ½Ð¸":4732,"ĠÐ¸Ð·Ð¾Ð±ÑĢÐ°Ð¶ÐµÐ½Ð¸Ð¹":4733,"ĠÐ¿ÑĢÐ¸ÑģÐ¾ÐµÐ´Ð¸Ð½ÐµÐ½Ð¸Ñı":4734,"Ð¾ÑĤÐµÑħÐ½":4735,"ĠÐ±ÑĥÑħÐ³Ð°Ð»ÑĤÐµÑĢÐ¾Ð¼":4736,"ĠÑģÑĥÑīÐµÑģÑĤÐ²ÑĥÑİÑīÐ¸Ñħ":4737,"ĠÐ¼Ð¸ÐºÑĢÐ¾ÑįÐ»ÐµÐºÑĤÑĢÐ¾Ð½":4738,"ĠÑĦÐ°ÐºÑĤÐ°":4739,"ĠÐ»Ð¸ÐºÐ²Ð¸Ð´Ð°ÑĨÐ¸Ð¸":4740,"ĠÐ°ÑĢÑħÐ¸ÑĤÐµÐºÑĤ":4741,"ĠÐ¼Ð¾Ð»Ð¾Ð´ÐµÐ¶Ð¸":4742,"ĠÐ½Ð¸Ð·Ðº":4743,"Ð¸ÑģÑģÐ»ÐµÐ´Ð¾Ð²Ð°ÑĤÐµÐ»ÑĮÑģÐºÐ¸Ðµ":4744,"data":4745,"ÐºÐ¾Ð½ÑģÑĤÑĢÑĥÐºÑĤÐ¾ÑĢÑģÐºÐ¸Ðµ":4746,"ĠÐ¿ÑĢÐ¾ÑģÐ¿ÐµÐºÑĤ":4747,"ÐľÐ¸Ð½Ð¸ÑģÑĤÐµÑĢÑģÑĤÐ²Ð¾":4748,"89":4749,";\";":4750,"ĠA":4751,"ĠG":4752,"Ð¾ÑĪ":4753,"Ð¾Ð¾Ð±ÑĢÐ°Ð·":4754,"Ð¾ÑĢÐ°Ð¼Ð¸":4755,"ÑģÑĭ":4756,"ÑģÑĮ":4757,"ĠÐ»ÑĮ":4758,"ÑĢÑıÐ·":4759,"Ð»Ð½":4760,"Ð»Ð°Ð³":4761,"ÐºÐ°Ð¼Ð¸":4762,"Ð°Ð½ÑĤÐ¾Ð²":4763,"ÐµÑĢÐ²":4764,"ÐµÑĢÐµÐ¶":4765,"ÐµÑĢÐµÐ³":4766,"Ð¿Ð¿":4767,"Ð¾ÑĤÐ°":4768,"Ð¾ÑģÑĤÑĢÐ¾":4769,"ĠÐºÐ»Ð°ÑģÑĤ":4770,"Ð¾Ð¹Ð½Ð¾Ð³Ð¾":4771,"ĠÐ¼ÐµÐ»Ð¸Ð¾ÑĢ":4772,"Ð±Ñĭ":4773,"ĠÐ³ÐµÑĤÐµÑĢ":4774,"ĠÑĢÐ°Ð·Ð²":4775,"ĠÐ±ÐµÑģÐ¿":4776,"ÑİÑīÐµÐ¹":4777,"Ð¾Ð±ÑĢ":4778,"Ð¾Ð±Ð¸Ð»":4779,"ĠÑĢÐµÐ°ÐºÑĤ":4780,"Ð°ÑĩÐ°":4781,"ĠÐ½Ð°ÑģÑĤÐ¾ÑıÑīÐµÐµ":4782,"ĠÑĥÑģÑĤÐ°Ð²":4783,"Ð¸ÑĢÐ¾Ð²Ð°Ð½Ð½Ð°Ñı":4784,"ĠÐ¿ÑĥÐ½ÐºÑĤÐ°Ð¼Ð¸":4785,"ĠÐ¡Ð²ÐµÐ´ÐµÐ½Ð¸Ñı":4786,"ĠÐ·Ð°ÐºÐ¾Ð½Ð¾Ð²":4787,"ĠÑĢÐµÐ·ÑĥÐ»ÑĮÑĤÐ°ÑĤÐ¸Ð²":4788,"ĠÐ¾ÑģÑĥÑīÐµÑģÑĤÐ²Ð»ÑıÑİÑĤ":4789,"ĠÑģÑĥÐ±ÑĬÐµÐºÑĤÐµ":4790,"ĠÐ½Ð°Ð¿ÑĢÐ°Ð²Ð¸ÑĤÑĮ":4791,"ÐŁÐ£":4792,"ĠÑĥÐºÐ°Ð·Ð°Ð½Ð½ÑĭÐ¼Ð¸":4793,"ĠÑĥÐºÐ°Ð·Ð°Ð½Ð½ÑĥÑİ":4794,"ĠÐ¾Ð±ÑĢÐ°Ð·Ð¾Ð²Ð°Ð½Ð¸Ðµ":4795,"ĠÐ¿ÑĢÐ¾Ð³ÑĢÐ°Ð¼Ð¼Ð½Ð¾Ðµ":4796,"ÐµÐ¶Ð´ÑĥÐ½Ð°ÑĢÐ¾Ð´":4797,"Ð¸ÑĤÐµÐ»ÑıÐ¼Ð¸":4798,"ĠÐ½ÐµÐ¾Ð±ÑħÐ¾Ð´Ð¸Ð¼Ð°":4799,"ĠÑĨÐµÐ½ÑĤÑĢÐ°Ð¼":4800,"ĠÑĨÐµÐ½ÑĤÑĢÐ°Ð¼Ð¸":4801,"Ð°ÐµÐ¼Ð°Ñı":4802,"ĠÐ£ÑĤÐ²ÐµÑĢÐ´Ð¸ÑĤÑĮ":4803,"ĠÐ¼Ð°ÑģÑģÐ¾Ð²Ð¾Ð³Ð¾":4804,"ÑĢÐ¾ÑĦ":4805,"ĠÐ¿ÑĢÐ¸Ð¼ÐµÐ½ÐµÐ½Ð¸Ñİ":4806,"ĠÑģÐ¾Ð´ÐµÐ¹ÑģÑĤÐ²Ð¸Ðµ":4807,"ĠÐ²ÑĭÑģÐ¾ÐºÐ¸Ð¼":4808,"ĠÐ¿ÑĢÐ¾Ð¼ÑĭÑĪÐ»ÐµÐ½Ð½Ð¾Ð¹":4809,"ĠÐ¸ÑģÑģÐ»ÐµÐ´Ð¾Ð²Ð°Ð½Ð¸Ñİ":4810,"ĠÐ½Ð°ÑĨÐ¸Ð¾Ð½Ð°Ð»ÑĮÐ½Ð¾Ð³Ð¾":4811,"ÐľÐµÑĢÐ¾Ð¿ÑĢÐ¸ÑıÑĤ":4812,"ĠÑģÐ¾Ð´ÐµÑĢÐ¶Ð°ÑĤÑĮ":4813,"ÑĢÐ°ÐºÑĢÐ°Ñģ":4814,"ĠÐ¾Ð±ÑĬÐµÐºÑĤÑĭ":4815,"ĠÐĺÐļ":4816,"ĠÐ¾Ð±ÑīÐ¸Ð¹":4817,"ĠÑįÑĦÑĦÐµÐºÑĤÐ¸Ð²Ð½Ð¾Ð³Ð¾":4818,"ÐºÑĢÐ¾ÑĤ":4819,"ĠÐ¸ÑģÑĤÐ¾ÑĢ":4820,"ĠÐ¼ÐµÑĤÑĢ":4821,"ĠÐ¸Ð½ÑĦÑĢÐ°ÐºÑĢÐ°Ñģ":4822,"Ġ2008":4823,"ĠÑįÐºÑģÐ¿ÐµÑĢÑĤÐ½Ð¾":4824,"ĠÐ½ÐµÐ´Ð¾Ð¿":4825,"ĠÑģÐ¿Ð¾ÑģÐ¾Ð±Ð¾Ð²":4826,"ĠÑĢÑĭÐ½ÐºÐ¾Ð²":4827,"ĠÐ²Ð²ÐµÐ´ÐµÐ½Ð½ÑĭÑħ":4828,"ĠÑĦÐ¸Ð½Ð°Ð½ÑģÐ°Ð¼Ð¸":4829,"ĠÑģÐ¾Ð´ÐµÑĢÐ¶Ð°ÑīÐ°Ñı":4830,"ĠÐ½ÐµÑģÐµÑĤ":4831,"ĠÐ¿Ð¾ÑĤÑĢÐµÐ±Ð¸ÑĤÐµÐ»ÐµÐ¹":4832,"ĠÑĤÐ¸Ð¿Ð¾Ð²":4833,"Ð¿ÑĢÐ¾ÐµÐºÑĤ":4834,"ĠÑģÑĢÐµÐ´ÑģÑĤÐ²Ð°Ñħ":4835,"ĠÐ°Ð´ÑĢÐµÑģÐ°":4836,"ĠÐ¾ÑĤÐµÑĩÐµÑģÑĤÐ²ÐµÐ½Ð½Ð¾Ð¹":4837,"ĠÐľÐ¾ÑģÐºÐ²Ðµ":4838,"ĠÑĢÐµÐ¶Ð¸Ð¼Ð¾Ð²":4839,"ĠÐ¿ÑĢÐ¾Ð²Ð°Ð¹Ð´ÐµÑĢÐ°":4840,"ĠÐ¿ÑĢÐ¾Ð²Ð°Ð¹Ð´ÐµÑĢÑĥ":4841,"ÑİÑīÐ¸ÐµÑģÑı":4842,"ĠÐ·Ð´Ð¾ÑĢÐ¾Ð²ÑĮÑİ":4843,"ĠÐ¿ÑĢÐµÐ¾Ð±ÑĢÐ°Ð·":4844,"ĠÐ¸Ð½Ð¶ÐµÐ½ÐµÑĢ":4845,"ĠÑģÑĤÐ°ÑĤÑĥÑģ":4846,"ÑģÑĤÐ¸ÑĤÑĥÑĨÐ¸Ð¾Ð½":4847,"ĠÑĢÐ°Ð·ÑĢÐµÑĪÐµÐ½Ð¸Ñı":4848,"ĠÐ»Ð¸Ð´ÐµÑĢÐ¾Ð²":4849,"ĠÐ°Ð½Ð°Ð»Ð¾Ð³Ð¸Ñĩ":4850,"ĠÐ¡ÑĤÑĢÐ°ÑĤÐµÐ³Ð¸Ñı":4851,"ĠÐºÐ¾ÑģÐ¼Ð¸ÑĩÐµÑģÐºÐ¸Ñħ":4852,"ÐŁÑĢÐµÐ´ÑģÐµÐ´Ð°ÑĤÐµÐ»ÑĮ":4853,"ÑĥÐ±ÑģÐ¸Ð´Ð¸Ñı":4854,"ĠÐ±Ð»Ð°Ð³Ð¾Ð¿ÑĢÐ¸ÑıÑĤ":4855,"ural":4856,"ĠÐ½ÐµÑģÐ¾Ð¾ÑĤÐ²ÐµÑĤÑģÑĤÐ²Ð¸Ðµ":4857,"ÐŃÐ»ÐµÐºÑĤÑĢÐ¾Ð½Ð½ÑĭÐ¹":4858,"ĠÐ¸Ð½Ð´ÑĥÑģÑĤÑĢÐ¸":4859,"ĠÑģÑĨÐµÐ½Ð°ÑĢ":4860,"ĠÐ½ÐµÐ¿ÑĢÐµÐ´ÑģÑĤÐ°Ð²":4861,"94":4862,"de":4863,"gen":4864,"om":4865,"ĠS":4866,"ĠII":4867,"Ð¸ÐµÐ²":4868,"Ð½Ð°ÑĨÐ¸Ð¾Ð½":4869,"ÑĭÑģÐ»":4870,"ÐµÐ½Ð½ÑĥÑİ":4871,"Ð»Ð¸Ðº":4872,"ĠÐ¿Ð°ÑĨÐ¸":4873,"ĠÐ¿ÐµÐ½Ñģ":4874,"ĠÐ²ÐµÑĢ":4875,"ÐµÐ´ÐµÐ½Ð¸Ðµ":4876,"ÑĢÐ°Ð³":4877,"Ð¼Ð¾":4878,"ĠÐ¿ÑĢÐ¾Ð¿":4879,"Ð¿Ð¾ÑģÑĤÐ°Ð½Ð¾Ð²Ð»ÐµÐ½":4880,"ĠÐ½ÐµÐ³Ð¾":4881,"ĠÐ½ÐµÐ³":4882,"ÑģÐºÑĥÑİ":4883,"Ð¸Ð¹ÑģÐºÐ¾Ð¼":4884,"Ð¾ÑģÑĤÑĮÑİ":4885,"Ð¾Ð¼Ðµ":4886,"ÐµÐºÐ²":4887,"ĠÐ½Ð°Ð¸Ð¼ÐµÐ½Ð¾Ð²Ð°Ð½Ð¸Ðµ":4888,"Ð¸Ð¼Ð¿":4889,"Ð°Ð»Ð°Ð½ÑĤ":4890,"ĠÐ¾ÑĤÐºÐ»Ð¾Ð½":4891,"ĠÐ±Ð°Ðº":4892,"Ġ112":4893,"ĠÑĢÐµÑĪÐµÐ½Ð¸ÐµÐ¼":4894,"Ð°ÑģÑĮ":4895,"ĠÐ²ÑĭÐ±":4896,"ĠÐºÐ¾Ð½Ð²ÐµÑĢ":4897,"ĠÐ¿ÑĢÐ¾ÐµÐºÑĤÑĥ":4898,"ÐµÐ²ÑĤ":4899,"ÑĥÑİÑīÐ¸Ðµ":4900,"Ð¸ÑĢÐ¾Ð²Ð°Ð½Ð½Ð¾ÑģÑĤÐ¸":4901,"ĠÐ·Ð°ÐºÐ¾Ð½Ð½ÑĭÐµ":4902,"ĠÑĨÐµÐ»ÑıÐ¼":4903,"ĠÑįÐºÐ¾Ð½Ð¾Ð¼Ð¸ÐºÐµ":4904,"ĠÑĦÐ¾ÑĢÐ¼Ð°Ð¼":4905,"Ð´ÐµÑĢÐ¶ÐºÐ°":4906,"ĠÐĴÐ»Ð°Ð´":4907,"Ġ43":4908,"ĠÑģÐ»ÑĥÑĩÐ°Ð¹":4909,"ĠÐ¼ÐµÑĢÐ¾Ð¿ÑĢÐ¸ÑıÑĤÐ¸ÑıÑħ":4910,"ĠÐ¾Ð±ÑĬÑıÐ²Ð»ÐµÐ½Ð¸Ñı":4911,"ĠÐ²ÑĭÐ¿Ð»Ð°ÑĤ":4912,"Ð¢Ðŀ":4913,"ĠÐ·Ð°ÑīÐ¸Ñī":4914,"ĠÐ´Ð°Ð½Ð½Ð¾Ð¹":4915,"ĠÐ¾Ð³ÑĢÐ°Ð½Ð¸ÑĩÐµÐ½Ð¸Ð¹":4916,"ĠÑĥÑĤÐ²ÐµÑĢÐ¶Ð´ÐµÐ½Ð½Ð¾Ð³Ð¾":4917,"ĠÐ½Ð°ÑĨÐ¸Ð¾Ð½Ð°Ð»ÑĮÐ½ÑĭÐµ":4918,"ĠÐ²ÑĭÐ¿Ð¾Ð»Ð½Ñı":4919,"ĠÐ¼ÐµÐ¶Ð´ÑĥÐ½Ð°ÑĢÐ¾Ð´Ð½ÑĭÐ¼":4920,"ĠÑĨÐ¸ÑĦÑĢÐ¾Ð²Ð¾Ð¼Ñĥ":4921,"ĠÐ¼ÐµÐ´Ð¸ÑĨÐ¸Ð½ÑģÐºÐ¾Ðµ":4922,"ĠÐ¼Ð¸ÑĢÐ¾Ð²ÑĭÑħ":4923,"ÐµÑģÑıÑĩ":4924,"ĠÐ¸Ð½ÑĤÐµÐ»Ð»ÐµÐºÑĤÑĥÐ°Ð»ÑĮÐ½ÑĭÑħ":4925,"ÐŀÐ±ÐµÑģÐ¿ÐµÑĩÐµÐ½Ð¸Ðµ":4926,"ĠÐ¿ÑĢÐ¾ÑĨÐµÑģÑģÐ°":4927,"ĠÑģÐ¾Ð±Ð»ÑİÐ´Ð°ÑĤÑĮ":4928,"ÐŁÑĢÐ¸":4929,"ĠÐ½ÐµÑģÐ¾Ð±":4930,"ĠÐ²Ð»Ð°Ð´ÐµÐ»ÑĮÑĨÑĥ":4931,"ĠÐ¿Ð¾Ð·Ð²Ð¾Ð»ÑıÑİÑīÐ¸Ðµ":4932,"ĠÑģÐ½Ð¸Ð¶":4933,"ĠÑįÑĤÐ°Ð¿Ðµ":4934,"ĠÐ¿ÑĢÐµÐ²ÑĭÑĪÐ°ÐµÑĤ":4935,"ĠÐ°Ð±Ð·Ð°ÑĨÐµ":4936,"ĠÐ·Ð°Ð¼ÐµÑģÑĤ":4937,"ĠÐºÑĢÐ¸ÑĤÐµÑĢÐ¸ÑıÐ¼":4938,"ĠÐ²Ð½ÑĥÑĤÑĢÐµÐ½Ð½ÐµÐ¼":4939,"Ð½Ð¾Ð³Ð»Ð°Ñģ":4940,"ĠÐ¸Ð½ÑĤÐµÐ³ÑĢÐ°ÑĨÐ¸Ð¸":4941,"ĠÐ¿ÑĢÐ¸Ð½ÑĨÐ¸Ð¿Ð¾Ð²":4942,"ĠÐºÐ¾Ð½ÑĤÑĢÐ¾Ð»ÑĮÐ½ÑĭÑħ":4943,"ĠÑģÑĤÑĢÐ°Ð½Ð¸ÑĨÑĭ":4944,"ĠÐłÐ°Ð·Ð²Ð¸ÑĤÐ¸Ðµ":4945,"ĠÑĪÐ¸ÑĢÐ¾ÐºÐ¾Ð³Ð¾":4946,"ĠÐ½Ð°Ð¿ÑĢÐ°Ð²Ð»ÑıÑİÑĤÑģÑı":4947,"ĠÑĤÐµÐºÑĥÑīÐµÐ¼":4948,"ĠÐ¿Ð¾ÑģÑĤÐ°Ð²Ñī":4949,"arning":4950,"ĠÐ´Ð¾ÑģÑĤÐ¾Ð²ÐµÑĢÐ½Ð¾ÑģÑĤÐ¸":4951,"ĠÐ´Ð¾Ð±Ð°Ð²":4952,"ĠÑģÐ¿ÐµÐºÑĤÑĢÐ°":4953,"ĠÐ°ÑĤÐ¾Ð¼":4954,"ĠÐ¿ÑĥÐ±Ð»Ð¸ÐºÐ°ÑĨÐ¸Ð¹":4955,"ĠÐµÐ´Ð¸Ð½Ð¸ÑĨ":4956,"ĠÑģÐµÐºÑĤÐ¾ÑĢÐ¾Ð²":4957,"ĠÐ½Ð°Ð²Ñĭ":4958,"ĠÐ¿ÑĢÐ¾ÑĤÐ¸Ð²Ð¾Ð´ÐµÐ¹ÑģÑĤÐ²Ð¸Ñı":4959,"ĠÐ¿Ð¾ÑģÐ»ÐµÐ´ÑģÑĤÐ²Ð¸Ð¹":4960,"learning":4961,"ĠÐłÐµÑĪÐµÐ½Ð¸Ðµ":4962,"ĠÑĢÑĥÑģÑģÐºÐ¾Ð¼":4963,"ĠÐºÐ¾Ð½ÑĦÐµÑĢÐµÐ½ÑĨÐ¸ÑıÑħ":4964,"ĠÐ»ÑĮÐ³Ð¾ÑĤ":4965,"ĠÐ¿ÐµÐ½ÑģÐ¸Ð¾Ð½":4966,"Ð¿Ð¾ÑģÑĤÐ°Ð½Ð¾Ð²Ð»ÐµÐ½Ð¸ÐµÐ¼":4967,"71":4968,"fic":4969,"ĠC":4970,"Ð¾Ð¸Ð½":4971,"Ð¾Ð¸ÑĤÐµÐ»ÑĮÑģÑĤÐ²Ð¾":4972,"Ð½Ð°Ðº":4973,"ÑģÐ¾Ð·Ð´":4974,"ÑĢÐµÐ·":4975,"ÐµÐ½Ð½Ð¾Ð¼Ñĥ":4976,"Ð»Ð°Ñĩ":4977,"Ð²ÑĢÐ°Ñī":4978,"ĠÑģÐµÐ³":4979,"ĠÐ²Ð¸ÑĢ":4980,"ÑģÑĤÐ²Ð¾Ð²Ð°ÑĤÑĮ":4981,"Ð¾ÑĤÐ½ÑĭÑħ":4982,"ÑĤÐµÐ¶":4983,"ĠÐ´Ð°Ð²":4984,"Ð¾Ð½Ð°Ñħ":4985,"ÐµÐºÐ°Ð½Ð°Ð»":4986,"ĠÐºÐ¾Ñģ":4987,"ĠÐºÑĢÐµÐ´":4988,"ĠÑĤÐ°Ð¼":4989,"ÐµÐ¼ÑĭÐ¼Ð¸":4990,"ĠÐ·Ð²":4991,"ĠÐ·ÐµÐ¼":4992,"Ð¸ÑĤÐµÑĤÐ°":4993,"Ð¸ÑĩÐ½Ð¾":4994,"ĠÐ³Ðµ":4995,"ĠÐ¿ÑĢÐµÐ´Ð¼ÐµÑĤ":4996,"Ð°Ð¼ÐµÑĢ":4997,"ÑĦÐ¾ÑĢÐ¼Ð¸ÑĢÐ¾Ð²Ð°Ð½Ð¸Ðµ":4998,"ĠÑģÑĤÐ°":4999,"ĠÑģÑĤÐ°Ð½":5000,"ĠÑģÑĤÐ°Ð²":5001,"Ð»ÐµÐ½ÑĩÐµ":5002,"ĠÐ¸Ð½ÑĦÐ¾ÑĢÐ¼Ð°ÑĤ":5003,"Ð°ÑĨÐ¸Ð¾Ð½Ð½Ð°Ñı":5004,"ĠÐ¿ÐµÑĢÐµÐ¿":5005,"ĠÑĤÐµÑħÐ½Ð¾Ð»Ð¾Ð³Ð¸ÑĩÐµÑģÐºÐ°Ñı":5006,"Ġ223":5007,"ĠÐ²ÑĭÑĢÐ°Ð¶":5008,"ĠÐ»Ð°Ð±Ð¾ÑĢ":5009,"ĠÑģÐ¸ÑģÑĤÐµÐ¼Ð°ÑĤ":5010,"ÐĺÑģÑģÐ»ÐµÐ´":5011,"ĠÑģÐ»ÐµÐ´":5012,"ĠÐ¸Ð·Ð»ÑĥÑĩ":5013,"ÐµÐ³ÑĥÐ»":5014,"ĠÑģÑĢÐµÐ´Ð½ÐµÐ³Ð¾":5015,"ĠÑĥÑĩÐ¸ÑĤ":5016,"Ġ39":5017,"ĠÐ¡Ð¾Ð³Ð»Ð°Ñģ":5018,"Ð¸ÑģÐ»Ñı":5019,"ĠÐ·Ð°ÐºÐ¾Ð½Ð½ÑĭÑħ":5020,"ĠÐľÐ¸Ð½":5021,"ĠÑįÐºÑģÐ¿Ð¾ÑĢÑĤ":5022,"ĠÐ±ÑİÐ´Ð¶ÐµÑĤÐ½Ð¾Ð³Ð¾":5023,"ÑĤÑĢÐ¾Ð¸ÑĤÐµÐ»ÑĮÑģÑĤÐ²Ð¾":5024,"ĠÐ´ÐµÑĦ":5025,"ĠÑģÐ¾Ð·Ð´Ð°Ð½Ð¸Ð¸":5026,"ĠÐ¾Ð¿ÑĢÐµÐ´ÐµÐ»ÐµÐ½Ð¸Ðµ":5027,"100":5028,"ÐĲÐ½Ð°Ð»Ð¸ÑĤÐ¸ÑĩÐµÑģÐºÐ¸Ð¹":5029,"ĠÑģÐ¾ÑģÑĤÐ°Ð²Ðµ":5030,"ĠÐ²ÑĭÑģÐ¾ÐºÐ¾ÑĤ":5031,"ĠÐ²ÑĭÑģÐ¾ÐºÐ¾Ðº":5032,"ĠÐ¶ÑĥÑĢ":5033,"ĠÑĥÑĤÐ²ÐµÑĢÐ¶Ð´Ð°ÐµÑĤÑģÑı":5034,"ĠÐĺÐ¢":5035,"ĠÐ¼Ð¸ÑĢÐ¾Ð²Ð¾Ð¼":5036,"ĠÐ¸ÑģÐºÐ»ÑİÑĩÐ¸ÑĤÑĮ":5037,"ĠÐºÐ¾Ð½ÐºÑĥÑĢÑģÐ½Ð¾Ð³Ð¾":5038,"ĠÑĤÐµÑħÐ½Ð¸ÑĩÐµÑģÐºÐ¸Ð¼":5039,"ĠÑĥÑģÑĤÐ°Ð½Ð°Ð²Ð»Ð¸Ð²Ð°ÐµÑĤ":5040,"ÑĤÐµÐºÑģÑĤ":5041,"ĠÐ¸ÑģÐ¿Ð¾Ð»ÑĮÐ·ÑĥÐµÐ¼ÑĭÐµ":5042,"ÐĽÐķÐĿÐĺÐķ":5043,"ĠÐŁÐ¾Ð»ÑĥÑĩ":5044,"ĠÐ°Ð²ÑĤÐ¾Ð¼Ð°ÑĤÐ¸Ð·Ð°ÑĨÐ¸Ð¸":5045,"ĠÑģÐ½Ð¸Ð·":5046,"ĠÐ¸Ð¼ÐµÑİÑīÐ¸Ñħ":5047,"ĠÐ´Ð°ÑĤÐ°":5048,"ĠÐ´Ð¸ÑģÐ¿":5049,"ĠÐ¿Ð¾Ð´Ð¿Ð¸ÑģÐ°Ð½Ð½Ð°Ñı":5050,"ĠÐ·Ð°ÑĤÑĢÐ°ÑĤÑĭ":5051,"ĠÐ¾ÑĤÐ´ÐµÐ»ÑĮÐ½ÑĭÐµ":5052,"ĠÑģÐ¾ÑĤÑĢÑĥÐ´Ð½Ð¸ÐºÐ¾Ð²":5053,"ĠÐ¼Ð¾ÑīÐ½Ð¾ÑģÑĤÐµÐ¹":5054,"ĠÑıÐ·ÑĭÐºÐµ":5055,"ĠÑįÐºÐ¾Ð»Ð¾Ð³Ð¸ÑĩÐµÑģÐºÐ¾Ð¹":5056,"ĠÐ¿ÐµÑĢÐ²Ð¾Ð¼":5057,"ĠÐ¿ÐµÑĢÐ²Ð¾Ðµ":5058,"ĠÐ¿Ð¾Ð´ÑĤÐ²ÐµÑĢÐ¶Ð´Ð°ÑİÑīÐ¸Ñħ":5059,"ĠÑģÐ¾Ð²ÑĢÐµÐ¼ÐµÐ½Ð½Ð¾Ð¹":5060,"ĠÐ¾ÑĤÑģÑĥÑĤÑģÑĤÐ²ÑĥÐµÑĤ":5061,"ĠÑĥÐ¿ÑĢÐ°Ð²Ð»Ñı":5062,"ĠÐ¸Ð½ÑĤÐµÑĢÐµÑģÐ°Ð¼":5063,"ĠÑĤÐµÐ»ÐµÐºÐ°Ð½Ð°Ð»":5064,"ĠÐºÐ¾Ð½ÑĦÐ»Ð¸Ðº":5065,"ĠÐ¿ÑĢÐµÐ¸Ð¼":5066,"Ð¸ÑĢÐ¾Ð²ÐºÐ¸":5067,"ĠÐ¸Ð½Ð¶ÐµÐ½ÐµÑĢÐ½Ð¾Ð¹":5068,"ĠÐ±Ð¸Ð¾Ð»Ð¾Ð³":5069,"Ð»Ð¾ÐºÐ¾Ð²":5070,"ĠÐ¸Ð½Ð²ÐµÑģÑĤÐ¸ÑĨÐ¸Ð¾Ð½Ð½ÑĭÑħ":5071,"ĠÐĳÐ°Ð½ÐºÐ¾Ð¼":5072,"ĠÐ±Ð°Ð»Ð»Ð¾Ð²":5073,"ĠÐ³Ð¾ÑĤÐ¾Ð²Ð½Ð¾ÑģÑĤÐ¸":5074,"ĠÐ»Ð¸Ð½ÐµÐ¹":5075,"ĠÐºÐ¾Ð´ÐµÐºÑģÐ°":5076,"ĠÐµÑģÑĤÐµÑģÑĤÐ²ÐµÐ½Ð½Ð¾Ð³Ð¾":5077,"ĠÐ¾Ð¿ÐµÑĢÐ°ÑĤÐ¾ÑĢÐ°Ð¼":5078,"Ð¢ÐķÐĽÐ¬":5079,"ĠÐ´Ð²Ð¸Ð³Ð°ÑĤÐµÐ»ÐµÐ¹":5080,"ÑħÐ¾Ð¶Ð´ÐµÐ½Ð¸Ñı":5081,"ĠÑģÐ²Ð¾Ð¹ÑģÑĤÐ²":5082,"ĠÑĥÐ´Ð¾Ð²Ð»ÐµÑĤÐ²Ð¾ÑĢ":5083,"ĠÐ»ÑĥÑĩÑĪÐ¸Ñħ":5084,"ĠÐĺÐ½ÑĦÐ¾ÑĢÐ¼Ð°ÑĨÐ¸Ñı":5085,"ĠÑģÐ¾Ð¾ÑĢÑĥÐ¶ÐµÐ½Ð¸Ð¹":5086,"ĠÑģÐ¿ÑĢÐ¾ÑģÐ°":5087,"ĠÐ»Ð°Ð±Ð¾ÑĢÐ°ÑĤÐ¾ÑĢ":5088,"Ð¢ÐķÐĽÐ¬Ð¡Ð¢ÐĴ":5089,"87":5090,"tr":5091,"Ġlearning":5092,"Ð¾ÑĦ":5093,"Ð¾ÐµÐ¼":5094,"Ð¾ÑĥÑģÑĤ":5095,"Ð½Ð¸":5096,"Ð°ÑĤÐµÐ¶":5097,"ÑģÐ¸Ð»ÑĮÐ½Ð¾Ð³Ð¾":5098,"ÑĥÐµÑĤÑģÑı":5099,"ÑģÑĤÑĢ":5100,"ĠÐ¿Ð°ÑĤ":5101,"ÐºÐ¾Ð»ÑĮ":5102,"ÐºÐ¾ÑģÐ¼":5103,"Ð°Ð½Ð¸ÐµÐ¼":5104,"ĠÑģÐ²ÐµÑĤ":5105,"ĠÑģÑĩÐ¸ÑĤ":5106,"ÐµÑĢÐ½Ð¾Ðµ":5107,"Ð¼Ð°ÑĨ":5108,"ĠÐ½ÐµÑĢ":5109,"ÑĦÐ¾ÑĢÑĤ":5110,"ĠÑĢÐµÐ»":5111,"ĠÑĢÑĥÐ±ÐµÐ¶":5112,"ĠÑĢÐ¾Ð±Ð¾ÑĤ":5113,"Ð¾Ð¼Ð°ÑĤ":5114,"ĠÐºÐĴÑĤ":5115,"ĠÑĥÐ´ÐµÐ»ÑĮ":5116,"ĠÑĥÑģÐºÐ¾ÑĢ":5117,"ĠÐ¸Ð½ÑĥÑİ":5118,"ĠÐ¸Ð½ÑĤÐµÑĢÐ½ÐµÑĤ":5119,"ĠÐ¤Ð¾ÑĢÐ¼":5120,"ĠÑĦÐ°Ð¼":5121,"2006":5122,"Ð°ÑĢÐ¼Ð°ÑĨ":5123,"ĠÑĢÐ°Ð·Ð½Ð¾Ð³Ð»Ð°Ñģ":5124,"Ð¸Ð²Ð½Ð¾Ð³Ð¾":5125,"ÑİÑīÐ¸Ð¼Ð¸":5126,"Ð¸Ð´Ðµ":5127,"ĠÑģÑĤÐµÐº":5128,"Ð»ÐµÐ½Ð½Ð¾Ð¹":5129,"ĠÑĤÐµÑħÐ½Ð¸ÐºÐ°":5130,"Ð¸Ð»Ð¸Ñī":5131,"ÑĢÑĥÐ¶Ðµ":5132,"ÑıÐ·Ð°Ð½":5133,"ĠÐºÐ¾Ð¼ÑĦÐ¾ÑĢÑĤ":5134,"ĠÐºÐ¾Ð½ÐµÑĩ":5135,"ĠÐ¿ÐµÑĢÑģÐ¾Ð½Ð°Ð»ÑĮÐ½ÑĭÐ¼Ð¸":5136,"Ð¾Ð»ÑĮÐ·Ð¾Ð²Ð°Ð½Ð¸Ðµ":5137,"ĠÐ¾Ð±ÐµÑģÐ¿ÐµÑĩÐ¸Ð²Ð°ÑİÑĤ":5138,"ĠÐ¿ÑĢÐ°Ð²Ð¾Ð²Ð¾Ð¹":5139,"ĠÐ³Ð¾ÑģÑĥÐ´Ð°ÑĢÑģÑĤÐ²ÐµÐ½Ð½ÑĭÐ¹":5140,"Ġ38":5141,"ĠÑĥÐºÐ°Ð·Ð°ÑĤÐµÐ»":5142,"Ð½Ð¾Ð²ÑĢÐµÐ¼":5143,"ĠÑĢÐµÐ·ÑĥÐ»ÑĮÑĤÐ°ÑĤÐ°Ð¼Ð¸":5144,"Ð¿ÑĢÐ¾Ð¼ÑĭÑĪÐ»ÐµÐ½":5145,"ĠÐļÐ¾Ð´":5146,"ÑıÐ²Ð»ÐµÐ½Ð¸Ð¸":5147,"Ð½Ð°ÑĩÐµÐ½Ð¸Ðµ":5148,"ĠÐ¾Ð¿ÐµÑĢÐµÐ¶":5149,"ĠÑģÐ¿Ð¾ÑĢÑĤ":5150,"ĠÑįÐºÑģÐ¿ÐµÑĢÑĤÐ¾Ð²":5151,"ĠÐ¿Ð¾ÑĢÑıÐ´ÐºÐ¾Ð²ÑĭÐ¹":5152,"Ġ54":5153,"ĠÐ¾Ð¿ÑĢÐµÐ´ÐµÐ»Ð¸ÑĤÑĮ":5154,"ĠÐ¿Ð»Ð°ÑĤÐµÐ¶":5155,"ĠÐ²ÐºÐ»ÑİÑĩÐµÐ½Ð¸Ñı":5156,"ÑĢÐ°ÑĤÐµÐ³Ð¸Ñı":5157,"ĠÑĢÐ°ÑģÐ¿Ð¾Ð»Ð¾Ð¶":5158,"ĠÐ´Ð¾ÑģÑĤÐ¸Ð¶ÐµÐ½Ð¸ÐµÐ¼":5159,"ĠÐ·Ð°ÑıÐ²Ð¸ÑĤÐµÐ»Ñı":5160,"ĠÑĥÑĢÐ¾Ð²Ð½ÐµÐ¹":5161,"ĠÐ³ÑĢÐ°Ð½Ð¸ÑĨ":5162,"ĠÐ¿Ð¾Ð·Ð¸ÑĨÐ¸Ð¸":5163,"ĠÑģÐ¾Ð³Ð»Ð°ÑĪÐµÐ½Ð¸Ð¹":5164,"Ð¸ÑĢÑĥÑİÑĤ":5165,"ĠÐ¶Ð¸Ð»Ð¸Ñī":5166,"ĠÐ²ÑĭÐ¿Ð¾Ð»Ð½ÐµÐ½Ð¸ÐµÐ¼":5167,"ĠÑĢÐµÐ³ÑĥÐ»Ð¸ÑĢÐ¾Ð²Ð°Ð½Ð¸Ñİ":5168,"ĠÐ¾Ð±ÑĢÐ°Ð·Ð¾Ð²Ð°Ð½Ð¸ÑıÑħ":5169,"ĠÐ¿Ð¾Ð»ÑĥÑĩÐ°ÑĤÐµÐ»ÑıÐ¼":5170,"ĠÐ°ÐºÑģÐµÐ»ÐµÑĢÐ°ÑĨÐ¸Ð¸":5171,"ĠÐ·Ð°ÐºÐ»ÑİÑĩÐµÐ½Ð¸Ð¸":5172,"ĠÐ¾Ð´Ð¸Ð½":5173,"ĠÑİÑĢÐ¸Ð´Ð¸ÑĩÐµÑģÐºÐ¸Ð¼Ð¸":5174,"ĠÐ¿ÐµÑĢÐµÐ´Ð¾Ð²ÑĭÑħ":5175,"ĠÐ¼ÐµÑģÑĤÐ¾":5176,"ĠÐĵÐŀÐ¡Ð¢":5177,"ĠÐ£ÐºÐ°Ð·Ð°Ð½Ð½ÑĭÐµ":5178,"ĠÐ¼Ð¸ÑĢÐ¾Ð²Ð¾Ð¹":5179,"ĠÐ½Ð¾ÑĢÐ¼Ð°ÑĤÐ¸Ð²Ð½ÑĭÐµ":5180,"ĠÑĤÑĢÐ°Ð½ÑģÐ¿Ð¾ÑĢÑĤÐ°":5181,"ĠÐĶÐ¾Ð¿Ð¾Ð»Ð½Ð¸ÑĤÑĮ":5182,"ĠÑĢÑĭÐ½ÐºÐ°Ñħ":5183,"ĠÑģÐ¾Ð´ÐµÑĢÐ¶Ð°ÑīÐµÐ¹":5184,"ĠÑĦÐ¸Ð·Ð¸ÑĩÐµÑģÐºÐ¾Ð¹":5185,"ĠÑģÑĤÑĢÐ¾Ð¸ÑĤÐµÐ»ÑĮÑģÑĤÐ²Ñĥ":5186,"ĠÑģÑĥÐ´Ð°":5187,"ĠÐ¿Ð¾Ð·Ð²Ð¾Ð»ÑıÐµÑĤ":5188,"ĠÐ´Ð²Ð¾Ð¹Ð½Ð¾Ð³Ð¾":5189,"ĠÑģÑĤÐ°Ð½Ð´Ð°ÑĢÑĤÐ¸Ð·Ð°ÑĨÐ¸Ð¸":5190,"ĠÐ³Ð°Ð·Ð°":5191,"ĠÑĢÐµÐºÐ¾Ð¼ÐµÐ½Ð´Ð°ÑĤÐµÐ»ÑĮÐ½ÑĭÐµ":5192,"ĠÐ½ÐµÐ´Ð¾ÑģÑĤÐ°ÑĤÐ¾Ñĩ":5193,"Ð²ÐµÑĢÑĤ":5194,"ĠÑģÐ±Ð¾ÑĢÐ¾Ð²":5195,"ĠÐ¸Ð´ÐµÐ½ÑĤÐ¸ÑĦÐ¸ÐºÐ°ÑĨÐ¸Ð¸":5196,"ĠÐ²Ð¸Ð´ÐµÐ¾":5197,"ĠÐ¾ÐºÐ°Ð·ÑĭÐ²Ð°ÑİÑīÐ¸Ñħ":5198,"ĠÐ¿ÑĢÐµÐ´Ð¿Ð¸ÑģÐ°Ð½Ð¸Ñı":5199,"ĠÐ²ÑģÑĤÑĥÐ¿Ð»ÐµÐ½Ð¸Ñı":5200,"ĠÐ²ÑģÑĤÑĥÐ¿Ð°ÐµÑĤ":5201,"ĠÐºÐ°Ð¶Ð´Ð¾Ð³Ð¾":5202,"ĠÐ¿ÑĢÐ¾Ð±Ð»ÐµÐ¼Ñĭ":5203,"ĠÑĪÐºÐ¾Ð»":5204,"ĠÑĩÐ»ÐµÐ½Ð¾Ð²":5205,"ĠÑģÐ¾Ð²Ð¾ÐºÑĥÐ¿Ð½Ð¾ÑģÑĤÐ¸":5206,"ĠÑĥÑĩÐ°ÑģÑĤÐ¸Ñİ":5207,"ĠÐŀÑĤÐ²ÐµÑĤ":5208,"ĠÐ¿ÑĢÐ¸Ð²Ð»ÐµÐºÐ°ÑĤÐµÐ»ÑĮ":5209,"ĠÐĵÐ¾ÑģÑĥÐ´Ð°ÑĢÑģÑĤÐ²ÐµÐ½Ð½Ð°Ñı":5210,"ĠÐ½Ð°ÐºÐ¾Ð¿":5211,"ĠÐ·Ð½Ð°Ð½Ð¸Ñı":5212,"ĠÑħÐ°ÑĢÐ°ÐºÑĤÐµÑĢÐ¸ÑģÑĤÐ¸ÐºÐ°Ð¼Ð¸":5213,"ĠÐŁÐ¾Ð»Ð¾Ð¶ÐµÐ½Ð¸ÐµÐ¼":5214,"ĠÐ·Ð°Ð½ÑıÑĤÑĭÑħ":5215,"ĠÐ·Ð°Ð²ÐµÑĢÑĪÐµÐ½Ð¸Ñı":5216,"ĠÐ°Ð½Ð³Ð»":5217,"ÑĢÐµÐºÐ¾Ð½":5218,"ĠÐ·Ð°Ð´Ð¾Ð»Ð¶ÐµÐ½Ð½Ð¾ÑģÑĤÐ¸":5219,"ĠÑĢÐµÐ¹ÑĤÐ¸Ð½Ð³Ð°":5220,"ĠÑģÐ¾Ð²ÐµÑĢÑĪÐµÐ½Ð¸Ð¸":5221,"ĠÐ¿ÑĢÐ¾ÑĪÐµÐ´":5222,"ĠÑģÐ¸Ð½ÑĤÐµÐ·":5223,"ĠÑģÑĤÐ°Ð±Ð¸Ð»ÑĮÐ½Ð¾ÑģÑĤÐ¸":5224,"ĠÐ£Ð¿ÑĢÐ°Ð²Ð»ÐµÐ½Ð¸Ðµ":5225,"ÑıÑīÐ¸ÐµÑģÑı":5226,"ÐŁÑĢÐ¸Ð¼ÐµÑĩÐ°Ð½Ð¸Ðµ":5227,"ĠÐŁÐµÑĢÐµÑĩ":5228,"ĠÐ¿Ð¾Ð²ÑĭÑģÐ¸ÑĤÑĮ":5229,"ĠÑįÐ»ÐµÐºÑĤÑĢÐ¾ÑįÐ½ÐµÑĢÐ³Ð¸Ð¸":5230,"ĠÑĤÐ²ÐµÑĢÐ´Ð¾ÑĤ":5231,"ĠÐŀÑģÐ¾Ð±ÐµÐ½Ð½Ð¾ÑģÑĤÐ¸":5232,"ĠÐ¿ÑĢÐ°Ð²Ð¾Ð¾Ð±Ð»Ð°Ð´Ð°ÑĤÐµÐ»Ñı":5233,"ĠÐ½ÐµÑģÐºÐ¾Ð»ÑĮÐºÐ¸Ñħ":5234,"ĠÐ°Ð¿ÑĢÐ¾Ð±Ð°ÑĨÐ¸Ð¸":5235,"ĠÑĤÐ°Ð¼Ð¾Ð¶":5236,"Ð°ÑĢÐ¼Ð°ÑĨÐµÐ²ÑĤ":5237,"EM":5238,"ut":5239,"wor":5240,"ĠÐ¸Ð³":5241,"ÐµÑıÑĤÐµÐ»ÑĮ":5242,"ÑĤÐµÐ½Ñģ":5243,"ÑģÑĢÐµÐ´":5244,"ÑģÑĤÐ¸ÑĤ":5245,"ÑģÑĤÑĢÐ¾Ð¸ÑĤÐµÐ»ÑĮ":5246,"ÐµÐ½ÐµÐ¹":5247,"Ð»ÐµÐ³":5248,"Ð°Ð½Ð½Ð¾Ðµ":5249,"Ð¾ÑĢÐ½ÑĭÑħ":5250,"Ð¿Ð»Ð°Ð½":5251,"ĠÐ½ÐµÑĤ":5252,"ĠÐ½ÐµÑĤÑĢ":5253,"Ð¾ÑĤÐ²ÑĢÐ°Ñī":5254,"ĠÐ´Ð»":5255,"ĠÐ´Ð¸ÑģÑĤ":5256,"ĠÐºÐ°ÑĢ":5257,"ĠÐºÑĢÐµÐ¼":5258,"ĠÑĤÐµÐ½Ð´":5259,"ĠÑĥÐ·":5260,"ÐµÐ¼Ð°Ñı":5261,"ĠÐ¼Ð³":5262,"ĠÐ¼Ð¸Ð½":5263,"ĠÐ·Ð°Ð³":5264,"Ð¸Ð¼ÑĭÐµ":5265,"ÑĪÐµÐ¹":5266,"ÑĪÐ¸Ð±":5267,"ÑĪÐºÐ¾Ð»ÑĮ":5268,"Ð±ÑĢ":5269,"Ð±Ð»Ð¾ÐºÐ¾Ð²":5270,"ĠÐ¤ÐµÐ´ÐµÑĢÐ°ÑĨÐ¸ÐµÐ¹":5271,"ĠÐłÐ°ÑģÐ¿":5272,"ĠÐłÐµÐ°Ð»Ð¸Ð·Ð°ÑĨÐ¸Ñı":5273,"ÑįÑĤ":5274,"Ð·Ð°ÑĢ":5275,"ĠÐ³ÑĢÑĥÐ·":5276,"Ð°Ð²ÑĤ":5277,"Ð°Ð¼ÐµÑī":5278,"Ð¾Ð·Ð°Ð¼ÐµÑī":5279,"ÑĥÐ´Ð¾ÑģÐ¿Ð¾ÑģÐ¾Ð±Ð½Ð¾ÑģÑĤÐ¸":5280,"ĠÐ¾ÑĪÐ¸Ð±":5281,"Ð¾ÑıÑĤ":5282,"Ð¾ÑĩÐ½Ð¾Ð³Ð¾":5283,"ĠÐºÐ¾Ð¼Ð¼ÑĥÐ½":5284,"ĠÐŁÑĢÐ¸Ð¼":5285,"ĠÐ´Ð¾ÑģÑĤÐ°ÑĤÐ¾Ñĩ":5286,"Ð¸ÑĢÐ¾Ð²Ð°Ð½Ð½ÑĭÐ¹":5287,"ĠÑĩÐ¸ÑģÐ»Ð°":5288,"Ð½Ð¾Ð²ÐµÐ½Ð½ÑĭÐ¼Ð¸":5289,"ÐĴÐĽÐķÐĿÐĺÐķ":5290,"ĠÐ¡Ð¤":5291,"Ð°ÑĨÐ¸ÑıÐ¼Ð¸":5292,"ĠÐ»Ð¸ÑĨÐµ":5293,"Ġ2010":5294,"ÐŁÐŀÐ¡Ð¢":5295,"ĠÐ¼ÐµÑĢÐ°Ñħ":5296,"ĠÐ¿ÑĢÐ¾Ð³ÑĢÐ°Ð¼Ð¼Ñĥ":5297,"ĠÐ´ÐµÑıÑĤÐµÐ»ÑĮÐ½Ð¾ÑģÑĤÑĮÑİ":5298,"ĠÐ¸Ð¼ÑĥÑīÐµ":5299,"Ð¸ÑĤÐµÐ»Ñİ":5300,"ĠÐ½ÐµÐ¾Ð±ÑħÐ¾Ð´Ð¸Ð¼ÑĥÑİ":5301,"Ð°ÑĤÐ¸Ð²Ð½ÑĭÐµ":5302,"Ð½ÑıÑı":5303,"ÐĿÐ°ÑģÑĤÐ¾ÑıÑī":5304,"ÐĲÐĿÐŀ":5305,"116":5306,"ĠÑĦÐ¸Ð½Ð°Ð½ÑģÐ¾Ð²Ð¾":5307,"ĠÐ·Ð°ÑıÐ²Ð»ÐµÐ½Ð¸Ñı":5308,"ĠÐ¼Ð¾Ð´ÐµÐ»ÑĮ":5309,"ĠÐ·Ð°Ð¿Ð»Ð°Ð½":5310,"Ð¸Ð³Ð¸":5311,"ÐµÐ´ÑĢÐµÐ½Ð¸Ðµ":5312,"ĠÐ²ÑĭÐ¿Ð¾Ð»Ð½ÐµÐ½Ð¸Ð¸":5313,"ĠÐĺÐ¡":5314,"ĠÐ¿ÑĢÐ¸Ð¾ÑĢÐ¸ÑĤÐµÑĤÐ½ÑĭÐ¼":5315,"ĠÐ¿ÑĢÐ¸Ð²Ð¾Ð´":5316,"ĠÐ¿ÑĢÐ¸Ð²Ð»ÐµÑĩÐµÐ½Ð¸Ðµ":5317,"Ð¿ÑĢÐ°Ð²Ð¾Ð²ÑĭÑħ":5318,"ĠÐ¾Ð±ÑīÐµÐµ":5319,"ĠÐ²Ð·Ð°Ð¸Ð¼Ð¾ÑģÐ²ÑıÐ·":5320,"ĠÐ´Ð¾ÐºÑĥÐ¼ÐµÐ½ÑĤÐ°Ð¼Ð¸":5321,"ĠÐ¼ÐµÐ´Ð¸ÑĨÐ¸Ð½ÑģÐºÐ¸Ðµ":5322,"ĠÐ¿Ð¾Ð´Ð³Ð¾ÑĤÐ¾Ð²ÐºÐµ":5323,"ĠÐºÐ¾Ð½ÐºÑĥÑĢÑģÐ½Ð¾Ð¼":5324,"ĠÐ²Ð¸Ð´Ñĥ":5325,"ĠÐ¸Ð½Ð¾ÑģÑĤÑĢÐ°Ð½Ð½Ð¾Ð³Ð¾":5326,"ĠÐ²ÑģÐµÐ¼":5327,"ĠÐ³ÑĢÑĥÐ¿Ð¿Ð¾Ð¹":5328,"ĠÐ¼Ð¾Ð´ÐµÐ»Ð¸ÑĢÐ¾Ð²Ð°Ð½Ð¸Ñı":5329,"ĠÑħÐ°ÑĢÐ°ÐºÑĤÐµÑĢÐ¸Ð·Ñĥ":5330,"ĠÑĥÑģÑĤÐ°Ð½Ð°Ð²Ð»Ð¸Ð²":5331,"ĠÐ½Ð°Ð»Ð¸ÑĩÐ¸Ñı":5332,"ĠÐ°Ð¿Ð¿Ð°ÑĢÐ°ÑĤÐ¾Ð²":5333,"ÑĢÐ°ÑĦÐ¸Ðº":5334,"ÑĢÐµÐ°ÑĨÐ¸Ð¾Ð½Ð½Ð¾Ð¹":5335,"ĠÑĢÐ°Ð·Ð»Ð¸ÑĩÐ½Ð¾Ð³Ð¾":5336,"ĠÐ¸ÑģÐ¿Ð¾Ð»ÑĮÐ·ÑĥÐµÑĤÑģÑı":5337,"ĠÑĦÐ°ÐºÑĤÐ¾ÑĢÐ¾Ð²":5338,"ĠÑģÐ¾Ð±Ð»ÑİÐ´ÐµÐ½Ð¸Ðµ":5339,"ĠÑģÐ¾Ð±Ð»ÑİÐ´ÐµÐ½Ð¸ÐµÐ¼":5340,"ĠÑĢÑĥÐºÐ¾Ð²Ð¾Ð´Ð¸ÑĤÐµÐ»Ñı":5341,"ĠÐ¸Ð½Ð½Ð¾Ð²Ð°ÑĨÐ¸Ð¾Ð½Ð½ÑĭÑħ":5342,"Ð½Ð¾ÑģÐ¾Ð²":5343,"ine":5344,"ĠÑĥÐ³Ð»":5345,"ĠÐ¿Ð¾ÑĤÐ¾Ðº":5346,"ÐŃÐº":5347,"ÐŃÐļ":5348,"ĠÑĢÐµÐºÐ¾Ð¼ÐµÐ½Ð´Ð°ÑĨÐ¸Ð¸":5349,"ĠÑģÐ±Ð¾ÑĢÐ°Ñħ":5350,"ĠÐ¿Ð°ÑĢÑĤÐ½ÐµÑĢÐ¾Ð²":5351,"ĠÐ´Ð¾Ð²ÐµÑĢÐµÐ½Ð½Ð¾Ð³Ð¾":5352,"ĠÐ¿Ð»Ð°Ð½Ð¾Ð²Ð¾Ðµ":5353,"III":5354,"ĠÐ¿ÑĢÐ¸Ð¼ÐµÐ½ÑıÐµÐ¼ÑĭÑħ":5355,"ĠÐºÐ»ÑİÑĩÐµÐ²":5356,"ĠÐ¿Ð¾Ð¼Ð¾ÑīÑĮÑİ":5357,"ĠÐ¿ÑĢÐ¸Ð»Ð¾Ð¶ÐµÐ½Ð¸ÐµÐ¼":5358,"ĠÐ¿ÑĢÐ¸ÑĩÐ¸Ð½ÐµÐ½Ð¸Ñı":5359,"ĠÐ¾ÑĤÐºÐ°Ð·Ðµ":5360,"ĠÐ¾Ð±ÑĢÐ°Ð±Ð°ÑĤÑĭÐ²Ð°ÐµÐ¼ÑĭÑħ":5361,"ĠÐ´Ð¾Ð¿ÑĥÑģÐºÐ°ÑĤÑĮ":5362,"ĠÑĤÐ¾ÑĩÐµÐº":5363,"ĠÑĤÐµÐºÑĥÑīÐµÐ³Ð¾":5364,"ĠÐŀÑĤÑĩÐµÑĤ":5365,"ÐĿÐ°Ð¸Ð¼ÐµÐ½Ð¾Ð²Ð°Ð½Ð¸Ðµ":5366,"Ð¾ÑģÐ½Ð°Ð±":5367,"ĠÐ°ÑĥÐ´Ð¸Ð¾Ð²Ð¸Ð·ÑĥÐ°Ð»ÑĮÐ½ÑĭÑħ":5368,"ĠÑģÑĤÐ¸Ð¼ÑĥÐ»Ð¸ÑĢÐ¾Ð²Ð°Ð½Ð¸Ñı":5369,"ĠÐ½Ð°Ð»Ð¾Ð³Ð°Ñħ":5370,"ĠÑĢÐ°ÑģÐ¿ÑĢÐµÐ´ÐµÐ»ÐµÐ½Ð¸Ñı":5371,"ĠÐ¾ÑĤÑģÑĥÑĤÑģÑĤÐ²Ð¸Ð¸":5372,"ĠÐ¿Ð¾ÑģÑĤÐ°Ð½Ð¾Ð²Ð»ÑıÐµÑĤ":5373,"ĠÐ¿ÑĢÐ¸ÐµÐ¼Ð°":5374,"ÑĢÐ¾Ð¼Ðµ":5375,"ĠÐ½Ð°Ð½ÐµÑģ":5376,"ĠÐ½ÐµÑģÐºÐ¾Ð»ÑĮÐºÐ¾":5377,"ĠÐ²Ð·Ð½Ð¾ÑģÐ¾Ð²":5378,"ĠÑĥÐ½Ð¸ÐºÐ°Ð»ÑĮÐ½ÑĭÑħ":5379,"ĠÐºÐ¾Ð¼Ð¿Ð»ÐµÐºÑĤÑĥÑİÑīÐ¸Ñħ":5380,"ÐŀÑģÐ½Ð¾Ð²":5381,"ĠÑģÐµÑĢÑĤÐ¸ÑĦÐ¸ÐºÐ°ÑĤÐ¾Ð²":5382,"ÑĦÑĥÐ½ÐºÑĨÐ¸Ð¾Ð½":5383,"ĠÐºÐ¾Ð³Ð½Ð¸ÑĤ":5384,"ÑĢÐ°ÑģÑħÐ¾Ð´Ñĭ":5385,"ĠÐ¿Ð¸ÑģÑĮÐ¼ÐµÐ½":5386,"ĠÐ¿ÐµÐ½ÑģÐ¸Ð¾Ð½Ð½Ð¾Ðµ":5387,"ĠÐºÐ¾ÑģÐ²":5388,"ÑģÑĤÐ¸ÑĤÑĥÑĤ":5389,"ĠÐ½ÐµÑĤÑĢÑĥÐ´Ð¾ÑģÐ¿Ð¾ÑģÐ¾Ð±Ð½Ð¾ÑģÑĤÐ¸":5390,"ĠÐ´Ð¸ÑģÑĤÐ°Ð½":5391,"ĠÐ¼Ð³Ð½Ð¾Ð²ÐµÐ½Ð½ÑĭÐ¼Ð¸":5392,"ÐŁÐŀÐ¡Ð¢ÐĲÐĿÐŀ":5393,"ÐĿÐ°ÑģÑĤÐ¾ÑıÑīÐ¸Ð¹":5394,"ÐŁÐŀÐ¡Ð¢ÐĲÐĿÐŀÐĴÐĽÐķÐĿÐĺÐķ":5395,"75":5396,"pi":5397,"¶Ð¸Ð´":5398,"ĠÑĤÐµÐ»ÐµÐºÐ¾Ð¼":5399,"ÐµÑģÐ»Ð¸":5400,"ÑģÑĥÐ¶Ð´":5401,"ÑĥÐºÑĤ":5402,"ÑĭÑģÑı":5403,"ĠÐ¿Ð¾Ð²ÐµÑĢ":5404,"ĠÐ¿ÐµÐ½ÐµÐ¹":5405,"ĠÑģÐ¸Ð¼":5406,"ĠÐ²Ð¾ÑģÑĤ":5407,"Ð¿Ð°ÑĢÑĤÐ½ÐµÑĢ":5408,"ĠÐ¾Ð»":5409,"ĠÐ¾Ð¶Ð¸Ð´":5410,"Ð¾ÑģÑĤÑĢÐ¾Ð¸ÑĤÐµÐ»ÑĮ":5411,"ĠÑĢÐ°ÑĨÐ¸Ð¾Ð½":5412,"ĠÑĤÑĭÑģÑı":5413,"ĠÐ¾Ð±ÑĥÑģÐ»":5414,"ĠÐ¾Ð±ÑģÑĥÐ¶Ð´":5415,"Ð¾Ð³ÑĢÐ°Ð´":5416,"Ð¸Ð¼Ð°Ð½Ð¸Ñı":5417,"ÑĪÐ°Ñı":5418,"ĠÑĦÐ°ÑĢÐ¼Ð°ÑĨÐµÐ²ÑĤ":5419,"Ð°ÑģÑĤÐ¾ÑıÑīÐµÐµ":5420,"ÐµÐ»ÐµÐ¹":5421,"Ð¸Ð»Ð¸Ð·Ð°ÑĨÐ¸Ð¸":5422,"ĠÐ¿ÑĢÐ¾Ñĩ":5423,"ĠÐ¿ÑĢÐ¾Ð¸Ñģ":5424,"ÑİÑīÐµÐ¹ÑģÑı":5425,"Ð¸Ð´ÐµÐ½Ð¸Ñı":5426,"Ð¾Ð¿ÑĤ":5427,"ĠÑģÐ¾ÐµÐ´Ð¸Ð½":5428,"ĠÐ¿Ð¾Ð»Ð½Ð¾Ð¼":5429,"Ð¾ÑĩÐ°ÑģÑĤ":5430,"ÑģÐ¾Ð²ÐµÑĢÑĪÐµÐ½":5431,"ĠÐ¿ÑĢÐ¾ÐµÐºÑĤÐ½ÑĭÐ¹":5432,"ÐµÐ²ÑĢÐµÐ¼":5433,"ÐĺÐ¯":5434,"Ð°ÑİÑīÐ¸Ð¼Ð¸":5435,"ĠÐ¡ÑĥÐ±ÑģÐ¸Ð´Ð¸Ñı":5436,"ĠÐ·Ð°ÐºÐ¾Ð½Ð½ÑĥÑİ":5437,"ĠÑĨÐµÐ»ÑıÐ¼Ð¸":5438,"ÐŀÑĤ":5439,"ĠÐľÐĺÐ¡":5440,"Ð¿ÑĢÐ¾Ð´":5441,"ĠÐ»Ð¸ÑĨÐµÐ½Ð·":5442,"ÑĥÐ¼Ð°Ð½":5443,"ĠÐ¿ÑĢÐ¾ÑĨÐµÐ½ÑĤ":5444,"ĠÐ½Ð°Ð¿ÑĢÐ°Ð²Ð»ÐµÐ½Ð¸Ðµ":5445,"2010":5446,"ĠÐ¾Ð±ÑĢÐ°Ð·Ð¾Ð²Ð°Ð½Ð¸Ñİ":5447,"Ð°Ð±Ð°ÑĢ":5448,"ĠÑģÑĦÐµÑĢÐ°Ñħ":5449,"ĠÑĢÐ°Ð±Ð¾ÑĤÐ°ÑİÑīÐ¸Ñħ":5450,"ĠÑģÐ¾Ð·Ð´Ð°Ð½Ñĭ":5451,"ĠÐ´Ð¾ÑģÑĤÑĥÐ¿Ð½Ð¾ÑģÑĤÑĮ":5452,"ĠÐ¿Ð¾ÐºÑĢÑĭÑĤ":5453,"Ġ42":5454,"Ġ490":5455,"ĠÐ¸Ð¼ÐµÐ½":5456,"ĠÑıÐ²Ð»ÑıÑİÑīÐ¸ÐµÑģÑı":5457,"ĠÐľÐ¸Ð½Ð¸ÑģÑĤÐµÑĢÑģÑĤÐ²Ñĥ":5458,"ĠÐ½ÐµÐ¾Ð±ÑħÐ¾Ð´Ð¸Ð¼Ð¾ÑģÑĤÑĮ":5459,"ĠÐ½ÐµÐ¾Ð±ÑħÐ¾Ð´Ð¸Ð¼ÑĭÐ¼Ð¸":5460,"ĠÐ¿ÑĢÐµÐ´ÑģÑĤÐ°Ð²Ð»ÐµÐ½Ð¸Ðµ":5461,"ĠÑģÐ¾ÑģÑĤÐ°Ð²Ð¸ÑĤ":5462,"ĠÑĦÐ¸Ð½Ð°Ð½ÑģÐ¾Ð²Ð¾Ð¹":5463,"ĠÐ´Ð¾Ð»Ð¸":5464,"Ð¢ÐµÑħ":5465,"ĠÑģÐ¾Ð´ÐµÑĢÐ¶Ð°Ð½Ð¸Ñİ":5466,"ĠÐ¾ÑģÐ½Ð°Ñī":5467,"ĠÑģÐ¿ÐµÑĨ":5468,"ĠÐłÐ¾ÑģÑģÐ¸Ñı":5469,"ĠÑİÑģÑĤ":5470,"ĠÐ°ÐºÑģÐµÐ»ÐµÑĢ":5471,"ÐºÑĢÐ¾Ð¼Ðµ":5472,"ĠÐ¾Ð±Ð¾ÑĢÐ¾Ð½Ñĭ":5473,"ĠÐ¾Ð´Ð½Ð¾Ð²ÑĢÐµÐ¼":5474,"ĠÐĵÐĺÐ¡":5475,"ĠÑĢÑĭÐ½Ð¾Ðº":5476,"ÑĩÐµÑģÑĤÐ²Ð¾":5477,"ĠÐĳÑİÐ´Ð¶ÐµÑĤ":5478,"ĠÐ¾Ð±Ð¾ÑĢÑĥÐ´Ð¾Ð²Ð°Ð½Ð¸Ðµ":5479,"ĠÐ¿Ð¾Ð»ÑĮÐ·Ð¾Ð²Ð°Ð½Ð¸Ñı":5480,"ĠÐ¾Ð±ÐµÑģÐ¿ÐµÑĩÐ¸Ð²Ð°ÑİÑīÐµÐµ":5481,"ĠÐ¿ÐµÑĢÑģÐ¿ÐµÐºÑĤÐ¸Ð²Ñĥ":5482,"ĠÑĢÐ°Ð·Ð»Ð¸ÑĩÐ½ÑĭÐµ":5483,"ÑįÐºÐ¾Ð½Ð¾Ð¼Ð¸ÑĩÐµÑģÐºÐ¾Ðµ":5484,"ĠÐ¾Ð¿ÑĤÐ¸Ð¼":5485,"ĠÐ¾ÑĤÑĢÐ°ÑģÐ»ÑĮ":5486,"ĠÐĹÐµÐ»ÐµÐ½":5487,"____________":5488,"ĠÑĦÐ¸Ð·Ð¸ÑĩÐµÑģÐºÐ¸Ð¼Ð¸":5489,"ĠÐ¿ÑĢÐµÐ´Ð¾ÑģÑĤÐ°Ð²Ð»ÑıÑİÑĤÑģÑı":5490,"ĠÐ¿ÑĢÐµÐ´Ð¾ÑģÑĤÐ°Ð²Ð»ÑıÑĤÑĮ":5491,"ĠÑĦÑĥÐ½ÐºÑĨÐ¸Ð¾Ð½Ð°Ð»ÑĮÐ½ÑĭÑħ":5492,"ĠÐ¿ÑĢÐµÐ´ÑģÑĤÐ°Ð²Ð»ÐµÐ½Ð½Ð¾Ð¹":5493,"ĠÐ·Ð°Ð¿ÑĢÐ¾ÑģÐ¾Ð²":5494,"ĠÐ¿Ð¾Ð´Ð¿Ð¸ÑģÐ°Ð½Ð¸Ñı":5495,"ĠÐ»Ð°Ð·ÐµÑĢÐ½Ð¾Ð¹":5496,"ĠÐ¿ÑĢÐ¸Ð·Ð½Ð°Ð½Ð¸Ð¸":5497,"ĠÐºÐ°Ð¿Ð¸ÑĤÐ°Ð»":5498,"ĠÐºÑĢÐ¸ÑĤÐµÑĢÐ¸Ñİ":5499,"ĠÐ¿Ð»Ð°Ð½Ð¾Ð²ÑĭÐ¹":5500,"ĠÑĢÐ°ÑģÐ¿ÑĢÐ¾ÑģÑĤÑĢÐ°Ð½ÑıÐµÐ¼Ð¾Ð¹":5501,"ĠÐ¿ÑĢÐ¸Ð²Ð»ÐµÑĩÐµÐ½Ð¸Ñİ":5502,"ĠÑģÐ»ÑĥÐ¶Ð°ÑīÐ¸Ñħ":5503,"ĠÐ¿Ð¸Ð»Ð¾ÑĤÐ½Ð¾Ð³Ð¾":5504,"Ð°Ð½Ð°Ð»Ð¸ÑĤÐ¸ÑĩÐµÑģÐºÐ¾Ðµ":5505,"ĠÑģÐ²Ð¾Ð±Ð¾Ð´Ñĭ":5506,"ĠÐ¸Ð½Ð´Ð¸ÐºÐ°ÑĤÐ¾ÑĢÐ°":5507,"ĠÐ°Ð»Ð³Ð¾ÑĢÐ¸ÑĤÐ¼Ð¾Ð²":5508,"ĠÑĦÑĥÐ½Ð´Ð°Ð¼ÐµÐ½ÑĤÐ°Ð»ÑĮÐ½ÑĭÐµ":5509,"ĠÐ²Ð¾Ð·Ð´ÑĥÑĪ":5510,"ĠÐ¿ÑĢÐ¸Ð²Ð»ÐµÐºÐ°ÐµÐ¼ÑĭÑħ":5511,"ĠÐ·Ð°ÐºÐ°Ð·ÑĩÐ¸ÐºÐ°Ð¼Ð¸":5512,"ĠÐ¾Ð±ÑīÐµÑģÑĤÐ²Ð¾":5513,"ĠÐ·Ð°ÑģÐµÐ´Ð°Ð½Ð¸Ð¸":5514,"ĠÑģÐ¸ÑĤÑĥÐ°ÑĨÐ¸Ð¹":5515,"ĠÐºÐ°ÑĤÐµÐ³Ð¾ÑĢÐ¸Ð¹":5516,"ĠÐºÐ°ÑĤÐµÐ³Ð¾ÑĢÐ¸Ð¸":5517,"ÑĢÐ¸Ð¼Ð¸Ð½":5518,"ĠÑĤÐ¾Ð¿Ð»Ð¸Ð²Ð°":5519,"ĠÐ±Ð°Ð½ÐºÑĢÐ¾ÑĤ":5520,"ĠÑĪÑĤÑĢÐ°ÑĦÐ¾Ð²":5521,"ĠÐ½ÐµÐ·Ð°Ð²Ð¸ÑģÐ¸Ð¼Ð¾ÑģÑĤÐ¸":5522,"...":5523,"ĠÐ´ÐµÑĤÐ°Ð»ÐµÐ¹":5524,"ĠÑĢÐµÐ³Ð»Ð°Ð¼ÐµÐ½ÑĤÐ¾Ð¼":5525,"ĠÐ´Ð¾ÑĢÐ¾Ð¶Ð½Ð¾Ð¹":5526,"ĠÑĢÐ°Ð¹Ð¾Ð½Ðµ":5527,"ĠÐ¿ÑĢÐ¾ÑĨÐµÐ´ÑĥÑĢÐ°":5528,"ĠÐ°ÐºÑĨÐ¸Ð¾Ð½ÐµÑĢÐ½ÑĭÑħ":5529,"ĠÑģÐ¾ÑĦÐ¸Ð½Ð°Ð½ÑģÐ¸ÑĢÐ¾Ð²Ð°Ð½Ð¸Ñı":5530,"ĠÐ¾Ð¿ÑĤÐ¾ÑįÐ»ÐµÐºÑĤÑĢÐ¾Ð½Ð½ÑĭÑħ":5531,"ÑĥÐ²ÑģÑĤÐ²":5532,"ÐŁÐłÐĲÐĴÐĺÐ¢ÐķÐĽÐ¬Ð¡Ð¢ÐĴ":5533,"ĠÐ³Ð°Ð·Ð¾Ð¿ÑĢÐ¾Ð²Ð¾Ð´Ð¾Ð²":5534,"ĠÑĥÑģÐ¿ÐµÑĪ":5535,"fici":5536,"ĠÐ¶ÑĥÑĢÐ½Ð°Ð»":5537,"ĠÐ°Ð½Ð³Ð»Ð¸Ð¹ÑģÐºÐ¾Ð¼":5538,"work":5539,"ĠÐ´Ð¸ÑģÑĤÐ°Ð½ÑĨÐ¸Ð¾Ð½":5540,"ĠÑĤÑĭÑģÑıÑĩ":5541,"ĠÐĹÐµÐ»ÐµÐ½Ð¾Ð³ÑĢÐ°Ð´":5542,"ĠÐ±Ð°Ð½ÐºÑĢÐ¾ÑĤÑģÑĤÐ²Ð°":5543,"ÐŁÐłÐĲÐĴÐĺÐ¢ÐķÐĽÐ¬Ð¡Ð¢ÐĴÐŀ":5544,"**":5545,"01":5546,"ation":5547,"re":5548,"us":5549,"Ġs":5550,"Ġx":5551,"Ð¾ÐµÐ²":5552,"ÑĢÐ°Ñĩ":5553,"ÑģÑĤÐ¾Ñı":5554,"ĠÐ¿Ð¸ÑĤÐ°Ð½Ð¸Ñı":5555,"ÑĩÐµÐ¹":5556,"ĠÑģÑĥ":5557,"ĠÑģÐµÐº":5558,"ÐµÑĢÐ½ÑĭÐµ":5559,"Ð¾ÑĢÐ¾Ð¼":5560,"Ð¾ÑĢÐ°Ñħ":5561,"ĠÐ¿ÑĢÐ¾Ðº":5562,"ĠÐ¿ÑĢÐ¾Ð¶":5563,"Ð¿Ð¾Ð»Ð½":5564,"ĠÐ½ÐµÐ¼":5565,"ĠÐ½Ð¸Ð¶":5566,"ĠÐ½Ð¾Ð²ÑĭÐ¼":5567,"ĠÐ½Ð°Ð¼ÐµÑĢ":5568,"Ð¾Ð´Ð°ÑĢÑı":5569,"Ð¾Ð½ÐµÐ½ÑĤ":5570,"ĠÑĥÐ¶Ðµ":5571,"ĠÐ½Ð°Ñģ":5572,"ĠÐ¸Ð½ÑĤÐµÐ½Ñģ":5573,"Ð¸ÑĩÐ½ÑĭÐµ":5574,"Ð¸Ð½ÑģÑĤÐ²Ð¾Ð¼":5575,"Ð±Ð¾Ð»ÐµÐµ":5576,"ĠÐ¾ÑĤÑĩÐµÑģÑĤÐ²Ð¾":5577,"Ð½Ð¾ÑģÑĤÐ½ÑĭÑħ":5578,"Ð¸Ð»Ð°":5579,"ĠÐ¿ÑĢÐµÐ´ÑģÐµÐ´":5580,"ĠÐ¿ÑĢÐµÐ´Ð¾ÑĤÐ²ÑĢÐ°Ñī":5581,"Ġ120":5582,"Ð¸ÑĤÐµÐ»ÑĮÐ½Ð¾ÑģÑĤÑĮ":5583,"Ð¾Ð±ÑĬÐµÐ¼":5584,"ĠÑģÑĤÐ°Ð´":5585,"ĠÐ¸Ð½ÑĦÐ¾ÑĢÐ¼Ð¸ÑĢÐ¾Ð²Ð°Ð½Ð½Ð¾ÑģÑĤÐ¸":5586,"ĠÑĤÐµÑħÐ½Ð¾Ð³":5587,"ÐµÑĩÐµÐ±":5588,"Ġ\",":5589,"ĠÐ»ÑİÐ´":5590,"ĠÐ»ÐµÑĩÐµÐ±":5591,"ĠÐ³Ð¾Ð´Ð¾Ð²":5592,"Ð¾ÑĩÐ½Ð°Ñı":5593,"ĠÐ¿Ð¾Ð»ÑĥÑĩÐ°ÐµÑĤ":5594,"ĠÑģÐ²Ð¸Ð´Ðµ":5595,"ĠÐ¾Ð±ÐµÑģÐ¿ÐµÑĩÐµÐ½Ð¸Ð¸":5596,"ÑĥÐ¿ÑĢÐ°Ð²":5597,"Ð¸ÑĢÐ¾Ð²Ð°Ð½Ð½Ð¾Ðµ":5598,"ĠÐ¾ÑĢÐ³Ð°Ð½Ð¸Ð·Ð°ÑĨÐ¸Ð¾Ð½Ð½ÑĭÑħ":5599,"Ġ34":5600,"ĠÐºÐ¾Ð¼Ð¿Ð°Ð½Ð¸Ñı":5601,"ĠÐºÐ¾Ð¼Ð¿Ð°Ð½Ð¸Ð¸":5602,"ÐĴÑģÐµÐ³Ð¾":5603,"ĠÑĨÐµÐ»Ð¾ÑģÑĤ":5604,"ĠÑĨÐµÐ»Ð¾Ð¼":5605,"ĠÐ¾ÑģÑĥÑīÐµÑģÑĤÐ²Ð»ÑıÐµÐ¼ÑĭÑħ":5606,"ÑĥÐ¼Ð°":5607,"ĠÐĴÑģ":5608,"ĠÐ´Ð¾ÑĪÐºÐ¾Ð»ÑĮ":5609,"Ġ456":5610,"ÑĭÐ²Ð°ÐµÑĤ":5611,"ĠÐ²ÐºÐ»ÑİÑĩÐµÐ½Ð¸Ð¸":5612,"ĠÐ´Ð¾ÐºÐ»Ð°Ð´":5613,"ĠÐ¼Ð°ÑģÑģ":5614,"ĠÑĥÑĩÐ°ÑģÑĤÐ¸Ð¸":5615,"ĠÐ¸ÑģÑĩ":5616,"ĠÐ¿ÑĢÐ¾Ð¼ÑĭÑĪÐ»ÐµÐ½Ð½Ð¾ÑģÑĤÑĮ":5617,"ĠÑģÐ¾Ð¾ÑĤÐ²ÐµÑĤÑģÑĤÐ²ÑĥÑİÑīÐµÐ¼":5618,"ĠÐ¾Ð±ÑıÐ·Ð°ÑĤÐµÐ»ÑĮÐ½ÑĭÑħ":5619,"Ġ70":5620,"ĠÐ¾Ð±ÑĬÐµÐºÑĤÐ°Ð¼":5621,"ĠÐ¿Ð¾ÑģÑĤÑĢÐ¾":5622,"ĠÑĢÐ°Ð·Ð¼ÐµÑīÐ°ÑİÑĤÑģÑı":5623,"ĠÑĥÐ¿Ð¾Ð»Ð½Ð¾Ð¼Ð¾ÑĩÐµÐ½Ð½ÑĭÐ¼Ð¸":5624,"ĠÐ¼ÐµÐ¶Ð´ÑĥÐ½Ð°ÑĢÐ¾Ð´Ð½ÑĭÐµ":5625,"Ġ95":5626,"Ġ80":5627,"ĠÐ²Ð¸Ð´Ñĭ":5628,"Ġ2005":5629,"ĠÐ½Ð°ÑĢÑĥÑĪÐµÐ½Ð¸Ð¹":5630,"ĠÑĦÑĥÐ½ÐºÑĨÐ¸Ñı":5631,"ĠÑģÐ¿Ð¾ÑģÐ¾Ð±Ð°Ð¼Ð¸":5632,"Ġ194":5633,"ĠÑģÐ¾ÑģÑĤÐ¾ÑıÐ½Ð¸Ðµ":5634,"ĠÑģÐ¾Ð´ÐµÑĢÐ¶Ð°ÑīÐ¸Ðµ":5635,"ĠÑģÐ²Ð¾Ð¸":5636,"ĠÐ¢ÐµÑħÐ½Ð¾Ð»Ð¾Ð³Ð¸Ð¸":5637,"Ð¿ÐµÑĢÐ°ÑĤÑĥÑĢ":5638,"ĠÐ½Ð°Ð±Ð»ÑİÐ´ÐµÐ½Ð¸Ñı":5639,"ĠÐ¿ÑĢÐµÐ´Ð¾ÑģÑĤÐ°Ð²Ð»ÐµÐ½Ð½ÑĭÑħ":5640,"ĠÑĥÐ²ÐµÐ»Ð¸ÑĩÐµÐ½Ð¸Ñı":5641,"ĠÑģÑĤÐ°Ð½Ð´Ð°ÑĢÑĤÐ°Ð¼":5642,"ĠÐ·Ð°Ð¿ÑĢÐ¾ÑģÑĥ":5643,"ĠÐ¿ÑĢÐµÐ²ÑĭÑĪÐ°ÑİÑīÐ¸Ð¹":5644,"ĠÐ¾ÑĤÑģÑĥÑĤÑģÑĤÐ²ÑĥÑİÑĤ":5645,"ĠÐ¿ÑĢÐµÐ´ÑĥÑģÐ¼Ð°ÑĤÑĢÐ¸Ð²Ð°ÑİÑĤ":5646,"ĠÐľÐ¾ÑģÐºÐ²Ñĭ":5647,"ĠÐ²Ð½ÑĥÑĤÑĢÐµÐ½Ð½Ð¸Ñħ":5648,"ĠÑĥÑĩÑĢÐµÐ¶Ð´ÐµÐ½Ð¸ÑıÑħ":5649,"tifici":5650,"ĠÐºÐ¾ÑĢÐ¿Ð¾ÑĢÐ°ÑĨÐ¸Ð¹":5651,"ĠÐ°ÐºÑĤÐ¸Ð²Ð½ÑĭÑħ":5652,"ĠÐ´Ð¾Ð³Ð¾Ð²Ð¾ÑĢÐ¾Ð¼":5653,"ĠÐ¾ÑĤÐ½Ð¾ÑģÑıÑĤÑģÑı":5654,"ĠÐ¾ÑĤÐ½Ð¾ÑģÑıÑīÐ¸ÐµÑģÑı":5655,"ĠÐ¿ÑĢÐ°Ð²Ð¸Ð»Ð°":5656,"Ð°Ð½Ð°Ð»Ð¸ÑĤÐ¸ÑĩÐµÑģÐºÐ¸Ñħ":5657,"ĠÐ½Ð°ÑĩÐ°Ð»":5658,"ĠÑĢÐµÐºÐ¾Ð½ÑģÑĤÑĢÑĥÐº":5659,"ĠÑĢÐµÐºÐ¾Ð½ÑģÑĤÑĢÑĥÐºÑĨÐ¸Ñı":5660,"ĠÐ¿Ð¾Ð½ÑıÑĤÐ¸Ñı":5661,"ĠÑģÐ¾ÑħÑĢÐ°Ð½ÐµÐ½Ð¸Ðµ":5662,"ĠÐ½Ð°Ð¿ÑĢÐ°Ð²Ð»ÑıÐµÑĤÑģÑı":5663,"ĠÑĢÐµÐ³Ð¸ÑģÑĤÑĢÐ°ÑĨÐ¸Ð¾Ð½Ð½ÑĭÐ¹":5664,"ĠÐ·Ð°Ð±Ð»Ð¾Ðº":5665,"ĠÑħÑĢÐ°Ð½ÐµÐ½Ð¸Ðµ":5666,"ĠÐ¿Ð°ÑĢÐ°Ð¼ÐµÑĤÑĢ":5667,"ĠÐ²Ð°Ð¶Ð½ÑĭÑħ":5668,"ĠÑģÑĥÑīÐµÑģÑĤÐ²ÐµÐ½Ð½Ð¾":5669,"ĠÑģÑĤÐ¾Ð¸Ð¼Ð¾ÑģÑĤÑĮ":5670,"ĠÐ¼Ð°Ð³Ð½Ð¸ÑĤ":5671,"Ð¿ÑĢÐµÐ´ÑģÑĤÐ°Ð²":5672,"Ð¾Ð¿ÑĢÐ¾ÑĨÐµÑģÑģ":5673,"ĠÑĥÐ¼ÐµÐ½ÑĮÑĪÐµÐ½Ð¸Ñı":5674,"ĠÑĥÑģÑĤÑĢÐ°Ð½ÐµÐ½Ð¸Ñİ":5675,"ĠÐ¾ÑĩÐµÑĢÐµÐ´ÑĮ":5676,"ĠÐ¿ÑĢÐ¾ÑģÑĢÐ¾ÑĩÐµÐ½Ð½Ð¾Ð¹":5677,"ĠÐ¿ÑĢÐ¾ÑģÑĢÐ¾ÑĩÐµÐ½Ð½Ð°Ñı":5678,"ĠÐ¿Ð¾ÑĩÑĤÑĭ":5679,"Ð¸Ð·Ð¸Ð¾Ð½Ð½ÑĭÑħ":5680,"ĠÐ·Ð°Ð´Ð¾Ð»Ð¶ÐµÐ½Ð½Ð¾ÑģÑĤÑĮ":5681,"ĠÐ¾Ð¿ÑĥÐ±Ð»Ð¸ÐºÐ¾Ð²Ð°Ð½Ð¸Ñı":5682,"ĠÐ¿ÑĢÐ¸Ð¾ÑģÑĤÐ°Ð½Ð¾Ð²Ð»ÐµÐ½Ð°":5683,"ĠÐ¿ÑĢÐ¸Ð»Ð°Ð³Ð°ÐµÐ¼ÑĭÐµ":5684,"ĠÐ¾ÑħÑĢÐ°Ð½ÑıÐµÐ¼ÑĭÑħ":5685,"ĠÐ½ÐµÐºÐ¾ÑĤÐ¾ÑĢÑĭÐµ":5686,"ĠÐ¾Ð´Ð½Ð¸Ð¼":5687,"ĠÐĽÐ¸ÑĨ":5688,"ĠÐ¾ÑħÐ²":5689,"ĠÑģÑĭÑĢÑĮÑı":5690,"ĠÐ¿ÐµÑĢÐµÐ²Ð¾Ð¾ÑĢÑĥÐ¶ÐµÐ½Ð¸Ðµ":5691,"ĠĠĠĠĠĠĠĠĠĠĠĠĠĠĠĠĠĠĠĠĠĠĠĠĠĠĠĠĠ":5692,"ĠÑģÐ¾Ð¿Ð¾ÑģÑĤÐ°Ð²":5693,"ĠÑĨÐ¸ÐºÐ»Ð°":5694,"ĠÐ¢ÑĢÐµÐ±Ð¾Ð²Ð°Ð½Ð¸Ñı":5695,"ĠÐºÐ¾Ð¾Ð¿ÐµÑĢÐ°ÑĨÐ¸Ð¸":5696,"ĠÐ·Ð°Ð¿ÑĢÐ°ÑĪÐ¸Ð²Ð°ÐµÐ¼Ð¾Ð¹":5697,"ĠÐ¿Ð°ÑĢÐ¾Ð¼Ð°":5698,"ĠÐ°ÑģÐ¿ÐµÐºÑĤÐ¾Ð²":5699,"ĠÐ¾ÑģÐ¾Ð±ÐµÐ½Ð½Ð¾ÑģÑĤÐµÐ¹":5700,"ĠÑĤÑĢÐ°Ð´Ð¸ÑĨÐ¸Ð¾Ð½Ð½ÑĭÑħ":5701,"Ð¿ÑĢÐ¾ÑĨÐµÐ½ÑĤÐ¾Ð²":5702,"ĠÑĤÑĢÐ°Ð½ÑģÑĦÐ¾ÑĢÐ¼Ð°ÑĨÐ¸Ð¸":5703,"ĠÑĢÐ°Ð·ÑĢÐµÑĪÐµÐ½Ð½ÑĭÑħ":5704,"Ð¾ÑĤÐµÑħÐ½Ð¸ÑĩÐµÑģÐºÐ¸Ñħ":5705,"ĠÑĢÐµÐ·ÑĥÐ»ÑĮÑĤÐ°ÑĤÐ¸Ð²Ð½Ð¾ÑģÑĤÐ¸":5706,"ĠÐ²ÐµÑĢÐ¾ÑıÑĤ":5707,"ĠÐ²ÑĭÐ±ÑĢÐ¾ÑģÐ¾Ð²":5708,"ĠÐĴÐ»Ð°Ð´ÐµÐ»ÐµÑĨ":5709,"ÑģÐ¾Ð·Ð´Ð°ÑĤÑĮ":5710,"ĠÑĢÑĥÐ±ÐµÐ¶Ð¾Ð¼":5711,"ĠÐŀÑĤÐ²ÐµÑĤÑģÑĤÐ²ÐµÐ½Ð½Ð¾ÑģÑĤÑĮ":5712,"ÑģÑĤÑĢÐ¾Ð¸ÑĤÐµÐ»ÑĮÑģÑĤÐ²Ð¾":5713,"ĠÐ·Ð°Ð³ÑĢÑıÐ·":5714,"Ð·Ð°ÑĢÐµÐ³Ð¸ÑģÑĤÑĢÐ¸ÑĢÐ¾Ð²Ð°Ð½":5715,"ĠÐ¿Ð¾ÐºÑĢÑĭÑĤÐ¸Ð¹":5716,"ĠÑİÑģÑĤÐ¸ÑĨÐ¸Ð¸":5717,"ĠÐĳÑİÐ´Ð¶ÐµÑĤÐ½Ð¾Ð³Ð¾":5718,"ĠÐ½Ð¸Ð¶Ðµ":5719,"tificial":5720,"fi":5721,"for":5722,"ol":5723,"twork":5724,"Ġin":5725,"Ð¸Ð°Ð»ÑĮÐ½Ð¾Ð³Ð¾":5726,"ÑģÐ°":5727,"ÑģÐ¾ÑħÑĢÐ°Ð½":5728,"ĠÐ¥":5729,"ÑĢÐº":5730,"ÑĢÐ°ÑĨÐ¸Ð¸":5731,"ÑĢÐ¸ÑģÑĤÐ°Ð»Ð»":5732,"ÑıÐµÑĤÑģÑı":5733,"ĠÐ¿ÐµÐ´":5734,"ÐºÑĢÐµÐ¼":5735,"Ð²Ð¾Ð»ÑĮ":5736,"ÑĩÐ¸ÐºÐ¸":5737,"ÐµÑĢÐ¼Ð¸Ð½Ñĭ":5738,"Ð´Ð¾Ð»Ñı":5739,"ĠÐ´ÐµÐ½ÑĮ":5740,"ĠÐ´ÑĥÑħ":5741,"Ð¾ÑģÑĤÑĢÑĥÐºÑĤÑĥÑĢ":5742,"ĠÑĢÐ¾Ð»Ð¸":5743,"Ð¾Ð»Ð¸Ð´":5744,"Ð¸Ð·Ð¾Ð²Ð°Ð½":5745,"Ð¸Ð·Ð¼ÐµÑĢ":5746,"ĠÐ·Ð°ÑĤ":5747,"Ð³ÑĢÑĥÐ¿Ð¿":5748,"Ð¸ÑĩÐ½Ð¾ÑģÑĤÑĮ":5749,"ÑĪÑĢÑĥ":5750,"Ð¸Ð½ÑĤÐµÐ»Ð»ÐµÐºÑĤ":5751,"Ð°Ð»Ð°Ð²":5752,"ĠÐłÐµÑģÐ¿":5753,"ÑįÑĦÑĦÐµÐºÑĤÐ¸Ð²":5754,"2002":5755,"ĠÐ³Ð°":5756,"Ð¸ÐºÑģ":5757,"Ð°Ð²ÑĪÐ¸Ñħ":5758,"ĠÐ¿ÑĢÐµÐ´ÑĬ":5759,"Ð¸Ð²Ð½ÑĭÐµ":5760,"Ð¸Ð»Ð¸Ñİ":5761,"ĠÐ»ÐµÑģ":5762,"Ð¸ÑģÑĤÐµÐ¼Ñĭ":5763,"ĠÑģÐ¸ÑģÑĤÐµÐ¼Ð½Ð¾Ð³Ð¾":5764,"Ð¸ÑĢÐ¾Ð²Ð°Ð½Ð½ÑĭÐ¼":5765,"Ð¡ÑĢÐµÐ´":5766,"ĠÑĤÑĢÐ¸Ð´":5767,"Ð°ÑİÑīÐµÐ¼Ñĥ":5768,"ĠÐ¡Ð¸ÑģÑĤÐµÐ¼Ð°":5769,"Ð¸ÑģÑĨÐ¸Ð¿":5770,"ĠÑĨÐµÐ»ÐµÐ²ÑĭÐµ":5771,"ĠÐľÐŀ":5772,"ĠÑįÐºÐ¾Ð½Ð¾Ð¼Ð¸ÑĩÐµÑģÐºÐ¸Ð¹":5773,"Ð¿ÑĢÐ¾Ð±Ð»ÐµÐ¼":5774,"ÑĤÑĢÐ¾Ð»ÑĮ":5775,"ĠÐ¾ÑģÑĥÑīÐµÑģÑĤÐ²Ð»ÑıÐµÐ¼Ð¾Ð¹":5776,"ÑĥÐ¼Ð°Ð¶":5777,"Ð¸ÑĨÐ¸ÑĤ":5778,"ÐŁÐŀ":5779,"ĠÑĤÑĢÐµÐ±Ð¾Ð²Ð°Ð½Ð¸ÐµÐ¼":5780,"ĠÐ¿ÑĢÐ¾Ð´Ð°Ð¶":5781,"Ġ52":5782,"ĠÐ¸ÑģÐ¿Ð¾Ð»Ð½Ð¸ÑĤÐµÐ»ÑĮÐ½ÑĭÐ¼":5783,"ĠÐ¾Ð¿ÑĢÐµÐ´ÐµÐ»ÐµÐ½Ð½ÑĭÐ¼":5784,"ĠÐ²ÐºÐ»ÑİÑĩÐ°ÑİÑīÐ¸Ð¹":5785,"ĠÐ·Ð°Ð´ÐµÐ»":5786,"Ð¸Ð¼Ð°ÐµÑĤÑģÑı":5787,"Ð°Ð³Ð¾Ð³":5788,"Ġ152":5789,"ĠÐ¾Ð±ÑĬÑıÐ²Ð»ÐµÐ½Ð¸Ð¸":5790,"ĠÐ·Ð°ÐºÐ¾Ð½Ð¾Ð´Ð°ÑĤÐµÐ»ÑĮÐ½ÑĭÐµ":5791,"ĠÐ³ÑĢÐ°Ð¶Ð´Ð°Ð½ÑģÐºÐ¸Ñħ":5792,"Ð¢ÐµÑħÐ½Ð¾Ð»Ð¾Ð³Ð¸Ð¸":5793,"ĠÑģÐ¾Ð¾ÑĤÐ²ÐµÑĤÑģÑĤÐ²ÑĥÑİÑīÐ¸Ð¼":5794,"ĠÐ¾Ð³ÑĢÐ°Ð½Ð¸ÑĩÐµÐ½Ð½Ð¾Ð³Ð¾":5795,"ĠÐ¿Ð¾Ð²ÑĭÑĪÐµÐ½Ð¸Ñİ":5796,"ĠÐ·Ð°ÑīÐ¸ÑĤÑĥ":5797,"ÐľÐŀÐ¡":5798,"ĠÑģÐ¾Ð³Ð»Ð°ÑģÐ½Ð¾":5799,"ĠÑģÐ¾Ð³Ð»Ð°ÑģÐ¾Ð²Ð°Ð½Ð¸Ñı":5800,"ÐļÐĴÐĲ":5801,"Ġ65":5802,"ĠÑįÑĦÑĦÐµÐºÑĤÐ¸Ð²Ð½ÑĭÑħ":5803,"ĠÐ¿Ð»Ð°Ð½Ð¸ÑĢÑĥÐµÐ¼ÑĭÑħ":5804,"ĠÐ¾Ð±ÑĥÑĩÐ°ÑİÑīÐ¸ÑħÑģÑı":5805,"ĠÐ¼ÐµÐ¶Ð´ÑĥÐ½Ð°ÑĢÐ¾Ð´Ð½Ð¾Ð¼":5806,"ĠÑĢÐµÐ³Ð¸Ð¾Ð½Ð°Ð»ÑĮÐ½ÑĭÐµ":5807,"Ð¾Ð»Ð¾Ð³Ð¸ÑĩÐµÑģÐºÐ¾Ð³Ð¾":5808,"ĠÐ¼ÐµÐ´Ð¸ÑĨÐ¸Ð½ÑģÐºÐ¾Ð³Ð¾":5809,"ĠÐ½Ð¾ÑĢÐ¼Ð°ÑĤÐ¸Ð²Ð½ÑĭÐ¼":5810,"ĠÐ²ÑģÐµÐ¹":5811,"ĠÐ¾Ð±ÑĢÐ°Ð·Ð¾Ð²Ð°ÑĤÐµÐ»ÑĮÐ½ÑĭÐµ":5812,"Ð¾Ð½Ð¸ÑĤÐ¾ÑĢÐ¸Ð½Ð³":5813,"ĠÑĢÐ°Ð´Ð¸Ð¾Ð»Ð¾Ðº":5814,"ĠÐ¾ÑĤÐ²ÐµÑĤÑģÑĤÐ²ÐµÐ½Ð½Ð¾Ð³Ð¾":5815,"ĠÐ¿ÑĢÐ¾ÑĨÐµÑģÑģÑĭ":5816,"ĠÐ²ÑĢÐµÐ¼ÐµÐ½Ð½Ð¾Ð¹":5817,"ĠÑĢÑĥÐºÐ¾Ð²Ð¾Ð´Ð¸ÑĤÐµÐ»Ðµ":5818,"ĠÐ¿Ð¾ÑĤÑĢÐµÐ±Ð½Ð¾ÑģÑĤÐµÐ¹":5819,"ĠÑĥÑģÑĤÐ°Ð½Ð¾Ð²Ð»ÐµÐ½Ð¸Ðµ":5820,"ĠÐ·Ð°Ð¿ÑĢÐ¾ÑģÑĭ":5821,"ĠÐ³Ð°Ð·Ð¾ÑĤ":5822,"ĠÑįÐ»ÐµÐ¼ÐµÐ½ÑĤÐ½Ð¾Ð¹":5823,"ĠÐ³Ð¾ÑģÑĥÐ´Ð°ÑĢÑģÑĤÐ²Ð°Ñħ":5824,"ĠÑĢÐµÐºÐ¾Ð¼ÐµÐ½Ð´Ð°ÑĤÐµÐ»ÑĮÐ½ÑĭÑħ":5825,"Ð¾Ð±ÐµÑģÐ¿ÐµÑĩÐµÐ½Ð¸Ñı":5826,"ĠÑĢÐ¸ÑģÐºÐ¸":5827,"ĠÐ°Ð³Ð¸ÑĤ":5828,"ĠÐ´Ð¾Ð¿Ð¾Ð»Ð½ÐµÐ½Ð°":5829,"ĠÐ´Ð¾Ð²ÐµÑĢÐ¸Ñı":5830,"ĠÐľÐ¾ÑģÐºÐ²Ð°":5831,"ĠÑĥÑĩÑĢÐµÐ¶Ð´ÐµÐ½Ð¸Ñı":5832,"ĠÐ¿ÑĢÐ¸Ð½Ð¸Ð¼Ð°ÐµÑĤÑģÑı":5833,"ĠÐ²Ð¾Ð´Ñĭ":5834,"ĠÐºÐ°Ð¶Ð´ÑĭÐ¹":5835,"ĠÐ¿Ð¾Ð¸ÑģÐºÐ¾Ð²Ð¾Ð¹":5836,"ĠÐ½Ð°ÑĩÐ¸Ð½":5837,"ĠÑģÐºÐ²Ð¾Ð·":5838,"ĠÐ²ÑĭÑģÐ¾ÐºÐ¾ÑĤÐµÑħÐ½Ð¾Ð»Ð¾Ð³Ð¸ÑĩÐ½Ð¾Ð¹":5839,"ĠÐºÐ²Ð°Ð»Ð¸ÑĦÐ¸ÑĨÐ¸ÑĢÐ¾Ð²Ð°Ð½Ð½ÑĭÑħ":5840,"ĠÑĥÐ³ÑĢÐ¾Ð·Ñĭ":5841,"ĠÐ¸Ð½Ð¸ÑĨÐ¸Ð°ÑĤÐ¸Ð²Ð½Ð¾Ð³Ð¾":5842,"ĠÑĩÐ»ÐµÐ½Ð°Ñħ":5843,"ÑĢÐµÐ³ÑĥÐ»":5844,"ĠÐ¼Ð°ÑĢÑĪÑĢÑĥ":5845,"ĠÑģÐµÑĢÑĤÐ¸ÑĦÐ¸ÐºÐ°ÑĨÐ¸Ð¸":5846,"ter":5847,"ĠÐ¿Ð¾Ð²ÑĤÐ¾ÑĢ":5848,"ĠÐ¿Ð¾ÑģÑĤÐ°Ð½Ð¾Ð²Ð»ÐµÐ½Ð¸Ñı":5849,"ĠÐ¿Ð¾ÑģÑĤÐ°Ð½Ð¾Ð²Ð»ÐµÐ½Ð¸Ðµ":5850,"ĠÑģÐ¾Ð²ÐµÑĤÐ¾Ð¼":5851,"ĠÐ¸Ð½Ð²ÐµÑģÑĤÐ¸ÑĨÐ¸Ð¾Ð½Ð½Ð¾Ð³Ð¾":5852,"ĠÐļÐ¾Ð½ÑģÑĤÐ¸ÑĤÑĥ":5853,"ĠÑģÐ¾ÑģÑĤÐ°Ð²Ð¸Ð»Ð°":5854,"ĠÑģÐ²ÐµÑĢÑħÐ²ÑĭÑģÐ¾Ðº":5855,"ĠÑģÐ¸ÑĤÑĥÐ°ÑĨÐ¸Ð¸":5856,"Ð¤ÐµÐ´ÐµÑĢÐ°Ð»ÑĮÐ½ÑĭÐ¼":5857,"ĠÐºÐ¾Ð»Ð»ÐµÐ³":5858,"ĠÑįÐ½ÐµÑĢÐ³Ð¾Ñģ":5859,"ĠÐºÐ¾Ð¾ÑĢÐ´Ð¸Ð½Ð°ÑĨÐ¸Ð¸":5860,"ĠÑĥÐ¼ÐµÐ½ÑĮÑĪ":5861,"ĠÐºÐ¾Ð½ÐºÑĢÐµÑĤÐ½ÑĭÑħ":5862,"ĠÑģÑĦÐ¾ÑĢÐ¼Ð¸ÑĢÐ¾Ð²Ð°Ð½Ð½ÑĭÑħ":5863,"ĠÐ´Ð°Ð»ÑĮÐ½ÐµÐ¹ÑĪÐµÐ³Ð¾":5864,"Ð½Ð¾Ð¿ÑĢÐ°Ð²":5865,"ĠÐ½Ð°Ð²Ð¸Ð³":5866,"mach":5867,"ĠÑĩÐ¸ÑģÑĤÑĭÑħ":5868,"ĠÐ¾Ð¿Ð¸ÑģÐ°Ð½Ð¸Ðµ":5869,"ĠÐ²ÑĭÑıÐ²Ð»ÐµÐ½Ð½Ð¾Ð³Ð¾":5870,"ĠÑĢÐµÐ¹ÑĤÐ¸Ð½Ð³":5871,"ĠÑģÑĤÐµÐ½Ð´Ð¾Ð²":5872,"ĠÐ²Ð¾Ð¾ÑĢÑĥÐ¶ÐµÐ½Ð¸Ñı":5873,"ĠÐ¿ÑĢÐ¾ÑģÑĤÑĢÐ°Ð½ÑģÑĤÐ²Ð°":5874,"ÐĿÐ°ÑĨÐ¸Ð¾Ð½Ð°Ð»ÑĮÐ½Ð°Ñı":5875,"ĠÑĦÐ¾ÑĤÐ¾Ð¿ÑĢÐ¸ÐµÐ¼Ð½ÑĭÑħ":5876,"ĠÑģÐ¾Ð±ÑĭÑĤÐ¸Ð¹":5877,"ĠÐ°Ð±Ð¾Ð½ÐµÐ½ÑĤ":5878,"ĠÐ½Ð¾ÑģÐ¸ÑĤÐµÐ»Ðµ":5879,"ĠÐ½Ð°ÑĢÐ¾Ð´Ð¾Ð²":5880,"Ð¾Ð³Ð»Ð°ÑĪÐµÐ½Ð¸Ñı":5881,"ĠÑĢÐ°ÑģÑĤÐ¾ÑĢÐ¶ÐµÐ½Ð¸Ð¸":5882,"ĠÐ¼Ð°ÑĤÑĢÐ¸ÑĩÐ½ÑĭÑħ":5883,"ĠÐ¼Ð¸ÐºÑĢÐ¾ÑįÐ»ÐµÐºÑĤÑĢÐ¾Ð½Ð¸ÐºÐ¸":5884,"ÐľÐµÑĢÐ¾Ð¿ÑĢÐ¸ÑıÑĤÐ¸Ñı":5885,"ĠÐ±Ð»Ð°Ð³Ð¾Ð¿ÑĢÐ¸ÑıÑĤÐ½ÑĭÑħ":5886,"ĠÐ±Ð°ÐºÐ°Ð»Ð°Ð²":5887,"ÐĺÑģÑģÐ»ÐµÐ´Ð¾Ð²Ð°Ð½Ð¸Ñı":5888,"ĠÑĤÐ²ÐµÑĢÐ´Ð¾ÑĤÐµÐ»ÑĮÐ½ÑĭÑħ":5889,"ĠÐŀÑĤÑĩÐµÑĤÑĭ":5890,"ĠÐ¿Ð¾Ð²ÐµÑĢÑħ":5891,"ÐľÐŀÐ¡ÐļÐĴÐĲ":5892,"ĠÐºÐ¾Ð»Ð»ÐµÐ³Ð¸Ð°Ð»ÑĮÐ½Ð¾Ð³Ð¾":5893,"machine":5894,"\")":5895,"Ġm":5896,"Ð¾Ð¾Ð±":5897,"ÑĤÑĭÑģ":5898,"ÑĢÐ¾Ð»":5899,"ÑĭÐ»":5900,"Ð»Ð°Ð¼":5901,"ÐºÑĨÐ¸Ð¹":5902,"Ð¾Ð²Ð°ÑĤÐµÐ»ÐµÐ¹":5903,"ÑĩÐ°ÑģÑĤÐ¸":5904,"ÑĨÐ¸Ð´":5905,"ÐµÑĢÐ°":5906,"ĠÐ²Ð»Ð¾Ð¶":5907,"ĠÐ²Ð²Ð¾Ð´":5908,"Ð¼ÐµÑĩ":5909,"Ð¾ÑĢÐµ":5910,"Ð¾ÑĢÐµÑĩ":5911,"ĠÐ¿ÑĢÐ¸Ð³":5912,"ĠÐ½Ð°Ð¿":5913,"Ð´Ð¾ÑĢÐ¾Ð¶":5914,"Ð¾Ð½Ð½ÑĭÑħ":5915,"Ð¾ÑģÑħÐ¾Ð´":5916,"Ð¾Ð¼Ð¿":5917,"ĠÐºÑĥÑĢ":5918,"ĠÐ½Ð°ÑĢÐº":5919,"ĠÐ¸Ð½ÑģÑĤÐ¸ÑĤÑĥ":5920,"ĠÐ¸Ð½ÑģÑĤÐ¸ÑĤÑĥÑĤ":5921,"ĠÐ¸Ð½ÑĨÐ¸Ð´":5922,"ĠÐ¼Ð¾Ð±Ð¸Ð»ÑĮ":5923,"Ð³ÑĢÐ°ÑĦÐ¸Ðº":5924,"Ð°ÐºÑĥ":5925,"Ð¸ÑĤÐµÑĢ":5926,"ĠÐ¤Ð¾Ð½Ð´":5927,"ĠÐ¤Ðĵ":5928,"ĠÐ¾ÑĤÑģÑĤÐ°Ð²":5929,"ĠÐ¾ÑĤÑħÐ¾Ð´Ð¾Ð²":5930,"Ð¸ÐºÐ°Ð·":5931,"Ð¸Ð²Ð¾Ð²":5932,"Ð¸Ð²Ð°ÑİÑīÐ¸Ñħ":5933,"Ð¸Ð²ÑĪÐ¸Ð¼":5934,"Ð¸Ð´Ð¾Ð²":5935,"Ð¸ÑĤÐµÐ»ÑĮÑģÑĤÐ²Ð°":5936,"ĠÑĢÐµÑĨÐµÐ¿":5937,"Ð¾Ð¿ÐµÑĢ":5938,"Ð¾Ð¿Ð¾Ð»Ð½Ð¸ÑĤÐµÐ»ÑĮ":5939,"Ð»ÐµÐ½Ð¸Ð¹":5940,"ÑĢÐ°Ð½ÑģÐ¿":5941,"ĠÑĤÐµÑħÐ½Ð¾Ð»Ð¾Ð³Ð¸ÑĩÐµÑģÐºÐ¸Ðµ":5942,"ĠÐ¿Ð¾Ð´ÐºÐ»ÑİÑĩ":5943,"ÑĥÑĢÐ±Ð¸Ð½":5944,"ÑĥÑĢÐµÐ³ÑĥÐ»":5945,"ĠÐ²ÑĭÑģÑĤÑĥÐ¿":5946,"ĠÐ»ÐµÐ³":5947,"Ð°ÑĤÐµÐ»ÑıÐ¼Ð¸":5948,"ÑĢÐ¾Ð²ÐµÐ´ÐµÐ½Ð¸Ðµ":5949,"ĠÑģÐ¸ÑģÑĤÐµÐ¼Ð°Ð¼Ð¸":5950,"ĠÐºÐ¾Ð½ÑģÑĤÑĢÑĥÐºÑĤ":5951,"ĠÐºÐ¾Ð½ÑĤÐµÐºÑģÑĤ":5952,"ĠÐ·Ð°ÐµÐ¼":5953,"ĠÐ¸Ð·Ð²":5954,"ĠÐ´Ð¾ÑģÑĤÐ¾Ð¸Ð½":5955,"ÑĥÐ¿ÑĢÐµÐ¶Ð´":5956,"ĠÐºÐ¾ÑĤÐ¾ÑĢÐ¾Ðµ":5957,"Ð¸ÑĢÐ¾Ð²Ð°Ð½Ð¾":5958,"Ġ323":5959,"ĠÐºÐ¾Ð¼Ð¿Ð¾Ð·":5960,"ĠÐ¡ÑĢÐµÐ´":5961,"ĠÐ·Ð°ÐºÐ¾Ð½Ð½Ð¾Ð³Ð¾":5962,"ĠÐ±ÑİÐ´Ð¶ÐµÑĤÐ°Ð¼":5963,"ĠÑĢÐµÐ³ÑĥÐ»ÑıÑĢ":5964,"ÐŁÐ¾Ð²ÑĭÑĪÐµÐ½Ð¸Ðµ":5965,"ĠÑģÐ¿Ð»Ð°Ð²":5966,"ĠÑįÑĤÐ¾":5967,"Ð¸Ð²Ð°ÐµÐ¼ÑĭÑħ":5968,"ÐµÐ¿ÑĢ":5969,"ĠÐ¾ÑģÐ½Ð¾Ð²Ð¾Ð¹":5970,"ĠÐŀÐ¿":5971,"Ġ41":5972,"Ġ48":5973,"ĠÐ²ÐºÐ»ÑİÑĩÐµÐ½Ð¸Ñİ":5974,"ĠÐ½Ð°ÑĥÑĩÐ½Ð¾Ð³Ð¾":5975,"ÐĿÐĺÐĺ":5976,"ĠÑģÐ¾ÑģÑĤÐ°Ð²Ð°":5977,"ĠÐºÐ¾Ð¼Ð¿Ð»ÐµÐºÑģÐ½ÑĭÑħ":5978,"ĠÐºÐ¾Ð½ÑĤÑĢÐ¾Ð»ÐµÐ¼":5979,"ĠÐ´Ð¾Ð¿ÑĥÑģÑĤ":5980,"ĠÐ¿ÑĢÐµÐ´ÑĥÑģÐ¼Ð¾ÑĤÑĢÐµÐ½Ð½Ð¾Ð¹":5981,"ĠÐ³ÑĢÐ°Ð¶Ð´Ð°Ð½ÑģÐºÐ¾Ð¹":5982,"ĠÐ²ÑĭÑģÐ¾ÐºÐ¸Ñħ":5983,"ĠÑĩÐ°ÑģÑĤÑıÐ¼Ð¸":5984,"ĠÐ¾Ð³ÑĢÐ°Ð½Ð¸ÑĩÐµÐ½Ð¸Ð¸":5985,"ĠÑĥÑĤÐ²ÐµÑĢÐ¶Ð´ÐµÐ½Ð¸Ðµ":5986,"ĠÑĥÑĤÐ²ÐµÑĢÐ¶Ð´ÐµÐ½Ð½ÑĭÑħ":5987,"ĠÑĥÑĤÐ²ÐµÑĢÐ¶Ð´Ð°ÑİÑĤÑģÑı":5988,"Ð³Ð¾ÑĤÐ¾Ð²ÐºÐ°":5989,"ĠÐ½Ð°ÑĨÐ¸Ð¾Ð½Ð°Ð»ÑĮÐ½ÑĭÐ¼":5990,"ÐľÐ¾ÑģÐº":5991,"ÐľÐ¸ÑĪ":5992,"ĠÑģÐ¾Ð³Ð»Ð°ÑģÐ¸Ð¸":5993,"ĠÐ¾ÑģÐ½Ð¾Ð²Ð°Ð½Ð¸Ð¹":5994,"ÐļÐ¡":5995,"ĠÐ¼Ð°ÑĤÐµÑĢÐ¸Ð½ÑģÑĤÐ²Ð¾Ð¼":5996,"ĠÐĿÐµÐ·":5997,"ĠÐĿÐ°ÑģÑĤÐ¾ÑıÑīÐµÐµ":5998,"ĠÑģÐµÑĢÐ¸Ð¸":5999,"ĠÑĢÐ°Ð·Ð¼ÐµÑīÐµÐ½Ð°":6000,"ĠÐ¾Ð±Ð¾ÑĢÐ¾ÑĤ":6001,"ĠÐ´Ð¾ÐºÑĥÐ¼ÐµÐ½ÑĤÐ°Ñħ":6002,"ĠÐ´Ð¾ÐºÑĥÐ¼ÐµÐ½ÑĤÐ°ÑĨÐ¸ÐµÐ¹":6003,"ĠÑģÐ°Ð¹ÑĤÐ¾Ð²":6004,"ĠÐ¿Ð¾Ð´Ð³Ð¾ÑĤÐ¾Ð²ÐºÐ°":6005,"Ð¸ÑĦÐ¸ÐºÐ°ÑĨÐ¸Ñİ":6006,"ÑĥÑģÑĤÐ¸Ð½":6007,"Ð¡ÑĤÑĢÐ°ÑĤÐµÐ³Ð¸Ñı":6008,"ÑĢÐ°ÑĤÑĥÑĢÑĭ":6009,"ĠÑģÐ¾Ð·Ð´Ð°ÑİÑĤÑģÑı":6010,"ĠÐ²ÑĭÑĩÐ¸ÑģÐ»ÐµÐ½Ð¸Ð¹":6011,"ÑĤÐµÑħÐ½Ð¸ÑĩÐµÑģÐºÐ¾Ðµ":6012,"Ġ1996":6013,"ĠÐ¸Ð½Ð´ÐµÐºÑģÐ°":6014,"ĠÐŀÐ±ÐµÑģÐ¿ÐµÑĩÐµÐ½Ð¸Ðµ":6015,"ĠÑģÐ²Ð¾ÐµÐ²ÑĢÐµÐ¼":6016,"ĠÐ¿ÑĢÐµÐ²Ð¾ÑģÑħÐ¾Ð´":6017,"ĠÐ¸Ð½Ð½Ð¾Ð²Ð°ÑĨÐ¸Ð¾Ð½Ð½Ð¾Ð³Ð¾":6018,"ÐŁÑĢÐ¾Ð³ÑĢÐ°Ð¼Ð¼":6019,"ĠÐ¿Ð¾Ð»ÑĮÐ·Ð¾Ð²Ð°ÑĤÐµÐ»Ñı":6020,"ĠÐ½ÐµÑģÑĩÐ°ÑģÑĤ":6021,"ÐĵÐ¾ÑģÑĥÐ´Ð°ÑĢ":6022,"ĠÐ¾ÑĤÐºÑĢÑĭÑĤÐ¾Ð¼":6023,"ĠÐ¾ÑĤÐºÑĢÑĭÑĤÐ¾Ð³Ð¾":6024,"ĠÐŀÑģÐ½":6025,"ĠÐ²Ð¾Ð¿ÑĢÐ¾ÑģÐ¾Ð²":6026,"ĠÐ¸Ð¼ÐµÑİÑĤ":6027,"ĠÐ¾Ð¿ÑĭÑĤÐ°":6028,"ĠÐ´ÐµÐ¹ÑģÑĤÐ²Ð¸Ðµ":6029,"ĠÐ½ÐµÐºÐ¾Ð¼Ð¼ÐµÑĢÑĩÐµÑģÐºÐ°Ñı":6030,"ĠÑĢÐ¸ÑģÐºÐ°":6031,"ÐµÑĢÐ½Ð¸Ð·Ð°ÑĨÐ¸Ñı":6032,"ĠÐºÐ°Ð¿Ð¸ÑĤÐ°Ð»Ðµ":6033,"ĠÐ¿ÑĢÐ¾ÑĤÐ¸Ð²Ð¾ÑĢÐµÑĩ":6034,"ÑıÑĤÑĮÑģÑı":6035,"ĠÐ·Ð°ÐºÐ°Ð·ÑĩÐ¸ÐºÐ¾Ð²":6036,"ĠÐ¿Ð¾ÑģÐ»ÐµÐ´Ð½Ð¸Ðµ":6037,"ĠÐ´Ð¾Ð³Ð¾Ð²Ð¾ÑĢÑĭ":6038,"ĠÐ¿ÑĢÐµÐºÑĢÐ°ÑĤÐ¸ÑĤÑĮ":6039,"ĠÐ¾ÑģÐ¾Ð±Ð¾Ð¹":6040,"ĠÑģÑĤÐ°Ð½Ð´Ð°ÑĢÑĤÐ°":6041,"ĠÐ¿ÑĢÐµÐ´Ð¿ÑĢÐ¸Ð½Ð¸Ð¼Ð°ÑĤÐµÐ»ÑĮÑģÑĤÐ²Ð°":6042,"ĠÐ¿ÑĢÐ¾Ð²Ð¾Ð´Ð¸ÑĤ":6043,"ĠÐ¿ÑĢÐ¾Ð²Ð¾Ð´Ð¸Ð¼ÑĭÑħ":6044,"ĠÐºÐ°Ð´ÑĢÐ¾Ð²Ð¾Ð³Ð¾":6045,"ĠÑģÐ¾ÑĤÑĢÑĥÐ´Ð½Ð¸ÑĩÐµÑģÑĤÐ²Ð¾":6046,"Ġ2692":6047,"Ġ2681":6048,"ĠÑĤÐ¾Ð²Ð°ÑĢ":6049,"ĠÑĥÐ³ÑĢÐ¾Ð·Ñĥ":6050,"ĠÐ¿ÐµÑĢÐµÐ²Ð¾Ð´":6051,"ĠÐ¿ÐµÑĢÐµÐ²Ð¾Ð·":6052,"ĠÐ¸Ð½Ð¸ÑĨÐ¸Ð°ÑĤÐ¸Ð²Ñĭ":6053,"ĠÐ²ÑħÐ¾Ð´ÑıÑīÐ¸Ñħ":6054,"ĠÑģÐ¾ÑħÑĢÐ°Ð½ÐµÐ½Ð¸Ñı":6055,"ĠÑģÐ¾ÑģÑĤÐ°Ð²Ð»ÑıÑİÑĤ":6056,"ĠÐ¿ÑĢÐ¸ÑĢÐ¾Ð´Ð½ÑĭÑħ":6057,"ĠÐŁÑĢÐ¾Ð³ÑĢÐ°Ð¼Ð¼Ð°":6058,"ĠÐ´Ð¾ÑħÐ¾Ð´Ð¾Ð²":6059,"ĠÐ¸Ð½ÑģÑĤÑĢÑĥÐ¼ÐµÐ½ÑĤ":6060,"ĠÐ¿ÑĢÐµÐºÑĢÐ°ÑīÐµÐ½Ð¸Ñı":6061,"ĠÐ¿ÑĢÐµÐºÑĢÐ°ÑīÐµÐ½Ð¸Ð¸":6062,"Ð²ÑĭÑĩ":6063,"ĠÑģÐ²ÑıÐ·Ð°Ð½Ð½Ð¾Ð¹":6064,"Ð¿Ð¾Ð´Ð¿ÑĥÐ½ÐºÑĤ":6065,"ĠÑģÐ¾ÐºÑĢÐ°ÑĤÐ¸ÑĤÑĮ":6066,"ĠÐ½Ð°ÐºÐ°Ñĩ":6067,"ÑĢÐ¸Ð°ÑĤÐ°":6068,"ĠÑģÐµÐ»ÑĮÑģÐºÐ¾Ð³Ð¾":6069,"ĠÑĢÐµÐ°Ð»Ð¸Ð·ÑĥÐµÐ¼ÑĭÑħ":6070,"ĠÐ¿ÑĢÐ°ÐºÑĤÐ¸Ðº":6071,"ĠÐ´Ð¾ÑģÑĤÐ¾Ð²ÐµÑĢÐ½Ð¾ÑģÑĤÑĮ":6072,"ĠÑĤÐµÑĢÑĢÐ¸ÑĤÐ¾ÑĢÐ¸Ð°Ð»ÑĮÐ½Ð¾Ð¼":6073,"Ð°Ð½ÑģÐµÑĢ":6074,"ĠÐ²Ð½ÐµÑĪÐ½ÐµÐ¹":6075,"ĠÑĢÐ°Ð´Ð¸Ð¾ÑįÐ»ÐµÐºÑĤÑĢÐ¾Ð½Ð½ÑĭÑħ":6076,"ĠÐ´Ð¾Ð±Ñĭ":6077,"ĠÐĳÐ°Ð½ÐºÐ°":6078,"ĠÐ´Ð¾Ð»Ð³Ð¾ÑģÑĢÐ¾ÑĩÐ½Ð¾Ð³Ð¾":6079,"ĠÑĢÐ°Ð·ÑĢÐ°Ð±Ð°ÑĤÑĭÐ²Ð°ÐµÐ¼ÑĭÑħ":6080,"ĠÑĢÐ°Ð²Ð½Ð¾Ð¿ÑĢÐ°Ð²":6081,"ĠÐ¾Ð±ÑģÐ»ÑĥÐ¶Ð¸Ð²Ð°Ð½Ð¸Ðµ":6082,"ĠÐ´ÐµÐ½ÐµÐ¶Ð½ÑĭÐ¼Ð¸":6083,"ĠÑĢÐ°ÑģÑģÑĩÐ¸ÑĤÑĭÐ²Ð°ÐµÑĤÑģÑı":6084,"ĠÐ²ÑĭÐ·Ð¾Ð²":6085,"ĠÑĤÐµÑĢÑĢÐ¾ÑĢÐ¸ÑģÑĤ":6086,"ĠÑģÐµÑĤÐµÐ²Ð¾Ð¹":6087,"ĠÐ¼Ð¾ÑĢÑģÐºÐ¾Ð³Ð¾":6088,"ĠÐ¿ÑĢÐ¸Ð½Ð°Ð´Ð»ÐµÐ¶Ð½Ð¾ÑģÑĤÐ¸":6089,"ĠÑģÐ¿ÐµÑĨÐ¸Ð°Ð»Ð¸Ð·Ð¸ÑĢÐ¾Ð²Ð°Ð½Ð½ÑĭÑħ":6090,"ĠÑģÑĤÐ°ÑĤÐ¸ÑģÑĤÐ¸ÐºÐ¸":6091,"ĠÐ½Ð°ÑĩÐ¸ÑģÐ»ÐµÐ½Ð½ÑĭÐµ":6092,"ĠÐ²Ð½Ð¾ÑģÑıÑĤÑģÑı":6093,"ĠÐ¼ÑĥÐ»ÑĮÑĤÐ¸Ð¼":6094,"ĠÐŁÑĢÐ¾ÐµÐºÑĤ":6095,"ĠÑĤÐµÐ»ÐµÐ²Ð¸Ð´ÐµÐ½Ð¸Ñı":6096,"ĠÐ¼Ð°Ð³Ð¸ÑģÑĤÑĢÐ°ÑĤÑĥÑĢÑĭ":6097,"ÐŁÑĢÐ°Ð²Ð¸ÑĤÐµÐ»ÑĮÑģÑĤÐ²Ð¾":6098,"ÐĿÐ°ÑĨÐ¸Ð¾Ð½Ð°Ð»ÑĮÐ½ÑĭÐ¹":6099,"ĠÐ¾Ð·Ð½Ð°Ñĩ":6100,"ĠÑģÑĥÐ´ÐµÐ±Ð½Ð¾Ð³Ð¾":6101,"ĠÐ¼Ð¸ÐºÑĢÐ¾Ð¿ÑĢÐ¾ÑĨÐµÑģÑģ":6102,"Ð¾Ð¼ÐµÑĤÑĢÐ¸ÑĩÐµÑģÐºÐ¸Ñħ":6103,"ĠÐ·Ð°ÑĢÐ°Ð±Ð¾ÑĤÐ½Ð¾Ð¹":6104,"ĠÐ½Ð°Ð´ÐµÐ¶Ð½Ð¾ÑģÑĤÐ¸":6105,"Ð£Ð¢ÐĴÐķÐłÐĸÐĶÐķÐĿÐ«":6106,"ĠÑģÐµÐ»ÑĮÑģÐºÐ¾ÑħÐ¾Ð·ÑıÐ¹ÑģÑĤÐ²ÐµÐ½Ð½ÑĭÑħ":6107,"ĠÑĥÑģÑĤÐ°Ð²Ð½Ð¾Ð¼":6108,"ĠÑģÑĤÐ°ÑĤÑĥÑģÐ°":6109,"ĠÐºÐ¾Ð½Ð²ÐµÑĢÑĤÐ¾Ð²":6110,"ĠÐ¿Ð¾ÑģÑĤÐ°Ð²ÑīÐ¸ÐºÐ¾Ð²":6111,"ĠÐ´Ð°Ð²Ð»ÐµÐ½Ð¸Ñı":6112,"ĠÐ·ÐµÐ¼ÐµÐ»ÑĮ":6113,"ĠÑĥÑĩÐ¸ÑĤÑĭÐ²":6114,"ĠÐ´ÐµÑĦÐ¸ÑĨÐ¸ÑĤ":6115,"ĠÐŁÐ¾Ð»ÑĥÑĩÐ°ÑĤÐµÐ»ÑĮ":6116,"ĠÐ´Ð¸ÑģÐ¿Ð°Ð½ÑģÐµÑĢ":6117,"ĠÑĤÐµÐ»ÐµÐºÐ°Ð½Ð°Ð»Ð¾Ð²":6118,"ĠÑģÑĩÐ¸ÑĤÐ°ÐµÑĤÑģÑı":6119,"ĠÐ¾Ð¿ÐµÑĢÐµÐ¶Ð°ÑİÑīÐµÐ³Ð¾":6120,"ĠÐ¿ÑĢÐ¸Ð²Ð»ÐµÐºÐ°ÑĤÐµÐ»ÑĮÐ½Ð¾ÑģÑĤÐ¸":6121,"ĠÑĤÐµÐ»ÐµÐºÐ¾Ð¼Ð¼ÑĥÐ½Ð¸ÐºÐ°ÑĨÐ¸Ð¹":6122,"ĠÐ²Ð¾ÑģÑĤÑĢÐµÐ±":6123,"ĠÐ·Ð°Ð±Ð»Ð¾ÐºÐ¸ÑĢÐ¾Ð²Ð°Ð½Ð½Ð¾Ð³Ð¾":6124,"ĠÐ´ÑĥÑħÐ¾Ð²":6125,"ĠÐ³Ð°Ð·Ð¾ÑĤÑĥÑĢÐ±Ð¸Ð½":6126,"ĠÐ±Ð°ÐºÐ°Ð»Ð°Ð²ÑĢÐ¸Ð°ÑĤÐ°":6127,"ĠÐ¤ÐĵÐ£ÐŁ":6128,"ÐľÐ¸ÑĪÑĥÑģÑĤÐ¸Ð½":6129,"ĠÐ½ÐµÑģÑĩÐ°ÑģÑĤÐ½ÑĭÑħ":6130,"ĠÐ³Ð°Ð·Ð¾ÑĤÑĥÑĢÐ±Ð¸Ð½Ð½ÑĭÑħ":6131,"130":6132,"93":6133,"IV":6134,"bi":6135,"lli":6136,"up":6137,"Ð¥":6138,"ĠM":6139,"ĠT":6140,"Ġp":6141,"Ð¾ÑĨÐµÐ½ÐºÐ°":6142,"Ð¸Ð°Ð»ÑĮÐ½ÑĭÑħ":6143,"ÑĤÑĥ":6144,"ÑģÐ¸Ñħ":6145,"ÑıÐµÑĤ":6146,"ÑıÑģÐ½":6147,"Ð»Ð¸Ð²":6148,"Ð»Ð¸ÑĨ":6149,"Ð¾Ð²Ð°":6150,"Ð°Ð½Ñĭ":6151,"ĠÑģÐµÐ½Ñģ":6152,"ÐµÑĢÐ¾ÑģÑģÐ¸Ð¹":6153,"Ð½Ð¾Ð¶":6154,"ĠÐ²Ð¾Ð¹":6155,"ĠÐ²Ð¾ÑģÐ¿":6156,"ĠÐ¿ÑĢÐ¸Ñħ":6157,"Ð¿Ð¾Ð»":6158,"Ð¿Ð¾Ð²Ñĭ":6159,"ĠÐ½ÐµÐ»":6160,"ÑĦÐ¸ÑĢ":6161,"ĠÐ´Ð¸ÑĦ":6162,"Ð¾Ð´Ð°Ð²":6163,"Ð¾ÑģÑĮ":6164,"ĠÐºÑĥÑĢÑģÐ¾Ð²":6165,"ĠÐ¾Ð±ÑĢÐ°ÑĤÐ¸ÑĤÑĮ":6166,"ĠÑĥÑĢÐ°Ð½":6167,"ĠÐ½Ð°Ð¸Ð¼ÐµÐ½":6168,"ÐµÐ¼Ð¸ÑĢ":6169,"Ð¸Ð½ÐµÐ¹":6170,"Ð±ÑĥÑĢÐ³":6171,"ĠÐ¾ÑĤÐ½ÐµÑģ":6172,"ÑĤÐµÐ»ÐµÐ¹":6173,"ĠÐ³ÑĢÐ°Ð´":6174,"Ð°ÑĢÐ¸Ð¸":6175,"Ð¸Ð»Ð°ÑģÑĮ":6176,"ĠÐ¿ÑĢÐµÐ´ÑĥÐ¿ÑĢÐµÐ¶Ð´":6177,"ĠÐ±Ð¾ÑĢ":6178,"ĠÐ±ÑĥÐ¼Ð°Ð¶":6179,"Ð¸Ð²Ð°Ð½Ð¸Ñİ":6180,"Ð¸Ð´Ð°":6181,"Ð¸ÑĤÐµÐ»ÑĮÐ½ÑĭÐ¹":6182,"ÑĥÑģÐ½ÑĭÑħ":6183,"Ð¾Ð±Ñĭ":6184,"ĠÑĩÑĢÐµÐ·":6185,"ĠÑĢÐµÑĦÐµÑĢ":6186,"ĠÑĢÐµÑĪÐµÐ½Ð¸Ð¸":6187,"ĠÑģÑĤÐ¾Ð¹":6188,"ĠÑĤÐµÑħÐ½Ð¾Ð»Ð¾Ð³Ð¸ÑĩÐµÑģÐºÐ¾Ðµ":6189,"ĠÐ·Ð°ÐºÑĢÐµÐ¿":6190,"ĠÐ¸Ð½ÑĤÐµÐ»Ð»ÐµÐºÑĤÐ¾Ð¼":6191,"Ð¸Ð»Ð¸ÑģÑĮ":6192,"Ð°ÑĤÐµÐ»ÑĮÐ½Ð¾Ð¹":6193,"ĠÐºÐ¾Ð½ÑĨÐµÐ¿":6194,"ĠÐºÐ¾Ð½ÑģÑĤÐ¸ÑĤÑĥÑĨÐ¸Ð¾Ð½":6195,"ĠÐ¸Ð½ÑĦÐ¾ÑĢÐ¼Ð°ÑĨÐ¸Ð¾Ð½Ð½Ð°Ñı":6196,"ĠÑģÐ²Ð°ÑĢ":6197,"ĠÐ¿ÑĢÐ¾ÐµÐºÑĤÐ½Ð¾":6198,"ĠÐ¿ÐµÑĢÑģÐ¾Ð½Ð°Ð»Ð°":6199,"ĠÐ´Ð¾ÑģÑĤÐ¸Ð³":6200,"ÑĥÐ¿ÐµÑĢ":6201,"ĠÐ¾ÑĢÐ³Ð°Ð½Ð¸Ð·ÑĥÐµÑĤ":6202,"ĠÐ¿ÑĥÐ½ÐºÑĤÐ¾Ð²":6203,"ÐĴÐ½":6204,"ÐµÑģÑĤÑĮ":6205,"Ð¸ÑĤÑĮÑģÑı":6206,"ĠÐ±ÑİÐ´Ð¶ÐµÑĤÑĥ":6207,"Ð¿ÑĢÐµÑĤ":6208,"ĠÑĦÐ¾ÑĢÐ¼Ð¸ÑĢÑĥÐµÑĤ":6209,"ĠÐ¿ÑĢÐ¾ÑĨÐµÐ½ÑĤÐ°Ð¼Ð¸":6210,"ÐŁÐ¾":6211,"ÐŁÐµÑĢ":6212,"ĠÐ¿ÑĢÐ¾Ð³ÑĢÐ°Ð¼Ð¼Ð¸ÑĢÐ¾Ð²Ð°Ð½Ð¸Ñı":6213,"ĠÑģÐ¿Ð¾ÑĢÑĤÐ°":6214,"ĠÐ¿Ð¾Ð´Ð´ÐµÑĢÐ¶ÐºÐµ":6215,"Ð°ÐºÑĤÐ¸Ð²Ð½ÑĭÑħ":6216,"ĠÑįÑĤÐ¸Ð¼":6217,"ĠÐ¸ÑģÐ¿Ð¾Ð»Ð½Ð¸ÑĤÐµÐ»ÑĮÐ½ÑĭÑħ":6218,"ĠÐ¾ÑģÐ½Ð¾Ð²Ñĥ":6219,"ĠÐ¾Ð¿ÑĢÐµÐ´ÐµÐ»ÐµÐ½Ð½Ð¾Ð¼":6220,"ĠÐ¿Ð»Ð°Ð·":6221,"ĠÐ²ÐºÐ»ÑİÑĩÐ°ÑİÑīÐ¸Ðµ":6222,"ĠÐ²ÐºÐ»ÑİÑĩÐ¸ÑĤÐµÐ»ÑĮÐ½Ð¾":6223,"Ð°Ð¹Ð½ÑĭÑħ":6224,"Ð»Ð°Ð´Ð½ÑĭÐµ":6225,"ĠÑģÐ¾Ð²ÐµÑĢÑĪ":6226,"ÐĺÐ½ÑĦÐ¾ÑĢÐ¼":6227,"ĠÑįÐ»ÐµÐºÑĤÑĢÐ¾Ð½Ð¸ÐºÐ°":6228,"Ġ158":6229,"ĠÐ±ÐµÐ·Ð¾Ð¿Ð°ÑģÐ½ÑĭÑħ":6230,"Ð°ÐµÐ¼ÑĭÐ¼":6231,"Ġ123":6232,"Ð½Ð¸ÐºÐ¾Ð²Ð¾Ð¹":6233,"ĠÑģÐ¾ÑĨÐ¸Ð°Ð»ÑĮÐ½Ð¾Ð³Ð¾":6234,"ĠÐ³ÑĢÐ°Ð¶Ð´Ð°Ð½ÑģÑĤÐ²Ð°":6235,"ĠÑģÐ¾Ð´ÐµÐ¹ÑģÑĤÐ²Ð¸Ñı":6236,"ĠÑĩÐ°ÑģÑĤÑıÑħ":6237,"Ð¸ÑģÐºÑĥÑģÑģÑĤÐ²ÐµÐ½Ð½ÑĭÐ¹":6238,"Ð¸ÑģÐºÑĢÐ¸Ð¼Ð¸Ð½":6239,"ĠÐ½Ð°ÑĨÐ¸Ð¾Ð½Ð°Ð»ÑĮÐ½ÑĭÐ¼Ð¸":6240,"ĠÑĢÐµÐ³ÑĥÐ»Ð¸ÑĢÐ¾Ð²Ð°Ð½Ð¸Ð¸":6241,"ĠÐ¿Ð¾Ð»ÑĥÑĩÐ°ÑĤÐµÐ»ÑıÐ¼Ð¸":6242,"ÐµÐ´Ð¸ÑĨÐ¸Ð½Ñĭ":6243,"ĠÑĩÐµÐ»Ð¾Ð²ÐµÐºÐ¾Ð¼":6244,"Ð£ÐĶ":6245,"Ġ2001":6246,"ĠÐ¸Ð½Ð¾ÑģÑĤÑĢÐ°Ð½Ð½Ð¾Ð¹":6247,"Ġ1486":6248,"ĠÑĤÑĢÐ°Ð½ÑģÐ¿Ð¾ÑĢÑĤÐ½Ð¾":6249,"ĠÐ½ÐµÐ´Ð¸ÑģÐºÑĢÐ¸Ð¼Ð¸Ð½":6250,"ĠÑģÐ¿Ð¾ÑģÐ¾Ð±Ð°Ñħ":6251,"ĠÐ°Ð½Ð°Ð»Ð¸ÑĤ":6252,"ÑıÑīÐµÐ³Ð¾":6253,"Ð½ÐµÑĥÑĢÐµÐ³ÑĥÐ»":6254,"ĠÐ¸Ð½ÑĤÐµÐ»Ð»ÐµÐºÑĤÑĥÐ°Ð»ÑĮÐ½Ð¾Ð³Ð¾":6255,"ĠÐ²ÐµÐ´ÐµÑĤ":6256,"ÑįÐºÐ¾Ð½Ð¾Ð¼ÑĢÐ°Ð·Ð²Ð¸ÑĤÐ¸Ñı":6257,"ĠÐ¿ÑĢÐµÐ²ÑĭÑģ":6258,"ĠÐ¿ÑĢÐ°Ð²Ð¾Ð¾ÑħÑĢÐ°Ð½":6259,"ÑĢÐ°Ð»ÑĮÐ½Ð¾Ð¹":6260,"ĠÑģÑĥÐ´Ð¾Ð²":6261,"ĠÐ¾ÑĤÐºÑĢÑĭÑĤÑĭÐ¼":6262,"Ġ177":6263,"ĠÐ´Ð²Ð°Ð´":6264,"ĠÐ¿ÑĢÐµÐ´ÑģÑĤÐ°Ð²Ð»ÐµÐ½Ð½ÑĭÐµ":6265,"ĠÐ³Ð»ÑĥÐ±":6266,"ĠÐ¿Ð¾ÑĤÐµÑĢ":6267,"ĠÐµÐ´Ð¸Ð½Ð¾Ð»":6268,"ĠÐ´ÐµÐ¹ÑģÑĤÐ²ÑĥÑİÑīÐ¸Ñħ":6269,"Ð°Ð¿Ð¸ÑĤÐ°Ð»ÑĮÐ½ÑĭÐµ":6270,"ĠÐ¼Ð¸ÐºÑĢÐ¾Ñģ":6271,"ĠÑĤÐ¾ÑĢÐ³Ð¾Ð²Ð¾Ð¹":6272,"ĠÐ¿ÑĢÐ¸Ð·Ð½Ð°ÑĤÑĮ":6273,"ĠÐļÐ¾Ð¼Ð¿":6274,"ĠÐºÑĢÐ¸ÑĤÐµÑĢÐ¸Ð¸":6275,"ĠÐ±ÑĥÐ´ÑĥÑī":6276,"ĠÐ¾Ð±ÑıÐ·Ð°ÑĤÐµÐ»ÑĮÑģÑĤÐ²Ð°Ð¼":6277,"ĠÑįÐ½ÐµÑĢÐ³ÐµÑĤÐ¸ÑĩÐµÑģÐºÐ¸Ñħ":6278,"ĠÐ¸ÑģÐºÑĥÑģÑģÑĤÐ²ÐµÐ½Ð½ÑĭÐ¼":6279,"ĠÐ¿ÑĢÐµÐ´Ð»Ð¾Ð¶ÐµÐ½Ð¸Ñİ":6280,"ĠÐ¿ÑĢÐ¾Ð²Ð¾Ð´Ð¸ÑĤÑģÑı":6281,"ĠÐ¿Ð¾Ð¸ÑģÐºÐ°":6282,"ĠÐ°Ð²ÑĤÐ¾Ð¼Ð°ÑĤÐ¸Ð·Ð¸ÑĢÐ¾Ð²Ð°Ð½Ð½Ð¾Ð¹":6283,"ĠÐ²Ð¾ÑģÑģÑĤÐ°Ð½Ð¾Ð²":6284,"ĠÐ·Ð°Ð½Ð¸Ð¼":6285,"ĠÐŃÐº":6286,"ĠÐŃÐļ":6287,"ĠÐ¼ÐµÐ¶Ð²ÐµÐ´Ð¾Ð¼":6288,"ĠÐ¿ÑĢÐ¾Ð³Ð½Ð¾Ð·Ð°":6289,"ĠÐ¿ÑĢÐ¾Ð³Ð½Ð¾Ð·Ð¸ÑĢÐ¾Ð²Ð°Ð½Ð¸Ñı":6290,"ĠÐ°ÑģÑģÐ¾ÑĨÐ¸":6291,"ĠÑĤÑĢÐ°Ð½ÑģÑĦÐµÑĢ":6292,"ĠÐ¿Ð¾Ð½ÑıÑĤ":6293,"ĠÐ¸Ð½Ð¸ÑĨÐ¸Ð°ÑĤÐ¸Ð²Ð½Ð¾Ðµ":6294,"ĠÐºÐ°Ð»ÐµÐ½Ð´Ð°ÑĢ":6295,"ĠÑģÐ¾ÑģÑĤÐ°Ð²Ð»ÑıÑİÑīÐ¸Ñħ":6296,"ĠÐ°Ð»Ð³Ð¾ÑĢÐ¸ÑĤÐ¼Ñĭ":6297,"ĠÐ±Ð¸Ð·Ð½ÐµÑģÐ°":6298,"ĠÐ²Ð¾Ð·Ð½Ð¸ÐºÑĪÐ¸Ðµ":6299,"ĠÐ¾ÑĦÐ¸ÑĨÐ¸Ð°Ð»ÑĮÐ½Ð¾Ð³Ð¾":6300,"ĠÑĤÑĢÐµÑĤÑĮÐ¸Ñħ":6301,"ĠÐ³Ð»Ð°Ð²Ð½Ð¾Ð¼":6302,"ĠÐ·Ð°ÐºÐ°Ð·ÑĩÐ¸ÐºÐ¾Ð¼":6303,"telli":6304,"ĠÑĢÐµÐ³ÑĥÐ»Ð¸ÑĢÑĥÑİÑīÐ¸Ð¹":6305,"ĠÐ±Ð°Ð½ÐºÐ°":6306,"Ð¾Ð·Ð½Ð°Ð²Ð°Ð½Ð¸Ðµ":6307,"ĠÐ´ÐµÐ½ÐµÐ¶Ð½ÑĭÐ¼":6308,"ĠÐ±ÑĥÑħÐ³Ð°Ð»ÑĤÐµÑĢÐµ":6309,"ĠÐ²ÑĭÐ·Ð¾Ð²Ñĭ":6310,"ĠÐ¿ÑĢÐ¸Ð²ÐµÐ´ÐµÐ½Ñĭ":6311,"ĠÐ¾ÑĩÐµÑĢÐµÐ´Ð½Ð¾Ð¹":6312,"ĠÐ½ÐµÐ¸ÑģÐ¿Ð¾Ð»Ð½ÐµÐ½Ð¸Ñı":6313,"Ð³Ð¾ÑĤÐ°Ð²Ð»":6314,"ĠÐ¾Ð¿ÐµÑĢÐ°ÑĤÐ¾ÑĢÐ°Ð¼Ð¸":6315,"ĠÑĢÐ°ÑģÐ¿Ð¾ÑĢÑıÐ¶ÐµÐ½Ð¸ÐµÐ¼":6316,"ĠÑģÐ¾Ð´ÐµÑĢÐ¶Ð°ÑīÐ¸ÑħÑģÑı":6317,"ĠÐ¿ÑĢÐµÐ´Ð¿Ð¾Ð»Ð°Ð³Ð°ÐµÑĤ":6318,"ĠÑĢÐµÐ¿ÑĥÑĤ":6319,"ĠÑģÐ°Ð½ÐºÑĨÐ¸Ð¹":6320,"ĠÐ·Ð°Ð¿ÑĢÐµÑīÐµÐ½Ð¾":6321,"ĠÐ¿ÑĢÐ¾ÑĦÐ¸Ð»Ð°ÐºÑĤÐ¸ÑĩÐµÑģÐºÐ¸Ñħ":6322,"ĠÑĥÐ½Ð¸Ð²ÐµÑĢÑģÐ¸ÑĤÐµÑĤ":6323,"ĠÐ½ÐµÐ²Ð¾Ð·Ð¼Ð¾Ð¶Ð½Ð¾ÑģÑĤÐ¸":6324,"ĠÐ´Ð¸Ð°Ð³Ð½Ð¾ÑģÑĤÐ¸ÐºÐ¸":6325,"ĠÐºÐ¾Ð¼Ð¸ÑģÑģÐ¸ÐµÐ¹":6326,"ÐºÐ¾Ð¼Ð¿ÑĮÑİÑĤ":6327,"Ġnetwork":6328,"ĠÑĦÐ¾ÑĤÐ¾Ð³ÑĢÐ°ÑĦÐ¸ÑĩÐµÑģÐºÐ¸Ñħ":6329,"ÑħÐ¸Ð¼Ð¸Ð¸":6330,"ĠÑĢÐ°ÑģÐ¿Ð¾Ð·Ð½Ð°Ð²Ð°Ð½Ð¸Ñı":6331,"ĠÐ¾ÑĩÐ¸ÑģÑĤÐºÐ¸":6332,"ĠÐ¿ÐµÑĢÐµÑĢÐ°Ð±Ð¾ÑĤÐºÐ¸":6333,"ĠÑĥÑīÐµÑĢÐ±Ð°":6334,"ĠÑģÑĤÐ¾ÑĢÐ¾Ð½Ñĭ":6335,"ĠÐ¾Ð¿Ð°ÑģÐ½ÑĭÑħ":6336,"ĠÐ¾ÑĤÐ²ÐµÑĩÐ°ÑİÑīÐ¸Ñħ":6337,"ĠÐŀÐ±ÑīÐ¸Ðµ":6338,"ĠÐ²ÑģÑĤÑĥÐ¿Ð¸Ð²ÑĪÐµÐ³Ð¾":6339,"ĠÑĤÐµÐ¼Ð°ÑĤÐ¸ÐºÐµ":6340,"ĠÐ²Ð°Ð¶Ð½ÐµÐ¹ÑĪÐ¸Ñħ":6341,"ĠGa":6342,"ĠÐ³ÐµÑĤÐµÑĢÐ¾ÑģÑĤÑĢÑĥÐºÑĤÑĥÑĢ":6343,"ĠÐ°Ð½Ð°Ð»Ð¾Ð³Ð¸ÑĩÐ½ÑĭÐ¼Ð¸":6344,"gence":6345,"ĠÐ²ÑĭÐ¿Ð»Ð°ÑĤÑĭ":6346,"ĠÐ½Ð°Ð²ÑĭÐºÐ¾Ð²":6347,"ĠÑĢÐµÐ»Ð¸Ð³Ð¸":6348,"ĠÑĥÐ´ÐµÐ»ÑĮÐ½ÑĭÐ¹":6349,"ĠÑĦÐ°Ð¼Ð¸Ð»Ð¸Ñİ":6350,"ĠÑģÑĤÐµÐºÐ¾Ð»":6351,"ĠÐļÐ¾Ð´ÐµÐºÑģ":6352,"ĠÐ¼Ð¸Ð½ÐµÑĢ":6353,"Ð±ÑĢÑĮ":6354,"ĠÐ¸Ð¼ÑĥÑīÐµÑģÑĤÐ²Ð°":6355,"ĠÑħÐ°ÑĢÐ°ÐºÑĤÐµÑĢÐ¸Ð·ÑĥÐµÑĤÑģÑı":6356,"ĠÐ¿Ð¸ÑģÑĮÐ¼ÐµÐ½Ð½Ð¾Ð¹":6357,"ĠÐ¿ÑĢÐ¾Ð¸ÑģÑħÐ¾Ð´":6358,"ĠÑģÑĥÐ²ÐµÑĢ":6359,"ĠÐ¿ÑĢÐ¾ÐºÑĥÑĢ":6360,"ĠÐĴÑģÐµÐ¼Ð¸ÑĢ":6361,"ĠÐ¿Ð°ÑĢÐ°Ð¼ÐµÑĤÑĢÑĭ":6362,"ÑģÐ¾ÑħÑĢÐ°Ð½ÐµÐ½Ð¸Ðµ":6363,"ĠÐ¿ÐµÐ´Ð°Ð³Ð¾Ð³":6364,"ÑĢÐ°Ð½ÑģÐ¿Ð¾ÑĢÑĤ":6365,"ĠÐ·Ð°ÐµÐ¼Ð½ÑĭÑħ":6366,"Ð²ÑĭÑĩÐ°Ð¹Ð½ÑĭÑħ":6367,"ĠÐ¿ÑĢÐ¸ÑħÐ¾Ð´":6368,"ĠÐ¾Ð±ÑĢÐ°ÑĤÐ¸ÑĤÑĮÑģÑı":6369,"ĠÐ±ÑĥÐ¼Ð°Ð¶Ð½Ð¾Ð¼":6370,"ĠÑĩÑĢÐµÐ·Ð²ÑĭÑĩÐ°Ð¹Ð½ÑĭÑħ":6371,"telligence":6372,"ĠÑĢÐµÐ»Ð¸Ð³Ð¸Ð¾Ð·":6373,"511":6374,"TU":6375,"ge":6376,"ty":6377,"ĠF":6378,"Ġdata":6379,"Ð¾Ð½Ð¾Ð¹":6380,"ÐµÑĨÐ¸":6381,"Ð½ÐµÐ½Ð½ÑĭÑħ":6382,"Ð½ÑĥÑĤ":6383,"Ð½ÐµÐ³Ð¾Ð´":6384,"Ð½Ð°Ð¿ÑĢÐ¸Ð¼ÐµÑĢ":6385,"ÑĤÐ½ÑĭÑħ":6386,"ÑĢÐµÑģÑģ":6387,"ÑĭÑģÐº":6388,"ÐµÐ½ÐµÑĢ":6389,"Ð»Ð¸Ð±Ð¾":6390,"ĠÐ¿ÑıÑĤÑĮ":6391,"Ð²ÑĤ":6392,"Ð²Ð¾Ð¹":6393,"Ð¾Ð²ÑĥÑİ":6394,"Ð°Ð½Ð°":6395,"ÑĩÐµÐ»Ð¾Ð²":6396,"ÐµÑĢÐµÐ´Ð¸":6397,"ĠÐ²Ð¾Ð»Ð½":6398,"Ð¾ÑĢÑģÐºÐ¾Ð¹":6399,"Ð¿Ð¾Ñģ":6400,"Ð¿Ð¾ÑĢÑĤ":6401,"ĠÐ½ÑĢÐ°Ð²":6402,"Ð¾ÑĤÑıÐ¶ÐµÐ½":6403,"Ð´Ð°":6404,"Ð´ÐµÐºÑģ":6405,"ĠÐ´ÐµÐ¼":6406,"Ð¾Ð½Ð½Ð¾Ð³Ð¾":6407,"ĠÑĢÐ¾Ð·Ð½":6408,"Ð¾Ð¼ÐµÐ»Ð¸Ð¾ÑĢ":6409,"ĠÑĤÐ°Ð»Ð°Ð½ÑĤ":6410,"ĠÐ¾Ð±ÑħÐ¾Ð´":6411,"ĠÐ¾Ð±Ð½Ð¾Ð²":6412,"ĠÐ¾Ð±ÑģÑĤÐ¾Ñı":6413,"Ð°ÑĤÑĩÐµÐ¹":6414,"ĠÑĥÐ±":6415,"ĠÑĥÐ¿ÑĢ":6416,"ĠÐ¼Ð¾ÑģÑĤ":6417,"ĠÐ¼Ð¸Ð»":6418,"ĠÐ¼ÐµÐ´Ð¸ÑĨÐ¸Ð½Ñĭ":6419,"ĠÐ¼Ð°ÑĤÑĩÐµÐ¹":6420,"Ð¸ÑĤÑĭ":6421,"Ð±ÐµÐ·":6422,"Ð°Ð»Ñĭ":6423,"ĠÐ¾ÑĤÐ¼ÐµÐ½":6424,"ĠÐ¾ÑĤÐ»Ð¸Ñĩ":6425,"ĠÐłÐµÐ³":6426,"ĠÑĦÐ¸Ð»ÑĮ":6427,"ĠÑĦÐ¸ÐºÑģ":6428,"ÑįÐ»ÐµÐºÑĤÑĢ":6429,"ĠÐ³ÑĥÐ¼Ð°Ð½":6430,"Ð½Ð¾ÑģÑĤÐ¾ÑĢÐ¾Ð½":6431,"ĠÐ¿ÑĢÐµÐ´ÐµÐ»ÑĮ":6432,"ĠÐ±ÐµÑĢÐµÐ³":6433,"Ð¾Ð±Ñī":6434,"ÑĥÐ±ÑĬÐµÐºÑĤ":6435,"ĠÑĤÐµÑħÐ½Ð¾Ð»Ð¾Ð³Ð¸ÑĩÐµÑģÐºÐ¸Ð¼":6436,"ĠÐ½ÐµÑģÑĤ":6437,"ĠÐ½ÐµÐ¾Ð´":6438,"ĠÐ½ÐµÑģÐ¾Ð²ÐµÑĢÑĪÐµÐ½":6439,"Ð°Ð´ÐµÐ¼":6440,"Ð¾Ð»ÑĮÐ½Ð¾Ð¹":6441,"ĠÐ¿Ð¾Ð´Ð²Ð¸Ð¶":6442,"ĠÐ¿Ð¾Ð´Ð³Ð¾ÑĤÐ°Ð²Ð»":6443,"Ð°ÑĩÑĥ":6444,"ĠÐ²ÑĭÑĢÐ°Ð±Ð¾ÑĤ":6445,"Ð¾ÑĩÐ½ÑĭÐµ":6446,"ĠÑģÐ¸ÑģÑĤÐµÐ¼Ð¾Ð¹":6447,"ĠÑĤÐ°ÐºÐ¾Ð¼":6448,"ĠÐ¸Ð½ÑĦÐ¾ÑĢÐ¼Ð°ÑĨÐ¸Ð¾Ð½Ð½Ð¾Ðµ":6449,"ĠÐ¿Ð¾Ð»ÑĥÑĩÐ¸Ð²ÑĪÐ¸Ñħ":6450,"ÐµÑģÐ¾Ð¾Ð±ÑĢÐ°Ð·":6451,"ÐµÑģÐ¾Ð¼ÐµÐ»Ð¸Ð¾ÑĢ":6452,"ĠÑģÐ¾Ð¾ÑĤÐ²ÐµÑĤÑģÑĤÐ²ÑĥÐµÑĤ":6453,"ĠÐ¿ÑĢÐ°Ð²Ð¾Ð²Ð¾Ð¼Ñĥ":6454,"ĠÐºÐ¾ÑĤÐ¾ÑĢÑĭÐ¼Ð¸":6455,"Ð¸ÑĢÐ¾Ð²Ð°Ð½Ð¸ÐµÐ¼":6456,"ĠÐ°Ñį":6457,"Ġ331":6458,"Ð¡ÑĤÑĢÐ¾Ð¸ÑĤÐµÐ»ÑĮÑģÑĤÐ²Ð¾":6459,"ĠÐºÐ¾Ð¼Ð¿ÐµÐ½Ñģ":6460,"ĠÐ¡Ð¾Ð´":6461,"ĠÐ¡ÑĢÐ¾Ðº":6462,"ÐŀÐŁ":6463,"Ð¾Ð²ÑĭÐ²":6464,"ĠÐľÐµÐ¶Ð´ÑĥÐ½Ð°ÑĢÐ¾Ð´":6465,"ÐŁÑĢÐ¾":6466,"ĠÑĤÑĢÐµÐ±Ð¾Ð²Ð°Ð½Ð¸Ñİ":6467,"ĠÑĤÑĢÐµÐ±ÑĥÐµÑĤ":6468,"125":6469,"Ġ57":6470,"ĠÑĥÑģÑĤÐ°Ð½Ð¾Ð²Ð»ÐµÐ½Ð½ÑĭÐ¹":6471,"ĠÐ¾ÑģÐ½Ð¾Ð²Ð½ÑĭÐ¼":6472,"ĠÐ¾Ð¿ÑĢÐµÐ´ÐµÐ»ÐµÐ½Ð½Ð¾Ð¹":6473,"ÑĭÐ²Ð°ÑİÑīÐ¸Ñħ":6474,"ĠÐ²ÐºÐ»ÑİÑĩÐµÐ½Ñĭ":6475,"ĠÐ½ÐµÐ¾Ð±ÑħÐ¾Ð´Ð¸Ð¼ÑĭÐ¼":6476,"ÐĺÐ½Ð²ÐµÑģÑĤ":6477,"ĠÐļÐ°Ð»Ð¸Ð½Ð¸Ð½Ð³ÑĢÐ°Ð´Ðµ":6478,"Ġ1288":6479,"ĠÐ¾ÐºÑĢÑĥÐ³":6480,"ĠÐºÐ¾Ð½ÑĤÑĢÐ¾Ð»Ðµ":6481,"ĠÐ³ÑĢÐ°Ð¶Ð´Ð°Ð½Ð°Ð¼":6482,"ĠÐ²ÑĭÑģÐ¾ÐºÐ¾Ð³Ð¾":6483,"ĠÐ²ÑĭÑģÐ¾ÐºÐ¾Ð¿ÑĢÐ¾Ð¸Ð·Ð²Ð¾Ð´":6484,"ĠÐ´Ð°Ð½Ð½Ð¾Ð¼Ñĥ":6485,"ĠÑģÐ¾Ð¾ÑĤÐ²ÐµÑĤÑģÑĤÐ²ÑĥÑİÑīÐµÐµ":6486,"ĠÐ¾Ð³ÑĢÐ°Ð½Ð¸ÑĩÐµÐ½Ð½Ð¾Ð¹":6487,"ĠÑĥÑĤÐ²ÐµÑĢÐ¶Ð´ÐµÐ½Ð½ÑĭÐ¼":6488,"ÐľÐŃÐļ":6489,"ĠÐ¾Ð±ÑĬÐµÐ¼Ñĭ":6490,"Ð°ÑĤÐµÑĢÐ¸":6491,"Ð°Ð½Ð´Ð°ÑĢÑĤ":6492,"ĠÐ½Ð°Ð¿ÑĢÐ°Ð²Ð»ÐµÐ½Ð°":6493,"ĠÐ´ÑĢÑĥÐ³Ð¸Ð¼":6494,"ĠÐ¾ÑģÑĥÑīÐµÑģÑĤÐ²Ð»ÑıÑİÑīÐ¸Ðµ":6495,"ÐļÐĲ":6496,"ĠÑĢÐµÑģÑĥÑĢÑģÑĭ":6497,"ĠÐĺÐ·":6498,"ĠÐ¿Ð»Ð°Ð½Ð¸ÑĢÐ¾Ð²Ð°Ð½Ð¸Ðµ":6499,"ĠÑĢÐµÐ³Ð¸Ð¾Ð½Ð°Ð»ÑĮÐ½ÑĭÐ¼":6500,"ĠÐ¾Ð±ÑīÐµÑģÑĤÐ²ÐµÐ½Ð½Ð¾Ð³Ð¾":6501,"ĠÐ¾Ð±ÑīÐµÑģÑĤÐ²ÐµÐ½Ð½Ð¾Ð¹":6502,"ĠÐ¾Ð´Ð½Ð¾ÑģÑĤÐ¾ÑĢÐ¾Ð½":6503,"ĠÐ½Ð°ÑĥÐº":6504,"ĠÐ¾Ð±ÑĢÐ°Ð·Ð¾Ð²Ð°ÑĤÐµÐ»ÑĮÐ½ÑĭÐ¼":6505,"ĠÑģÐ¿Ð¾ÑģÐ¾Ð±Ð½Ð¾ÑģÑĤÐ¸":6506,"Ð½ÐµÑĢÐ³ÐµÑĤ":6507,"ÑĤÑĮÑģÑı":6508,"ĠÐºÑĢÐ¸ÑĤÐ¸ÑĩÐµÑģÐºÐ¾Ð¹":6509,"ĠÐ¾Ð¿ÑĤÐ¸ÐºÐ¾":6510,"ĠÐŀÐ±ÑıÐ·Ð°Ð½":6511,"ĠÐ¿Ð¾Ð»Ð¸ÑĤÐ¸ÐºÐ°":6512,"ĠÐ¿Ð¾ÑĤÑĢÐµÐ±Ð»ÐµÐ½Ð¸Ñı":6513,"ĠÑģÐ½Ð¸Ð¶ÐµÐ½Ð¸Ñı":6514,"ĠÐ½Ð°Ð±Ð¾ÑĢ":6515,"ĠÐ½Ð°Ð±Ð»ÑİÐ´":6516,"ĠÑĥÐ²ÐµÐ»Ð¸ÑĩÐ¸ÑĤÑĮ":6517,"ĠÐ²Ð½ÐµÑģÐµÐ½Ð¸Ðµ":6518,"ĠÐ´Ð°ÑĤÐµ":6519,"ĠÐµÐ´Ð¸Ð½Ð¾Ð³Ð¾":6520,"Ġ274":6521,"ĠÑįÑĤÐ°Ð¿Ð°Ñħ":6522,"ĠÐ¾Ð±Ð»Ð°ÑģÑĤÐµÐ¹":6523,"ĠÐ¸Ð½ÑĤÐµÑĢÐ¿ÑĢÐµÑĤ":6524,"ÐºÐ¾Ð¼Ð¼ÑĥÐ½Ð¸ÐºÐ°ÑĨÐ¸Ð¾Ð½":6525,"ĠÐ¿Ð¾Ð´ÑĤÐ²ÐµÑĢÐ¶Ð´ÐµÐ½Ð¸Ñı":6526,"ĠÐ¿ÑĢÐ¾Ð²Ð°Ð¹Ð´ÐµÑĢÐ¾Ð²":6527,"ĠÐºÐ°Ð¿Ð¸ÑĤÐ°Ð»ÑĮÐ½ÑĭÐµ":6528,"ĠÐ¿ÑĢÐµÐ¿Ð¾Ð´Ð°Ð²":6529,"ĠÐµÐ¶ÐµÐ³Ð¾Ð´Ð½Ð¾Ð¹":6530,"ÑģÑĤÐ²ÑĥÑİÑīÐ¸Ðµ":6531,"ĠÐ¾ÑĩÐµÑĢÐµÐ´Ð¸":6532,"ĠÐ¦ÐµÐ½ÑĤÑĢÐ°":6533,"ĠÐ¿ÑĢÐ¸Ð²Ð»ÐµÑĩÐµÐ½Ð¸ÐµÐ¼":6534,"ĠÐºÐ»ÑİÑĩÐµÐ²Ð¾Ð¹":6535,"ĠÐºÐ»ÑİÑĩÐµÐ²Ð¾Ð³Ð¾":6536,"ĠÐ¿Ð¾Ð»Ð¾Ð¶ÐµÐ½Ð¸ÑıÐ¼Ð¸":6537,"ĠÐ²ÑĭÐ´ÐµÐ»ÐµÐ½Ð½ÑĭÑħ":6538,"ĠÐ¿ÑĢÐ¸Ð»Ð¾Ð¶ÐµÐ½Ð¸Ñİ":6539,"ĠÐºÐ°Ð¶Ð´Ð¾Ð¹":6540,"ĠÑģÐ¾Ð¾Ð±ÑīÐµÐ½Ð¸Ñı":6541,"ĠÐ¿ÑĢÐ°Ð²Ð¸Ð»Ð°Ð¼Ð¸":6542,"ĠÐ¼ÐµÐ¶Ð±ÑİÐ´Ð¶ÐµÑĤ":6543,"ĠÐŀÑģÐ½Ð¾Ð²Ð½ÑĭÐµ":6544,"ĠÐºÐ»Ð¸Ð½":6545,"ĠÐ¿ÑĢÐµÐ´Ð»Ð°Ð³":6546,"ĠÐ¿ÑĢÐ¸ÑģÑĥÐ¶Ð´":6547,"ĠÐ·Ð°ÑĢÐµÐ³Ð¸ÑģÑĤÑĢ":6548,"ĠÑĨÐµÐ½ÑĤÑĢÐ¾Ð¼":6549,"ĠÐ¾Ð½Ð¸":6550,"ĠÑĤÐ¾ÑĩÐºÐ¸":6551,"ĠÐ¼Ð¾Ð´ÐµÑĢÐ½Ð¸Ð·":6552,"ÑĢÐ°Ð»Ð¸Ð·Ð¾Ð²Ð°Ð½":6553,"ĠÐ¿ÑĢÐ¸ÑĢÐ¾Ð´Ð½Ð¾Ð³Ð¾":6554,"ĠÐ¿ÑĢÐ¸ÑĢÐ¾Ð´Ð¾Ð¿":6555,"Ð¾Ð±ÑĢÐ°Ð¶ÐµÐ½Ð¸Ñı":6556,"ĠÐ³ÐµÐ½ÐµÑĢÐ°ÑĨÐ¸Ð¸":6557,"artificial":6558,"ĠÐ¿Ð»Ð°ÑĤÑĭ":6559,"ĠIn":6560,"ĠÑĥÑĤÐ¸Ð»Ð¸Ð·Ð°ÑĨÐ¸Ð¸":6561,"ĠÐºÐ°ÑģÐ°ÑİÑīÐµÐ¼Ñĥ":6562,"ent":6563,"Ð¿ÑĢÐµÐ´Ð¾ÑģÑĤÐ°Ð²":6564,"ĠÐ·Ð°Ð¿ÑĢÐ°ÑĪÐ¸Ð²Ð°ÐµÑĤ":6565,"ĠÐŁÐ¾Ð»Ð¾Ð¶ÐµÐ½Ð¸Ðµ":6566,"ĠÐ·Ð°ÐºÑĥÐ¿Ð¾Ðº":6567,"ĠÐ£Ð¿ÑĢÐ°Ð²Ð»ÐµÐ½Ð¸Ñı":6568,"ĠÑģÑĤÐµÐ¿ÐµÐ½ÑĮ":6569,"ĠÐ¸Ð·Ð¾Ð±ÑĢÐ°Ð¶ÐµÐ½Ð¸Ñı":6570,"ĠÐ¸Ð¼Ð¿Ð¾ÑĢÑĤÐ½Ð¾Ð³Ð¾":6571,"ĠÐ¾Ð±ÑģÐ»ÑĥÐ¶Ð¸Ð²Ð°Ð½Ð¸Ñı":6572,"ĠÐ¿ÑĢÐ¾ÑĤÐ¾ÐºÐ¾Ð»Ð°":6573,"ĠÑĥÐ´Ð°Ð»Ð¸ÑĤÑĮ":6574,"ĠÑĤÐµÑĢÑĢÐ¾ÑĢÐ¸Ð·Ð¼Ð°":6575,"ĠÐ¿Ð¾ÑģÐ»ÐµÐ´ÑģÑĤÐ²Ð¸Ñı":6576,"ĠÐ¾Ð±ÑĬÐµÐ´Ð¸Ð½ÐµÐ½Ð¸Ñı":6577,"ĠÐĿÐ°ÑģÑĤÐ¾ÑıÑīÐ°Ñı":6578,"Ð¿ÑĢÐ¾Ð¸Ð·Ð²Ð¾Ð´ÑģÑĤÐ²Ð¾":6579,"ĠÐºÐ¾Ð½ÑĦÐ¸Ð´ÐµÐ½ÑĨÐ¸Ð°Ð»ÑĮÐ½Ð¾Ð¹":6580,"ĠÐºÐ¾Ð½ÑĦÐ¸Ð´ÐµÐ½ÑĨÐ¸Ð°Ð»ÑĮÐ½Ð¾ÑģÑĤÑĮ":6581,"ĠÐ½Ð¾Ð²Ð¾ÑģÑĤÐ½Ð¾Ð³Ð¾":6582,"ĠÐ½Ð¾Ð²Ð¾ÑģÑĤÐ½Ð¾Ð¹":6583,"ĠÐºÑĢÑĥÐ¿Ð½ÑĭÑħ":6584,"ÑİÑīÐ¸Ð¼ÑģÑı":6585,"ĠÐºÐ¾Ð¼Ð¿ÑĮÑİÑĤÐµÑĢÐ½ÑĭÑħ":6586,"ĠÑģÐµÐ¼ÐµÐ¹":6587,"ĠÐºÐ°Ð½Ð°Ð»Ð¾Ð²":6588,"ĠÐ½Ð°ÑĩÐ¸ÑģÐ»ÐµÐ½Ð½Ð¾Ð¹":6589,"ĠÑģÑĢÐµÐ´Ð½ÐµÐ¼ÐµÑģÑıÑĩ":6590,"ĠÐ½ÐµÐ´Ð¾ÑģÑĤÐ¾Ð²ÐµÑĢÐ½Ð¾ÑģÑĤÐ¸":6591,"ĠÑĢÐ°ÐºÐµÑĤÐ½Ð¾":6592,"ĠÐŁÑĢÐ¾ÑĨÐµÑģÑģ":6593,"ĠÐ¿Ð¾ÑģÑĤÐ¾ÑıÐ½Ð½Ð¾":6594,"ĠÐ°Ð´Ð¼Ð¸Ð½Ð¸ÑģÑĤÑĢÐ°ÑĤÐ¸Ð²":6595,"ĠÐ°Ð³ÑĢÐµÐ³Ð°ÑĤÐ¾ÑĢÐ°":6596,"ĠÐķÐ²ÑĢÐ¾Ð¿ÐµÐ¹":6597,"ĠÐ¿ÑĢÑıÐ¼Ð¾":6598,"ĠÑĦÐ¾ÑĤÐ¾Ð¿ÑĢÐ¸ÐµÐ¼Ð½Ð¸ÐºÐ¾Ð²":6599,"ĠÐ¾Ð·Ð½Ð°Ðº":6600,"ĠÐĳÐ°Ð»ÑĤÐ¸Ð¹ÑģÐº":6601,"----":6602,"ĠÑĢÐ°ÑģÐºÑĢÑĭÑĤÐ¸Ñı":6603,"ĠÐ¿ÑĢÐ¾ÑĤÑıÐ¶ÐµÐ½Ð½Ð¾ÑģÑĤÑĮÑİ":6604,"ĠÑĦÐ¾ÑĤÐ¾Ð³ÑĢÐ°ÑĦÐ¸Ð¸":6605,"Ð¼ÐµÑĤÐ¾Ð´Ð¸ÑĩÐµÑģÐºÐ¾Ðµ":6606,"ĠÐ±ÑĭÐ»Ð¾":6607,"ĠÐ½Ð°Ð·ÐµÐ¼Ð½Ð¾Ð³Ð¾":6608,"ĠÑĥÑĤÑĢÐ°ÑĤÐ¸Ð²ÑĪÐ¸Ð¼":6609,"ĠÑĥÑĤÑĢÐ°ÑĤÐ¸Ð²ÑĪÐ¸Ð¼Ð¸":6610,"ĠÐ°ÐºÑĤÑĥÐ°Ð»Ð¸Ð·Ð°ÑĨÐ¸Ñİ":6611,"ĠÑĤÑĥÑĢÐ¸ÑģÑĤÑģÐºÐ¾":6612,"ĠÑĢÐ°Ð·Ð²ÐµÐ´ÐºÐ°Ð¼":6613,"ĠÑģÐµÑĢÐ¸Ð¹Ð½Ð¾Ð³Ð¾":6614,"ÑģÐ¿ÐµÑĢÑĤÐ½ÑĭÐ¹":6615,"ĠÑģÐ¾ÑİÐ·":6616,"ĠÑĥÐ¿Ð¾Ð»Ð½Ð¾Ð¼Ð¾ÑĩÐµÐ½Ð½ÑĭÑħ":6617,"ĠÑħÐ°ÑĢÐ°ÐºÑĤÐµÑĢÐ¸Ð·ÑĥÑİÑī":6618,"ĠÐ²Ð¾Ð·Ð½Ð¸ÐºÐ½Ð¾Ð²ÐµÐ½Ð¸Ñı":6619,"ĠÐ·Ð°ÑīÐ¸ÑīÐµÐ½Ð½Ð¾ÑģÑĤÐ¸":6620,"ĠÐ°ÑĤÐ¾Ð¼Ð½Ð¾Ð¹":6621,"ĠÑģÐ²Ð¾Ð¹ÑģÑĤÐ²Ð°Ð¼Ð¸":6622,"ĠÐ¿Ð»Ð°ÑĤÐµÐ¶ÐµÐ¹":6623,"ÑĢÐµÐºÐ¾Ð½ÑģÑĤÑĢÑĥÐºÑĨÐ¸Ñı":6624,"Ð¾ÑģÐ½Ð°Ð±Ð¶ÐµÐ½Ð¸Ñı":6625,"ĠÑģÐ¿ÐµÑĨÑħÐ¸Ð¼Ð¸Ð¸":6626,"ĠÑģÐµÐºÑĢÐµÑĤ":6627,"ĠÐ¿ÑĢÐµÐ´ÑĬÑıÐ²Ð»Ñı":6628,"ĠÐ·Ð°Ð´ÐµÐ»Ð°":6629,"ÑĢÐ¾Ð»ÐµÑģÐ¾Ð¼ÐµÐ»Ð¸Ð¾ÑĢ":6630,"ĠÐ²Ð»Ð¾Ð¶ÐµÐ½Ð¸Ð¹":6631,"ĠÐ½Ð°ÑĢÐºÐ¾ÑĤ":6632,"ĠÐ¸Ð½ÑģÑĤÐ¸ÑĤÑĥÑĤÐ¾Ð²":6633,"ĠÐ´Ð¾ÑģÑĤÐ¾Ð¸Ð½ÑģÑĤÐ²Ð¾":6634,"ĠÐ½Ð°ÐºÐ°ÑĩÐºÐ¾Ð¹":6635,"ÑĥÐ¿ÐµÑĢÐºÐ¾Ð¼Ð¿ÑĮÑİÑĤ":6636,"ĠÐŃÐļÐĳ":6637,"ĠÑģÑĥÐ²ÐµÑĢÐµÐ½":6638,"ÑĩÐµÐ»Ð¾Ð²ÐµÐº":6639,"Ð¾ÑĤÑıÐ¶ÐµÐ½Ð½Ð¾ÑģÑĤÑĮ":6640,"ĠÑĤÐ°Ð»Ð°Ð½ÑĤÐ»Ð¸Ð²":6641,"ĠÐ¾Ð±ÑģÑĤÐ¾ÑıÑĤÐµÐ»ÑĮ":6642,"ÐĺÐ½Ð²ÐµÑģÑĤÐ¸ÑĨÐ¸Ð¾Ð½":6643,"ĠÐºÐ°ÑģÐ°ÑİÑīÐµÐ¼ÑĥÑģÑı":6644,"ĠÑģÑĢÐµÐ´Ð½ÐµÐ¼ÐµÑģÑıÑĩÐ½Ð¾Ð¹":6645,"ĠÐ¾Ð·Ð½Ð°ÐºÐ¾Ð¼":6646,"\").":6647,"-,":6648,"120":6649,"SO":6650,"ĠÐµÐ²":6651,"ĠÐµÐ¼Ñĥ":6652,"Ð¸ÑĢÐ°Ð¶":6653,"Ð½Ð¾ÑĤ":6654,"Ð½ÐµÐ²":6655,"ÑģÐ¾Ð³Ð»Ð°ÑĪÐµÐ½Ð¸Ñı":6656,"ÑĥÐ·":6657,"ÐµÐ½Ðµ":6658,"ÐµÐ½Ðº":6659,"ĠÐ¿Ð¸Ñī":6660,"ĠÐ¿ÑģÐ¸Ñħ":6661,"ÐºÐ»Ð°Ð´":6662,"ÐºÐ°Ð¿Ð¸ÑĤÐ°Ð»ÑĮÐ½ÑĭÐµ":6663,"ĠÐ¸Ð½Ð¾Ð¼Ñĥ":6664,"Ð°Ð½ÐºÑĤ":6665,"ĠÑģÐ¾ÑģÑĤ":6666,"ĠÑģÑĥÐ¿ÐµÑĢÐºÐ¾Ð¼Ð¿ÑĮÑİÑĤ":6667,"ÐµÑĢÑĪÐµÐ½Ð¸Ðµ":6668,"ĠÐ²ÑģÐºÑĢÑĭÑĤÐ¸Ñı":6669,"ÐµÐ´Ð¸ÐºÐ¾":6670,"ÐµÐ´ÐµÑıÑĤÐµÐ»ÑĮ":6671,"Ð¾ÑĢÐ±":6672,"Ð¾ÑĢÐ½ÑĭÐµ":6673,"ĠÐ¿ÑĢÐ¸Ð·":6674,"Ð¿Ð¾Ð»ÑĥÑĩ":6675,"ĠÐ½Ð°Ð¿ÑĢÐ¸Ð¼ÐµÑĢ":6676,"Ð´Ð¾":6677,"ĠÐ´Ð¸Ð·":6678,"ĠÐ´ÐµÐ»Ð¾Ð²":6679,"Ð¾Ð´Ð¾Ð»":6680,"ĠÐºÑĥÑĢÑģ":6681,"ĠÑĤÐ¸ÑĢÐ°Ð¶":6682,"ĠÐ¾Ð±ÑģÑĤÐ°Ð½Ð¾Ð²":6683,"ĠÐ¸Ð½Ð°Ñı":6684,"ĠÐ¼Ð¸Ð³":6685,"ĠÐ¼ÐµÐ½ÑĮ":6686,"ĠÐ¼ÐµÐ´Ð¸ÐºÐ¾":6687,"ĠÐ·Ð¾Ð½":6688,"Ð±Ð¾Ð»ÑĮ":6689,"ĠÐ¾ÑĤÐ·":6690,"ĠÐ¾ÑĤÑĢÐ°Ð±Ð¾ÑĤÐºÐ¸":6691,"ÑįÐ½ÐµÑĢÐ³ÐµÑĤ":6692,"Ð°ÑģÑĤÑĮ":6693,"ĠÐ³Ð¸Ð±":6694,"Ð°Ð²ÐµÑĢÑĪÐµÐ½Ð¸Ðµ":6695,"Ð¾ÐºÐ°Ð·":6696,"ĠÐ¿ÑĢÐ¾Ð¸Ð½ÑĦÐ¾ÑĢÐ¼":6697,"ÑİÑīÐµÐµ":6698,"Ð¸ÑĤÐµÐ»ÑĮÐ½ÑĭÐ¼":6699,"ĠÑĩÐ°ÑģÐ¾Ð²":6700,"ÑĥÐ±ÐµÐ¶Ð½ÑĭÑħ":6701,"ĠÑģÑĤÐ°ÑĨÐ¸Ð¾Ð½":6702,"Ð¾Ð¿Ð¾Ð»ÑĥÑĩ":6703,"Ð»ÐµÐ½Ñĭ":6704,"ĠÐ¿ÐµÑĢÐµÐ¼":6705,"Ð¾Ð²Ð°Ð½Ð¸ÑıÐ¼Ð¸":6706,"Ð°Ð¿Ð°Ð´":6707,"ĠÐ½ÐµÐ¾Ð¿ÑĢÐµÐ´ÐµÐ»":6708,"Ð¾Ð»ÑĮÑĨ":6709,"ĠÐ¿Ð¾Ð´ÑħÐ¾Ð´Ð¾Ð²":6710,"ĠÐ²ÑĭÐ³Ð¾Ð´":6711,"ĠÐ»Ð¸ÑĩÐ½Ð¾ÑģÑĤÐ¸":6712,"ÑĬÐµÐ·Ð´":6713,"Ð¾ÑĩÐ½Ð¾Ð¼":6714,"Ð°ÑĤÐµÐ»ÑĮÐ½Ð¾Ð³Ð¾":6715,"ĠÐºÐ¾Ð¼Ð¼ÐµÐ½ÑĤ":6716,"ĠÑĤÐ°ÐºÐ¸Ð¼Ð¸":6717,"ĠÑĤÐ°ÐºÐ¾Ð¼Ñĥ":6718,"ĠÐŁÑĢÐ¸ÐºÐ°Ð·":6719,"ĠÐ¿Ð¾Ð»ÑĥÑĩÐ°ÑĤÑĮ":6720,"Ð¸ÑģÐ»ÐµÐ½Ð¸Ðµ":6721,"ĠÐ¸Ð·Ð½Ð¾Ñģ":6722,"ĠÐ¿ÑĢÐ°Ð²Ð¾Ð²ÑĭÐ¼":6723,"ÑĥÐ»ÑĮÑģ":6724,"ĠÐ¾ÑģÑĥÑīÐµÑģÑĤÐ²Ð»ÐµÐ½":6725,"ĠÐ³Ð¾ÑģÑĥÐ´Ð°ÑĢÑģÑĤÐ²ÐµÐ½Ð½Ð¾":6726,"Ġ36":6727,"Ð¡Ð¢":6728,"Ð°ÑİÑīÑĥÑİ":6729,"ĠÐ¡Ð¾Ð·Ð´Ð°Ð½Ð¸Ðµ":6730,"ĠÐ¡ÐµÐ²ÐµÑĢ":6731,"ĠÐ¡Ð²Ð¾Ð¹":6732,"ĠÐ¡Ð°Ð½ÐºÑĤ":6733,"Ð°ÑĨÐ¸ÑıÑħ":6734,"ĠÐļÐ»ÑİÑĩ":6735,"2012":6736,"ÐŁÐµÑĤÐµÑĢ":6737,"Ð¼ÐµÑĢÑĤ":6738,"ĠÑģÐ²ÑıÐ·ÑĮ":6739,"ĠÐĴÑĭ":6740,"ÐµÐ¹ÑģÑĤÐ²Ð¸Ð¸":6741,"ĠÑįÑĤÐ¾Ð¼Ñĥ":6742,"ĠÐ±ÐµÐ·Ð´":6743,"ĠÐ¿Ð¾ÑĢÑıÐ´ÐºÑĥ":6744,"ĠÐ²Ð¾Ð·Ð»Ð¾Ð¶":6745,"Ð¸Ð¾Ð½Ð½Ð¾":6746,"Ġ51":6747,"Ġ55":6748,"Ġ523":6749,"ĠÐŀÐļ":6750,"Ġ47":6751,"ĠÐ¸Ð¼Ð¼":6752,"ĠÑıÐ²Ð»ÑıÑĤÑĮÑģÑı":6753,"ÑĭÐ²Ð°Ð½Ð¸Ñı":6754,"Ð¸ÑĤÐµÐ»ÑıÐ¼":6755,"Ð°ÑĤÐ¸Ð²Ð½Ð¾Ðµ":6756,"ĠÐ½Ð°ÑĥÑĩÐ½ÑĭÐµ":6757,"ÐµÑīÐµÐ½Ð¸Ñı":6758,"ĠÐ±Ð°Ð·Ð¾Ð²Ð¾Ð¹":6759,"ĠÑģÐ¾ÑĨÐ¸Ð°Ð»ÑĮÐ½ÑĭÐµ":6760,"ĠÑĢÐµÐ°Ð»Ð¸Ð·ÑĥÑİÑīÐ¸Ñħ":6761,"ĠÑĩÐ°ÑģÑĤÐ½ÑĭÑħ":6762,"Ð°ÑĢÑĤÐ°Ð»ÑĮÐ½Ð¾":6763,"Ð¸ÑĢÑĥÐµÐ¼Ð¾Ð¹":6764,"ĠÑģÐ¾Ð¾ÑĤÐ²ÐµÑĤÑģÑĤÐ²ÑĥÑİÑīÐµÐ¼Ñĥ":6765,"ĠÐ¶Ð¸Ð²":6766,"ĠÑĥÑĤÐ²ÐµÑĢÐ¶Ð´ÐµÐ½Ð¸Ñı":6767,"ĠÑĤÑĢÐ°Ð½Ð·":6768,"ĠÐ¾Ð±ÑĬÐµÐ¼Ñĥ":6769,"ĠÐ½Ð°Ð¿ÑĢÐ°Ð²Ð»ÐµÐ½Ð¾":6770,"ĠÑĢÐµÑģÑĥÑĢÑģÐ¾Ð¼":6771,"ĠÑĢÐ°Ð·Ð¼ÐµÑīÐ°ÐµÑĤ":6772,"ĠÑĥÐ¿Ð¾Ð»Ð½Ð¾Ð¼Ð¾ÑĩÐµÐ½Ð½ÑĭÐµ":6773,"ĠÐ°ÐºÐ°Ð´ÐµÐ¼":6774,"ĠÐ¼ÐµÐ¶Ð´ÑĥÐ½Ð°ÑĢÐ¾Ð´Ð½ÑĭÐ¼Ð¸":6775,"Ð¾Ð»Ð¾Ð³Ð¸ÑĩÐµÑģÐºÐ¸Ñħ":6776,"ĠÐ¾Ð´Ð¾Ð±ÑĢ":6777,"ĠÐ½Ð°ÑĥÐºÐµ":6778,"Ġ91":6779,"ĠÐ¼ÐµÑģÑĤÐµ":6780,"ĠÐ¼ÐµÑģÑĤÐ°":6781,"ĠÐºÐ¾Ð½ÐºÑĥÑĢÐµÐ½ÑĨÐ¸Ð¸":6782,"ĠÐ¼Ð¸ÑĢÐ¾Ð²Ð¾Ð¼Ñĥ":6783,"ĠÐ¸ÑģÐºÐ»ÑİÑĩÐ¸ÑĤÐµÐ»ÑĮÐ½Ð¾":6784,"ĠÐºÐ¾Ð½ÐºÑĥÑĢÑģÐµ":6785,"ĠÑĥÐ²ÐµÐ´Ð¾Ð¼Ð»ÑıÐµÑĤ":6786,"ĠÐ½Ð°ÑĢÑĥÑĪÐµÐ½Ð¸Ð¸":6787,"ĠÑĤÐµÑħÐ½Ð¸ÑĩÐµÑģÐºÐ¾Ð¼Ñĥ":6788,"ĠÐ½ÐµÐ´Ð²Ð¸Ð¶":6789,"ĠÐ¿ÑĢÐ¾ÑĤÑı":6790,"ĠÐ³ÑĢÑĥÐ¿Ð¿Ñĥ":6791,"ĠÐ¼Ð°ÑĪÐ¸Ð½Ð½Ð¾Ðµ":6792,"ĠÐ¼Ð°ÑĪÐ¸Ð½Ð¾ÑģÑĤÑĢÐ¾":6793,"ĠÐºÐ¾Ð½ÐºÑĥÑĢÐµÐ½ÑĤÐ¾ÑģÐ¿Ð¾ÑģÐ¾Ð±Ð½Ð¾Ð³Ð¾":6794,"ĠÐºÐ¾Ð½ÐºÑĥÑĢÐµÐ½ÑĤÐ¾ÑģÐ¿Ð¾ÑģÐ¾Ð±Ð½Ð¾ÑģÑĤÑĮ":6795,"ĠÐ´Ð¾Ð¿Ð¾Ð»Ð½Ð¸ÑĤÐµÐ»ÑĮÐ½Ð¾Ð¼Ñĥ":6796,"ĠÐ°Ð²ÑĤÐ¾Ð¼Ð¾Ð±Ð¸Ð»":6797,"ĠÐ¼ÐµÑĤÐ¾Ð´Ð¾Ð»Ð¾Ð³":6798,"ĠÑĥÑģÑĤÐ°Ð½Ð°Ð²Ð»Ð¸Ð²Ð°ÑĤÑĮ":6799,"ĠÐ²Ð¾ÐµÐ½Ð½ÑĭÑħ":6800,"ÑĢÐ°ÑģÑħÐ¾Ð´Ð¾Ð²":6801,"ĠÐ¶Ð¸Ð·Ð½ÐµÐ´ÐµÑıÑĤÐµÐ»ÑĮ":6802,"ĠÑĦÐ¸Ð½Ð°Ð½ÑģÐ¸ÑĢÐ¾Ð²Ð°Ð½Ð¸Ñİ":6803,"ĠÑĢÐ¾ÑģÑģÐ¸Ð¹ÑģÐºÐ¸Ðµ":6804,"ĠÐ½Ð¾Ð¼ÐµÐ½Ðº":6805,"ĠÐ¸Ð½Ð²ÐµÑģÑĤÐ¾ÑĢÐ¾Ð²":6806,"ĠÐ¿ÐµÑĢÑģÐ¿ÐµÐºÑĤÐ¸Ð²Ðµ":6807,"ĠÐ¾ÑĤÐ²ÐµÑĤÑģÑĤÐ²ÐµÐ½Ð½ÑĭÑħ":6808,"ÑįÐºÐ¾Ð½Ð¾Ð¼Ð¸ÑĩÐµÑģÐºÐ¾Ð¹":6809,"ĠÐ¿Ð¾Ð»Ð¸ÑĤÐ¸ÐºÑĥ":6810,"Ð²ÐµÐ»Ð¸ÑĩÐµÐ½Ð¸Ðµ":6811,"ĠÑĦÐ¸Ð·Ð¸ÑĩÐµÑģÐºÐ¾Ð³Ð¾":6812,"ĠÑĦÐ¸Ð·Ð¸ÐºÐ¾":6813,"ÐµÐ³Ð¾Ð´Ð½Ð¾":6814,"ÐĵÐŀÐ¡Ð¢":6815,"ÐĵÐ»Ð°Ð²":6816,"ĠÐ¾ÑĤÐºÑĢÑĭÑĤÑĭÐ¹":6817,"Ð°ÑĤÑĢÐ°ÑĤÑĭ":6818,"ĠÐ½Ð°Ð±Ð¾ÑĢÐ°":6819,"ĠÐ¿ÑĢÐµÐ´Ð¿ÑĢÐ¸ÑıÑĤÐ¸ÑıÑħ":6820,"ĠÐ·Ð°Ð²Ð¾Ð´":6821,"ĠÑĤÐ¸Ð¿Ð°":6822,"ĠÑĢÐµÐºÐ»Ð°Ð¼":6823,"ĠÑĢÐ¸ÑģÐºÐ°Ð¼Ð¸":6824,"ĠÐ¿ÑĢÐµÐ´ÑĥÑģÐ¼Ð°ÑĤÑĢÐ¸Ð²Ð°ÐµÑĤ":6825,"ĠÐºÑĢÐ¸ÑĤÐµÑĢÐ¸Ñı":6826,"ĠÐ¿Ð»Ð°Ð½Ð¾Ð²ÑĭÑħ":6827,"ĠÑĥÐ¿ÑĢÐ°Ð²Ð»ÐµÐ½ÑĩÐµ":6828,"ĠÐ¿ÑĢÐ¸Ð½ÑĨÐ¸Ð¿Ñĭ":6829,"ĠÑĥÑģÐ»Ð¾Ð²Ð¸ÑıÐ¼Ð¸":6830,"ĠÐ¦ÐµÐ½ÑĤÑĢÐ°Ð»ÑĮÐ½Ð¾Ð³Ð¾":6831,"ĠÐ¿Ð¾Ð»Ð¾Ð¶ÐµÐ½Ð¸Ðµ":6832,"ĠÐ¿ÑĢÐµÐ´Ð¿Ð¾Ñģ":6833,"ĠÐ²ÑĭÐ´ÐµÐ»ÐµÐ½Ð¸Ðµ":6834,"ĠÐ¾ÑĤÐ½Ð¾ÑģÑıÑīÐ¸ÑħÑģÑı":6835,"ĠÐºÐ°Ð¶Ð´Ð¾Ð¼Ñĥ":6836,"ĠÐ¿ÑĢÐ¸ÑĩÐ¸Ð½ÐµÐ½Ð¸Ðµ":6837,"ĠÐ³Ð¾ÑĢÐ¾Ð´Ðµ":6838,"ĠÐ¾Ð±ÑĢÐ°ÑīÐµÐ½Ð¸Ð¹":6839,"ĠÐ²ÑĢÐµÐ´Ð½ÑĭÑħ":6840,"ĠÐ¿ÑĢÐµÐ´ÑģÑĤÐ°Ð²Ð»ÑıÑİÑĤ":6841,"ĠÐ·Ð°ÑĢÑĥÐ±ÐµÐ¶":6842,"ĠÐ·Ð°ÑĢÑĥÐ±ÐµÐ¶Ð½ÑĭÑħ":6843,"ĠÐłÐ°Ð·ÑĢÐ°Ð±Ð¾ÑĤÐºÐ°":6844,"ĠÐ¼Ð¾Ð´ÐµÑĢÐ½Ð¸Ð·Ð°ÑĨÐ¸Ñİ":6845,"ĠÐºÐ²Ð°Ð»Ð¸ÑĦÐ¸ÑĨÐ¸ÑĢÐ¾Ð²Ð°Ð½":6846,"ĠÐ²ÑħÐ¾Ð´Ð½ÑĭÑħ":6847,"ĠÐ°ÑĢÐµÐ½Ðµ":6848,"ĠÐ´Ð¾Ð¼ÐµÐ½Ð½Ð¾Ðµ":6849,"ĠÑģÑĥÑīÐµÑģÑĤÐ²ÐµÐ½Ð½Ð¾Ðµ":6850,"ĠÑĨÐµÐ½Ð½Ð¾ÑģÑĤÐµÐ¹":6851,"ÐłÐĺÐļÐ¡":6852,"ĠÐ»Ð¸Ð´ÐµÑĢ":6853,"ĠÐºÐ°ÑģÐ°ÑİÑīÐ¸ÑħÑģÑı":6854,"Ð²Ð¾ÑĢÑĩÐµ":6855,"Ð¸Ð²ÐµÑĢÑģÐ¸ÑĤÐµÑĤ":6856,"ĠÐĳÐ°Ð½Ðº":6857,"ĠÐŁÐ¾Ð»Ð¾Ð¶ÐµÐ½Ð¸Ð¸":6858,"ĠÐķÐ²ÑĢÐ°Ð·":6859,"ĠÐ±Ð¸Ð±Ð»Ð¸Ð¾ÑĤÐµÐºÐ¸":6860,"Ð¾ÑīÐ°Ð´ÑĮ":6861,"ĠÑĪÐºÐ¾Ð»ÑĮÐ½Ð¸ÐºÐ°Ð¼Ð¸":6862,"ĠÐ¸Ð·Ð¼ÐµÑĢÐµÐ½Ð¸Ñı":6863,"ĠÑģÑĥÐ¼Ð¼Ñĭ":6864,"ĠÑĪÑĤÑĢÐ°ÑĦÐ½ÑĭÑħ":6865,"Ð¾ÑĤÐµÑħÐ½Ð¸ÐºÐ¸":6866,"ĠÐ¾ÑĤÑĢÐ°Ð¶Ð°ÑİÑīÐ¸Ñħ":6867,"ĠÐ±Ð¾Ð»ÑĮÑĪÐ¸Ð½":6868,"ÑĨÐµÐ»ÐµÐ²Ð¾Ð³Ð¾":6869,"ĠÑĤÐµÑĢÑĢÐ¾ÑĢÐ¸Ð·Ð¼":6870,"ĠÐ´Ð¸Ð°Ð¿Ð°Ð·Ð¾Ð½Ðµ":6871,"ĠÐ´ÐµÑģÑıÑĤ":6872,"ĠÐ¾ÑĦÐ¸ÑģÐ°":6873,"ĠÐ½ÐµÐ¹ÑĢÐ¾Ð½Ð½ÑĭÑħ":6874,"ĠÐ¿ÑĢÐµÐ´ÑĭÐ´ÑĥÑīÐµÐ¹":6875,"ĠÐ·Ð°Ð¿ÑĢÐµÑĤÑĭ":6876,"ĠÐ¼Ð¾ÑĢÑģÐºÐ¾Ð¹":6877,"ÑĥÑģÐ»ÑĥÐ³":6878,"ĠÐºÐ¾Ð¿Ð¸Ð¸":6879,"ĠÐºÐ¾Ð¼Ð¼ÐµÑĢÑĩÐµÑģÐºÐ¸Ñħ":6880,"ĠÐ¿ÑĢÐµÐ´Ð¿Ð¾Ð»Ð°Ð³Ð°ÐµÑĤÑģÑı":6881,"ĠÑĢÐ°ÐºÐµÑĤÐ½ÑĭÑħ":6882,"ĠÑıÐ´ÐµÑĢÐ½Ð¾Ð³Ð¾":6883,"ĠÐºÑĢÑĥÐ³Ñĥ":6884,"ĠÑģÐ²Ð¾Ð´Ð½Ð¾Ð³Ð¾":6885,"ĠÐ¿Ð¾Ð»ÑĮÐ·Ð¾Ð²Ð°ÑĤÐµÐ»ÑıÐ¼":6886,"ĠÐ¼ÑĥÐ»ÑĮÑĤÐ¸Ð¿":6887,"ĠÑĤÐµÐ¿Ð»Ð¾Ð²":6888,"ĠÐ±Ð»Ð¾ÐºÐ¸ÑĢÐ¾Ð²Ð°Ð½Ð¸Ðµ":6889,"ĠÑģÐ¾ÐºÑĢÐ°ÑīÐµÐ½Ð¸Ðµ":6890,"ĠÐķÐ²ÑĢÐ¾Ð¿Ñĭ":6891,"ÐŁÑĢÐ¸Ð¼ÐµÑĩÐ°Ð½Ð¸Ñı":6892,"ĠÐ¿Ð¾Ð²ÑĭÑĪÐµÐ½Ð½Ð¾Ð¹":6893,"ĠÐ²Ð°Ð»ÑİÑĤÑĭ":6894,"Ð³Ð¾ÑģÑĥÐ´Ð°ÑĢÑģÑĤÐ²ÐµÐ½Ð½Ð°Ñı":6895,"ĠÑģÑĭÑĢÑĮ":6896,"ĠÐ¾Ð±ÑīÐµÐ´Ð¾ÑģÑĤÑĥÐ¿Ð½Ð¾Ð¹":6897,"ĠÐ¸ÑģÑģÐ»ÐµÐ´Ð¾Ð²Ð°ÑĤÐµÐ»ÑĮÑģÐºÐ¸Ð¹":6898,"ĠÐºÐ²Ð°ÑĢÑĤÐ°Ð»":6899,"ĠÐ²ÐµÑīÐµÐ¹":6900,"ĠÐłÐµÐ·ÑĥÐ»ÑĮÑĤÐ°ÑĤÑĭ":6901,"ĠÑģÑĤÑĥÐ´ÐµÐ½ÑĤÐ¾Ð²":6902,"ĠÑįÐºÑģÑĤÑĢÐµÐ¼Ð¸ÑģÑĤ":6903,"ĠÑĢÐ°ÑģÑĩÐµÑĤÐ°":6904,"ĠÐ²Ð¾Ð·Ð¼ÐµÑīÐµÐ½Ð¸Ñı":6905,"ĠÐ±Ð°ÑĢÑĮÐµÑĢÑĭ":6906,"ĠÐ´ÐµÐ¹ÑģÑĤÐ²ÑĥÑİÑīÐ¸Ð¼":6907,"ĠÐ°ÐºÑĥÑģÑĤÐ¾ÑįÐ»ÐµÐºÑĤÑĢÐ¾Ð½":6908,"ĠÐ½ÐµÐ´Ð¾Ð¿ÑĥÑģÑĤ":6909,"ĠÐ½ÐµÐ¿ÑĢÐµÐ´ÑģÑĤÐ°Ð²Ð»ÐµÐ½Ð¸Ñı":6910,"ÐµÐºÐ²Ð°ÑĢÑĤÐ°Ð»ÑĮÐ½Ð¾":6911,"ĠÐ²ÑĭÑģÐ¾ÐºÐ¾ÐºÐ²Ð°Ð»Ð¸ÑĦÐ¸ÑĨÐ¸ÑĢÐ¾Ð²Ð°Ð½Ð½ÑĭÑħ":6912,"ĠÑģÐ½Ð¸Ð·Ð¸ÑĤÑĮ":6913,"ĠÐºÐ¾Ð½ÑĦÐ»Ð¸ÐºÑĤÐ¾Ð²":6914,"tra":6915,"ĠÐ¿Ð°ÑĤÐµÐ½ÑĤ":6916,"Ð¿ÑĢÐ¾Ð¼ÑĭÑĪÐ»ÐµÐ½Ð½Ð¾Ð³Ð¾":6917,"ÑįÑĤÐ°Ð¿":6918,"ĠÐ¶ÑĥÑĢÐ½Ð°Ð»Ð°Ñħ":6919,"ĠÐĹÐµÐ»ÐµÐ½Ð¾Ð³ÑĢÐ°Ð´ÑģÐº":6920,"ĠÐ»ÐµÑĩÐµÐ±Ð½Ð¾Ð³Ð¾":6921,"ĠÐĽÐ¸ÑĨÐ¾":6922,"Ġintelligence":6923,"ĠÑĤÑĢÐ¸Ð´ÑĨÐ°ÑĤÐ¸":6924,"Ð¸ÑģÑĨÐ¸Ð¿Ð»Ð¸Ð½":6925,"ĠÐ¾ÑĤÑģÑĤÐ°Ð²Ð°Ð½Ð¸Ðµ":6926,"ĠÐ½ÐµÐ»Ð¸Ð½ÐµÐ¹":6927,"ĠÑĥÑĢÐ°Ð½Ð°":6928,"ĠÐ±Ð¾ÑĢÑĮ":6929,"ĠÑĢÐµÑĦÐµÑĢÐµÐ½Ð´":6930,"ĠÐ´Ð²Ð°Ð´ÑĨÐ°ÑĤÐ¸":6931,"ĠÐĴÑģÐµÐ¼Ð¸ÑĢÐ½Ð¾Ð¹":6932,"ĠÐľÐµÐ¶Ð´ÑĥÐ½Ð°ÑĢÐ¾Ð´Ð½Ð¾Ð¹":6933,"ĠÐ¾ÑĤÐ·ÑĭÐ²":6934,"ĠÐºÐ¾Ð¼Ð¼ÐµÐ½ÑĤÐ°ÑĢÐ¸Ð¸":6935,"ĠÐ¡Ð²Ð¾Ð¹ÑģÑĤÐ²Ð¾":6936,"ÐŁÐµÑĤÐµÑĢÐ±ÑĥÑĢÐ³":6937,"ĠÐŀÐļÐ£ÐĶ":6938,"ĠÐ½Ð¾Ð¼ÐµÐ½ÐºÐ»Ð°ÑĤ":6939,"\");":6940,".;":6941,"AI":6942,"con":6943,"pl":6944,"ĠD":6945,"Ð¾Ð¾Ñĩ":6946,"Ð¸Ð¾Ð±ÑĢÐµÑĤ":6947,"ÐµÐ¾Ð±ÐµÑģÐ¿ÐµÑĩÐµÐ½Ð¸Ñı":6948,"Ð½ÑĢÐ°Ð²":6949,"Ð½Ð¸Ð²ÐµÑĢÑģÐ¸ÑĤÐµÑĤ":6950,"ÑĥÐºÐ°":6951,"Ð¸Ð³Ð¾":6952,"ÑģÑĤÐ¾Ñĩ":6953,"ÑıÑİÑĤÑģÑı":6954,"ÑıÐ±ÑĢÑĮ":6955,"Ð»Ð¾Ð²":6956,"Ð»ÐµÑĤ":6957,"ĠÐ¿ÑĥÑĤ":6958,"ÐºÑĥÑĢ":6959,"ÐºÐ¾Ðµ":6960,"ÐºÑĢÑĥÐ¶":6961,"Ð²Ð°Ð½":6962,"Ð²Ð¾ÑĢÑı":6963,"Ð¾Ð²Ð¾Ð´":6964,"ÑĩÐ°Ñģ":6965,"ÐµÑĢÐ½Ð¾":6966,"ÐµÑĢÑĭÐ²":6967,"ĠÐ²ÐµÐ»Ð¸Ñĩ":6968,"Ð¼Ð¾Ñģ":6969,"Ð¼Ð»Ð½":6970,"Ð¾ÑĢÐ¾Ð¶Ð´":6971,"Ð¿Ð¾ÑģÑĤÐ°Ð²":6972,"Ð¿Ð»Ð°ÑĤ":6973,"ĠÐ½ÐµÐ¼Ñĥ":6974,"Ð¸Ð¹Ð½ÑĭÑħ":6975,"ÑĦÐ¾ÑĤ":6976,"ÑĦÐµÐ¹":6977,"ĠÐ´Ð¸Ð¾Ð´":6978,"ĠÐ´Ð½ÐµÐ¼":6979,"ĠÐ´Ð»Ð¸Ð½":6980,"Ð¾Ð´Ð³Ð¾ÑĤÐ¾Ð²":6981,"Ð¾Ð´ÐµÑĢÐ½Ð¸Ð·Ð°ÑĨÐ¸Ñı":6982,"ÐµÑĤÐµÐ½Ð´":6983,"ÐµÑĤÐ½Ð¸Ñħ":6984,"Ð¾ÑģÑĥÑīÐµÑģÑĤÐ²":6985,"Ð¾ÑģÐ½Ð¾Ð²":6986,"Ð¾ÑģÐ¢ÐµÑħ":6987,"ĠÑĤÐ¾Ðº":6988,"ĠÐ¾Ð±Ð¶":6989,"ĠÐ½Ð°ÑĢÐ°Ñī":6990,"Ð¾Ð³ÑĢÐ°Ð½Ð¸Ñĩ":6991,"Ð¾Ð²Ð°Ð½Ð½Ð¾Ð³Ð¾":6992,"Ð¸Ð¼Ð¾Ð¼":6993,"Ð¸Ð¼Ð°Ð½Ð¸Ðµ":6994,"Ð¸Ð½ÑıÑĤ":6995,"Ð°Ð»Ð¾Ð³":6996,"ĠÐŁÐ»Ð°Ð½":6997,"Ġ(\"":6998,"Ð°ÑĢÐ¸":6999,"Ð°ÑĢÑĥ":7000,"ĠÑįÐ¿":7001,"ÐµÐ½ÑĤÐ°Ð±":7002,"Ð¸Ð»Ð¾":7003,"Ð¸Ð»Ð¸Ñı":7004,"Ð¸Ð²Ð°ÑİÑīÐ¸Ðµ":7005,"ĠÐ¿ÑĢÐ¾Ð¸Ð·":7006,"ÑİÑīÐµÐ¼":7007,"Ð¾Ð±ÑĥÑĩ":7008,"Ð¾Ð±ÑĬÐµÐºÑĤ":7009,"ĠÑĢÐµÑģÐ¿":7010,"ĠÑĢÐµÐ°Ð»ÑĮÐ½Ð¾Ð³Ð¾":7011,"Ð¾Ð·Ð¸ÑĤÐ¾ÑĢ":7012,"Ð¾Ð·Ð°Ñī":7013,"ĠÑģÑĤÑĢ":7014,"ĠÑģÑĤÐ¾ÑĩÐ½ÑĭÑħ":7015,"ĠÐ¸Ð½ÑĦÐ¾ÑĢÐ¼Ð¸ÑĢÐ¾Ð²Ð°Ð½Ð¸Ñı":7016,"Ð°ÑĨÐ¸Ð¾Ð½Ð½ÑĭÐ¼":7017,"ÑĢÐ°Ð½Ñģ":7018,"ÐµÑĩÐµÐ½Ð¸Ð¸":7019,"ĠÑĤÐµÑħÐ½Ð¾Ð»Ð¾Ð³Ð¸ÑĩÐµÑģÐºÐ¸Ð¹":7020,"ĠÐ¾ÑģÐ¼":7021,"Ġ212":7022,"ÐºÑĤÑıÐ±ÑĢÑĮ":7023,"ĠÐ¿Ð¾Ð»ÐµÐ·":7024,"ĠÐ¿Ð¾Ð»Ð½Ð¾ÑģÑĤÑĮÑİ":7025,"ĠÐ²ÑĭÑıÐ²Ð»ÐµÐ½Ð¸Ðµ":7026,"ĠÐ»ÐµÑĩÐµÐ½Ð¸Ñı":7027,"ĠÑĢÐ°Ð·Ð²Ð¸ÑĤÑĭÑħ":7028,"ĠÐºÐ¾Ð½ÑĨÐµÐ½ÑĤ":7029,"Ð¸ÑĨÑĭ":7030,"ĠÐŁÑĢÐµÐ³":7031,"ĠÐ¿Ð¾Ð»ÑĥÑĩÐµÐ½Ð¸Ñİ":7032,"ĠÐ¿ÐµÑĢÑģÐ¾Ð½Ð°Ð»ÑĮÐ½ÑĭÐ¼":7033,"ĠÐ¾Ð±ÐµÑģÐ¿ÐµÑĩÐµÐ½Ð¸ÐµÐ¼":7034,"ÐµÐ²Ð¾Ðµ":7035,"ĠÑģÐ»Ð¾ÐµÐ²":7036,"ĠÐ¸Ð·Ð±":7037,"ĠÑĩÐ¸ÑģÐ»ÐµÐ½Ð½Ð¾ÑģÑĤÑĮ":7038,"ĠÐ¾ÑģÑĥÑīÐµÑģÑĤÐ²Ð»ÐµÐ½Ð¸Ñİ":7039,"ĠÐ³Ð¾ÑģÑĥÐ´Ð°ÑĢÑģÑĤÐ²ÐµÐ½Ð½Ð¾Ð¼Ñĥ":7040,"Ð¡Ð¡":7041,"Ð¡ÐµÐ²ÐµÑĢ":7042,"ĠÑĤÑĢÐ»Ð½":7043,"ĠÑĨÐµÐ»ÐµÑģÐ¾Ð¾Ð±ÑĢÐ°Ð·":7044,"Ð¤Ð¾Ð½Ð´":7045,"ĠÑįÐºÐ¾Ð½Ð¾Ð¼Ð¸ÑĩÐµÑģÐºÐ¸Ðµ":7046,"Ð¾Ð¿ÑĢÐ¾ÑĩÐ½ÑĭÑħ":7047,"Ð¾Ð¿ÑĢÐ¸Ð¾Ð±ÑĢÐµÑĤ":7048,"ĠÑģÑĢÐµÐ´ÑģÑĤÐ²Ð°Ð¼":7049,"ĠÐ´Ð¾ÑĢÐ°Ð±Ð¾ÑĤ":7050,"ĠÑĤÑĢÐµÐ±ÑĥÐµÑĤÑģÑı":7051,"ĠÑįÑĤÐ°Ð»":7052,"Ð¸Ð²Ð°ÐµÐ¼Ð¾Ð³Ð¾":7053,"ĠÐ¿Ð¾ÑĢÑıÐ´ÐºÐ¾Ð¼":7054,"ÐµÐ»ÑĮÐ½ÑĭÐ¹":7055,"ĠÐ¿ÑĢÐ¾Ð´Ð¾Ð²Ð¾Ð»ÑĮ":7056,"ĠÑĥÑģÑĤÐ°Ð½Ð¾Ð²Ð»ÐµÐ½Ð¾":7057,"ĠÐ¿Ð¾ÐºÐ°Ð·Ð°ÑĤÐµÐ»ÑĮ":7058,"ĠÐ¿ÑĢÐ¾Ð¸Ð·Ð²Ð¾Ð´Ð¸ÑĤÐµÐ»ÐµÐ¹":7059,"Ð°Ð½Ð¸ÑıÐ¼":7060,"ĠÐ¾Ð¿ÑĢÐµÐ´ÐµÐ»ÐµÐ½Ñĭ":7061,"ĠÐŀÐºÑĤÑıÐ±ÑĢÑĮ":7062,"ĠÐ¿Ð»Ð°ÑĤÐ°":7063,"ĠÐ²ÑĭÑģÑĪÐ¸Ð¼":7064,"ĠÐ¸Ð¼Ð¸ÑĤ":7065,"ĠÐ²ÐºÐ»ÑİÑĩÐ°ÑİÑĤ":7066,"Ð¼ÑĥÐ½Ð¸ÑĨÐ¸Ð¿":7067,"ÐĿÐ¾Ð²ÑĭÐµ":7068,"Ð°Ð³Ð°Ð½Ð´":7069,"ĠÑĤÐµÑĢÐ¼":7070,"ÐµÑīÐ°Ð½Ð¸Ñı":7071,"119":7072,"Ð°ÐµÐ¼Ð¾Ðµ":7073,"ĠÐ£ÑģÑĤ":7074,"ĠÑįÐºÑģÐ¿ÐµÑĢÐ¸Ð¼ÐµÐ½ÑĤÐ°Ð»ÑĮÐ½Ð¾Ð¹":7075,"ĠÑįÐºÑģÐ¿ÐµÑĢÐ¸Ð¼ÐµÐ½ÑĤÐ°Ð»ÑĮÐ½Ð¾":7076,"ĠÑįÐºÑģÐ¿ÐµÑĢÐ¸Ð¼ÐµÐ½ÑĤÐ°Ð»ÑĮÐ½Ð¾Ð¼Ñĥ":7077,"ĠÐ·Ð°ÑıÐ²Ð»ÐµÐ½Ð¸Ðµ":7078,"ĠÐ·Ð°ÑıÐ²ÐºÐ°Ð¼Ð¸":7079,"ĠÐ·Ð°ÑıÐ²Ð¸ÑĤÐµÐ»Ñİ":7080,"ĠÑģÐ»ÐµÐ´ÑĥÑİÑīÐµÐµ":7081,"ĠÐ²ÑĭÑģÐ¾ÐºÐ¸Ð¹":7082,"ĠÑĩÐ°ÑģÑĤÐµÐ¹":7083,"ĠÐ¶Ðµ":7084,"ĠÐ·Ð°Ð¿Ð¾Ð»Ð½":7085,"Ð°ÑīÐµÐ¹":7086,"Ð¸ÑģÐºÐ°":7087,"Ð¸ÑģÐºÑĥÑģ":7088,"ĠÐ¾Ð±ÑĬÐµÐ¼Ð°Ñħ":7089,"Ġ72":7090,"ĠÐ¾Ð±ÑĬÐµÐºÑĤÐ°Ð¼Ð¸":7091,"ĠÐ½Ð°Ð¿ÑĢÐ°Ð²Ð»ÐµÐ½Ñĭ":7092,"ĠÐ½Ð°Ð¿ÑĢÐ°Ð²Ð»ÐµÐ½Ð½Ð¾Ð¹":7093,"ĠÐ½Ð°Ð¿ÑĢÐ°Ð²Ð»ÐµÐ½Ð½Ð°Ñı":7094,"ĠÐ¾ÑģÑĥÑīÐµÑģÑĤÐ²Ð»ÑıÑİÑīÐ¸Ð¼Ð¸":7095,"Ġ61":7096,"ĠÐºÐ°ÑĩÐµÑģÑĤÐ²Ð¾":7097,"ĠÑįÑĦÑĦÐµÐºÑĤÐ¸Ð²Ð½Ð¾Ð¹":7098,"ĠÑĢÐ°Ð·Ð¼ÐµÑīÐµÐ½Ð½Ð¾Ð¹":7099,"ĠÐ°ÐºÐº":7100,"ĠÐ¾Ð±Ð¾ÑĢÐ¾Ð½Ð½Ð¾":7101,"ĠÐ¿ÑĢÐ¸Ð½ÑıÑĤÑĭÑħ":7102,"ĠÐ·Ð°ÐºÐ»ÑİÑĩÐ°ÐµÑĤÑģÑı":7103,"ÐµÐ´Ð¸ÑĨÐ¸Ð½ÑģÐºÐ¸Ñħ":7104,"ĠÐ¸ÑģÑĤÐµÑĩÐµÐ½Ð¸Ñı":7105,"ĠÑģÐ¸Ð»Ð¾Ð²ÑĭÑħ":7106,"ÑĢÐ°ÑīÐµÐ½Ð¸Ðµ":7107,"ĠÑĢÑĭÐ±":7108,"Ð£Ð½Ð¸Ð²ÐµÑĢÑģÐ¸ÑĤÐµÑĤ":7109,"ĠÐ¸Ð½Ð¾ÑģÑĤÑĢÐ°Ð½Ð½ÑĭÐµ":7110,"ĠÑĥÐ²ÐµÐ´Ð¾Ð¼Ð»ÐµÐ½Ð¸Ð¸":7111,"ĠÐ¾ÑģÐ½Ð¾Ð²Ð°Ð½Ð½ÑĭÑħ":7112,"ÑĤÐµÑħÐ½Ð¾Ð»Ð¾Ð³Ð¸ÑĩÐµÑģÐºÐ¸Ñħ":7113,"Ð°ÑĢÐ°ÐºÑĤÐµÑĢÐ¸ÑģÑĤ":7114,"ĠÐ³ÑĢÑĥÐ¿Ð¿Ð°":7115,"ĠÐ¿Ð¾Ð´Ð¿ÑĥÐ½ÐºÑĤÐ°Ð¼Ð¸":7116,"ĠÐ°Ð½Ð°Ð»Ð¾Ð³Ð¾Ð²":7117,"ĠÑģÐ¾Ð·Ð´Ð°ÐµÑĤ":7118,"ĠÐ¼ÐµÑĤÐ¾Ð´Ð¸Ðº":7119,"ĠÐ¿ÑĢÐ¾Ð´ÑĥÐºÑĤÑĭ":7120,"Ð½Ð°ÑĥÑĩ":7121,"ĠÐ¶Ð¸Ð·Ð½ÐµÐ¾Ð±ÐµÑģÐ¿ÐµÑĩÐµÐ½Ð¸Ñı":7122,"ĠÐ¸Ð½Ð²ÐµÑģÑĤÐ¸ÑĨÐ¸Ð¸":7123,"ĠÐ¾ÑĤÐ²ÐµÑĤÑģÑĤÐ²ÐµÐ½Ð½ÑĭÐ¹":7124,"Ġ1995":7125,"Ġ1991":7126,"ĠÑģÐ¾ÑģÑĤÐ¾ÑıÐ½Ð¸Ð¸":7127,"ĠÐĲÐ½Ð°Ð»Ð¸ÑĤ":7128,"ĠÐ¾ÑĤÑĢÐ°ÑģÐ»ÐµÐ²Ð¾Ð¹":7129,"ÑĥÐºÐ¾Ð²Ð¾Ð´Ð¸ÑĤÐµÐ»ÑĮ":7130,"ĠÑģÐ²Ð¾ÐµÐ¼":7131,"ĠÑĥÑĩÐ°ÑģÑĤÐ½Ð¸ÐºÐ°Ñħ":7132,"ÐĽÐĲ":7133,"ĠÐ¸ÑģÐ¿Ð¾Ð»Ð½ÐµÐ½Ð¸Ðµ":7134,"ĠÑģÐ¾Ð±Ð»ÑİÐ´ÐµÐ½Ð¸Ð¸":7135,"ĠÐºÐ²Ð°Ð½ÑĤÐ¾Ð²":7136,"ĠÑĦÑĥÐ½ÐºÑĨÐ¸Ð¾Ð½Ð°Ð»ÑĮÐ½Ð¾":7137,"ÐĵÐ¾ÑģÐ¢ÐµÑħ":7138,"ĠÑĥÐ½Ð¸ÑĦÐ¸ÑĨÐ¸ÑĢÐ¾Ð²Ð°Ð½Ð½ÑĭÑħ":7139,"ÐĳÐłÐĺÐļÐ¡":7140,"ĠÐ¿ÑĢÐµÐ´Ð¿ÑĢÐ¸ÑıÑĤÐ¸ÑıÐ¼Ð¸":7141,"ĠÑģÐµÑĢÐ²Ð¸ÑģÑĭ":7142,"ĠÑģÑĤÑĢÐ°ÑħÐ¾Ð²Ð°Ð½Ð¸Ñı":7143,"ĠÐµÐ¶ÐµÐºÐ²Ð°ÑĢÑĤÐ°Ð»ÑĮÐ½Ð¾":7144,"ĠÐ°Ð²ÑĤÐ¾Ð½Ð¾Ð¼Ð½Ð°Ñı":7145,"ĠÐ¾Ð±Ð»Ð°ÑģÑĤÑĮÑİ":7146,"ĠÐ¸Ð½Ð¸ÑĨÐ¸Ð°ÑĤÐ¾ÑĢ":7147,"ĠÐ¿Ð¾Ð´Ð¿Ð¸ÑģÑĭÐ²Ð°ÑİÑĤÑģÑı":7148,"ĠÐ¾ÑĤÐ´ÐµÐ»ÑĮÐ½ÑĭÐ¼":7149,"ĠÐ¾ÑħÑĢÐ°Ð½Ðµ":7150,"Ð¿ÑĢÐ¾Ð³ÑĢÐ°Ð¼Ð¼Ð½Ð¾Ð³Ð¾":7151,"ĠÐ¿ÐµÑĢÐ²Ð¾Ð³Ð¾":7152,"ĠÐ¿ÐµÑĢÐ²ÑĥÑİ":7153,"Ð¾ÑĤÐµÑħÐ½Ð¾Ð»Ð¾Ð³Ð¸Ð¸":7154,"ĠÐ±Ð»Ð°Ð½":7155,"ĠÐ±Ð»Ð¸Ð¶":7156,"ĠÐ°ÐºÑĤÑĥÐ°Ð»ÑĮÐ½ÑĭÑħ":7157,"ĠÐ¿ÑĢÐµÐ´Ð¿ÑĢÐ¸Ð½Ð¸Ð¼Ð°ÑĤÐµÐ»ÐµÐ¹":7158,"ĠÐºÐ°Ð¿Ð¸ÑĤÐ°Ð»ÑĮÐ½ÑĭÑħ":7159,"ĠÑģÑĤÑĢÑĥÐºÑĤÑĥÑĢÐµ":7160,"ĠÑģÑĤÑĢÑĥÐºÑĤÑĥÑĢÑĥ":7161,"ĠÑģÑĤÑĢÑĥÐºÑĤÑĥÑĢÑĭ":7162,"ÐĺÐ¡Ðŀ":7163,"397":7164,"ĠÑĢÐµÐ¶Ð¸Ð¼Ñĥ":7165,"ĠÐµÐ¶ÐµÐ³Ð¾Ð´Ð½Ð¾Ð³Ð¾":7166,"ĠÐµÐ¶ÐµÐ³Ð¾Ð´Ð½Ð¾Ðµ":7167,"357":7168,"ĠÑĥÑĩÑĢÐµÐ¶Ð´ÐµÐ½Ð¸ÑıÐ¼Ð¸":7169,"ĠÐ¿ÑĢÐ¸Ð½ÑĨÐ¸Ð¿Ð°Ð¼Ð¸":7170,"ĠÑĢÐ°ÑģÐ¿ÑĢÐ¾ÑģÑĤÑĢÐ°Ð½ÑıÑİÑĤÑģÑı":7171,"Ð¼ÐµÑģÑĤÐµ":7172,"ĠÐ¦ÐµÐ½ÑĤÑĢÐ¾Ð¼":7173,"ĠÐ¾ÐºÐ°Ð·ÑĭÐ²Ð°ÑİÑīÐ¸Ð¹":7174,"ĠÐ¾ÐºÐ°Ð·ÑĭÐ²Ð°Ð²ÑĪÐ¸Ñħ":7175,"ĠÑħÐ¾Ð·ÑıÐ¹ÑģÑĤÐ²Ð¾":7176,"Ð°ÑİÑīÐµÐ³Ð¾ÑģÑı":7177,"ĠÐ¾Ð±ÑĢÐ°ÑīÐµÐ½Ð¸Ð¸":7178,"ĠÐ¿ÑĢÐ¸ÐºÐ°Ð·":7179,"ĠÐ¿ÑĢÐ¾Ð³Ð½Ð¾Ð·Ð¸ÑĢÐ¾Ð²Ð°Ð½Ð¸Ðµ":7180,"Ð´ÐµÑıÑĤÐµÐ»ÑĮ":7181,"ĠÑħÐ°ÐºÐ°ÑĤÐ¾Ð½":7182,"ĠÐ¿ÑĢÐµÐ´ÑģÑĤÐ°Ð²Ð»ÑıÑİÑĤÑģÑı":7183,"ĠÐºÐ°Ð·Ð½Ð°ÑĩÐµÐ¹ÑģÐºÐ¸Ñħ":7184,"ĠÐºÐ°Ð·Ð½Ð°ÑĩÐµÐ¹ÑģÐºÐ¾Ð³Ð¾":7185,"ĠÐ¸Ð¼Ð¿Ð¾ÑĢÑĤÐ°":7186,"ĠÑĤÐµÐºÑĥÑīÐ¸Ñħ":7187,"ĠÐ´Ð¾Ð¼ÐµÐ½Ð½ÑĭÑħ":7188,"ĠÑĥÐ»ÑĥÑĩÑĪ":7189,"ÑĢÐ¾Ð¿ÐµÐ¹":7190,"ĠÐ´ÐµÐ½ÐµÐ¶Ð½ÑĭÑħ":7191,"ĠÑĢÐ°ÑģÐ¿ÑĢÐµÐ´ÐµÐ»ÐµÐ½Ð¸Ðµ":7192,"ĠÑĤÐµÑĢÑĢÐ¸ÑĤÐ¾ÑĢÐ¸Ð°Ð»ÑĮÐ½ÑĭÐ¹":7193,"Ð¸Ð½ÑĦÐ¾ÑĢÐ¼Ð°ÑĨÐ¸Ð¾Ð½Ð½ÑĭÑħ":7194,"Ð¤ÐµÐ´ÐµÑĢÐ°Ð»ÑĮÐ½Ð¾Ðµ":7195,"ĠÑĥÐ¼ÐµÐ½ÑĮÑĪÐµÐ½Ð¸Ðµ":7196,"ĠÐ·Ð°ÐºÑĥÐ¿ÐºÐµ":7197,"ĠÐŀÑĢÐ³Ð°Ð½Ð¸Ð·":7198,"ĠÑģÑĥÐ¼Ð¼Ð°":7199,"ĠÐºÐ¾Ð½ÑģÑĤÑĢÑĥÐºÑĨÐ¸Ð¾Ð½Ð½ÑĭÑħ":7200,"ĠÐ¸Ð¼Ð¿Ð¾ÑĢÑĤÐ¾Ð·Ð°Ð¼ÐµÑī":7201,"ĠÐºÑĢÐ¸ÑģÑĤÐ°Ð»Ð»Ð¾Ð²":7202,"ĠÐ´ÐµÐ½ÐµÐ¶Ð½Ð¾Ð³Ð¾":7203,"ĠRpi":7204,"ĠÑĥÐ´Ð°Ð»ÐµÐ½Ð¸Ñİ":7205,"ĠÑĢÐ°ÑģÑģÑĩÐ¸ÑĤÑĭÐ²":7206,"ĠÐ²Ð·ÑĢÑĭÐ²":7207,"ĠÐºÐ¾Ð½ÑģÑĥÐ»ÑĮÑĤ":7208,"ĠÐºÐ¾Ð½ÑģÐ¾Ð»Ð¸Ð´":7209,"ĠÐĿÐ°ÑģÑĤÐ¾ÑıÑīÐ¸Ð¹":7210,"Ð¾Ð¿ÑĢÐµÐ´ÐµÐ»ÐµÐ½Ð¸Ðµ":7211,"ĠÑĢÐ°ÑģÐ¿Ð¾ÑĢÑıÐ¶ÐµÐ½Ð¸Ð¹":7212,"ĠÐĹÐ°ÐºÐ»ÑİÑĩ":7213,"ĠÐ½ÐµÐ´Ð¾ÑģÑĤÐ¾Ð²ÐµÑĢÐ½Ð¾Ð¹":7214,"ĠÐ¿ÑĢÐ¾ÑĨÐµÐ´ÑĥÑĢ":7215,"ĠÑĢÐµÐ¿Ð¾Ð·Ð¸ÑĤÐ¾ÑĢ":7216,"ĠÐ£Ð¿ÑĢÐ°Ð²Ð»ÐµÐ½Ð¸ÐµÐ¼":7217,"ĠÐ°Ð´Ð¼Ð¸Ð½Ð¸ÑģÑĤÑĢÐ°ÑĤÐ¸Ð²Ð½Ð¾":7218,"ĠÑģÐ¾ÐºÑĢÐ°ÑīÐµÐ½Ð¸Ñı":7219,"ĠÑĥÐ´Ð¾Ð²Ð»ÐµÑĤÐ²Ð¾ÑĢÑı":7220,"ĠÑģÐ¾ÑĦÐ¸Ð½Ð°Ð½ÑģÐ¸ÑĢÐ¾Ð²Ð°Ð½Ð¸Ðµ":7221,"ÐŁÑĢÐ°Ð²Ð¸ÑĤÐµÐ»ÑĮÑģÑĤÐ²Ð°":7222,"ĠÐ²Ð°Ð»ÑİÑĤÐ½ÑĭÐ¼":7223,"ĠÐ³ÐµÐ½ÐµÑĢÐ°ÑĤÐ¸Ð²Ð½ÑĭÑħ":7224,"ĠÐ³Ð°ÑĢÐ°Ð½ÑĤÐ¸Ð¹":7225,"ĠÑģÐºÐ¾ÑĢÐ¾Ð¹":7226,"ĠÐ¿ÐµÑĢÐµÐ²Ð¾Ð¾ÑĢÑĥÐ¶ÐµÐ½Ð¸Ñı":7227,"ĠĠĠĠĠĠĠĠĠĠĠĠĠĠĠĠĠĠĠĠĠĠĠĠĠĠĠĠĠĠ":7228,"Ġneural":7229,"ĠÐ·ÑĢÐµÐ½Ð¸Ñı":7230,"ĠÐ·Ð°ÑĢÐ°Ð±Ð¾ÑĤÐ½Ð°Ñı":7231,"ĠÐ¿ÑĢÐ¾ÑĤÑıÐ¶ÐµÐ½Ð½Ð¾ÑģÑĤÐ¸":7232,"Ð´Ð¸Ð°Ð¿Ð°Ð·":7233,"ĠÐºÐ¾ÑįÑĦÑĦÐ¸ÑĨÐ¸ÐµÐ½ÑĤ":7234,"ĠÑģÑĤÐ¾ÑĢÐ¾Ð½Ð¾Ð¹":7235,"ĠÐ¾ÑĦÐ¾ÑĢÐ¼Ð»Ñı":7236,"ĠÐ²Ð¾Ð·ÑĢÐ°ÑģÑĤÐµ":7237,"ĠÑĤÐµÐ¼Ð¿Ñĭ":7238,"ĠÑģÐ¾ÑİÐ·Ð°":7239,"ĠÑĢÐ°Ð·ÑĢÐ°Ð±Ð¾ÑĤÑĩÐ¸ÐºÐ°Ð¼":7240,"ĠÑĥÐ¿Ð¾Ð»Ð½Ð¾Ð¼Ð¾ÑĩÐµÐ½Ð½Ð¾Ð¹":7241,"ĠÐ´Ð°Ð»ÑĮÐ½ÐµÐ¹ÑĪÐµÐµ":7242,"ÑĥÐºÐ»Ðµ":7243,"ĠÑĩÐµÑĤÐ²ÐµÑĢÑĤ":7244,"ĠÐ¼ÐµÐ»Ð¸Ð¾ÑĢÐ°ÑĨÐ¸Ð¸":7245,"ĠÑĢÐµÐ°ÐºÑĤÐ¾ÑĢÐ¾Ð²":7246,"ĠÐ¿ÑĢÐ¾Ð¿Ð°Ð³Ð°Ð½Ð´":7247,"ĠÐ½ÐµÑģÐ¾Ð±Ð»ÑİÐ´ÐµÐ½Ð¸Ñı":7248,"ĠÑģÐµÐ³Ð¼ÐµÐ½ÑĤ":7249,"ĠÐ¸Ð·Ð»ÑĥÑĩÐµÐ½Ð¸Ñı":7250,"ĠÐ¡Ð¾Ð³Ð»Ð°ÑģÐ¸Ðµ":7251,"Ð¾ÑĥÑģÑĤÐ¾Ð¹ÑĩÐ¸Ð²":7252,"ĠÑĢÐ°Ð·Ð½Ð¾Ð³Ð»Ð°ÑģÐ¸Ð¹":7253,"ĠÑģÐ¿Ð¾ÑĢÑĤÐ¸Ð²Ð½Ð¾Ð¹":7254,"ĠÐ³ÑĢÑĥÐ·Ð¾Ð²":7255,"ĠÐ¾ÑĪÐ¸Ð±Ð¾Ðº":7256,"ĠÐĺÐ¡Ðŀ":7257,"ÑĦÑĥÐ½ÐºÑĨÐ¸Ð¾Ð½Ð°Ð»ÑĮÐ½ÑĭÑħ":7258,"ĠÐºÐ¾Ð³Ð½Ð¸ÑĤÐ¸Ð²Ð½ÑĭÐµ":7259,"ĠÐºÐ¾ÑģÐ²ÐµÐ½Ð½Ð¾":7260,"Ð°Ð±Ð°ÑĢÐ¸ÑĤÐ½ÑĭÑħ":7261,"ĠÐ¿ÑĢÐµÐ´ÑģÐµÐ´Ð°ÑĤÐµÐ»Ñı":7262,"ĠÐ¸ÑģÑĩÐ¸ÑģÐ»Ñı":7263,"ĠÐ°Ð³Ð¸ÑĤÐ°ÑĨÐ¸Ð¾Ð½Ð½ÑĭÐµ":7264,"ĠÑģÐºÐ²Ð¾Ð·Ð½Ð¾Ð³Ð¾":7265,"ĠÑįÐ½ÐµÑĢÐ³Ð¾ÑģÐ±":7266,"ĠÐ½Ð°Ð¿ÑĢÑı":7267,"Ð°ÐºÑĥÑĥÐ¼":7268,"ĠÑģÐ¿Ð»Ð°Ð²Ð¾Ð²":7269,"ÐŁÑĢÐ¾Ð³ÑĢÐ°Ð¼Ð¼Ð°":7270,"ĠÐŀÑģÐ½Ð¾Ð²Ð°Ð½Ð¸ÑıÐ¼Ð¸":7271,"ĠÐ´Ð¾Ð±ÑĭÑĩÐ¸":7272,"ĠÐ¾Ð·Ð½Ð°ÑĩÐ°ÑİÑĤ":7273,"ĠÐ²Ð¾ÑģÑĤÑĢÐµÐ±Ð¾Ð²Ð°Ð½":7274,"ĠÐ´ÑĥÑħÐ¾Ð²Ð½Ð¾":7275,"ĠÑĢÐµÐ¿ÑĥÑĤÐ°ÑĨÐ¸Ñİ":7276,"ĠÐ¿ÐµÐ´Ð°Ð³Ð¾Ð³Ð¸ÑĩÐµÑģÐºÐ¸Ñħ":7277,"ĠÑĦÐ¸ÐºÑģÐ¸ÑĢÑĥÐµÑĤ":7278,"ĠÐ½ÐµÑģÐ¾Ð²ÐµÑĢÑĪÐµÐ½Ð½Ð¾Ð»":7279,"ĠÐ¿ÑĢÐ¸ÑģÑĥÐ¶Ð´Ð°ÐµÐ¼ÑĭÐ¹":7280,"ĠÐ¼Ð¾Ð´ÐµÑĢÐ½Ð¸Ð·Ð¸ÑĢÑĥÐµÐ¼ÑĭÑħ":7281,"ĠÐ¿ÑĢÐ¾Ð¸Ð½ÑĦÐ¾ÑĢÐ¼Ð¸ÑĢÐ¾Ð²Ð°ÑĤÑĮ":7282,"ĠÑģÑĤÐ°ÑĨÐ¸Ð¾Ð½Ð°ÑĢÐ½ÑĭÑħ":7283,"ĠÐ²ÑĭÐ³Ð¾Ð´Ð¾Ð¿ÑĢÐ¸Ð¾Ð±ÑĢÐµÑĤ":7284,"ĠÐ¿ÑĢÐ¾ÑĤÑıÐ¶ÐµÐ½Ð¸Ð¸":7285,"ĠÐ¼ÑĥÐ»ÑĮÑĤÐ¸Ð¿Ð»ÐµÐºÑģ":7286,"Ð¼Ð¾ÑģÑĦÐµÑĢ":7287,"ĠÐ¾Ð±Ð¶Ð°Ð»":7288,"ĠÐŁÑĢÐµÐ³Ð¾Ð»Ñı":7289,"Ð¡ÐµÐ²ÐµÑĢÐ½ÑĭÐ¹":7290,"\":":7291,",\"":7292,"386":7293,"517":7294,"As":7295,"FG":7296,"ac":7297,"am":7298,"ction":7299,"ed":7300,"ode":7301,"un":7302,"ys":7303,"Ġ<":7304,"Ð¾ÑĢÐ°Ð¼":7305,"Ð¸Ð°Ð´":7306,"Ð½Ñİ":7307,"ĠÐ¨":7308,"ÑĥÐ²ÐµÐ»Ð¸ÑĩÐµÐ½Ð¸Ðµ":7309,"ÑıÐ³":7310,"ÑĭÑĩ":7311,"Ð»Ð°Ð¶Ð´":7312,"ÐºÐ¾ÑģÑĤÑĮ":7313,"ÑĮÐµ":7314,"ÑĮÐµÐ²":7315,"ĠÑģÐµÐ¹":7316,"ĠÑģÐ´ÐµÑĢÐ¶":7317,"ÐµÑĢÐ½ÑĭÐ¼":7318,"ÐµÐ´ÐµÐ½Ð¸Ñı":7319,"ÑĢÐ°Ð¹":7320,"Ð¼Ð¸Ðº":7321,"Ð¼ÐµÐ½ÑĤÐ°":7322,"Ð¾ÑĢÐ¾ÑģÑĤ":7323,"Ð¾ÑĢÐ½Ð¾Ð¹":7324,"Ð¾ÑĢÑĭÐ²":7325,"ĠÐ¿ÑĢÐ¾Ð¼":7326,"ĠÐ¿ÑĢÐµÑĤÐµÐ½Ð´":7327,"Ð¿Ð¾Ð±ÐµÐ´":7328,"Ð¿Ð¾ÐºÐ°Ð·Ð°ÑĤÐµÐ»":7329,"ÑģÐºÑĥ":7330,"Ð¾Ð´Ð¸Ð¾Ð´":7331,"ĠÑĢÐ¾Ð»ÑĮ":7332,"ĠÑĢÐ¾Ð¶Ð´":7333,"ĠÑĤÐ°Ð¹":7334,"ĠÑĤÐ²Ð¾ÑĢÑĩÐµ":7335,"ĠÑĥÐ¼":7336,"ĠÑĥÑĢÐµÐ³ÑĥÐ»":7337,"ÐµÐ¼Ð¾Ðµ":7338,"ÐµÐ¼Ð¾Ð½ÑĤ":7339,"ĠÐ¼Ð¼":7340,"ĠÐ¼Ð¾ÑĢÑģÐºÐ¸Ñħ":7341,"ĠÐ·Ð¾Ð½Ð´":7342,"Ð°ÐºÑĥÑģÑĤ":7343,"Ð°ÐºÑģÐ¸Ð¼":7344,"Ð¸Ð¼Ð¾":7345,"Ð¸Ð¼ÑĭÐ¹":7346,"Ð¶ÐµÐ½Ð¸Ðµ":7347,"Ð»ÑıÑİÑīÐ¸Ñħ":7348,"ĠÐłÐ°ÑģÑģ":7349,"ĠÐŁÐ¾ÐºÐ°Ð·Ð°ÑĤÐµÐ»":7350,"ĠÐ³ÐµÑĢ":7351,"ĠÐ³Ð´Ðµ":7352,"Ð½Ð¾ÑģÑĤÑıÑħ":7353,"ĠÑĢÐ°Ð·Ð³":7354,"Ð½Ð¾Ñĩ":7355,"Ð¸Ð»Ñı":7356,"ĠÐ±ÐµÐ»":7357,"ĠÐ±Ð°Ð»Ð°Ð½Ñģ":7358,"ĠÐ¿Ð¾ÑĪ":7359,"Ð¸ÑģÑĤÐ¾ÑĢÐ¾Ð²":7360,"ĠÑĩÐ°Ñģ":7361,"ĠÑĩÑĥÐ²ÑģÑĤÐ²":7362,"Ð¾Ð·ÑĢÐ°Ñĩ":7363,"ĠÑģÑĤÑĢÐ¾Ðº":7364,"Ð¾Ð¿Ð¾ÑĤÑĢÐµÐ±":7365,"Ð¾Ð¿Ð¾Ð»Ð°Ð³":7366,"Ð»ÐµÐ½Ð½ÑĭÐ¼":7367,"Ð°ÑģÑĪÑĤÐ°Ð±":7368,"ĠÑĤÐµÑħÐ½Ð¸Ðº":7369,"ĠÐ¿ÐµÑĢÐµÑģÑĤ":7370,"ÑĥÐ´ÐµÐ»ÑĮÐ½ÑĭÐ¹":7371,"ĠÑĤÐµÑħÐ½Ð¾Ð»Ð¾Ð³Ð¸ÑıÐ¼Ð¸":7372,"ĠÐ¿Ð¾Ð´Ð°Ð²":7373,"ĠÐ¿Ð¾Ð´Ð²ÐµÐ´Ð¾Ð¼":7374,"ĠÐ²ÑĭÑĢÐ¾Ñģ":7375,"ĠÑģÐ¸ÑģÑĤÐµÐ¼Ð½ÑĭÑħ":7376,"ĠÐºÐ¾Ð½ÑĨ":7377,"ĠÐºÐ¾Ð½ÐµÑĨ":7378,"ĠÐ¸Ð½ÑĦÐ¾ÑĢÐ¼Ð°ÑĨÐ¸Ð¾Ð½Ð½Ð¾Ð¼":7379,"ĠÐ¿Ð¾Ð»ÑĥÑĩÐ¸ÑĤÑĮ":7380,"ĠÐ¾Ð±ÐµÑģÐ¿ÐµÑĩÐµÐ½Ð½Ð¾ÑģÑĤÐ¸":7381,"ÐĺÑģÑĤÐ¾Ñĩ":7382,"ÑĥÑİÑīÐ¸Ð¼":7383,"ĠÐ¸Ð·ÑĥÑĩ":7384,"ÑĢÐ°Ð·ÑĭÑģÐº":7385,"ĠÐ°ÑĥÑĤ":7386,"ĠÐ¾ÑģÑĥÑīÐµÑģÑĤÐ²Ð»ÐµÐ½Ð¸ÐµÐ¼":7387,"ĠÑĥÐºÐ°Ð·Ð°ÑĤÐµÐ»ÐµÐ¹":7388,"ĠÐ¡ÑĥÐ±ÑĬÐµÐºÑĤ":7389,"Ð¸ÑģÐ¸":7390,"ĠÑĢÐµÐ·Ð¸Ð´":7391,"ĠÐľÐ¾Ð½Ð¸ÑĤÐ¾ÑĢÐ¸Ð½Ð³":7392,"Ð¿ÑĢÐ¾ÑĤÑıÐ¶ÐµÐ½Ð½Ð¾ÑģÑĤÑĮ":7393,"ĠÑĦÐ¾ÑĢÐ¼Ð¸ÑĢÑĥÐµÑĤÑģÑı":7394,"ĠÐļÐ¾Ð»ÑĮÑĨ":7395,"ĠÐ»Ð¸ÑĨÐ°Ñħ":7396,"ÑĦÐµÑĢÐµÐ½ÑĨÐ¸":7397,"___":7398,"ĠÑģÑĤÐ°ÑĤÑĮÑı":7399,"ĠÐ¾Ð¿ÐµÑĢÐ°ÑĤÐ¸Ð²Ð½Ð¾":7400,"Ð°Ð±ÑĢ":7401,"ĠÑģÐ¿ÑĥÑĤ":7402,"ÐłÐµ":7403,"ĠÐĴÐĴ":7404,"ĠÐ¿Ð¾Ð´Ð´ÐµÑĢÐ¶Ð°Ð½Ð¸Ñı":7405,"ĠÑįÑĤÐ¸":7406,"Ġ59":7407,"ĠÐ¸ÑģÐ¿Ð¾Ð»Ð½Ð¸ÑĤÐµÐ»ÑĮÐ½ÑĭÐ¹":7408,"ĠÑĥÑģÑĤÐ°Ð½Ð¾Ð²Ð»ÐµÐ½Ð½Ð¾Ð³Ð¾":7409,"ĠÐ¿Ð¾ÐºÐ°Ð·":7410,"ĠÐ¾ÑģÐ½Ð¾Ð²Ñĭ":7411,"ĠÐ¾ÑģÐ½Ð¾Ð²Ð½Ð¾Ð¹":7412,"ĠÐ¾Ð¿ÑĢÐµÐ´ÐµÐ»ÑıÑĤÑĮ":7413,"ĠÐ¾Ð¿ÑĢÐµÐ´ÐµÐ»ÐµÐ½Ð½ÑĭÐ¹":7414,"ĠÐŀÑĨÐµÐ½ÐºÐ°":7415,"ĠÐ¸Ð¼ÐµÑĤÑĮ":7416,"ĠÐ¤ÐµÐ´ÐµÑĢÐ°Ð»ÑĮÐ½Ð¾Ðµ":7417,"Ð°ÑĤÐ¸Ð²Ð½Ð¾Ð³Ð¾":7418,"ĠÐ´Ð¾ÐºÐ°Ð·Ð°ÑĤÐµÐ»ÑĮ":7419,"Ġ101":7420,"ĠÐ·Ð½Ð°ÑĩÐ¸Ð¼":7421,"ĠÐ·Ð½Ð°ÑĩÐ¸Ð¼Ð¾ÑģÑĤÑĮ":7422,"ĠÑĨÐµÐ½ÑĤÑĢÐ°Ð»Ð¸Ð·Ð¾Ð²Ð°Ð½":7423,"ĠÐ¿ÑĢÐµÐ´ÑģÑĤÐ°Ð²Ð¸ÑĤÐµÐ»Ð¸":7424,"118":7425,"ÐĶÐ¾Ð»Ñı":7426,"ĠÑģÐ¾ÑģÑĤÐ°Ð²Ð°Ð¼":7427,"ĠÐ£ÑģÑĤÐ°Ð½Ð¾Ð²":7428,"ĠÐ±Ð°Ð·Ñĥ":7429,"ĠÑģÐ»ÑĥÑĩÐ°Ð¸":7430,"ĠÑįÐºÑģÐ¿ÐµÑĢÐ¸Ð¼ÐµÐ½ÑĤÐ°Ð»ÑĮÐ½ÑĭÐ¹":7431,"ĠÐ·Ð°ÐºÐ¾Ð½Ñĭ":7432,"ĠÐ³ÑĢÐ°Ð½ÑĤÑĭ":7433,"ĠÐ¾ÑĤÑĩÐµÑĤÐ¾Ð²":7434,"ĠÐ²ÑĭÑģÐ¾ÐºÐ¾Ð²Ð¾Ð»ÑĮ":7435,"ĠÑĩÐ°ÑģÑĤÐ¾ÑĤ":7436,"ĠÑĢÐ°ÑģÑħÐ¾Ð´Ð½Ð¾Ð³Ð¾":7437,"ĠÐ¾Ð³ÑĢÐ°Ð½Ð¸ÑĩÐµÐ½Ð¸Ðµ":7438,"ĠÐ¶Ð¸Ð»":7439,"ĠÐ·Ð°Ð¿Ð¸ÑģÑĮ":7440,"ÐľÐ¾Ð´ÐµÑĢÐ½Ð¸Ð·Ð°ÑĨÐ¸Ñı":7441,"ĠÑĢÐ°ÑģÐ¿ÑĢÐ¾ÑģÑĤÑĢÐ°Ð½ÐµÐ½Ð¸ÐµÐ¼":7442,"ĠÐ²ÑĭÐ¿Ð¾Ð»Ð½ÐµÐ½Ð½ÑĭÑħ":7443,"ĠÐ²ÑĭÐ¿Ð¾Ð»Ð½ÑıÑĤÑĮ":7444,"ÑĥÐ³Ð°":7445,"ĠÐ´ÑĢÑĥÐ³Ð¾Ð¹":7446,"ÐļÑĢÐ¾Ð¼Ðµ":7447,"ĠÐĺÑģÐº":7448,"ĠÐ²Ð½ÐµÐ´ÑĢÐµÐ½Ð¸Ð¸":7449,"ĠÐ¿Ð»Ð°Ð½Ð¾Ð¼":7450,"ĠÑĢÐ°Ð·Ð¼ÐµÑīÐµÐ½Ñĭ":7451,"ĠÐ½Ð¾ÑĢÐ¼Ð°Ð¼Ð¸":7452,"ĠÐ¾Ð±ÑĥÑĩÐµÐ½Ð¸Ñİ":7453,"ĠÑĢÐµÐ³Ð¸Ð¾Ð½Ðµ":7454,"ĠÐ´Ð¾Ð»Ð¶Ð½Ð¾ÑģÑĤÐ½ÑĭÑħ":7455,"ĠÐ¾Ð±Ð¾ÑĢÐ¾Ð½Ðµ":7456,"ĠÐ·Ð°ÐºÐ»ÑİÑĩÐµÐ½Ð¸Ð¹":7457,"ĠÐ¾Ð´Ð½Ð¾":7458,"ĠÐ¾Ð´Ð½Ð¾Ð¼Ñĥ":7459,"ĠÑģÐ¸Ð»Ñĭ":7460,"ĠÐ²Ð¾Ð·Ð¼Ð¾Ð¶Ð½ÑĭÑħ":7461,"ĠÐ¼ÑĥÐ½Ð¸ÑĨÐ¸Ð¿Ð°Ð»ÑĮÐ½ÑĭÐµ":7462,"ĠÐ¼ÑĥÐ½Ð¸ÑĨÐ¸Ð¿Ð°Ð»ÑĮÐ½ÑĭÐ¼Ð¸":7463,"ĠÐºÑĢÐ°ÑĤ":7464,"ĠÐ¼ÐµÐ´Ð¸ÑĨÐ¸Ð½Ðµ":7465,"ĠÐĵÑĢÐ°Ð½":7466,"ĠÑĢÑĭÐ½Ð¾Ñĩ":7467,"ĠÑįÐºÑģÐ¿ÐµÑĢÑĤÐ½ÑĭÐ¹":7468,"ĠÑįÐºÑģÐ¿ÐµÑĢÑĤÐ¸Ð·Ñĥ":7469,"Ġ143":7470,"ĠÑĤÑĢÐ°Ð½ÑģÐ¿Ð¾ÑĢÑĤÐ¸ÑĢÐ¾Ð²ÐºÐ¸":7471,"ÑĤÐµÑħÐ½Ð¾Ð»Ð¾Ð³Ð¸ÑĩÐµÑģÐºÐ¾Ðµ":7472,"ĠÑģÐ¿Ð¾ÑģÐ¾Ð±Ñĭ":7473,"ĠÑģÐ¿Ð¾ÑģÐ¾Ð±Ð¾Ð¼":7474,"ĠÑģÐ¿Ð¾ÑģÐ¾Ð±ÑģÑĤÐ²ÑĥÐµÑĤ":7475,"ĠÑģÐ¿Ð¾ÑģÐ¾Ð±ÑģÑĤÐ²Ð¾Ð²Ð°ÑĤÑĮ":7476,"ĠÑģÐ¾Ð·Ð´Ð°ÑİÑĤ":7477,"ĠÐ²ÑĭÑĩÐ¸ÑģÐ»ÐµÐ½Ð¸Ñı":7478,"ÐµÐ´Ð¸Ð½Ð¸ÑĨ":7479,"ĠÑĥÑģÑĤÐ°Ð½Ð°Ð²Ð»Ð¸Ð²Ð°":7480,"ĠÑĥÑģÑĤÐ°Ð½Ð°Ð²Ð»Ð¸Ð²Ð°ÑİÑĤ":7481,"ÑıÑīÐµÐ¹":7482,"ĠÐ²Ð¾ÐµÐ½Ð½Ð¾":7483,"ĠÐ¾Ð±ÐµÑģÐ¿ÐµÑĩÐ¸Ð²Ð°ÑİÑīÐµÐ¹":7484,"ĠÐ½Ð¾Ð¼Ð¸Ð½":7485,"Ð»Ð°ÑģÑĤÑĮ":7486,"156":7487,"ĠÐ¾Ð¿ÑĤÐ¸ÑĩÐµÑģÐºÐ¾Ð³Ð¾":7488,"ĠÐ¾Ð¿ÑĤÐ¸ÐºÐ¸":7489,"ĠÐĹÐ°Ð´":7490,"ĠÑģÐ²Ð¾Ñİ":7491,"ĠÐ¢ÐµÑĢÐ¼Ð¸Ð½Ñĭ":7492,"ĠÐ¿Ð¾Ð»Ð¸ÑĤÐ¸ÑĩÐµÑģÐºÐ¸Ñħ":7493,"ĠÐ¸ÑģÐ¿Ð¾Ð»Ð½ÐµÐ½Ð¸Ð¸":7494,"ĠÐ¸ÑģÐ¿Ð¾Ð»Ð½Ð¸ÑĤÐµÐ»ÐµÐ¹":7495,"ĠÐ±Ð¾Ð»ÑĮÑĪÐ¸Ð¼":7496,"Ð¾ÑģÐºÐ¾ÑĢÐ¾ÑģÑĤ":7497,"ĠÑģÑĥÐ´Ð¾Ð¿ÑĢÐ¾Ð¸Ð·Ð²Ð¾Ð´":7498,"ining":7499,"ĠÐ¿Ð¾ÑĤÑĢÐµÐ±Ð¸ÑĤÐµÐ»ÑĮ":7500,"ÐĳÑİÐ´Ð¶ÐµÑĤ":7501,"Ð¿ÐµÑĢÐ²":7502,"ĠÑģÑĤÑĢÐ°ÑĤÐµÐ³Ð¸ÑĩÐµÑģÐºÐ¸Ðµ":7503,"ÑĢÐ¾Ð¹ÑģÑĤÐ²Ð°":7504,"ĠÐ½Ð°Ð±Ð¾ÑĢÑĭ":7505,"ĠÑįÐ½ÐµÑĢÐ³Ð¸Ð¸":7506,"ĠÑģÑĤÐ°Ð½Ð´Ð°ÑĢÑĤÐµ":7507,"ĠÐ¿ÑĢÐµÐ´ÑģÑĤÐ°Ð²Ð»ÐµÐ½Ð¸Ñİ":7508,"ĠÐ¾Ð¿ÑĭÑĤÐ½ÑĭÑħ":7509,"ĠÑĤÐ¸Ð¿Ð¾Ð²Ð¾Ð³Ð¾":7510,"ĠÑĢÐµÐºÑĢÐµÐ°ÑĨÐ¸Ð¾Ð½Ð½Ð¾Ð¹":7511,"ĠÑįÑĤÐ°Ð¿Ñĭ":7512,"ĠÐ¿Ð¾Ð´Ð¿Ð¸ÑģÑĮÑİ":7513,"ĠÐ¿Ð¾Ð¼ÐµÑī":7514,"ĠÐķÐ´Ð¸":7515,"ĠÐ¸Ð½ÑĤÐµÑĢÑĦÐµÐ¹":7516,"ĠÐ¼Ð¾ÑīÐ½Ð¾ÑģÑĤÑĮÑİ":7517,"ĠÑįÐºÐ¾Ð»Ð¾Ð³Ð¸ÑĩÐµÑģÐºÐ¸Ñħ":7518,"Ð¿ÑĢÐ¾Ð³ÑĢÐ°Ð¼Ð¼Ð°":7519,"ĠÑģÐ¾Ð²ÑĢÐµÐ¼ÐµÐ½Ð½ÑĭÐ¼":7520,"ĠÐ°ÐºÑĤÑĥÐ°Ð»ÑĮÐ½Ð¾ÑģÑĤÑĮ":7521,"ĠÑĢÐ°Ð·Ð´ÐµÐ»Ñĥ":7522,"Ð°ÑİÑīÐµÐ¹ÑģÑı":7523,"ĠÐ¾ÑĤÐ²ÐµÑĤÑģÑĤÐ²ÐµÐ½Ð½ÑĭÐµ":7524,"ĠÐ¾ÑĤÐ²ÐµÑĤÑģÑĤÐ²ÐµÐ½Ð½Ð¾ÑģÑĤÑĮÑİ":7525,"Ð¾ÑģÐ¼Ð¸ÑĩÐµÑģÐºÐ¾Ð¹":7526,"ĠÐ·Ð°Ð¼ÐµÑĩ":7527,"ĠÐºÑĢÐ¸ÑĤÐµÑĢÐ¸ÐµÐ²":7528,"ĠÐ¿Ð»Ð°Ð½Ð¾Ð²Ð¾Ð³Ð¾":7529,"ĠÐ´ÐµÐ»ÐµÐ³":7530,"ĠÑĤÐµÐ¼Ñĥ":7531,"Ð¸ÑĢÑĥÑİÑīÐµÐ¹":7532,"ĠÐ¸Ð·Ð¼ÐµÐ½ÐµÐ½Ð¸ÑıÐ¼Ð¸":7533,"ÐłÐĲÐĿ":7534,"ĠÐ¿ÑĢÐ¾Ð²Ð°Ð¹Ð´ÐµÑĢÐ¾Ð¼":7535,"Ð¸ÑĢÐ¾Ð²Ð°ÑĤÑĮÑģÑı":7536,"ĠÐ¿ÑĢÐ¸Ð»Ð¾Ð¶ÐµÐ½Ð¸Ðµ":7537,"ĠÑģÐ¼ÑĭÑģÐ»":7538,"ĠÐ¿Ð¾Ð¸ÑģÐºÐ¾Ð²ÑĭÑħ":7539,"ĠÐ¿ÑĢÐ¸ÑĢÐ¾ÑģÑĤ":7540,"Ġ071000":7541,"ĠÐ¼Ð°Ð»Ð¾Ð³Ð¾":7542,"ĠÐ³ÑĢÐ°Ð½ÑĤÐ¾Ð²Ð°Ñı":7543,"ĠÐºÐ°Ð·Ð½Ð°ÑĩÐµÐ¹ÑģÐºÐ¸Ð¹":7544,"ĠÐ¿Ð¾Ð½Ð¸Ð¼Ð°ÐµÑĤÑģÑı":7545,"ĠÐ¸Ð½Ð´Ð¸ÐºÐ°ÑĤÐ¾ÑĢÑĭ":7546,"ĠÑģÐ¾Ð²Ð¾ÐºÑĥÐ¿Ð½ÑĭÐ¹":7547,"ĠÐ½Ð°Ð¿ÑĢÐ°Ð²Ð»ÑıÑĤÑĮ":7548,"ĠÐ°Ð»Ð³Ð¾ÑĢÐ¸ÑĤÐ¼Ð°":7549,"ĠÐ¿ÑĢÐµÐ´ÑĪÐµÑģÑĤÐ²ÑĥÑİÑīÐ¸Ð¹":7550,"ĠÐŁÑĢÐ¾Ð³ÑĢÐ°Ð¼Ð¼Ð¾Ð¹":7551,"ĠÐ³ÐµÐ½ÐµÑĤ":7552,"ĠÐ´Ð¾Ð¼ÐµÐ½Ð½Ð¾Ð³Ð¾":7553,"ĠÑĤÐ¾Ð¿Ð¾Ð»Ð¾Ð³":7554,"ĠÐ¿ÑĢÐµÐ´Ð½Ð°Ð·Ð½Ð°ÑĩÐµÐ½Ñĭ":7555,"ÑĢÐ¾Ð´Ð¸Ð½Ð°Ð¼":7556,"ĠÐ±Ð¸Ð¾Ð¼ÐµÑĤÑĢÐ¸ÑĩÐµÑģÐºÐ¸Ñħ":7557,"ĠÐ¡Ð¾Ð²ÐµÑĤ":7558,"ĠÐ¿ÑĢÐµÐ¿Ð°ÑĢÐ°ÑĤÑĭ":7559,"ĠÐ¿Ð¾Ð²Ð»ÐµÑĩ":7560,"ĠÐ²ÐµÑģÑĮ":7561,"ĠÐ¸ÑģÑħÐ¾Ð´Ð½ÑĭÑħ":7562,"ĠÐ¸Ð½Ð²ÐµÑģÑĤÐ¸ÑĨÐ¸Ð¾Ð½Ð½Ð¾Ð¹":7563,"ĠÐ¾ÑģÐ²Ð¾ÐµÐ½Ð¸Ðµ":7564,"Ð¸Ð½ÑĦÐ¾ÑĢÐ¼Ð°ÑĨÐ¸Ñı":7565,"ĠÐºÑĥÐ»ÑĮÑĤÑĥÑĢÐ½Ð¾":7566,"ĠÐ·Ð°ÐºÑĥÐ¿ÐºÑĥ":7567,"ĠÐ¸Ð·Ð¼ÐµÑĢÐµÐ½Ð¸Ð¹":7568,"ĠÐ°ÑĤÐ¼Ð¾ÑģÑĦÐµÑĢ":7569,"ĠÑĥÑģÑĤÑĢÐ°Ð½ÐµÐ½Ð¸Ðµ":7570,"ĠÐ¾ÑĤÑĢÐ°Ð¶ÐµÐ½Ð¸Ñı":7571,"ĠRfi":7572,"ÑĨÐµÐ»ÐµÐ¹":7573,"ĠÑĩÐ¸ÑģÑĤÐ¾Ð¹":7574,"ĠÐĿÐ°ÑģÑĤÐ¾ÑıÑīÐ¸Ðµ":7575,"ĠÐºÐ¾Ð½ÑĦÐ¸Ð´ÐµÐ½ÑĨÐ¸Ð°Ð»ÑĮÐ½Ð¾ÑģÑĤÐ¸":7576,"ĠÐ²ÑĭÑıÐ²Ð»ÐµÐ½Ð½ÑĭÑħ":7577,"ĠÐºÐ¾Ð½ÑĤÐ°ÐºÑĤ":7578,"ĠÑģÐµÑĤÐµÐ²Ð¾Ð³Ð¾":7579,"ĠÐ³Ð»Ð¾Ð±Ð°Ð»ÑĮÐ½ÑĭÑħ":7580,"Ð½Ð°Ð´Ð·Ð¾ÑĢÐ°":7581,"ĠÐ²ÑĭÐ±Ð¾ÑĢÐ°":7582,"ĠÐľÐ¾ÑģÐºÐ¾Ð²ÑģÐºÐ¸Ð¼":7583,"ĠÐºÐ°Ð½Ð°Ð»Ð¸Ð·":7584,"ĠÐ¿ÑĢÐ¸Ð¾ÑģÑĤÐ°Ð½Ð¾Ð²Ð»ÐµÐ½Ð¸Ð¸":7585,"ĠÐ´Ð¾ÑģÑĤÐ¸Ð³Ð½ÑĥÑĤÐ¾Ðµ":7586,"ĠÐ¿Ð¾Ð»ÑĮÐ·Ð¾Ð²Ð°ÑĤÐµÐ»ÑıÐ¼Ð¸":7587,"ĠÐ±Ð»Ð°Ð³Ð¾Ð´Ð°ÑĢÑı":7588,"ĠÐ¿Ð¾Ð±ÐµÐ´Ð¸ÑĤÐµÐ»ÐµÐ¹":7589,"ĠÐ¿Ð¾Ð±ÐµÐ´Ð¸ÑĤÐµÐ»Ñı":7590,"ĠÐ¿Ð¾Ð´ÑĢÐ°Ð·Ð´ÐµÐ»Ð¾Ð¼":7591,"ĠÐ¿ÑĢÑıÐ¼Ð¾Ð³Ð¾":7592,"ĠÐ½ÐµÐ¿ÑĢÐµÑĢÑĭÐ²":7593,"ĠÐºÐ»Ð°ÑģÑģÐ°":7594,"ĠÐ´Ð¾ÑĢÐ¾Ð³Ð¸":7595,"ĠÑĥÑĩÐ°ÑģÑĤÐ²ÑĥÑİÑīÐ¸Ñħ":7596,"ĠÐĳÐ°Ð»ÑĤÐ¸Ð¹ÑģÐºÐ¾Ð³Ð¾":7597,"ĠÐºÐ°ÑĤÐ°Ð»":7598,"ĠÑģÐ±Ð°Ð»Ð°Ð½Ñģ":7599,"ĠÐ¸ÑģÑģÐ»ÐµÐ´Ð¾Ð²Ð°ÑĤÐµÐ»ÑĮÑģÐºÐ¸Ð¼":7600,"ĠÐ¿ÑĢÐµÐ´ÑĥÑģÐ¼Ð°ÑĤÑĢÐ¸Ð²Ð°ÑİÑīÐ¸Ñħ":7601,"ĠÐ¾Ð±Ð¾ÑģÐ½Ð¾Ð²Ð°Ð½Ð¸Ðµ":7602,"ĠÐ¼Ð°ÑĤÐµÐ¼Ð°ÑĤÐ¸ÑĩÐµÑģÐºÐ¾Ð³Ð¾":7603,"ĠÐ³ÑĢÐ°Ð½ÑĤÐ¾Ð¿Ð¾Ð»ÑĥÑĩ":7604,"ĠÐºÐ°ÑĢÑĤÑĭ":7605,"ĠÐ²Ð¾Ð»Ð¾ÐºÐ½Ð°":7606,"Ġcon":7607,"ĠÐ¿ÑĢÐµÐ¿ÑıÑĤÑģÑĤÐ²":7608,"ĠÑĥÐ½Ð¸ÑĩÑĤÐ¾Ð¶ÐµÐ½Ð¸Ðµ":7609,"ĠÐ¿ÑĢÐ¾ÑģÐ¿ÐµÐºÑĤÐ¾Ð¼":7610,"ĠÐ½ÐµÐ´Ð¾Ð¿ÑĥÑī":7611,"ĠÐ¸Ð½Ð´ÑĥÑģÑĤÑĢÐ¸Ð°Ð»ÑĮÐ½ÑĭÑħ":7612,"ĠÐ½ÐµÐ¿ÑĢÐµÐ´ÑģÑĤÐ°Ð²Ð»ÐµÐ½Ð¸Ðµ":7613,"ĠSi":7614,"ĠÐ¿Ð°ÑĨÐ¸ÐµÐ½ÑĤÐ¾Ð²":7615,"Ð¸Ð¼Ð¿Ð¸Ð°Ð´":7616,"ĠÐ½ÐµÑģÐ¾Ð±Ð»ÑİÐ´":7617,"ĠÐ²Ð¸ÑĢÑĤÑĥ":7618,"ĠÑģÑĤÐ°Ð²ÐºÐ¸":7619,"ĠÐ¿ÑĢÐµÐ¸Ð¼ÑĥÑīÐµÑģÑĤÐ²":7620,"ĠÐ¿ÑĢÐµÐ¸Ð¼ÑĥÑīÐµ":7621,"ĠÐ»Ð¸Ð½ÐµÐ¹Ð½Ð¾Ð¹":7622,"Ð¾ÑĦÑĪ":7623,"ĠÑĥÐºÐ°Ð·Ð°ÑĤÐµÐ»Ð¸":7624,"ĠÑĢÐ°ÑģÐ¿Ð¾Ð»Ð¾Ð¶ÐµÐ½Ð½ÑĭÑħ":7625,"ĠÐ¿ÑĢÐ¾ÑĪÐµÐ´ÑĪÐ¸Ñħ":7626,"ĠÐŁÐµÑĢÐµÑĩÐ¸ÑģÐ»ÐµÐ½Ð¸Ðµ":7627,"ĠÑĤÐµÐ½Ð´ÐµÐ½ÑĨÐ¸Ð¸":7628,"ĠÐłÐ°ÑģÐ¿Ð¾Ð·Ð½Ð°Ð²Ð°Ð½Ð¸Ðµ":7629,"ĠÐŁÑĢÐ¸Ð¼Ð¾ÑĢÑģÐºÐ¾Ð¹":7630,"ĠÐ²Ð·Ð°Ð¸Ð¼Ð¾ÑģÐ²ÑıÐ·Ð°Ð½Ð½ÑĭÑħ":7631,"ĠÐ¾Ð»Ð¸Ð¼Ð¿Ð¸Ð°Ð´":7632,"ĠÐ¾Ð±ÑĥÑģÐ»Ð¾Ð²":7633,"**)":7634,"Ġ1200":7635,"ĠÑĤÐµÑħÐ½Ð¾Ð³ÐµÐ½Ð½ÑĭÑħ":7636,"ĠÐ»ÑİÐ´ÐµÐ¹":7637,"ĠÑģÐ²Ð¸Ð´ÐµÑĤÐµÐ»ÑĮ":7638,"ĠÑĢÐµÐºÐ¾Ð½ÑģÑĤÑĢÑĥÐºÑĨÐ¸ÐµÐ¹":7639,"Ð¸Ð½ÑĤÐµÐ»Ð»ÐµÐºÑĤÐ°":7640,"ĠÐ½Ð°ÑĩÐ¸Ð½Ð°Ñı":7641,"ĠÐ¼Ð°ÑĢÑĪÑĢÑĥÑĤÐ°":7642,"ĠÑģÐ²ÐµÑĢÑħÐ²ÑĭÑģÐ¾ÐºÐ¾ÑĩÐ°ÑģÑĤ":7643,"ĠÐ´Ð¸ÑģÐ¿Ð°Ð½ÑģÐµÑĢÐ¸Ð·Ð°ÑĨÐ¸Ð¸":7644,"Ð½Ð¾Ð¶Ðµ":7645,"ĠÐ´Ð¸ÑĦÑĦÐµÑĢÐµÐ½ÑĨÐ¸":7646,"ĠÐ³Ð»ÑĥÐ±Ð¾Ðº":7647,"ĠÐµÐ´Ð¸Ð½Ð¾Ð»Ð¸ÑĩÐ½Ð¾Ð³Ð¾":7648,"ĠÐ¾Ð±Ð½Ð¾Ð²Ð»ÐµÐ½Ð¸Ðµ":7649,"ĠÐ¾ÑĤÐ¼ÐµÐ½Ðµ":7650,"ĠÐ¡Ð¾Ð´ÑĢÑĥÐ¶Ðµ":7651,"Ð¿ÑĢÐµÐ´Ð¾ÑģÑĤÐ°Ð²Ð»ÐµÐ½Ð¸Ñı":7652,"ÐĺÐ½Ð²ÐµÑģÑĤÐ¸ÑĨÐ¸Ð¾Ð½Ð½ÑĭÐµ":7653,"ĠÐ¾Ð·Ð½Ð°ÐºÐ¾Ð¼Ð»ÐµÐ½Ð¸Ñı":7654,"ĠÐ´Ð¸Ð·Ð°Ð¹Ð½":7655,"Ð¾ÐºÐ°Ð·Ð°Ð½Ð¸ÐµÐ¼":7656,"ĠÐ¸Ð¼Ð¼Ñĥ":7657,"ĠÐ½ÐµÐ´Ð²Ð¸Ð¶Ð¸Ð¼Ð¾Ð³Ð¾":7658,"ĠÐ¶Ð¸Ð·Ð½ÐµÐ´ÐµÑıÑĤÐµÐ»ÑĮÐ½Ð¾ÑģÑĤÐ¸":7659,"ĠÐķÐ²ÑĢÐ°Ð·Ð¸Ð¹":7660,"Ð¿Ð¾ÑģÑĤÐ°Ð²ÐºÐµ":7661,"Ð¾Ð´Ð³Ð¾ÑĤÐ¾Ð²ÐºÐ¸":7662,"Ð¸ÑģÐºÑĥÑģÑģÑĤÐ²ÐµÐ½Ð½Ð¾Ð³Ð¾":7663,"ĠÐ½ÐµÑģÐ¾Ð²ÐµÑĢÑĪÐµÐ½Ð½Ð¾Ð»ÐµÑĤÐ½Ð¸Ñħ":7664,"odel":7665,"ĠÑģÐµÐ¹ÑĩÐ°Ñģ":7666,"ĠÐļÐ¾Ð»ÑĮÑĨÐµÐ²Ð¾Ð³Ð¾":7667,"EC":7668,"VI":7669,"at":7670,"aut":7671,"age":7672,"co":7673,"ni":7674,"of":7675,"th":7676,"ĠB":7677,"Ġk":7678,"Ġon":7679,"Ġan":7680,"Ð¾Ñħ":7681,"Ð¾ÑĢÐ°Ð·":7682,"Ð¾Ð¾ÑĢÐ´Ð¸Ð½":7683,"Ð½ÐµÐº":7684,"ÑĤÐ¾ÑĢÐ¾Ð²":7685,"ÑģÑĥÐ´Ð°ÑĢ":7686,"ÑģÑĤÑĢÐ¾":7687,"ÑģÑĤÐµÐ½Ð´":7688,"ÑģÑĤÑĢÐ¾Ð´":7689,"ÑĭÐ»Ð¸":7690,"ÐµÐ½Ñĩ":7691,"ÐµÐ½ÑĨÐ¸Ñı":7692,"ÐºÐ¾ÑĢ":7693,"ÐºÐ¸Ðµ":7694,"ÐºÐ¾Ð³":7695,"ÐºÐ¾Ð³Ð¾":7696,"ÐºÑĥÑĢÑģ":7697,"ÐºÐ¾ÑģÑĤÑĮÑİ":7698,"ÑĮÐµÐ·":7699,"Ð°Ð½ÐºÑĨÐ¸Ð¾Ð½":7700,"ÑĩÐµÑĢÐµÐ·":7701,"ĠÑģÐ¼ÐµÐ½":7702,"ĠÑģÑģÑĭ":7703,"ĠÑģÐ³ÑĢÑĥÐ¿Ð¿":7704,"ĠÐ²ÐµÐºÑĤ":7705,"ĠÐ²Ð°ÑĢÐ¸":7706,"ĠÐ²ÐµÐ½Ñĩ":7707,"ÐµÐ´ÑģÑĤÐ²":7708,"Ð¾ÑĢÑĨÐ¸":7709,"Ð¾ÑĢÐµÑģ":7710,"Ð¾ÑĢÐ¸ÐµÐ½ÑĤ":7711,"ĠÐ½ÐµÑħ":7712,"ÑģÐºÑĥÑĢÑģ":7713,"ÑİÐ¼Ð¸Ð½":7714,"ÑĦÐ»":7715,"Ð¾Ð´ÐµÑĢÐ¶":7716,"Ð¾Ð´Ð¾ÑĢÐ¾Ð´":7717,"ÐµÑĤÐ¾Ð²":7718,"Ð¾Ð½Ð¸Ñı":7719,"ĠÑĢÐ¾ÑģÐ¿":7720,"Ð°ÑĤÑĭÑħ":7721,"Ð¾Ð¹Ð½ÑĭÑħ":7722,"ÐµÐ¼Ð¾Ð¼":7723,"Ð¾Ð³ÐµÐ½Ð½ÑĭÑħ":7724,"ĠÐ·Ð°Ð»":7725,"Ð³Ð°":7726,"Ð¸ÑĤÐ°ÑĢÐ½ÑĭÑħ":7727,"Ð¸ÑĩÐ½ÑĭÐ¹":7728,"Ð¸Ð½ÑĨÐ¸Ð¿":7729,"ĠÐ¤Ð¸Ð½Ð°Ð½":7730,"Ð±Ð¸":7731,"ĠÐ¾ÑĤÐ´":7732,"Ð¾ÑģÑģÐ¸Ñı":7733,"ĠÐłÐµÐºÐ¾Ð¼ÐµÐ½Ð´":7734,"ĠÐłÑĥÐºÐ¾Ð²Ð¾Ð´Ð¸ÑĤÐµÐ»ÑĮ":7735,"Ð°ÑģÑĤÑĢÐ¾ÑĦ":7736,"ĠÐŁÐ¾Ð½":7737,"ĠÐ³ÑĢ":7738,"Ð°ÑĢÐ°Ñı":7739,"ĠÑĢÐ°Ð·Ð¼ÐµÑĤ":7740,"Ġ116":7741,"Ð¸ÑĢÐ¾Ð´":7742,"ĠÐ¿ÑĢÐ¾ÑħÐ¾Ð¶Ð´":7743,"ÑİÑīÐ°Ñı":7744,"ÑĥÐ½Ð´":7745,"Ð¸ÑĤÐµÐ»ÑĮÐ½Ð°Ñı":7746,"Ð¸ÑĤÐµÐ»ÑĮÐ½Ð¾ÑģÑĤÑĮÑİ":7747,"ĠÑģÑĤÐ°Ð½Ð¾Ð²":7748,"Ð¾Ð¿Ð¾Ð²":7749,"Ð¾Ð¿ÑĢÐ°Ð²":7750,"Ð°ÑģÑĭ":7751,"Ð½Ð¾Ð»Ð¸ÑĤÐ½ÑĭÑħ":7752,"ÐµÐ·Ð´Ð¾Ðº":7753,"ÑĢÐµÐ´Ð¸ÑĤ":7754,"ĠÑĤÐµÑħÐ½Ð¾Ð»Ð¾Ð³Ð¸Ñı":7755,"ĠÐ¾ÑģÐ²":7756,"Ġ216":7757,"Ġ229":7758,"ĠÑįÐºÑģÐºÑĥÑĢÑģ":7759,"Ġ2035":7760,"ĠÐ»Ð¸ÑģÑĤ":7761,"Ð¾ÑĩÐ¸Ðµ":7762,"ĠÐ½Ð°ÑģÑĤÑĥÐ¿":7763,"ĠÐ³Ð¾ÑģÑĥÐ´Ð°ÑĢÑģÑĤÐ²Ð¾":7764,"ĠÐ¿Ð¾Ð»ÑĥÑĩÐµÐ½Ð½Ð¾Ð¹":7765,"ĠÐ¿Ð¾Ð»ÑĥÑĩÐµÐ½Ð½ÑĭÐµ":7766,"ĠÐ¿ÑĢÐ¾ÐµÐºÑĤÐ°Ð¼Ð¸":7767,"Ð´Ð°Ð½Ð¸Ð¹":7768,"ĠÐ¿ÑĢÐµÐ´Ð¾ÑģÑĤÐ°Ð²Ð»ÑıÐµÑĤ":7769,"ÐµÐ²ÑĭÐ¼Ð¸":7770,"ÑĥÑİÑīÐ°Ñı":7771,"ĠÑĥÑĩÐ°ÑīÐ¸Ñħ":7772,"Ġ33":7773,"Ð¡Ð¾ÑĨÐ¸":7774,"ĠÐ¡Ð¾Ð±ÑĢÐ°Ð½":7775,"ĠÐ·Ð°ÐºÐ¾Ð½Ðµ":7776,"Ð¤ÐŁÐ£":7777,"ĠÑĢÐµÐ·ÐµÑĢÐ²":7778,"ĠÐľÐ¾Ð´":7779,"ĠÐľÐ°ÑĪÐ¸Ð½":7780,"ĠÐ±ÑİÐ´Ð¶ÐµÑĤÐ½Ð¾Ð¼Ñĥ":7781,"Ð¿ÑĢÐ¸Ð±":7782,"ÑĥÐ¼Ð¾Ð²":7783,"ĠÑĢÐ°Ð·ÑĢÐ°Ð±Ð¾ÑĤÐ°Ð½Ð½ÑĭÐµ":7784,"Ð¼Ð¾ÑĤÑĢÐµÐ½Ð¸Ðµ":7785,"ĠÑĥÐºÐ°Ð·Ð°Ð½Ð¸Ðµ":7786,"ĠÐ¼ÐµÑĢÐµ":7787,"Ð¼ÐµÑĢÐ½ÑĭÑħ":7788,"ĠÑģÐ¿Ð¸ÑĢ":7789,"ĠÑĥÐ¿Ð»Ð°Ñĩ":7790,"ÐłÐ¾ÑģÑģÐ¸Ñı":7791,"ĠÑģÐ¾Ð·Ð´Ð°Ð½Ð°":7792,"Ġ06":7793,"ĠÐ¿ÑĢÐ¾Ð´Ð»ÐµÐ½":7794,"Ð¸Ð¾Ð½Ð°":7795,"Ġ526":7796,"ĠÑĥÑģÑĤÐ°Ð½Ð¾Ð²Ð»ÐµÐ½Ð¸Ñİ":7797,"ĠÐ¿ÑĢÐ¾Ð¸Ð·Ð²Ð¾Ð´ÑģÑĤÐ²ÐµÐ½Ð½Ð¾Ð¹":7798,"ĠÐ¾ÑģÐ½Ð¾Ð²Ð½Ð¾Ð¼":7799,"ĠÐ¾ÑģÐ½Ð¾Ð²Ð¾Ð¿Ð¾Ð»Ð°Ð³":7800,"ĠÐ¾Ð¿ÑĢÐµÐ´ÐµÐ»ÐµÐ½Ð¸Ñİ":7801,"ĠÐ¾Ð¿ÑĢÐµÐ´ÐµÐ»ÐµÐ½Ð½Ð¾Ð³Ð¾":7802,"ĠÐ¾Ð¿ÑĢÐµÐ´ÐµÐ»ÐµÐ½Ð½Ð¾Ð¼Ñĥ":7803,"Ġ49":7804,"ÑĭÐ²Ð°ÑĤÑĮ":7805,"ĠÐ²ÐºÐ»ÑİÑĩÐ°ÑĤÑĮ":7806,"ĠÐ²ÐºÐ»ÑİÑĩÐ°ÑİÑĤÑģÑı":7807,"ĠÐ²ÐºÐ»ÑİÑĩÐµÐ½Ð½ÑĭÐµ":7808,"104":7809,"ĠÐ½ÐµÐ¾Ð±ÑħÐ¾Ð´Ð¸Ð¼Ð°Ñı":7810,"Ð¸Ð¼Ð°ÑİÑĤ":7811,"ĠÐ·Ð½Ð°ÑĩÐ¸Ð¼Ð¾ÑģÑĤÐ¸":7812,"ĠÐ·Ð½Ð°ÑĩÐ¸ÑĤÐµÐ»ÑĮÐ½Ð¾":7813,"ĠÐ¿ÑĢÐ¾Ð´ÑĥÐº":7814,"ĠÑĨÐµÐ½ÑĤÑĢÑĥ":7815,"Ð¾Ð¿Ð°ÑģÐ½Ð¾ÑģÑĤÑĮ":7816,"ĠÑĤÐµÑĢÐ¼Ð¸Ð½Ñĭ":7817,"Ð¸Ð¼ÐµÐ½ÐµÐ½Ð¸Ðµ":7818,"ĠÐ´Ð¾ÑģÑĤÐ¸Ð¶ÐµÐ½Ð¸Ñİ":7819,"ÐĶÐĺ":7820,"ĠÑģÐ¾ÑģÑĤÐ°Ð²Ñĭ":7821,"Ð°ÐµÐ¼Ð¾ÑģÑĤÐ¸":7822,"ĠÑįÐºÑģÐ¿ÐµÑĢÐ¸Ð¼ÐµÐ½ÑĤÐ°":7823,"ĠÐºÐ¾Ð¼Ð¿Ð»ÐµÐºÑģÐ½ÑĭÐ¹":7824,"ÑĤÐµÑħÐ¸Ð¼":7825,"ĠÐºÐ¾Ð½ÑĤÑĢÐ¾Ð»Ð¸ÑĢÑĥ":7826,"ĠÐ²ÑĭÑģÐ¾ÐºÐ°Ñı":7827,"ĠÐ²ÑĭÑģÐ¾ÐºÐ¾ÑģÐºÐ¾ÑĢÐ¾ÑģÑĤ":7828,"ĠÐ´Ð°Ð½Ð½Ð¾Ð¼":7829,"ĠÐ¿ÑĢÐ¾Ð¼ÑĭÑĪÐ»ÐµÐ½Ð½ÑĭÐµ":7830,"ĠÑģÐ¾Ð¾ÑĤÐ²ÐµÑĤÑģÑĤÐ²ÑĥÑİÑīÐ¸Ð¼Ð¸":7831,"ĠÐ¶Ð¸Ð´":7832,"ÑĢÐ¾ÑģÑĤÑĢÐ°Ð½ÐµÐ½Ð¸Ðµ":7833,"ĠÑĥÑĤÐ²ÐµÑĢÐ¶Ð´Ð°ÐµÐ¼ÑĭÐ¹":7834,"ĠÐ·Ð°ÑīÐ¸ÑĤÐ°":7835,"ĠÐ·Ð°ÐºÐ¾Ð½Ð¾Ð¼ÐµÑĢ":7836,"ĠÑģÐ¾Ð´ÐµÑĢÐ¶Ð¸ÑĤ":7837,"ĠÐ¾Ð±ÑıÐ·Ð°ÑĤÐµÐ»ÑĮÐ½Ð¾Ð³Ð¾":7838,"ĠÐ¡ÑĤÐ°ÑĢÐ°Ñı":7839,"ĠÐ¾ÑģÐ½Ð°ÑģÑĤ":7840,"ĠÐ¾Ð±ÑĬÐµÐºÑĤÐ°":7841,"ĠÐ¾ÑģÑĥÑīÐµÑģÑĤÐ²Ð»ÑıÑİÑīÐµÐµ":7842,"Ġ66":7843,"ĠÐĺÑģÐ¿":7844,"ĠÐĿÐ¾Ð²Ð°Ñı":7845,"ĠÐ¾ÑĨÐµÐ½Ð¸Ð²Ð°ÐµÑĤÑģÑı":7846,"ĠÐ¾Ð±ÑīÐµÑĢÐ¾ÑģÑģÐ¸Ð¹":7847,"ĠÑĢÐµÐ³Ð¸Ð¾Ð½Ð¾Ð²":7848,"ĠÐ¿ÑĢÐ¸Ð²ÐµÑģÑĤÐ¸":7849,"Ð¿ÑĢÐ°Ð²Ð¾Ð²Ð¾Ðµ":7850,"ĠÑģÑĤÑĢÐ°Ð½Ð°Ñħ":7851,"ĠÐ·Ð°ÐºÐ»ÑİÑĩÐ°ÑİÑĤÑģÑı":7852,"ĠÐ·Ð°ÐºÐ»ÑİÑĩÐ°ÐµÐ¼Ð¾Ð³Ð¾":7853,"Ð¾ÑįÐ»ÐµÐºÑĤÑĢ":7854,"ĠÐ¸ÑģÑĤÐµÑĩÐµÐ½Ð¸Ð¸":7855,"ĠÐ¿ÐµÑĢÐµÐ´Ð°Ð²":7856,"173":7857,"ĠÐ¼ÐµÑģÑĤÐ¾Ð¼":7858,"ĠÐ¼ÐµÑģÑĤÐ¾ÑĢÐ¾Ð¶Ð´":7859,"ĠÐĵÐ£ÐŁ":7860,"ĠÐ¾Ð¿ÑĢÐµÐ´ÐµÐ»ÑıÑİÑīÐ¸Ð¹":7861,"Ð£ÐºÐ°Ð·":7862,"ĠÐ¿Ð¾Ð´Ð³Ð¾ÑĤÐ¾Ð²ÐºÐ¾Ð¹":7863,"ĠÐ²Ð¸Ð´Ð¾Ð¼":7864,"ĠÑĤÐµÑħÐ½Ð¸ÑĩÐµÑģÐºÐ¾Ðµ":7865,"ĠÑĤÐµÑħÐ½Ð¸ÑĩÐµÑģÐºÐ¸Ðµ":7866,"ĠÑĩÐµÐ»Ð¾Ð²ÐµÐºÑĥ":7867,"ĠÑĤÑĢÐ°Ð½ÑģÐ¿Ð¾ÑĢÑĤÐ½Ð¾Ð³Ð¾":7868,"ĠÐ°Ð´ÐµÐºÐ²":7869,"ĠÐĶÐ¾Ð¿Ð¾Ð»Ð½Ð¸ÑĤÐµÐ»ÑĮ":7870,"ĠÐ´Ð¾Ð¿Ð¾Ð»Ð½Ð¸ÑĤÐµÐ»ÑĮÐ½Ð¾Ðµ":7871,"ĠÑģÐ¾Ð·Ð´Ð°ÐµÑĤÑģÑı":7872,"ĠÐ¿Ð¾ÐºÐ°Ð·Ð°ÑĤÐµÐ»ÑıÐ¼":7873,"ĠÐ¾Ð±Ð¾ÑĢÑĥÐ´Ð¾Ð²Ð°Ð½Ð¸ÐµÐ¼":7874,"Ġ181":7875,"ĠÑĤÑĢÑĥÐ´Ð¾Ð²ÑĭÑħ":7876,"ĠÑĤÑĢÑĥÐ´Ð¾ÐµÐ¼":7877,"ĠÑĢÐ°Ð´Ð¸Ð¾ÑĤ":7878,"ĠÐ½ÐµÐ¿Ð¾Ð»":7879,"ĠÐ¾Ð±ÐµÑģÐ¿ÐµÑĩÐ¸Ð²Ð°ÑİÑīÐ¸Ðµ":7880,"ĠÐ¶Ð¸Ð·Ð½ÐµÐ½Ð½Ð¾Ð³Ð¾":7881,"ĠÐ°Ð¿Ð¿Ð°ÑĢÐ°ÑĤÐ°":7882,"ĠÐ¾ÐºÐ°Ð·Ð°ÑĤÑĮ":7883,"ĠÐ¾ÐºÐ°Ð·Ð°Ð½Ð¸Ðµ":7884,"ĠÐ¾ÐºÐ°Ð·Ð°Ð½Ð¸Ð¸":7885,"ĠÐ¿ÐµÑĢÐµÑĩÐ¸ÑģÐ»":7886,"ĠÐ¿ÐµÑĢÐµÑĩÐ¸ÑģÐ»Ñı":7887,"ĠÐºÐ¾ÑĢÑĢÑĥÐ¿":7888,"ĠÐ¿ÐµÑĢÑģÐ¿ÐµÐºÑĤÐ¸Ð²Ð½Ð¾Ð¹":7889,"ĠÐ¿ÐµÑĢÑģÐ¿ÐµÐºÑĤÐ¸Ð²Ð½ÑĭÐ¼":7890,"ÐŀÐ±Ñī":7891,"ĠÐ¿ÑĢÐ¾ÑĨÐµÑģÑģÐ°Ð¼Ð¸":7892,"ĠÑģÐ¾Ð´ÐµÑĢÐ¶Ð°ÑīÐ¸Ð¹":7893,"ĠÐĹÐ°Ð²ÐµÑĢÑĪÐµÐ½Ð¸Ðµ":7894,"ĠÑĥÑĩÐ°ÑģÑĤÐ½Ð¸ÐºÐ°Ð¼":7895,"ĠÐ¸ÑģÐ¿Ð¾Ð»Ð½Ñı":7896,"ĠÐ¸ÑģÐ¿Ð¾Ð»Ð½Ð¸ÑĤÐµÐ»ÑıÐ¼Ð¸":7897,"ĠÑĢÑĥÐºÐ¾Ð²Ð¾Ð´ÑģÑĤÐ²Ð¾Ð²Ð°ÑĤÑĮ":7898,"ĠÐ¿ÑĢÐ¾ÑĦÐµÑģÑģÐ¸Ð¾Ð½Ð°Ð»ÑĮÐ½Ð¾Ðµ":7899,"ĠÐ½Ð¾Ð¼ÐµÑĢÐ°":7900,"ĠÐ°Ð²ÑĤÐ¾Ð¼Ð°ÑĤÐ¸ÑĩÐµÑģÐºÐ¾Ð³Ð¾":7901,"ĠÐ¿ÑĢÐµÐ´Ð¾ÑģÑĤÐ°Ð²Ð»ÑıÑİÑīÐ¸Ñħ":7902,"ĠÐ¿ÑĢÐµÐ´Ð¾ÑģÑĤÐ°Ð²Ð»ÑıÐµÐ¼Ð¾Ð³Ð¾":7903,"ĠÑĦÑĥÐ½ÐºÑĨÐ¸Ð¾Ð½Ð¸ÑĢÐ¾Ð²Ð°Ð½Ð¸Ðµ":7904,"ĠÑįÐºÑģÐ¿Ð»ÑĥÐ°ÑĤÐ°ÑĨÐ¸Ð¾Ð½Ð½ÑĭÑħ":7905,"ĠÐ¿Ð¾Ð·Ð²Ð¾Ð»ÑıÑİÑīÐµÐ¹":7906,"ĠÐ¦ÐµÐ»ÑĮ":7907,"ĠÑĥÐ²ÐµÐ»Ð¸ÑĩÐµÐ½Ð¸Ñİ":7908,"ĠÑģÑĤÐ°Ð½Ð´Ð°ÑĢÑĤÑĭ":7909,"ĠÑģÐµÑĢÐ²Ð¸ÑģÑĥ":7910,"ĠÐ¿ÑĢÐµÐ´ÑģÑĤÐ°Ð²Ð»ÐµÐ½Ñĭ":7911,"ĠÐ·Ð°Ð²ÐµÑĢÑĪ":7912,"ĠÑĦÐ¾ÑĤÐ¾Ð´Ð¸Ð¾Ð´":7913,"Ð»ÐµÑĩÐµÐ½Ð¸Ñı":7914,"ÑģÑĥÑĤÑģÑĤÐ²Ð¸Ðµ":7915,"ĠÑįÐ»ÐµÐ¼ÐµÐ½ÑĤÐ°Ð¼Ð¸":7916,"ÐµÑħÐ°Ð½Ð¸ÑĩÐµÑģÐºÐ¸Ñħ":7917,"ĠÑįÑĤÐ°Ð¿Ð°":7918,"onom":7919,"ĠÐ¿Ð¾Ð¼ÐµÑħ":7920,"ĠÐķÐ¶":7921,"ĠÐ¼Ð¾ÑīÐ½Ð¾ÑģÑĤÑĮ":7922,"ÐºÐ¾Ð¼Ð¼ÑĥÐ½":7923,"ĠÑıÐ·ÑĭÐº":7924,"ÐºÐ¾Ð½Ñģ":7925,"ĠÑģÐ¾Ð²ÑĢÐµÐ¼ÐµÐ½Ð½Ð¾Ð³Ð¾":7926,"ĠÐºÐ¾Ð¼Ð¿Ð¾Ð½ÐµÐ½ÑĤ":7927,"ĠÑģÑĤÑĢÑĥÐºÑĤÑĥÑĢÐ°":7928,"ĠÐ¿ÑĢÐ¾ÑĤÐ¸Ð²Ð¾":7929,"ĠÐ¿ÑĢÐ¾ÑĤÐ¸Ð²Ð¾Ð¿ÑĢÐ°Ð²":7930,"ĠÐºÑĢÐ¸ÑĤÐµÑĢÐ¸ÑıÐ¼Ð¸":7931,"ĠÐ´Ð¾Ð²ÐµÑĢÐµÐ½Ð½ÑĭÐµ":7932,"ĠÑĥÑĩÑĢÐµÐ¶Ð´ÐµÐ½Ð¸Ñİ":7933,"ĠÐ¿ÑĢÐ¸Ð½Ð¸Ð¼Ð°ÐµÐ¼ÑĭÐµ":7934,"ĠÑĤÐµÐ¼Ð¿ÐµÑĢÐ°ÑĤÑĥÑĢ":7935,"ĠÑĢÐ¾ÑģÑĤÐ¾Ð¼":7936,"ĠÑĥÐ¿ÑĢÐ°Ð²Ð»ÐµÐ½Ð¸Ð¸":7937,"ĠÐ¸Ð½ÑĤÐµÐ³ÑĢÐ¸ÑĢÐ¾Ð²Ð°Ð½Ð½ÑĭÑħ":7938,"ĠÐ¿ÑĢÐ¸Ð½ÑĨÐ¸Ð¿Ð°Ñħ":7939,"ĠÑĢÐ°ÑģÐ¿ÑĢÐ¾ÑģÑĤÑĢÐ°Ð½ÑıÐµÑĤÑģÑı":7940,"ĠÑĥÑģÑĤÑĢÐ¾Ð¹ÑģÑĤÐ²Ð°":7941,"tic":7942,"ĠÐ²Ð°Ð»Ð¸Ð´":7943,"ĠÐ¦ÐµÐ½ÑĤÑĢÐ°Ð»ÑĮ":7944,"ĠÑįÐ»ÐµÐºÑĤÑĢÐ¾Ð¼":7945,"ĠÐ¿Ð¾ÑģÐ»ÐµÐ´Ð¾Ð²Ð°ÑĤÐµÐ»ÑĮ":7946,"ĠÑĤÐµÐ»ÐµÐ¼":7947,"ĠÐ¾ÑģÐ¾Ð±ÐµÐ½Ð½Ð¾ÑģÑĤÐ¸":7948,"ĠÐ¾ÑĤÐ½Ð¾ÑģÐ¸ÑĤÑģÑı":7949,"ĠÐ°Ð²ÑĤÐ¾Ð¼Ð°ÑĤÐ¸Ð·Ð¸ÑĢÐ¾Ð²Ð°Ð½Ð½ÑĭÑħ":7950,"ĠÐ·Ð´ÑĢÐ°Ð²Ð¾Ð¾ÑħÑĢÐ°Ð½ÐµÐ½Ð¸Ðµ":7951,"Ð¸ÑģÐ¿Ð¾Ð»ÑĮÐ·":7952,"ĠÐ¾Ð±ÑĢÐ°Ð±Ð°ÑĤÑĭÐ²Ð°ÑİÑĤÑģÑı":7953,"Ð²Ð¾ÐµÐ½Ð¸Ðµ":7954,"ĠÐºÐ»Ð¸Ð¼":7955,"Ð°Ð½Ð°Ð»Ð¸ÑĤÐ¸ÑĩÐµÑģÐºÐ¾Ð³Ð¾":7956,"ĠÐ¿ÑĢÐµÐ´ÑģÑĤÐ°Ð²Ð»ÑıÐµÑĤÑģÑı":7957,"ĠÐ¿ÑĢÐµÐ´ÑģÑĤÐ°Ð²Ð»ÑıÐµÐ¼ÑĭÐµ":7958,"ĠÐ³ÑĢÐ°Ð½ÑĤÐ¾Ð²ÑĥÑİ":7959,"ĠÑģÐ¾Ð·Ð´Ð°Ð²Ð°ÑĤÑĮ":7960,"ĠÑģÐ¾ÑģÑĤÐ°Ð²Ð»ÑıÑİÑīÐ¸Ðµ":7961,"ÑĢÐµÐ³Ð¸Ð¾Ð½":7962,"ĠÐ¸Ð½ÑģÑĤÑĢÑĥÐ¼ÐµÐ½ÑĤÐ°":7963,"ĠÐ¿ÑĢÐµÐºÑĢÐ°ÑīÐµÐ½Ð¸Ðµ":7964,"ĠÐ¿ÑĢÐµÐºÑĢÐ°ÑīÐµÐ½Ð¸Ñİ":7965,"ĠÑģÐ²ÑıÐ·Ð°Ð½Ð°":7966,"ĠÑģÐ²ÑıÐ·Ð°Ð½Ñĭ":7967,"ĠÑĥÐ»ÑĥÑĩÑĪÐµÐ½Ð¸Ðµ":7968,"Ð²Ð°Ð»Ð¸Ð´":7969,"Ð¾ÑĤÐ½Ð¾ÑĪÐµÐ½Ð¸Ðµ":7970,"ĠÐĵÐ¾ÑģÑĥÐ´Ð°ÑĢÑģÑĤÐ²":7971,"ĠÐĵÐ¾ÑģÑĥÐ´Ð°ÑĢÑģÑĤÐ²ÐµÐ½Ð½ÑĭÐµ":7972,"ĠITU":7973,"Ð°Ð²Ð¸ÑģÐ¸Ð¼ÑĭÑħ":7974,"ĠÑĨÐµÐ½Ð½Ð¾ÑģÑĤÑıÐ¼":7975,"ĠÑĢÐµÐ°Ð»Ð¸Ð·ÑĥÑİÑĤÑģÑı":7976,"9818":7977,"ĠÐ¾ÑĢÐ±":7978,"ĠÐ¿Ð¾ÑĢÑĥÑĩÐ¸ÑĤÐµÐ»ÐµÐ¼":7979,"ĠÐºÐ°ÑģÐ°ÑİÑīÐµÐ¹ÑģÑı":7980,"ĠÑĥÑģÐ¸Ð»Ð¸":7981,"Ð¤ÐµÐ´ÐµÑĢÐ°Ð»ÑĮÐ½ÑĭÐ¹":7982,"ĠÐ°Ð²Ð¸Ð°Ðº":7983,"ĠÑĥÐºÑĢÐµÐ¿Ð»ÐµÐ½Ð¸Ñı":7984,"ĠÐ¿ÑĢÐ¸ÑģÐ¾ÐµÐ´Ð¸Ð½ÐµÐ½Ð¸Ð¸":7985,"ĠÐ¡ÑĤÑĢÐ°ÑĤÐµÐ³Ð¸ÐµÐ¹":7986,"ĠÐ¿ÑĥÐ±Ð»Ð¸ÐºÐ°ÑĨÐ¸Ð¸":7987,"ĠÐ¿ÑĢÐ¾ÑĤÐ¾ÐºÐ¾Ð»Ð¾Ð¼":7988,"ĠÑģÐµÐºÑĤÐ¾ÑĢÐ°":7989,"Ð½Ð¾Ð¿ÑĢÐ¾ÑĦ":7990,"ĠÐ´Ð¸Ð°Ð¿Ð°Ð·Ð¾Ð½Ð°":7991,"ĠÑĦÐ°ÐºÑĤÐ¾Ð²":7992,"ĠÐ½ÐµÐ¹ÑĢÐ¾Ð½Ð½Ð°Ñı":7993,"ÑİÑīÐµÐ³Ð¾ÑģÑı":7994,"ĠÐ½ÐµÐ¸ÑģÐ¿Ð¾Ð»Ð½ÐµÐ½Ð½Ð¾Ð¹":7995,"ĠÑģÑĤÐµÐ½Ð´Ð¾Ð²Ð¾Ð¹":7996,"ĠÑħÐ¸Ð¼Ð¸ÑĩÐµÑģÐºÐ¸Ñħ":7997,"ĠÑģÐ¾Ð²ÐµÑĢÑĪÐµÐ½Ð¸Ñı":7998,"ĠÐ°Ð´Ð°Ð¿ÑĤÐ°ÑĨÐ¸Ð¸":7999}